#version: 0.2 - Trained by `huggingface/tokenizers`
Ġ t
h e
Ġ a
i n
Ġt he
r e
Ġ w
o u
Ġ s
o n
e r
h a
n d
i s
i t
Ġ b
Ġ o
Ġ c
Ġ m
Ġ f
in g
o r
a n
e d
l l
Ġ d
e n
Ġt o
e s
Ġ p
Ġo f
Ġ y
Ġ in
a r
a t
Ġa nd
Ġ l
ha t
Ġy ou
a s
Ġ g
o m
Ġ n
Ġ I
i c
o w
l e
v e
o t
Ġ h
Ġ he
a l
e t
Ġ ha
' s
u s
Ġt h
a y
Ġ it
Ġ is
Ġb e
Ġt hat
Ġ on
i on
i d
Ġ e
g h
u t
l d
en t
i m
Ġ re
Ġw as
a c
Ġw e
v er
a m
T he
. .
Ġf or
l y
Ġ S
s t
r i
r o
i r
a d
s e
k e
Ġ .
Ġs t
gh t
o o
' t
Ġ A
ou t
it h
Ġm e
Ġ C
a ll
Ġ k
Ġ u
Ġa n
Ġ M
Ġw ith
u r
Ġa s
Ġd o
c t
he r
c e
i ll
t er
i f
c h
Ġw h
Ġs e
om e
Ġa re
Ġ H
i l
Ġn ot
Ġha ve
Ġ B
Ġ 1
a nd
Ġa t
Ġth is
ou ld
an t
Ġg o
us t
at ion
Ġl i
o p
a in
Ġk n
Y ou
e a
Ġ P
Ġ T
Ġ ,
u n
g e
o l
t h
Ġh is
u l
Ġ "
r om
.. .
o re
Ġ W
e ll
Ġn e
Ġ r
Ġkn ow
Ġ j
ou r
Ġ D
Ġd e
p p
Ġc an
Ġ G
Ġthe y
u m
Ġ The
Ġs o
es t
Ġ ?
Ġa l
Ġa ll
Ġa b
Ġm y
is t
er s
Ġ R
i e
Ġyou r
ar t
Ġb y
Ġf rom
es s
Ġs h
Ġo r
Ġ 2
Ġ F
Ġw hat
n t
a b
o s
Ġ L
e l
Ġon e
Ġc on
Ġ N
Ġw he
Ġthe re
i g
i ght
ha n
all y
Ġu p
q u
e m
Ġc om
on e
Ġha d
Ġb ut
Ġhe r
Ġs u
re d
r y
Ġ J
' re
Ġh im
Ġ out
r a
ac k
at e
oo d
ver y
oo k
Ġli ke
Ġw or
Ġs a
re s
am e
i ve
Ġp l
Ġ us
Ġ (
on g
' m
Ġwe re
â Ģ
a ke
o d
in k
c k
Ġs he
Ġp ro
Ġab out
Ġ E
as t
Ġg et
Ġe x
Ġ v
p e
I t
or t
ou nd
in d
ar d
it y
Ġd on
A nd
ic h
ri ght
Ġ O
Ġj ust
Ġ1 9
i es
H e
Ġwh o
e ar
ea h
Ġd id
a k
Ġhe re
b er
Ġthe m
Ġn o
im e
in e
Ġm an
Ġw ant
Ġw ould
Ġ2 0
Ġ if
Ġ '
Ġw ill
u d
a p
Ġ K
Ġth ink
ou s
' ll
v en
Ġs ome
o st
W hat
e p
h ing
Ġin t
Ġan y
ow n
ic e
a g
Ġ right
m ent
id e
Ġg ot
Ġha s
t her
us e
it t
Ġwh ich
ou gh
Ġt r
f e
h i
c a
Ġse e
Ġwhe n
Ġsa id
u re
Ġa r
Ġa g
Ġp e
Ġs ay
w ay
i a
Ġt ime
Ġt w
i v
ĠH e
s o
Ġbe en
i an
Ġs p
a re
ac e
Ġn ow
o ve
ic k
op le
c i
Ġ U
W e
ĠI t
' ve
Ġthe ir
o se
Y eah
Ġl e
Ġl ook
- -
Ġc l
is h
l f
re at
n a
Ġm ore
Ġthe n
Ġgo ing
a ge
S o
it e
re e
Ġo ther
Ġpe ople
ar y
Ġc ould
Ġ =
ĠS t
N o
ot her
n e
Ġof f
u e
Ġb ack
h is
ac t
B ut
Ġo ver
ir st
O h
as s
Ġ qu
ou nt
on d
Ġ very
ing s
ca use
Ġ ro
b le
p er
Ġg r
Ġa f
p t
Ġf e
an s
Ġwor k
Ġtw o
Ġg ood
T hat
Ġto o
Ġb r
e nd
om et
Ġ en
er m
o g
p l
at ed
o ll
Ġ Ġ
t he
Ġf irst
ion s
or d
Ġint o
he d
as e
Ġp art
k ay
0 0
Ġh ow
Ġd own
or n
al k
u b
w e
Ġu n
Ġw ay
ad e
Ġt han
i re
Ġal so
o y
f f
itt le
Ġc all
i z
m er
Ġa m
ou ght
Ġy ear
h y
at er
Ġp r
Ġcom p
o v
Ġc ome
W ell
Ġb l
Ġ our
an ce
Ġwhe re
nd er
ac h
if e
Ġag ain
Ġ im
n g
Ġon ly
Ġ V
Ġe very
ĠI n
Ġl ittle
Ġa d
c c
ur n
ha r
o h
Ġs omet
r u
Ġd ay
w n
Ġb et
an g
Ġpl ay
h o
Ġwe ll
am p
he re
or m
Ġt e
Ġa ct
Ġne ed
en ce
res s
u ch
a v
Ġcon t
Ġbe cause
Ġd is
Ġg u
t y
. "
se lf
Ġm ake
I n
Ġt ake
Ġaf ter
Ġ Y
ab le
c l
re n
o c
or y
f ore
in t
b e
ig n
Ġb u
Ġsh ould
Ġre ally
Ġl et
e w
ar k
th ing
Ġw r
is s
ic al
en s
i p
Ġthe se
ic t
Ġha pp
at her
Ġt ell
Ġp re
o b
ul t
Ġ20 1
a u
Ġth r
Ġu nder
on na
Ġm uch
Ġdo es
Ġf l
Ġp ut
f t
u ck
Ġa pp
ĠU n
Ġme an
T his
Ġp o
l and
at es
Ġne w
Ġsomet hing
Ġp er
i ed
oo l
on s
he n
l es
Ġg onna
i le
e ct
Ġre s
Ġm ade
Ġc o
v ing
Ġs er
The y
v ed
a il
Ġl ong
Ġcom m
Ġm ay
Ġs c
ation s
' d
u ll
od y
Ġ' '
` `
Ġ er
Ġe ven
Ġ âĢ
Ġt alk
t e
it ed
Ġit s
Ġne ver
Ġbe fore
d u
ad y
ver s
p ort
Ġdid n
Ġs m
Ġc ar
i ly
u ally
p s
k s
at h
a w
or s
ou se
Ġre m
i ous
it ion
S he
o ck
t ing
The re
Y es
ri ed
Ġ 3
ve l
Ġ ke
r an
Ġman y
Ġha nd
Ġre c
t ain
ĠC h
Ġd if
Ġyear s
Ġg reat
w ard
Ġl ife
âĢ Ŀ
Ġm ost
i x
y ou
Ġthr ough
is e
I f
a ve
f ul
Ġhe l
Ġc han
re nt
g et
i gh
Ġ20 0
ct ion
Ġs ha
Ġst ill
Ġth ing
d ay
Ġth ought
c es
Ġth ings
Ġse c
Ġbe l
in ce
g in
o ld
Ġbe c
Ġo ld
Ġth ose
i al
w hat
Ġs pe
Ġw ent
e ver
Ġth ree
Ġst art
Ġa way
he s
v es
Ġc ame
Ġus ed
os s
one y
Ġcall ed
Ġc ount
Ġf ound
Ġl ove
ent s
Ġl ast
Ġm ust
Ġd es
Ġdo ing
H ow
ter n
Ġas k
Ġf ind
Ġc h
Ġsh ow
Ġh ome
Ġ !
ri end
im es
Ġc r
ot h
l i
x t
" .
Ġe nd
Ġc our
Ġhel p
u p
Ġbe ing
g an
c ed
le ase
en ed
Ġat t
Ġo wn
Ġg ive
Ġ i
mer ic
f orm
m y
at ch
Ġm in
Ġsu ch
al s
Ġ You
ar s
Ġn ame
Ġl ea
hi ld
Ġf am
ir l
Ġs ame
o ot
on t
way s
D o
Ġn ight
Ġk ind
y e
Ġdif fe
m an
ĠM r
Ġl ot
ch ool
s s
a it
N ow
id ent
Ġm ov
Ġt ry
re st
Ġw on
ak ing
n ing
W hy
Ġb ig
n y
ha m
d e
out h
Ġc are
an y
i ld
Ġwh y
Ġe ar
ĠA meric
e e
Ġ1 8
b ody
Ġc hild
Ġwor ld
Ġo p
ers on
Ġw om
Ġfe el
Ġre l
Ġsu pp
Ġm ight
as ed
Ġp ol
Ġpl ace
g g
Ġhe ad
Ġn um
ĠS he
s ide
d er
em ber
Ġk ill
ow er
ation al
at ing
ut e
Ġus e
ĠA r
ur ing
) .
Ġar ound
a ir
Ġf riend
g r
Ġ 4
Ġt urn
" ,
Ġc he
ĠB r
Ġf in
t s
Ġha r
Ġre g
Ġs et
ub l
t hat
Ġm ar
Ġan other
pe ct
Ġal ways
Ġs l
) ,
Ġgu y
ĠThe y
Ġa cc
Ġa c
m b
we en
â Ļ
S t
v ent
L et
A ll
ic s
a h
D on
cl ud
Ġsu re
Ġh ouse
Ġle ft
I N
Ġp res
ĠM ar
Ġm oney
Ġs y
au ght
i b
en er
ĠâĢ ľ
ul ar
Ġbet ter
Ã ©
Ġany thing
l ed
a z
ĠUn ited
ĠĠ ĠĠ
or ry
i ble
ot t
C ome
oll ow
n ess
m ber
Ġf our
Ġfor m
u nd
Ġke ep
u g
Ġs ur
Ġbel ie
p le
Ġre al
Ġdiffe rent
âĻ ª
Ġe le
Ġb it
ter s
Ġd one
Ġto ld
fe ct
Ġ 5
Ġd r
Ġe l
Ġm om
Ġb oy
E R
ir d
Ġbet ween
Ġm on
Ġ |
Ġr un
Ġwor d
u al
Ġb o
ĠA nd
p h
, "
ci al
Ġc ity
Ġg irl
u h
Ġsec ond
ĠD e
Ġknow n
a le
ĠA l
or th
Ġ ent
Ġpo int
is hed
y es
Ġs chool
Ġwh ile
O kay
Ġe ver
as on
r ic
M y
j ect
Ġp erson
am es
Ġtoo k
Ġg l
r ow
ĠT his
Ġm at
Ġcon s
I s
Ġre t
ak es
or k
Ġ19 9
i o
ĠSt ates
ĠN ew
Ġ ;
Ġin clud
Ġde c
Ġ erm
Ġs w
nt il
âĢ Ļ
Ġsu b
re t
Ġin v
Ġc le
a j
Ġm en
Ġst ud
re w
Ġc har
it ies
Ġw ar
Ġm et
He y
ce pt
Ġb ook
Ġw ater
at ive
ol og
it s
hi p
Ġo kay
oh n
Ġst op
c ess
Ġm us
n o
Ġne xt
b ut
T han
W hen
Ġb us
B e
n er
Ġd ist
Ġf ollow
Ġu h
ou n
Ġcour se
Ġin st
op e
Ġas s
Ġo b
Ġb oth
Ġf ar
c y
i vers
Ġst r
ct or
ĠW hat
t on
ĠE ng
in s
o f
Ġc ent
Ġnot hing
un e
Ġse em
ĠR e
ĠA n
Ġb est
Ġp ass
ea k
Ġsa w
Ġpro du
ro ss
N ot
Ġe ach
Ġ -
w here
Ġu ntil
Ġc ap
l ing
Ġwe e
st and
t o
m e
is ion
Ġs ing
ver n
u res
Ġp h
ĠA s
Ġy eah
Ġact ually
Ġnum ber
Ġsm all
a x
un g
ĠG od
c er
Ġf ather
Ġl ater
Ġp op
ĠN o
ot e
os ed
Ġdoes n
Ġc ha
as h
Ġb re
m s
Ġl ar
re am
Ġh igh
Ġm other
Ġad d
i red
o k
Ġl ist
Ġe m
i er
Ġli ght
ĠI nd
l ess
i et
Ġon ce
Ġf un
1 9
Ġwant ed
u ff
p art
Ġel se
O n
g ed
Ġagain st
ĠAmeric an
a id
Ġfam ily
r ist
ut h
Ġin c
Ġ 6
le t
if ic
ubl ic
Ġc a
Ġro om
Ġpro ble
Ġen ough
Ġ --
W here
Ġbec ame
Ġl oc
Ġse en
ab ly
t en
Ġw ait
g er
W ho
Ġf act
get her
Ġto gether
n ed
in es
J ust
Ġst and
Ġfe w
A N
Ġevery thing
Ġhar d
Ġint e
Ġim p
Ġyou ng
is ter
Ġsay s
ĠB ut
ur y
Ġs ince
in ess
Ġs im
ri es
Ġy es
Ġre st
Ġqu ite
Ġf r
Ġwith out
L ook
Ġs ide
Ġst ay
Ġim port
Ġin ter
Ġop en
an e
Ġd ied
f ter
Ġm ind
om m
Ġ Z
Ġs orry
Ġme et
Ġb ad
Ġs ign
Ġ19 8
en e
Ġre ad
Ġhe ar
at t
Ġt ra
orn ing
d d
Ġli ve
Ġin d
Ġ id
u c
Ġc oll
is ed
o kay
i ke
an k
en se
r al
The n
ĠJ ohn
Ġcom ing
is m
Ġd uring
ĠI s
ut ion
Ġlook ing
Ġunder stand
Ġs ix
ie w
Ġre p
Ġhapp ened
Ġf ive
in a
Ġlea ve
A re
s on
Ġbelie ve
Ġe v
er tain
Ġpre t
Ġm ain
Ġd ri
Ġd ire
Ġqu est
Ġte am
Ġth ough
Ġh um
Ġto day
Ġwho le
Ġdis c
it her
re ady
se l
Ġk id
Ġchild ren
IN G
Ġex p
it al
Ġl and
st em
Ġs it
Ġday s
Ġs on
Ġex t
Ġto wn
an na
b all
le ep
Ġt imes
h m
Ġm ove
Ġs ir
b y
Ġm ed
Ġget ting
e c
ĠT h
Ġis n
as ter
00 0
ie ld
Ġtr ans
ist s
Ġn ice
Ġf ace
Ġmus ic
et s
Ġb ro
Ġhe ard
ivers ity
ĠF r
H E
Ġinte rest
ct ed
Ġ Q
Ġbu ild
ou p
Ġd ra
Ġ ed
Ġj ob
ant s
Ġp lease
Ġp oss
Ġne ar
Ġs ort
Ġcount ry
Ġar t
T h
ment s
s h
A t
iz ed
Ġ19 7
Ġg ener
Ġhim self
Ġwom an
ĠS p
ow s
ĠK ing
b r
Ġg ave
Ġs k
Ġw alk
Ġe yes
Ġm orning
Ġe as
F or
Ġy et
M m
a pp
ro p
Ġde ath
in ed
ĠW e
Ġc ol
Ġf il
Ġha ving
Ġimport ant
U h
us s
Ġ 7
er y
d y
Ġle ad
iz e
y eah
l ish
Ġhe art
Ġm il
at s
Ġt ri
Ġde ad
Ġal ready
Ġst ate
Ġ 8
Ġp ower
A s
e x
Ġask ed
Ġkn ew
? "
iv es
D id
Than k
Ġan s
ĠA t
Ġha lf
2 0
Ġh our
t a
A l
aught er
Ġh old
m ost
Ġg ame
Ġwr ong
ĠP r
Ġc ase
O U
u es
Ġpl an
R ight
Ġsay ing
g t
Ġp ay
G ood
ĠS o
vel op
is on
a ut
ward s
t ed
. âĢĿ
f l
Ġm od
Ġa ir
ĠG erm
c hed
Ġ1 0
ab y
Ġup on
Ġre f
Ġe at
Ġrem ember
o ber
Ġtalk ing
d o
Ġme ans
ĠH ow
Ġpro b
Ġb orn
Ġc ur
Ġbe gan
Ġso on
n ot
Ġs ong
y ing
âĢ ĵ
Ġf ore
ic ally
ĠS c
Ġsy stem
Ġsha ll
Ġ _
on y
Ġstart ed
Ġf ull
ain s
Ġmon th
Ġtry ing
ur al
Ġrec ord
Ġret urn
Ġp ri
ag es
re en
Ġ ri
Ġgo vern
Ġg i
Ġm ill
r on
Ġl aw
id ed
Ġin s
e red
n ow
Ġ 9
Ġhis t
Ġoff ic
ĠB e
Ġm iss
le ased
Ġal ong
Ġdo or
Ġof ten
Ġe qu
Ġbr ing
G o
ne y
at ure
a i
il ity
er ing
ĠC l
Ġid ea
Ġr ound
Ġg one
Ġw ife
Ġex pl
Ġh ur
Ġf ight
ĠThe re
C an
Ġbr other
Ġw ind
Ġc ertain
Ġp rom
f ess
m ed
r ict
ĠA ll
Ġ19 6
ate ly
O N
Ġpro v
v ice
Ġw in
Ġhapp en
c le
Ġchan ge
er n
Ġf oot
pp ed
us h
Ġj o
ĠC ar
am ed
u red
G et
Ġhand s
Ġl ine
Ġplay ed
ĠCh rist
Ġf ell
Ġs ent
Ġb as
âĢ ľ
ion al
Ġ1 5
A T
ĠG r
Ġl ear
Ġf uck
Ġpret ty
Ġs ound
ak en
Ġt y
id es
Ġcont in
g es
e b
id d
ĠM ay
Ġmat ter
Ġgo es
O ne
Ġl ess
Ġab le
u ro
it er
Ġst ory
um p
Ġc reat
Ġor der
Ġ [
ĠC ount
m or
Ġsp eak
Ġp ar
Ġ1 7
Ġb ed
pe nd
Ġto p
A R
Ġmom ent
p r
Ġproble m
Ġ ...
Ġde velop
Ġwom en
Ġare a
an u
Ġd et
a red
i k
ic es
Ġs leep
You r
ri gin
ren ce
Ġw anna
Ġsome one
Ġcl ass
i am
Ġ es
Ġl ost
e y
ap an
ĠP ro
Ġde f
ar ch
o on
Ġwas n
il t
E r
Ġf all
Ġw atch
Ġle g
Ġpart ic
ain ed
Ġm aking
e ad
Ġbus iness
r act
He re
l er
A n
Ġpol it
Ġt erm
Ġlar ge
Ġsh ort
c on
ac es
! "
ĠB l
Ġfriend s
Ġcom es
Ġp at
ĠC on
Ġyour self
ian s
w ell
Ġprob ably
em ent
o le
h ow
Ġ hat
Ġguy s
amp le
Ġpres ent
ap er
Ġex per
Ġbe aut
Ġdr ink
ĠO h
c he
Ġlook ed
c hes
Ġtr ue
ĠEng lish
Ġp ain
am a
c ri
Ġm ark
ul ation
Ġcont ro
Ġbec ome
i ver
ent ion
l t
O R
Ġw ond
Ġwork ing
ang u
Ġb ody
Ġpr ot
Ġwee k
at or
g y
Ġd ad
re et
Ġs qu
Ġp ur
ĠBr it
Ġf ine
us ed
w er
le y
ĠO n
Ġag o
Ġan im
Ġd iv
Ġbl ood
i ent
ĠT hat
Ġs ol
Ġal most
ĠJ apan
Ġp ie
Ġsh ip
ell o
ar r
Ġwould n
Ġc or
Ġa ge
Ġcomm un
gr am
ĠUn iversity
M ay
ĠH is
ĠâĢ ĵ
et h
are nt
Ġh ope
m p
c o
et er
Ġ19 4
Ġgr oup
Ġo rigin
Ġb aby
Ġst e
Ġear ly
Ġc ut
Ġp os
ĠFr ance
Ġf ree
ent y
ou ble
Be cause
R e
h ind
anu ary
Ġmov ie
Ġde al
ard s
Ġv is
Ġgi ven
Ġha ven
T o
um b
or ld
Ġcon st
ra p
Ġo h
ie f
ur ch
od e
Ġre ady
aj or
Ġp ick
ĠY es
u ly
Ġo cc
z e
ep t
et y
Ġh or
Ġs we
Ġo pp
ĠF or
Ġcomp le
Ġspe c
c ome
Ġre leased
Ġquest ion
Ġl ate
Ġh on
Ġmy self
Ġv ar
Ġt er
Ġo per
cc ess
Â ł
Ġbre ak
om an
Ġcle ar
Ġbe gin
Ġa w
Ġbr ought
Ġnew s
Ġst uff
st er
ĠW ar
y s
Ġre ce
Ġ1 6
Ġcl ose
Ġle ast
es e
Ġkill ed
Ġf ood
Ġf ire
ĠC an
ha ps
if ul
Ġ ``
Ġbl ack
ĠJ anuary
ĠCount y
Ġd aughter
iv ed
Ġ1 2
el t
sel ves
in o
ĠP res
el s
al th
Ġst ation
Ġword s
Ġt aken
Ġe ight
Ġmay be
e or
m m
Ġre ason
Ġgovern ment
Ġk ing
Ġex ample
ĠW hen
ĠF ran
Ġt en
Ġr an
Ġ Yeah
Ġgu ess
ĠL e
it ing
Ġp ast
Ġse ver
o ke
Ġ19 5
Ġcomp any
Ġp ublic
ĠF l
b o
c ent
b orn
ĠY ork
E S
Ġbe hind
olog y
E very
p ed
M r
ĠS outh
P lease
Ġfr ont
Ġcon f
Ġl angu
er t
h ich
le v
f ic
Ġor gan
Ġhapp y
al ity
Ġmar ried
Ġmill ion
ud e
v ious
f or
en g
Ġb all
ut es
Ġdo g
he ad
on es
Ġsever al
om p
Ġall ow
Ġwh ite
i qu
Ġin de
os p
m en
Ġm akes
Ġn orth
Ġr ather
Ġt aking
ac ed
g ue
und red
ou d
b um
uro pe
Ġso ld
Ġv o
Ġchar ac
, âĢĿ
ĠA ust
b s
c an
Ġp ict
l a
er v
Ġal one
Ġv al
Ġpro gram
b ed
Ġ âĻª
Ġin form
Ġe ither
Ġ est
itt en
Ġ ve
ren ch
Ġdes ign
Ġhum an
p ri
i um
Ġre port
Ġen g
i ence
am ent
ci ent
A h
Ġh ot
Ġex c
the re
Ġ &
Ġser ies
Ġturn ed
Ġt re
ent ly
ull y
ĠC al
en cy
Ġhe ll
Ġstr ong
Ġatt ack
at ic
c ha
o int
o or
ĠT r
Ġs at
ĠW orld
h uh
Ġli ving
Ġsupp ort
b and
en n
Ġan n
Ġpart y
f ord
Ġqu ick
Ġsu ccess
Ġthink ing
ham p
ot s
Ġcomm on
Ġc ou
S ome
Ġ 0
Ġother s
ĠP l
Ġcould n
Ġres p
S h
Ġl ay
Ġre d
Ġtr ain
ĠMar ch
ĠA d
Ġde m
Ġf ig
Ġh undred
Ġfil m
ĠE urope
r ing
un k
Ġad m
id ge
ĠC omm
Ġb ar
b it
f fect
o ver
act ly
Ġde l
Ġal bum
her n
Ġd ream
Ġgr ow
ou b
Ġs um
Ġn amed
E x
ĠMr s
g o
ĠS h
itt ing
i or
Ġb and
ept ember
ran ge
s y
Ġlook s
Ġsomet imes
L L
ĠM an
Ġt ou
Ġst ru
Ġhe ld
Ġ $
ĠBrit ish
Ġche ck
ra z
Ġwith in
ĠThe n
iv ing
w o
Ġhist ory
p ar
Ġc ost
Ġm ess
Ġt em
Ġwant s
Ġlist en
un t
Ġbeaut iful
Ġth ird
ĠN orth
Ġad v
Ġs outh
Ġex pect
Ġh it
Ġv ill
Ġbu ilt
a im
Ġc e
Ġmin ute
ri e
ĠP ar
ĠA b
au gh
m a
Ġper form
Ġ z
Ġus ually
Ġro ad
Ġres ult
ĠO r
es tern
f ully
Ġin side
ĠT HE
ug ust
ĠG o
Ġspe cial
ĠS e
O r
id er
E N
ond on
Ġthan k
C h
Ġro ck
Ġapp ro
Ġre qu
Ġgo ld
Ġsing le
e ge
Ġpo or
d om
Ġr a
Ġme mb
ill e
Ġac ross
o ad
in ation
l s
Ġa v
Ġre v
Ġmonth s
Ġse ason
ĠJ uly
ff ic
Ġmin utes
Ġde ar
l ook
ĠS eptember
m ing
ound s
H ello
Ġplay ing
Ġposs ible
Ġc ir
Ġst at
al d
Ġout side
H ave
ĠW ill
Ġgot ta
ous and
an a
Ġte ac
ĠPres ident
res ent
Ġus ing
Ġbu y
pri l
Ġre pl
Ġinclud ing
Ġ19 3
as k
Ġto t
Ġbuild ing
re ad
ch n
Ġe ffect
ĠF rench
u ed
A ny
Ġele ct
Ġwond er
ĠC har
Ġapp ear
Ġse nd
Ġ *
Ġ X
Ġt ried
us band
ang er
Ġde part
hi le
f ort
Ġs il
Ġc op
ove red
Ġam ong
ĠM in
ct ober
al es
Ġc ho
Ġ1 1
mor row
ac hed
Ġcon cer
Ġloc al
it ch
ĠS ha
ir th
Ġc amp
Ġmemb ers
I I
as es
Ġha ir
Ġli ved
ress ed
Ġpop ulation
li ke
Ġm ajor
Ġc re
ĠJ une
| |
Ġm ag
Ġd est
Ġd ark
th ough
ĠD o
Ġpro fess
Ġoff ice
ĠG eor
Ġfollow ing
att le
Ġm ur
ce mber
uth or
Ġt est
e en
Ġswe et
Ġs n
y n
Ġv ide
Ġle vel
Ġd ie
A fter
or ies
un ch
g est
Ġwr itten
a ul
ĠL ondon
Ġcon d
Ġf elt
Ġany one
ĠN ational
c ing
ĠA f
ove mber
Ġwor ry
m ore
ĠJ o
idd le
ĠA ugust
ea red
if ied
Ġab s
ke y
Ġpro cess
b ers
Ġg un
am b
Ġget s
ĠM iss
Ġse a
Ġh usband
Ġis s
May be
ov ed
ĠEng land
Ġans wer
r it
R E
so ci
Ġth ousand
Ġb ird
ur s
Ġ1 3
lev ision
i od
ĠA pril
Ġv iew
W ith
Ġt reat
Ġfor mer
Ġwork ed
Î ¿
Ġme mber
ĠC ha
Ġt ill
ru ary
eb ruary
Ġpartic ular
Ġvo ice
it ions
w ork
Ġse ven
Ġ1 4
ain t
ĠR ep
o x
Ġcomple te
Ġs un
ĠH ar
Ġlangu age
Ġf av
ir on
u k
Ġde fe
Ġwork s
Ġn at
Ġb ased
Ġon es
ĠO ctober
Ġf a
ra id
Ġt able
Ġevery one
ĠC ent
Ġcan not
Ġst ra
Ġchan ce
.. ..
1 0
Ġpro per
Ġcent ury
re ed
ĠDe cember
Ġwr ote
ĠC ity
ĠIt al
f er
air s
Ġp ull
O f
ĠC ap
Ġinv ol
Ġc ross
Ġwhe ther
ĠB ar
ore d
Ġpol ice
Ġhour s
Ġc ry
as ure
Ġwe ar
Ġm er
ro du
ag ed
ay s
Ġd i
ĠW est
Ġw ish
ĠH er
ĠN ovember
Ġcou ple
Ġfor g
T H
Ġwr ite
Ġeas y
Ġd am
Ġpr act
Ġto morrow
ĠI f
Ġseem s
Ġinform ation
c om
Ġbo x
Ġg ra
Ġdif fic
Ġcle an
p or
on ight
Ġst ar
Ġ3 0
ĠJ ack
Ġboy s
ro om
Ġl ow
Ġknow s
Ġprot ect
ĠM ic
Ġf ur
ĠC ol
Ġp aper
Ġl a
tern ational
Ġli ves
Ġ201 3
Ġe vent
ĠM e
Ġs ense
ĠG u
i en
Ġw all
id ing
Ġcur rent
Ġtr ad
Ġgr ound
ĠGerm an
Ġser vice
ĠP h
Ġhow ever
Ġchan ged
Ġp ost
ĠA m
Ġf if
hy s
Ġco ld
Ġc al
Ġfe et
y r
Ġde p
ĠE d
ĠD an
ci ally
id ence
ĠA fter
ĠF ebruary
our n
Ġmov ed
Ġm ine
Ġf ast
ĠAmeric a
T ake
Ġr u
Ġr ad
is ing
c il
Ġl ad
ro g
og n
av y
oo se
th is
Ġgr and
Ġcomp et
s he
Ġis land
it ive
Ġf ield
Ġlong er
at a
Ġp arent
r ation
Ġs ca
Ġph one
ir ty
u ri
Ġb irth
an ces
Ġsupp osed
Ġf ail
Ġst ep
Ġex actly
Ġtw enty
Ġcomm une
Ġsu per
Ġ20 2
I S
iv il
Ġcontro l
Ġdra w
Ġd ro
Ġh ig
ĠInd ian
k es
Ġ ill
id a
um ent
Ġcare er
Ġ201 0
1 8
A r
Ġ vers
Ġl ady
Ġper iod
ir gin
Ġf air
Ġaf raid
if t
Ġreg ion
Ġpri v
Ġthem selves
iz ation
w ho
I C
ord ing
Ġsh ot
Ġcharac ter
st it
H is
ul a
Ġhur t
ha el
ci ence
Ġtr uth
S ee
em y
Ġinc re
Ġt it
Ġb ott
ĠO ne
re m
Ġgener al
end ed
L A
L ike
Ġs ister
ĠT e
u ation
Ġn ational
ir t
Ġrel ig
Ġm ot
Ġpro p
har d
ent le
Ġd in
Ġke pt
c ol
w ith
Ġse x
Ġneed s
iss ion
Ġte levision
pt ion
Ġdire ct
Ġtr ouble
Ġrece ived
Ġkid s
Ġa uthor
Ġper haps
W ait
ad a
Ġrun ning
Ġsh oot
e al
ĠS w
Ġlet ter
Ġdes cri
i pp
Ġpict ure
il ar
Ġvide o
e ople
Ġde ep
ĠAf ric
f fe
ow ers
in al
Ġpop ular
con om
le x
ĠD ist
l ant
Ġcour t
Ġfoot ball
Ġde v
Ġte chn
Ġt onight
op s
E D
at ter
Ġ2 5
r ay
Ġac cept
Ġp ubl
Ġdo ctor
ĠR oman
Ġar ri
Ġsp ace
Ġed uc
ĠS er
Ġcon ne
Ġc ook
Ġin fl
Ġfor get
Ġent ire
the y
Ġt ree
j oy
Ġab ove
v al
Ġc at
Ġty pe
d ing
Ġvill age
ed er
ill y
Ġser ious
Ġinst ead
Ġseem ed
ill s
gg est
Ġm ount
Ġcl ot
Ġinclud e
Ġpr in
b ur
u z
Ġset t
i ol
Ġh uh
ĠD r
Ġc os
ĠD on
Ġl im
he l
ct ure
Ġf ly
se e
Ġcl ub
g ing
Ġtou ch
Ġwait ing
Ġwhat ever
Ġst re
Ġcoll ect
Ġcreat ed
Ġp ress
al t
Ġper fect
ĠW ell
Ġf ut
ĠM c
r or
Ġn orm
Ġcount ries
le ct
ol ute
Ġres pect
Ġw ood
ou l
Ġl ab
Ġdepart ment
Ġc ult
Ġp ort
Ġl uck
Ġh y
Ġplay er
Er m
Ġpos ition
Ġit self
re g
Ġpie ce
ĠHow ever
ĠY OU
Ġe p
G H
hamp ions
Than ks
k y
k en
fe rence
Ġhor se
osp ital
ac y
Ġr ul
Ġex cept
av id
i ally
Ġfuck ing
C H
Ġgo d
ol ution
ĠI ll
Ġsu ggest
ĠĠĠĠ ĠĠĠĠ
dd en
Ġtr ust
Ġd ue
Ġinv est
Ġrep resent
ri but
Ġare n
Ġpro ject
Ġt akes
Ġsome body
Ġam ount
ĠL ea
Ġevery body
Ġp le
om in
Ġm ist
Ġfam ous
Ġgirl s
Ġdiffic ult
Ġg en
s p
ĠE x
Ġcomp ut
Ġl ed
Ġbe ar
ĠM y
ĠT om
ri an
Ġan g
k ing
ĠV irgin
Ġcr it
Ġwee ks
ĠDist rict
e v
Ġsu dden
ĠT H
Ġdec ided
l ight
re y
Ġrec ogn
Ġcap ital
Ġstra ight
ĠH ouse
ĠSt ate
ar a
Ġwor th
s c
Ġ ]
pe cially
S orry
ĠE m
Ġsur pr
Ġc oun
Ġro le
Ġprodu ct
o ff
Ġm ult
ad es
Ġph ot
ĠP art
ĠW h
Ġser ved
Ġlear n
ĠAust ral
Ġbl ue
raz y
Ġha ng
ĠThe se
T ell
Ġfeel ing
as hing
Ġst ood
Ġse ll
Ġ2 4
iv al
ener al
Ġsh it
Ġsa fe
A S
Ġp en
Ġfut ure
Ġc ast
Ġg ames
ĠGeor ge
a ur
it ary
am er
Ġfun ny
1 5
Ġd a
ĠU S
t ime
s u
Ġhe alth
Ġtell ing
Ġv ict
ĠS ome
Ġcar ry
Ġeven ing
Ġpass ed
ri age
Ġsl ow
om b
Ġme ant
Ġex ist
Ġe ye
U n
St op
o es
ĠS y
ĠP eter
ĠL ord
Ġbook s
Ġproble ms
Ġc ried
Ġn ine
Ġsec ret
Ġdo ll
Ġst ri
em pt
Ġco ver
Ġear th
Ġ ver
Ġf ill
Ġfur ther
w as
Ġim ag
ress ion
han k
Ġtr ack
Ġ et
ic ation
Ġj ud
Ġcount y
Ġpol ic
Ġa head
ce ed
ĠN ot
re me
Ġm atch
Ġ19 2
ci ety
Ġeng ine
Ġb ene
te en
Ġd oub
The se
Ġf ix
Ġg reen
im ent
Ġso cial
Ġa in
Ġg entle
Ġsp ir
Ġser v
Ġmeet ing
Ġfig ure
Ġp hys
Ġcom b
Ġany way
oc r
Ġrel ations
ino is
vious ly
Ġ ide
Ġpres ident
Ġdri ve
U S
ll ed
and er
Ġter ri
ru g
C l
Ġm is
Ġparent s
p ing
Ġs us
Ġfam il
T ER
Ġsub ject
1 7
c han
ic a
ĠInd ia
Ġreturn ed
y le
Ġcom pl
âĢ Ķ
Ġfollow ed
H i
Ġher self
Ġsa il
pl oy
Ġop ened
ĠQ ue
b or
Ġhapp ens
Ġc atch
Ġn on
ĠGerm any
Ġcir c
Ġm outh
Ġr ain
Ġ201 1
Ġf ear
ic ian
ag er
Ġcha ir
Ġanim als
L E
p es
ist en
Ġpr ison
Ġdist rict
Ġc ool
Ġc razy
Ġre se
Ġsa ve
Ġspec ies
Ġd anger
ar th
Ġob ject
Ġv iol
ĠJapan ese
Ġp ot
Ġ200 6
W ill
Ġm ass
Ġh oney
ĠC oll
Ġteac her
o ly
he m
en ry
M e
a ff
ĠG ood
Ġen joy
ĠRep ublic
1 2
1 4
N e
med i
T r
Ġr is
ĠJ ames
ĠS chool
Ġr ing
ĠIs land
ĠP ark
ĠE l
Ġpart s
Ġh ost
ĠR uss
Ġ201 2
Ġmov ing
Ġh op
Ġen er
Ġbu ll
Ġne g
Ġbec om
Ġan t
we red
Ġs ick
ra ph
Ġar m
k ed
Ġp al
Ġsim ilar
Ġb ag
ro y
Ġwh om
Ġ1 00
c her
Ġe conom
Ġfor ce
Ġli e
Ġca use
n ight
in ite
er ry
Ġf ish
Ġbegin ning
Ġest ab
itt ed
Ġcertain ly
o e
Ġb urn
Ġse par
ĠWill iam
ĠVirgin ia
is hing
Ġm iddle
ĠH igh
a ven
Ġst ick
O M
Ġquick ly
Ġs har
ĠE ast
ĠIll inois
et t
Ġpl aces
Ġwho se
c ast
Ġcl os
Ġspe nd
Ġch urch
Ġp aid
Ġbe at
pl es
Ġso ft
Ġthr ow
Ġs itting
Ġfin al
Ġfin ished
Ġinterest ing
i res
it or
Ġm ad
Ġfe at
Ġfl oor
a ha
n el
Ġto wards
im ate
um e
p ha
Ġm ater
Ġk iss
G ive
p ly
Ġquest ions
if orn
i ers
u ge
ut y
Ġv ol
_ ,
ĠG l
Ġorigin al
âĢ İ
Ġann oun
Ġne cess
Ġ ident
Ġin f
Ġact iv
Ġg iving
Ġsh ut
Ġst reet
og rap
Ġdis app
Ġlea ving
Ġf re
hi ps
iforn ia
l ine
in y
Ġm ention
M ar
Ġse lf
ĠR ic
. ,
Ġal right
Ġqu iet
E A
Ġb reat
Ġp ark
ĠM ary
Ġstud ents
v ille
Ġtot al
Ġl ose
Ġ( "
ition al
Ġc orn
ĠP ol
Ġpolit ical
O K
re l
ab ad
Ġcommun ity
Ġr ail
iv id
B y
E ven
B l
Ġre ached
ĠW hy
our t
Ġsupp ose
Ġterm s
Ġb ill
D e
ri ll
Ġgr ad
Ġbel ong
Ġmod ern
ĠFl or
S omet
ĠC or
k a
ic ated
ĠS u
ĠT O
ing er
ir m
ct ions
Ġway s
Ġ #
Ġfor ward
Ġfore st
Ġth ou
ro ad
Ġu m
ort s
oy al
Ġacc ount
ĠQ u
Ġh ospital
F rom
Ġexper ience
Ġinfl u
l in
ain ing
Ġans wered
Ġri ver
Ġvar ious
ens ive
Ġgl ass
p ut
Ġne igh
ĠN e
Ġnum bers
Ġpubl ished
Ġm ach
ĠR iver
Ġor d
he t
O W
ĠS ec
in ist
Ġse arch
ĠT o
ĠCal ifornia
G od
ci ous
ens us
Ġind ust
f ace
Ġt ax
Ġa ut
Ġh ung
ĠPh il
g ar
en a
Ġn in
Ġresp ons
Ġe gg
Ġany more
A M
am s
Ġmark et
Ġc ivil
Ġallow ed
b ye
g u
Ġgl ad
ĠS an
Ġde pend
Ġ2 3
Ġint rodu
Ġcl aim
Ġequ al
h ouse
n s
Ġd ress
olute ly
ca pe
w hich
ĠS m
a f
w ood
Ġl augh
it es
Ġdisc uss
Ġbro ad
Ġwind ow
ĠI I
Ġshow s
Ġinvol ved
r is
ĠLea gue
ĠN ow
Ġstud y
j ust
Ġc aught
Ġ5 0
1 3
Ġin n
Ġbl ock
i us
it z
act ion
Ġcons ider
Ġnat ural
Ġob s
? âĢĿ
Ġf em
Ġloc ated
ru ction
Ġmil es
A P
b on
h ood
in ary
Ġen v
Ġst ore
ĠM ed
ol ic
Ġsome where
Ġmom my
ĠCap tain
Ġst age
Ġst range
Ġtra vel
ort un
Ġbo ard
" )
A b
Ġa ud
ĠC o
oll y
Ġ0 1
Ġmater ial
f it
ha d
ĠS ir
Ġs ad
ag o
Ġ201 4
ĠCh urch
eng th
er ve
Ġsim ple
er o
Ġn et
ĠT V
Ġneed ed
ĠGo vern
Ġclot hes
I T
v iew
Ġal ive
Ġen c
Ġg ives
ĠFlor ida
Ġdin ner
Ġs ize
Ġse at
Ġany body
up id
a e
ĠP aul
un ic
ie l
am m
Ġe mb
a pe
Ġfin ally
Ġbo at
Ġval ue
Ġyour s
W hich
Ġvis it
en ces
Ġde g
Ġsh op
ĠJ ust
Not hing
c use
b l
Ġpe ace
ober t
Ġes pecially
Ġener gy
B r
Ġa part
il s
Ġsur v
ĠM on
ĠM us
ĠĠĠĠ ĠĠ
in ing
Ġf und
ound ed
Ġ x
Ġsit uation
Ġfav or
Ġsp ent
Ġke y
Ġpriv ate
Ġ )
us es
ĠJ im
Ġtit le
Ġcon side
ig g
Ġconside red
Ġf ac
Ġp erm
as ons
Ġn ature
Ġapp eared
ĠUn ion
ĠL ou
Ġdis e
Ġpl ant
Ġcol or
ill a
Ġj ump
Ġ2 1
Ġar my
id ay
Ġ200 7
ĠFran k
Ġadd ed
f ield
Ġg ar
Ġ201 6
Ġprofess ional
ĠMic hael
Ġw ild
ou ps
if f
ĠE n
ear s
b our
Ġb ur
Ġd ance
Ġg rew
ud d
Ġstop ped
Ġs our
Ġb ought
Ġact ion
Re ally
ri a
ĠA re
ce ll
Ġm id
om as
ĠHe y
Ġim medi
Ġprodu ced
ra ft
Ġb an
Ġd rug
Ġ19 0
m hm
ĠJ e
ail s
m on
u nder
Ġqu ar
Ġapp l
v an
ĠP er
Ġwr iting
c ul
Ġcon v
Ġinde ed
u el
out hern
ĠW ho
Ġ2 6
rie f
is c
Ġt ea
est s
Ġpur p
Ġsum mer
d on
pl ay
2 00
ĠD avid
te red
Ġear li
Ġext ra
ĠPro v
Ġbro ke
5 0
ort hern
gr ound
ĠChrist ian
ĠPart y
n ers
Ġf le
at ors
el p
A L
ĠG ree
Ġ2 2
iqu es
in ct
ĠL a
ĠS en
Ġsee ing
Ġatt empt
L isten
ha ll
Ġd ate
Ġstand ing
re r
ell ow
Ġthan ks
iqu e
W ould
Ġr out
ĠG eneral
Ġpr im
Ġav ail
Ġcomm and
ib ility
Ġdevelop ment
O T
Ġr id
ĠG reat
Ġcomp an
V E
a use
o id
es us
Ġl iter
ĠS ar
S p
ous ly
Ġsim ply
Ġm ix
ĠD em
P ro
d id
Ġc ell
Ġp ers
os ing
ap ers
is es
iron ment
g on
Ġn ames
Ġatt ention
if y
Ġcoll ege
sy ch
u ke
Ġre du
ĠSc ott
Ġhist or
Ġoffic ial
w ise
Ġp ack
st r
ist ic
Ġw ide
Ġc and
an c
ge l
ive ly
Ġgr oups
N D
y l
Ġs cience
le br
ho ld
Ġdad dy
Ġt end
ĠD ad
Ġy e
Ġde cl
bo ard
Ġinclud ed
Ġs al
Ġb attle
ra w
ĠO F
Ġask ing
Ġlar gest
Ġ ice
1 6
ur ity
de red
Ġopp ortun
y a
ab ility
ock ed
Ġmil itary
Ġhat e
Ġar ms
Ġpoint s
olog ical
Ġspir it
Ġw est
Ġs ens
ĠM or
Ġdiffe rence
Ġt our
Ġbl ow
h od
re ct
ist ory
ĠO ly
Ġep is
k n
Ä ģ
Ġbe ha
Ġ200 9
Ġind ivid
Ġdest roy
Ġcomplete ly
Ġal though
qu e
Ġcar ried
Ġdoub t
S ure
Ġl oved
Ġspe ed
Ġmur der
ĠC ong
Do es
Ġvers ion
ashing ton
k i
Ġb ow
ĠSt e
Ġeduc ation
ĠM ad
Ġperson al
Ġcomput er
ast ic
M an
Ġd ry
ĠK en
soci ation
ĠRic hard
P l
g l
Ġt ro
Ġmar riage
Ġcap tain
Ġbro ken
Ġ `
all ey
ĠT ur
Ġcont ract
Ġoffic er
Ġjo ined
p ro
Ġ200 8
O ur
ch ie
ĠL et
Ġref er
Ġm aster
Ġem ploy
ĠC omp
pp er
Ġshould n
Ġ201 5
b ack
n es
Ġl ength
H er
m as
it ude
an cy
Ġp ath
Ġre ach
Ġplay s
Ġwatch ing
Ġb ank
Ġmean ing
ter day
Ġhe avy
ĠB ur
ord s
ĠH enry
Ġ2 8
ens ion
ard en
T wo
w est
Ġl ying
Ġbel ow
ĠQue en
t r
Ġl o
ant ly
ĠRe g
U m
u x
he st
Ġb ase
Ġr ich
Ġtalk ed
ĠP ort
ĠSt reet
og raph
Ġco ast
W as
Ġs ight
ar i
ĠR ed
Ġar ch
led ge
as ion
Ġcap t
Ã ¼
ll en
I D
J ohn
Ġe ff
Ġro b
Ġsha re
Ġinde pend
g ress
Ġf ool
Ġanim al
P er
Ġpl us
ber t
Ġpre p
Ġ202 2
Ġocc ur
Q u
ic le
Ġfor t
Ġare as
Ġ20 00
Ġhappen ing
Ã ¡
Ġb ra
Ġp age
Ġnear ly
Ġw at
ĠM al
or row
ic o
Ġapp oint
Ġca used
Ġimp ro
E T
an ish
hi re
Ġacc ess
Ġb ud
Ġst ates
ran k
ĠBl ack
Ġhon est
V ery
Ġc ensus
Ġin it
ic ed
ict ion
Ġwe l
Ġs ite
ĠP al
Ġaf f
hampions hip
im s
D ad
se c
ĠC ourt
Ġfell ow
Ġce lebr
Ġe ast
Ġex am
Ġman age
e ep
Ġs cient
ust om
Ġhig her
unic ip
G r
ĠM o
Ġ2 7
Ġev idence
Ġf at
il es
ĠW here
om en
et her
Ġreg ard
Ġprom ise
Ġnorm al
Ġfamil ies
id s
ĠS am
ĠB y
ĠP ri
ĠO kay
Ġrad io
am n
Ġwar m
Ġsudden ly
il ed
3 0
ar ily
Ġst upid
ĠC ome
ous es
Ġs and
ick s
Ġsong s
in c
ĠA ir
Ġr ace
Ġmar ry
Ġinterest ed
Ġin j
Ġdo c
Ġco ffe
Ġ4 0
Ġf it
Ġf oc
ĠM art
res h
z a
Ġh ol
Ġ200 5
Ġc ases
Ġsc ene
Ġtre es
ĠB en
os op
Ġshow ed
Ġform ed
Ġn or
gg ed
Ġdevelop ed
b ing
ĠI N
Ġact or
Ġc ard
ĠW ith
Ġmov ies
1 1
Ġp un
Ġpr ay
Ġh uge
ak er
Ġcontin ued
Ġbott om
Ġavail able
Ġtr ade
ib ly
ĠA nt
ick et
Ġspeak ing
Ġcoffe e
Ġb i
Ġde b
hi b
Ġreg ular
Ġbirth day
Ġannoun ced
Ġb ath
Ġfe ed
Ġper cent
n Ã©
Ġd ig
us ion
ab les
Ġsqu are
e g
Ġd en
Ġth reat
ĠP at
ĠP et
ol k
inite ly
ha l
Ġne ck
Ġhelp ed
Ġmil k
Ġs now
ĠB oy
ain e
ĠE arth
Ġmove ment
ĠAfric a
s et
Ġd ata
pp ing
Ġfound ed
ĠEurope an
ĠAustral ia
Ġb es
Ġl ines
Ġestab l
Ġ2 9
ll ing
ĠA ct
Ġwere n
o om
ĠSc ot
ĠWh ite
C on
y ear
ha nd
n ie
ast e
ĠO K
Ġsp oke
Ġend ed
Ġtem per
Ġsca red
ĠColl ege
Ġe ating
ĠM ex
Ġpie ces
Ġwonder ful
st e
Ġenv ironment
Ġg as
ĠC up
ĠCh ina
U N
d a
Ġt ired
Ġsu ff
use um
D r
i ation
Ġw ed
Ġo il
ce an
um mer
Ġso ciety
ĠW ashington
Ġoff er
Ġse vent
Ġright s
ĠGr and
m in
Ġst ories
Ġra ised
c hen
at form
Ġa ward
ĠA ward
ĠB el
Ġno vel
Ġstart ing
On ly
y er
Ġof fe
el ve
Ġchan ges
ĠI ran
Ġu r
Ġex ec
Ġcl osed
S ir
p en
Ġ :
ent ial
Ex cuse
Ġrese arch
Ġmet hod
Ġhe ro
Ġcom fort
ĠE r
Ġpolit ician
ent al
ro at
ĠD ick
Ġte xt
Ġdec ision
Ġwalk ed
Ġtrain ing
Ġrev iew
y ond
Ġwor se
Ġar rest
ov es
Ġcent er
Ġlear ned
ograp hy
a ign
j i
ar m
Ġadd ress
Ġbird s
Ġb right
Ġde li
Ġsound s
Ġa p
ot ed
us hed
ver age
Ġass ist
f act
Ġl ower
Ġcho ice
ĠOly mp
st on
us ing
il ing
itt ee
Ġput ting
Ġc ro
Ġlike ly
Ġw a
ĠD ar
ĠR ob
ub e
Ġdem and
c ad
s hip
w r
ĠPar is
Ġme m
ĠC r
ate g
od ay
Ġbr ain
Ġyes terday
Ġmed ic
Ġdet erm
Ġu nd
Ġph il
Ġcall ing
Ġexpl ain
i ar
ĠF in
ap s
ru it
Ġafter no
Ġmod el
Ġprin ci
p ir
Ġ ir
Ġr ide
Ġlet ters
Ġchar ge
ĠN or
li ament
F irst
Ġp sych
Ġno body
Ġun iversity
Ġschool s
l am
Ġ ought
Ġc ow
ĠD ep
Ġbelie ved
Ġcre ate
ĠItal ian
Ġ ess
Ġw it
er ved
or ing
Ġmost ly
Ġfin ish
Ġev ents
Ġjo in
Ġspec ific
Ġiss ue
P eople
il ities
Ġsu it
ĠMin ister
g ent
an i
Ġbe ll
Ġfour th
Ġd ouble
ur t
Ġaf fect
Ġt all
Ġc rew
ol s
Ġsm ell
Ġlead er
. '
w estern
as c
ĠB o
Ġdist ance
At lant
Ġang ry
B C
Ġm or
Ġv ac
Ġide as
Ġthe ory
Ġc ru
ĠS al
ĠP yr
ber g
Ġag ree
Ġsp read
Ġch ief
A C
ore s
f ast
k et
is ions
Ġc ab
Ġth irty
ash ion
Ġmess age
bur g
in i
ut en
Ġst ars
Ġem ot
Ġdire ctor
Ġdise ase
Ġimmedi ately
Ġst orm
ĠC ath
Ġbus y
Ġafterno on
ĠS ch
ĠAl an
Ġfa ith
S e
Ġt ail
at ives
se qu
ĠC oun
Ġan cient
A m
Ġru le
Ġb le
ut s
Ġst yle
Ġan al
ĠH all
ĠB ob
Ġche m
Ġfar m
Ġprodu ction
ight s
Ġsp l
Ġbr idge
Ġlove ly
ĠAr my
ĠProv ince
Ġs ac
Ġen emy
Ġ200 4
Ġc up
ose ph
Ġblood y
Ġd an
est y
Ġarri ved
Ġearli er
S c
Ġs oul
ĠM aj
uck y
Ġcontin ue
ĠS at
ĠA lex
ĠM ac
cc ording
Ġfa ult
Ġc overed
Ġim m
S T
e es
Ġs le
Ġh un
Ġele ction
ĠCent ral
Ġnecess ary
ver t
ĠJ ew
Ġtr uck
Ġwe ap
Ġar g
Ġ18 9
Ġterri ble
ĠS im
um ents
Ġk ick
ĠK ore
ru pt
Ġstre ng
az ing
w hy
se y
Ġbr an
N ew
k in
ĠB er
ĠW il
Ġthere fore
Ġ( )
Ġacc ident
Ã© nÃ©
kn own
Ġestabl ished
C ar
i ents
Ġl og
Ġr ap
ĠR obert
Ġco ach
Ġcare ful
Ġsign ific
Ġsuccess ful
ĠItal y
Ġrelations hip
e h
Ġhe y
al ed
Ġcon du
Ġop in
ĠChar les
ĠCong ress
os ition
Ġ18 6
Ġfight ing
e ch
w h
Ġc ities
as ant
ĠM ark
Ġcont act
Ġsl ight
iver se
Ġpolic y
Ġc red
Ġf rog
ro s
W h
l or
ĠIt s
av es
w ould
at ory
Ġfor ces
ri g
Ġsk in
ed s
Ġp et
Ġl if
Ġha ll
st airs
Ġst one
ord er
oss ible
Ġsett le
Ġpurp ose
Ġre ve
Ġli ked
Ġ20 20
Ġpr ice
Ġpr int
Ġ200 1
Ġcamp aign
Ġmult ip
e k
Ġc y
Ġm ic
ar ies
Ġl oad
ĠIn ternational
Ġatt ract
ott en
iet y
i ot
Ġn one
âĢİ .
C ould
Ġt ar
Ġin ternational
Ġfor th
Ġsh own
ines e
Al right
ĠCan ada
Ã©nÃ© es
Ġfor ced
iz ing
Ġtell s
Ġhold ing
ĠPyr Ã©nÃ©es
R O
l o
Ġc amer
au g
Ġ ..
an n
Ġd rop
Ġl ink
Ġsp ot
Ġmin us
Ġes cape
Ġwel come
ac hing
and a
Atlant iques
Ġl oss
Ġ201 8
s es
ri al
ĠPr in
Ġinvest ig
Ġr ate
R I
z en
it ation
ĠC han
Ġcr ow
Ġkind s
Ġwalk ing
Ġpract ice
Ġm unicip
Ġdire cted
Ġin tern
ent h
Ġk it
Ġcom ed
ck s
hed ron
t t
ĠT hank
ĠG old
Ġabs olutely
ourn al
Ġcorn er
Ġmach ine
Ġc ode
Ġre pe
Ġext reme
Ġmount ain
g ood
Ġe mer
ict or
Ġch ick
Ġmed ia
ĠSp anish
ĠKing dom
Ġp an
ur a
Ġsign ed
Ġserv ices
Ġs ch
as ing
Ġwe ight
ck et
Ġlea ves
Ġthe e
Ġm um
Ġth us
em s
ĠJ ul
Ġknow ledge
Ġsing er
Ġread ing
um ber
G ot
b a
Ġp ounds
Ġtw ice
Ġpat ient
g ain
is f
Ġh om
ist ed
b ell
Ġbe yond
Ġre lease
Ġwe ak
Ġhas n
Ġimag ine
Ġa verage
ĠD uring
ific ation
Ġleg s
eder al
Ġopen ing
c ap
w in
ĠM et
Ġcall s
Ġbig gest
Ġdro pped
Ġp ush
ve re
ul ations
i ant
Ġm oon
Ġdis p
Ġopportun ity
. --
Ġa chie
at in
ĠH ill
ĠP eople
ĠK ent
Ġnews p
Ġdoll ars
G u
Ã Ń
et ic
Ġint ell
ĠYou r
Ġdri ving
Ġsystem s
w are
Ġs ides
Ġro se
Ġun less
Ġdisc overed
Ġem pt
is ters
ĠF rom
Ġcon vers
ĠAn ge
y an
ph one
ĠScot land
m us
Ġy ellow
ĠR oyal
el ess
Ġac qu
Ġele cted
Ġ198 0
P ut
Ġ Ã
or ks
Ġsy mb
Ġsold iers
Ġdefe nd
Ġphil osop
ĠI T
ut ter
oo p
ĠD ay
ĠR es
Ġno se
Ġfem ale
d en
Ġc ustom
Ġacc ording
Ġsur face
ĠCar ol
Ġhig hest
O oh
u le
ĠM ost
ĠP e
our s
Ġpr oud
Ġ201 7
Ġteam s
Every thing
k ins
Ã ³
ut ch
ist an
os es
Ġmist ake
. _
h ost
Ġb rief
Ġf irm
ic ious
Ġlot s
, --
Ġany where
ors es
Ġent ered
Ġdanger ous
! âĢĿ
W ow
Ġf resh
Ġ199 0
Ġsmall er
Ġcharac ters
ĠM ount
Ġfl owers
Ġrem ain
Ġcurrent ly
Ġmem ory
F uck
T HE
Ġb oss
ĠM ag
Ġgrow ing
ĠCoun cil
le ar
all ed
ol f
land s
Ġepis ode
Ġte ach
Ġres our
Ġthrough out
Ġrelig ious
U T
Ġdog s
ĠB ay
Ġsk y
Ġeas ily
ĠW estern
Ġo pt
Ġm ir
Ġg arden
ra v
Ġplay ers
Ġinclud es
Ġfif ty
Ġris k
A Y
ac ing
op h
Ġus es
Ġpict ures
ĠM any
Ġcl im
Ġsw im
Ġwear ing
Ġrul es
ĠDem ocr
H istory
Ġp ound
ic ago
ĠM at
ul f
est ival
Ġold er
Ġfore ign
er c
ĠC om
Ġfun ction
z z
and y
ĠT ex
Ġpl ants
Ġv an
Ġtw elve
Ġwin ter
Ġpos itive
Ġexpect ed
A meric
c ies
Ġp ig
ĠL aw
Ġmiss ing
Ġorigin ally
Ġindust ry
Ġgr own
ĠAs sociation
Th ose
E n
K eep
s m
it iz
Ġg e
Ġrelig ion
S ince
Ġp red
le cted
Ġas soci
Ġneg ative
b es
as tern
Ġ18 8
Ġw ine
Ġl aid
c is
i ber
Ġthink s
Ġrem ained
Ġcr ime
AN D
Ġbas ket
Ġparticular ly
stit ution
it ar
ĠD el
Ġcar s
C he
Ġsur r
r am
ur b
Ġnot e
Ġsp ring
Ġtri p
uten ant
M ic
d Ã©
i j
m ark
Ġh ide
Ġcom mer
per or
ĠCh inese
Ġdes p
Ġform ula
Ġposs ess
Ġadm inist
ro l
ist ry
Ġfor ty
Ġdire ction
A d
d own
im a
ĠG reen
ĠTh omas
Ġcond ition
Ġst aff
ĠC he
L e
N A
Ã ¶
ce nd
Ġr ub
Ġfl at
Ġfin an
g a
Ġd uty
ĠR ad
Ġro ll
Ġch oose
an ge
Ġv ote
Ġprov ide
Ġgrad u
R em
Ġbre ad
Ġdef initely
Ġpartic ip
ĠCath olic
u pp
re ci
Ġwor ried
ĠE mp
Ġcult ure
f rom
ar row
ĠA cad
ĠP ac
Ġcor rect
Ġcrit ic
ĠLou is
om s
be red
tain ed
ĠAr t
ĠAt lant
Ġsouth western
Ġegg s
Ġdeg ree
g en
ĠL ee
Ġslow ly
S E
f riend
s ing
on ed
it a
Ġyou th
Ġpl aced
Ġ200 3
Ġsec urity
Ġiss ues
c oh
r at
r ough
w hen
Ġp oll
Ġhe at
ol a
Ġag reed
be cause
A ct
Ġl ack
ĠA pp
ĠHe re
Ġstud ent
Ġlar ger
Ġfre qu
Ġ rom
ĠD es
Ġmention ed
Ġh ill
Ġlaw yer
Ġstreng th
I F
Ġf ashion
Ġhe aven
Ġth y
Ġadd ition
Ġord ers
ic les
Ġr ough
ag ing
Ġact ing
Ġelect ric
ĠM a
ĠP ak
ign ed
cept ion
Ġdesign ed
Ġjud ge
on a
ch ing
Ġnot ice
ap t
Ġbrother s
Ġdam n
Ġluck y
I nd
L D
Ġ iron
ow a
ĠM ont
ĠR ail
ĠJ er
Ġbig ger
Ġrel ated
ĠDe v
Ġcha llen
gy pt
Ġtot ally
Ġtro ops
re es
our ney
Ġ( ,
Ġgu ard
ye h
ĠAr ab
ĠAn ne
Ġrecord s
Ġbecom es
Ġcompan ies
H old
Ġse ction
ist ics
G reat
Ġt ape
ic ate
Ġh ouses
ĠM il
oot ball
; /
Ġt aught
... ?
Ġcont ent
Ġfl ight
Ġpick ed
Ġaw are
Ġrepl aced
Ġbe g
ag on
Ġsc reen
ĠSp ain
Ġperform ance
Ġsour ce
ar n
as hed
ĠG irl
ast y
Ġdream s
Ġbreat h
Ġwed ding
c ons
Ġ200 2
Ġform s
Ġdr unk
Ġmain ly
Ġmed ical
Ġpress ure
N ever
Ã ¨
ha ve
ĠM ike
Ġrem ark
Ġbas ically
Ġty pes
Ġreport ed
T om
Ġser ve
Ġgener ally
stit ute
uz z
Ġcrow d
Ġwe ather
ĠM om
il i
os h
Ġwr iter
ĠCh icago
Ġhon or
Ġran ge
Ġ202 1
Somet hing
C os
l N
Ġp air
Ġy a
le m
ul ous
ĠR ock
Ġpl ans
Ġsm art
Ġplan et
ĠS us
Ġpl atform
Ġwill ing
Ġrecord ed
idd en
Ġcomple x
ffic ient
Ġindivid ual
al i
ab or
ĠO N
Ġtrans l
Ġpower ful
Ġperform ed
r ang
ve y
ak ed
Ġun cle
Ġlead ing
Ġcompet ition
Ġfill ed
Ġarch ite
Ġo x
Ġwe ird
Ġte eth
Ġ197 0
I R
ĠC hampionship
Ġv ot
Ġcond itions
m it
on el
im p
Ġwas te
Ġspe ech
Ġleg al
Ġinflu ence
Ġnet work
Ġkit chen
ĠTex as
Ġb ound
ĠC ast
the n
Ġob viously
Ġevent ually
Ġfeat ures
y our
Ġforg ot
Ġmedic ine
c raft
u ries
w ill
he red
ĠM ass
Ġbr own
ĠPr ince
Ġm aid
st ood
ĠT or
vent ion
Th ree
Ġet c
is hes
Ġp ir
Ġh ole
ont in
Ġent er
Ġsing ing
part ement
M om
ad ed
Ġst uck
Ġact ress
Ġsm ile
Ġrem ind
Ġfail ed
ĠAfric an
Ġoffe red
Ġl oud
ĠB u
ĠJ ud
Ġsa ke
ard on
Ġcent ral
Ġclear ly
dÃ© partement
s ed
Ġf inger
ĠB et
Ġship s
Ġhot el
ĠJack son
ourn ament
ĠSm ith
Ab out
B ye
O ther
ar ing
od es
Ġinst r
Ġdescri bed
Ġempt y
g ency
i pe
Ġt ight
Ġn ative
Ġh orses
ĠS ing
Ġme asure
Ġwh is
ĠD iv
od ies
Ġag ed
Ġple asure
Per haps
4 0
H elp
Ġw et
Ġn orthern
ĠD is
ĠF red
ĠO f
ian o
Ġrepl ied
Ġl ock
ĠS und
Ġkill ing
On ce
Ġproper ty
Ġbecom ing
C har
l aw
ĠA ND
Ġli es
Ġhand le
Ġed ge
ĠPrin cess
r ish
Ġr are
Ġbl ess
Ġmiss ed
a is
c ar
l im
ac hes
Ġhar m
Ġinter view
Ġpain t
Ġdiv ided
Ġresult s
Ġconcer ned
ĠAcad emy
H a
Ġf right
ĠA ss
ĠR oad
Ġstud io
Ġprodu ce
b el
Ġsa ved
Ġman ager
Ġatt end
Ġocc up
ĠJo e
Ġcal m
Ġtar get
D uring
Ġc itiz
Ġn ation
ri f
Ġgo al
Ġstud ied
; &
U R
g n
Ġpart ner
ip s
Ġgreat est
ĠChrist mas
ĠMaj esty
Ġopin ion
ar ly
at o
ĠRuss ian
A D
I GH
a ult
Ġf aces
an ced
ĠV ictor
Ġreal ize
Ġbit ch
Ġoffic ers
7 0
Ġre asons
am i
os ite
ian ce
Ġte le
ok en
Ġstru cture
l ie
or a
Ġp apers
ĠM ur
ĠM aster
Ġor dered
Ġbu ried
Ġ201 9
Ġstart s
Ġmiss ion
Ġdirect ly
az ine
Ġeas ier
Ġtechn ology
ĠSu per
Ġwit ness
I M
ĠI owa
im in
ĠS ov
ĠW in
Ġne ither
ren ces
ĠâĢ Ķ
Ġj ack
Ġbut ter
Ġro of
Ġhead s
19 9
b ook
Ġb al
im ately
Ġme at
Ġme chan
ĠL in
ĠL os
ĠN at
Ġcomp let
Ġsha pe
Ġart ist
Ġbreak fast
Ġsat isf
Ġquar ter
Ġst ock
ĠP an
Ġgreat er
Ġdec ide
fess or
Ġexper ien
ĠSov iet
er al
Ġme re
ĠB as
Ġcan cer
ĠF irst
ig er
Ġrun s
arent ly
O k
Ġd om
ĠM ars
ul ty
Ġal t
ĠR ome
Ġwor st
Ġlead ers
Ġstru gg
se mb
ĠH i
ĠB ro
Ġad ult
Ġsurpr ised
' .
m ay
Ġb omb
Ġd er
Ġl unch
Ġz ero
Ġcry ing
Ġincre ase
Ġpal ace
6 0
h im
v a
Ġc art
ke ep
ur day
ĠF ather
Ġam b
Ġsecond s
Ġ199 9
Ġty p
Ġteac hing
Ġfly ing
ĠEmp ire
y m
Ġs en
et te
igh s
Ġev il
Ġtrad itional
Ġgentle men
ĠGree k
Ġprep ared
c omm
Ġm m
en ing
as y
Ġme mor
Ġas leep
Ġli kes
Ġal coh
Ġour selves
Ġhur ry
fort un
Ġcirc um
. ]
2 5
P h
ĠH aw
Ġj u
Ġsh oes
Ġkeep ing
ell ing
ĠL u
ick ed
Ġrec ently
Ġbuild ings
Ġdet ect
Ġsurpr ise
M AN
m ad
r ate
Ġt aste
Ġs illy
ir ing
Ġr ank
Ġj ourney
ĠL ake
ĠE gypt
Ġstand ard
i os
r id
Ġ ign
Ġon to
Ġmet al
Ġdist ribut
T S
w ar
ĠS a
Ġbl ind
Ġprov ince
m ar
Ġb ab
le ction
... "
Ġsh out
Ġcons um
Ġdrink ing
E LL
w an
ing ers
Ġl ic
os en
Ġimp ossible
Ġsleep ing
Ġrequ est
Ġcoun cil
P r
ond s
ans as
Ġim age
Ġapp reci
Ġlear ning
B et
Ġth ick
Ġe ld
ish op
Ġcamer a
r ated
ĠS un
if orm
ĠB ill
Ġfore ver
p re
Ġ Â
Ġj oy
ig an
Ġsu c
ĠBr own
ĠMex ico
b et
b les
Ġc ash
ĠT ai
ĠF il
az z
Ġcost s
ic ations
Ġse qu
Ġpro ve
Ġ3 1
Ġlad ies
Ġsepar ate
Ġhung ry
Ġsuc ceed
M ost
or ough
Ġsa f
Ġpre vent
Ch rist
L ea
ri er
are t
Ġam azing
av al
Ġprom ised
Ġdoc ument
Ġmultip le
Ġmunicip ality
A pp
ĠO ther
Ġgr ant
Ġcont ribut
Ġpo cket
Ġking dom
s ome
Ġd uck
Ġact ual
Ġem p
Ġstay ed
Ġprogram s
l ig
ur ance
ct ors
Ġkn ock
ĠJ esus
Ġrem em
Ġplan ning
Ġ196 0
ut ions
ĠS T
ĠS ant
Ġex cl
ag n
Ġbelie f
Ġcha p
Mr s
Ġlangu ages
Ġsold ier
Ġturn s
Ġpat tern
Ġconst it
Ġfavor ite
Ġm ut
ĠS ea
ĠT ony
Ġlisten ing
Ġsus pect
Ġa st
Ġm ate
ĠH on
ĠT wo
ĠG et
Ġcent re
Ġ-- &
G E
Ġth rew
ĠSec ret
ou red
Ġp ure
Ġe ars
Ġj ournal
Ġpl ain
Ġcont r
Ġorgan ization
Ġbroad cast
Ġenc our
ĠAnge les
F ine
M iss
b an
ut ive
Ġpre vious
ĠGovern ment
W hile
b ar
i pped
ant ic
Ġr at
pl ace
cl ock
Ġsw ear
Ġrequ ired
is l
is her
Ġm ob
Ġf reed
Ġd rew
Ġre n
Ġre ven
Ġre act
Ġgo dd
Ġsc ar
Ġpret end
Ġcast le
ĠComp any
8 0
w ater
om a
ĠB ang
Ġappoint ed
A dd
Ġm a
st ra
ir a
Ġman aged
ĠK ar
ord in
Ġact ive
2 3
S ay
Ġb other
Ġl oves
ĠH am
Ġsp orts
are n
Ġun it
Ġcr ack
Ġspl it
Ġsignific ant
H uh
um n
Ġun its
ned y
Ġnin et
Ġsch ol
b u
ar ling
ad ian
Ġde but
iv ity
Ġsc rew
Ġdel ight
Ġcop y
T e
Ġs outhern
Ġp il
ab out
Ġgr ass
aw a
Ġreal ity
Ġcho col
S ha
j o
ac he
ĠL ine
Ġpl ane
Ġtrans port
Ġdem on
e an
ot a
ĠA h
ĠF er
Ġlight s
Ġloc ation
Ġstru ck
he y
ic an
Ġqu al
Ġfav our
Ġmot or
R B
it an
ad o
ur ry
ĠThe ir
ĠR ay
og ether
av ing
Ġsil ver
ĠIndian a
C K
b re
k er
Ġc hat
Ġf ra
Ġst ream
Ġun iverse
Ġtrans fer
Ġbeaut y
Ġter rit
Ġappear s
Ġrout e
Ġdestroy ed
O ut
ĠD id
art ment
ĠO ld
Ġ199 6
Be fore
Ġhum ans
Ġconst ruction
Ġphys ical
Ne xt
b oy
al ing
oo per
Ġpo et
cha nt
Ġstre ets
Ġintrodu ced
Ġindepend ent
C om
Ġm ale
Ġl osing
us hing
be y
ĠCh ief
Ġrel ative
ĠIs lam
ĠFran cis
Ġeconom ic
2 4
Ġb ast
ĠM el
Ġsm oke
ious ly
Ġfeel s
Ġturn ing
Ġposs ibly
, '
Ġf ought
Ġp in
ĠM u
ge nd
Ġal tern
Ġpro gress
Ġrequ ire
Somet imes
O ver
or ter
ow ed
ut ed
Ġro y
Ġfind ing
An other
Ġoper ation
Act ually
T w
Ġc uri
ĠL ady
ĠE very
Ġtri al
Ġtreat ment
le g
Ġst ret
Ġun ivers
Ġsw ord
Ġinst ru
Ġhard ly
Ġlaw s
Any way
Ġaccept ed
o ch
s ha
Ġa h
Ġw ake
ell a
ĠD O
Ġshow ing
Ġ199 8
ĠRe c
Ġneigh bor
Ġrespons ible
aug hed
Ġfinan cial
A LL
S P
Ġd are
ri ff
ĠP enn
ge ant
Ġsc ream
Ġmag n
ĠGovern or
Ġcand id
C ap
C ause
Ġf ruit
Ġd irty
Ġwas h
hi a
ach us
Ġ199 7
Ġ6 0
het ic
C E
M ake
M any
n am
Ġg all
Ġre nt
ĠS il
ĠS qu
Ġhad n
ian a
Ġqu ality
ĠAmeric ans
ER E
Ġret ired
Ġsymb ol
T oday
Ġd ressed
Ġto ward
ri b
ost on
Ġdrug s
" ?
E L
t ies
u ous
u fact
Ġt ick
al a
ly ing
ke nd
ant age
el come
Ġrec ent
Ġhelp ing
Ġ18 5
Ġdiv ision
Ġrock s
Americ an
s ay
he ast
Ġg ro
ĠB est
ĠR og
ĠK h
Ġstat ement
Ġfix ed
Ġbra ve
t wo
t hank
w hile
Ġt ong
Ġin ha
um an
Ġsc r
Is n
AN T
Ġland s
Rem ember
L a
S m
ir al
ell ed
Ġbr and
Ġsc ore
Ġnum er
Ġfall ing
Ġexc han
Ġcomed y
Ġf ro
Ġp ra
ic ide
im um
am ing
Ġj ail
ĠF ootball
ĠU K
Ġjob s
ĠBe cause
Sh ut
ĠPar liament
ĠSat urday
ĠSund ay
U GH
f ather
he ll
Ġo dd
Ġg host
Ġme as
all s
ol es
Ġpr ince
Ġyoung er
Ġgi ant
Ġrail way
Ġsaf ety
y o
Ġp leased
ĠM ajor
ĠB a
Ġfl o
Ġco at
Ġmin or
Ġappro ach
Ġproduct s
Ġaud ience
N ice
ĠH ans
Ġend s
Ġinst it
Ġbott le
an ing
Ġd iam
at re
Ġl ord
ĠA ng
Ġr ise
S er
b ow
p ret
r ance
Ġt ournament
ĠS l
ĠW al
ell y
Ġman ufact
ĠPr ime
Ġve h
ĠCent er
Ġmanage ment
v i
w ing
Ġt im
he art
Ġl aughed
Ġg ay
ct s
Ġafter wards
cl es
oc ent
Ġpo ly
Ġpull ed
Ġtemper ature
Ġmic ro
u yeh
Ġd ying
ĠC amp
il ty
ĠT han
ĠW ood
ĠV alley
Ġad op
ĠAd m
Ġdefe ated
2 1
Ġth roat
Ġre form
Ġnot iced
fe ction
Ġag re
Ġcl ock
ov ing
Ġexc use
Ġwall s
Ġb ac
en ced
id ents
am in
ĠM er
ĠM ill
ĠL y
Ġun iform
Ġpre fer
Ġc ards
es sel
ir k
Ġby e
ather ine
Ġsha d
Ġmat ters
Every body
ĠScott ish
Ġimpro ve
ĠDiv ision
Ġt iny
on se
ĠI S
hi o
Ġrem ains
ĠAs ia
ys is
ĠCan adian
omin ated
cell ent
ste in
Ġf ingers
ar ian
Ġn uc
Ġdis play
Ġexp ress
Ġconst ant
Ġhon our
Ġthousand s
Ġstep s
b i
u gg
y p
Ġb ub
Ġwhe el
Did n
Ġocc asion
s aid
Ġs li
et ts
Ġli br
ĠT w
Ġag ent
-- "
fl ict
Ġbas ic
ro ll
res p
ĠSt ud
ham mad
Ġ18 7
Ġmus ical
Ġgra ve
Ġgentle man
Ġeff ort
Ġs in
en ny
Ġbe ach
ĠP ope
Ġrem oved
Ġpolit ics
hamp ion
Ġra ise
Ġav oid
Ġsil ence
Ġsus p
Ġb odies
qu ar
Ġar range
Ġsub s
Ġopp osite
Ġrece ive
Ġfif th
ĠRuss ia
v ad
Ġb at
Ġf aster
ct ic
Ġli ber
Ġus ual
Ġent ertain
Ġdet ails
ĠBrit ain
Ġce rem
Ġsweet ie
Ġgun s
u als
oc key
Ġmat ches
Ġass um
Ġsol ution
Ġm ax
Ġp it
al right
ĠD ou
ĠG O
Ġaf ford
ĠRe v
M ore
Ġcom ment
ĠK oh
What ever
ĠâĢ ĺ
Ġ199 4
Ġjo ke
Ġattack ed
g il
st ances
ad d
Ġaw ful
Ġentire ly
achus etts
u a
u it
v est
Ġb are
Ġknow ing
ĠL ook
ĠO ff
Ġcomp os
Ġprov ided
Ġconne cted
Ġsett led
Ġm o
ĠI re
Ġha st
st ead
Ġse es
Ġkn ife
Ġgood s
iz z
Ġrec omm
St ay
Ġ199 5
Ġmain tain
Ġauthor ity
Ġclos er
ĠKen nedy
Ġbud get
Ġcred it
Ġcomplet ed
E C
ha pp
Ġb oo
Ġf ired
ow ing
ĠD ire
Ġcon cept
em ic
Ġevery where
Ġca uses
Ġcol our
ĠCon stitution
Ġfoc us
Ġchocol ate
Ġroy al
Ġc ous
ĠS ol
oo ps
ĠL atin
ĠJ ac
Ġqu een
Ġhigh ly
W H
j a
Ġt un
Ġw estern
al ent
ĠS aint
ur d
ĠP re
Ġsh ore
ĠF ore
Ġexp ensive
Ġcir cle
Ġcoun ter
van ia
Ġslight ly
f its
on ia
ĠS id
ĠM ich
Ġpro ceed
Ġcont ains
Ġforg otten
Ġnewsp aper
p al
Ġ ut
ĠI m
ĠS pe
ĠC at
Ġab ility
Ġsp oken
Ġfl u
eak ing
Ġwee kend
Ġtra ve
Ġmajor ity
Ġshoot ing
ĠĠĠĠĠĠĠĠ ĠĠĠĠĠĠĠĠ
Ġchick en
2 9
p a
Ġm ap
ĠM ore
em an
Ġuse ful
St ill
Ġsw itch
ĠSw ed
Ġactiv ity
r ick
ĠR ight
Ġsome what
Ġstud ies
Ġrest aur
Ġvict ory
Ġchem ical
il a
Ġli ps
int end
Ġfeel ings
Ġwin ning
Ġstat us
Ġcal cul
Ġalcoh ol
D amn
O D
Ġo cean
ing u
ĠH el
ol ved
th ur
Ġbring ing
ĠRepublic an
Ġconvers ation
I ON
Ġf al
ĠH ot
ĠD utch
ĠO x
ĠV er
Ġpre m
uck les
ĠFr iday
Every one
ĠComm un
Ġgra ph
Ġprin cess
Ġextreme ly
i ven
u an
Ġw rest
ĠH arr
ea re
ĠJ ane
we et
Ġfl ower
ĠBl ue
Ġrap id
L Y
o very
r s
v is
Ġt ough
ver se
Ġan x
Ġgr ab
we re
Ġgu ilty
ĠPr ot
Ġpri or
ĠDo ctor
ĠMass achusetts
en ger
ĠW H
Ġsu gar
iz es
Ġad vent
Ġad vice
port s
Ġdr ama
à ¤
Ġin vent
ĠS ummer
ĠM ax
Ġno ise
Ġman ner
Ġpr ime
Ġown ed
Ġele ment
ok ing
ĠCar l
Ġconst ru
ĠAustral ian
Ġbene fit
V ER
e ed
ar ry
Ġtr ick
Ġ3 5
B ack
J ames
r ain
en es
ĠW hile
ĠW omen
Ġv essel
No body
How ever
Ġear n
Ġcons ist
Ġdam age
Ġaut om
Ġfle w
Ġaward ed
Ġl in
al m
un ched
Ġplan ned
Ġgold en
Ġtrad ition
Ġsuggest ed
Ġresour ces
Ġninet een
2 7
n at
Ġe h
ac le
ĠG e
Ġsh irt
Ġpres ence
Ġfull y
por ary
ĠSen ate
E E
N orm
ĠS hi
ĠW ind
ĠG ames
os a
Ġup set
Ġco al
ham ber
Ġcollect ion
Ġcommer cial
W atch
Ä ĩ
Ġme l
ce l
ul ate
ab eth
Ġres c
Ġhel ps
ĠYou ng
Ġche st
Ġ199 2
Ġpass ing
ĠOlymp ics
Lea ve
ĠSecret ary
2 8
i est
Ġf ederal
Ġg ain
Ġu lt
Ġse m
ĠB ig
Ġli qu
ĠW ay
ab bit
erm an
Ġpart ies
Ġkeep s
Ġexp and
Ġes cap
ĠPl ay
g ment
is a
ĠS ince
ĠS outhern
ang le
Ġres ist
ric ane
ĠCon f
itz er
ĠMich igan
M hm
ir lf
ĠB ell
ĠL ittle
Some one
sy l
raz il
Ġsex ual
irlf riend
L ove
O S
g al
Ġn erv
ri ble
Ġcon c
oc al
Ġunder stood
Ġcar bon
Ġdes ire
Ġtra ffic
ĠGr oup
ĠPri ze
. )
P S
p eare
r as
Ġnot es
Ġup stairs
Ġpro of
ond er
Ġfl ag
Ġsca le
Ġhang ing
A A
Ġg ift
our se
ĠD en
ĠIn stitute
Ġkill er
Ġ199 1
ĠSo ciety
ĠCl ub
Ġnorth west
Sh it
kes peare
ĠCarol ina
E l
e f
Ġth in
ĠT own
Ġcha in
ĠJim my
Ġoccur red
Ġwat ched
ĠKoh gil
ĠKohgil uyeh
l oad
Ġwe bs
Ġdo ors
Ġat e
ĠF re
Ġch osen
Ġsign al
rop ri
Ġdet ail
Ġadm it
Ġdraw ing
Ġlim ited
Y OU
s it
s pect
ur se
ind a
ĠSt ep
Ġ199 3
Ġpresent ed
Ġrepresent ed
S u
W E
f all
i as
Ġr um
Ġcon cent
the m
Ġdr am
Ġunderstand ing
Ġeffect s
Ġperfect ly
Ġap olog
Ġdan cing
J ack
k m
Ġt ears
Ġw ings
Ġp ill
Ġh ook
ĠS how
Ġst ations
Ġdis ci
Ġexp ression
ĠCar ter
ĠCol umb
ĠTH AT
Ġintell ig
Ġc ateg
et ch
Ġst ated
ĠC H
Ġcare fully
Th ink
erv ation
Ġmount ains
Ġcab in
m o
Ã ¦
am ily
ound ing
ĠSt ar
Ġun ique
Ġmag azine
Ġconne ction
Ġpun ish
k o
v in
ha s
Ġc ream
ot ion
ĠH a
um s
ĠU nder
Ġgrow th
Ġappear ance
Ġincre ased
Ġre action
ĠH ello
ol ks
Ġtr oub
Ġcl oud
Ġapp eal
Ġbre aking
Ġhear ing
Ġteacher s
EA K
d is
er ves
ill ed
ĠG ar
ĠO hio
ĠK ansas
Ġqu it
Ġshould er
ict ed
Ġsign s
Ġkid ding
ĠPro fessor
Ġdiv or
Ġforg ive
Ġdro ve
ĠDep artment
Ġachie ve
v y
Ġl oose
st one
ĠW all
ack s
ang ers
Ġans w
Ġball s
Ġmag ic
Ġlab or
Ġneigh bour
syl vania
" ).
ul ated
Ġmy th
ĠN az
Ġcl imate
ree k
Ġcont ain
Ġinst ance
19 7
Ġbas is
ĠGeor g
Ġda ily
Ġbull et
Ġnin ety
Ġbes ide
Ġbran ch
Add ons
E O
O pen
_ .
Ġm useum
Ġl it
Ġh iding
ĠA wards
Ġsp in
Ġother wise
Ġexc ited
Ġhell o
Sh ould
Ġdecl ared
R A
Ġd yn
Ġn arrow
Ġsh r
Ġown er
Ġ4 5
stand ing
Ġresp onse
Ġadv antage
Ġfail ure
Ġnorm ally
Ġremem bered
C all
U nder
Ġf old
ed ing
Ġu ne
Ġse vere
Ġbut ton
Ġcomm ittee
Ġsha red
Ġlea gue
19 8
Ġstay ing
Ġfig ures
augh s
E ng
b ably
Ġf an
ĠC ons
ĠM az
ĠL ater
Ġwork ers
Ġdri ver
rop ical
ĠDan iel
Ġlaugh ing
P aul
o is
Ġd im
Ġmy ster
Ġsh ock
Ġex erc
Ġbl ame
Ġbl ank
Ġeas tern
Ġbill ion
ĠJe ff
Ġmix ed
ĠDemocr atic
S it
d ad
u ps
Ġp owers
ad s
ust ration
ie utenant
Ġgu itar
ob al
Ġmat hem
ĠAs ian
Ġimp act
Ġ7 0
Ġcarry ing
ĠPac ific
ĠIre land
Ġ eth
Ġf ant
ĠS har
ĠM other
ĠM useum
Ġpl enty
ak i
Ġpass ion
arr ass
Ġviol ence
Ġcomfort able
g ly
w ide
im inal
ĠL ove
ĠJ oseph
Ġvar iety
Ġsle pt
ĠT ime
est ic
ra el
Ġqu ant
Ġinv ited
Ġcol on
Ġappro x
2 2
3 5
w ant
Å «
Ġn urs
Ġcitiz ens
ĠPenn sylvania
A ccording
J esus
g or
Ġc as
Ġf urn
Ġd ed
Ġn ea
Ġst ro
ĠB at
ĠL ike
Ġpo ison
ĠTh ree
Al though
Ġclass es
che stra
Ġoper ations
Ġprotect ion
Ġprop osed
ĠKent ucky
Ġt ask
in ity
ent ially
Ġas pect
um my
Ġshe ep
ĠMar ia
Ġfollow s
Ġdra gon
Ġpur cha
Ġ195 0
Ġshar p
Ġdeli ver
lN G
Ġtong ue
3 4
F ather
n ic
Ä «
Ġt ied
Ġw id
Ġm ail
ĠC le
ĠB razil
ĠT ay
Ġun ion
Ġchan ging
Ġpri ze
Ġwind ows
Ġsqu ared
semb ly
m pt
or se
Ġg irlfriend
om ach
ĠB road
Ġsome how
age ment
Ġro les
ĠIn ter
Ġpre c
Ġtown s
Ġart ists
Ġ9 0
E arly
i y
Ġ ic
oo g
ct ures
ĠH ung
Ġcon ference
Ġsu ffe
Ġapp le
sh ould
Ġfall en
Ġsil ent
Ġsell ing
ĠMart in
Ġsettle ment
b ury
am an
Ġv irt
ne w
Ġthought s
Ġeat en
Ġsupport ed
Ġadv ance
Ġhistor ical
Ġcapt ured
B E
s ure
re al
re ck
Ġcon flict
Ġshe ll
ap a
ĠK han
amp s
du c
Ġsha me
Ġpay ing
Ġvict im
Ġinha bit
e xt
r ant
Ġt ap
Ġw ave
an o
Ġl atter
al y
ĠS ee
end ment
Ġun known
iz abeth
ult ure
Ġold est
Ġch ose
Ġset ting
Ex actly
bur gh
Ġmult i
Ġhol iday
Ġarrest ed
S id
d es
Ġt or
Ġbe er
Ġse asons
un ny
form ation
Ġprodu cer
Ġdra wn
Ġgod s
Ġstri ke
Ġfeat ured
Ġmaterial s
ĠSus an
Ġbast ard
F l
r ont
Ġa x
Ġc ig
ĠB E
ĠB oston
Ġmy st
do es
Ġins urance
Ġresp ond
Ġprim ary
Ġnerv ous
S l
e z
i Äĩ
Ġb oot
Ġp iano
Ġha m
ad ium
ak a
Ġser ving
Ġboy friend
Ġdisapp eared
p et
Ġs alt
Ġc ake
ĠM od
ie ce
ond ay
Ġwr it
Ġste el
Ġfif teen
Ġfield s
ĠKore a
Ġassoci ated
Ġfreed om
l ong
r ical
Ġf ile
es ides
Ġbr ide
Ġpart ners
Ġad vert
Ġdis s
Ġdes per
Ġche ese
Ġfair ly
Ġmot ion
H as
H mm
S C
re nd
Ġs ust
Ġl at
ĠB al
ist or
Ġsee k
Ġsp ort
ĠY ear
ĠAn n
ĠZ eal
Ġvar i
Ġter ror
Ġtreat ed
Ġhy p
Cap tain
S B
T ry
W elcome
he im
er k
it o
Ġg ate
Ġn om
ĠI II
ad ing
Ġk il
ĠL ong
pe red
Ġpre viously
Ġmin ister
Ġpat ients
Ġexper iment
Ġhundred s
Ġarg ument
Ġsuffe red
c est
w a
Ġd iet
Ġg ang
Ġwe alth
ĠM em
ur ally
ĠB ra
and s
ĠT ol
Ġr ow
Ġab and
ĠR ose
Ġback ground
Ġche er
Who a
app ing
Ġjo int
Ġlab el
Ġhy d
Ġeconom y
OM E
Ġemb arrass
ĠThan ks
a fter
Ġt ie
Ġp ha
Ġhe av
Ġst omach
ĠC ivil
ĠB ull
ĠD a
em ents
ĠK e
Ġun f
ho le
Ġgu est
Ġ198 9
Ġbegin s
osp here
Ġweap ons
Ġbasket ball
f ound
is ation
ĠW ales
od d
Ġim pl
Ġchan nel
Ġsupp ly
Ġpri est
Ġve get
Ġfamil iar
ĠMus ic
Ġweap on
9 0
I V
Ġb unch
ing ing
Ġl one
Ġcon fess
Ġsc hed
Look s
Ġsix ty
Ġsol id
Ġhop ing
Ġactiv ities
Ġappreci ate
C ol
F L
H urry
M other
O L
r un
Ġon line
ĠH y
ess ion
Ġpre gn
ott on
Ġreal ized
Ġ198 8
Ġfil ms
ĠTr ans
Ġinn ocent
T V
Ġb ang
Ġp ink
ot ic
ly n
ĠC a
ter ing
Ġso il
em ies
ard ens
Ġbr ings
19 6
Ġeng aged
look ing
ĠSha kespeare
Ġprofess or
Ġburn ed
Ġapart ment
igg ler
G l
al so
ĠB on
ĠD or
Ġle gend
br idge
Ġ8 0
Any thing
ĠEm peror
Ġdeterm ined
Ġhom es
1 00
U p
Ġb ite
ĠT ri
ĠR aj
ĠF ar
Ġsu ck
Ġ( ;
ĠK ong
Ġmay or
Ġart icle
Ġwond ering
Ġcross ed
Ġord inary
Ġju ice
F ran
Ġo w
Ġd ish
Ġd arling
Ġre ck
ĠL ight
ĠJ on
ĠE ll
Ġco ck
Ġcle ver
col n
Ġlim it
Ġscient ific
ĠPak istan
ĠZeal and
C or
s ur
Ġb order
Ġfe ature
Ġgood ness
Ġcons cious
Ġroom s
bo x
ĠCal vad
Ġla unched
Ġserious ly
ĠCalvad os
B ig
Ġf ancy
es h
ow der
ut her
st ant
ĠM E
th ree
ĠO k
Ġun us
Ġche ap
Ġ197 9
Ġsol ve
EN T
fortun ately
U L
j an
r d
r ich
Ġw ise
Ġs ales
Ġb atter
ri z
Ġu pper
Ġwith d
if fe
ĠB ru
and om
ĠF our
Ġro ot
hes s
Ġcr own
Ġinc red
ĠIs rael
Ġcontin ues
Ġincre asing
Ġrespons ibility
Ġphilosop hy
Ġinstr ument
L ast
M art
Ġt one
im ents
Ġnot ed
ĠF estival
han g
Ġfind s
Ġadd itional
Ġ198 2
Ġisland s
ĠTom my
ĠWilliam s
Ġcircum stances
5 00
A gain
m other
s er
z er
ri pt
ĠA ccording
ĠP a
ĠT ed
ĠF OR
the ir
ect ion
Ġcour age
Ġstand s
Ġlevel s
Ġdisapp oint
ĠPort ug
IGH T
f ive
s w
t i
Ġg ather
ĠS om
Ġu gly
ĠH an
ol t
iz ations
ran ch
Ġsuff ering
ĠAtlant ic
Ġlibr ary
C are
r ad
Ġw itch
ĠF ort
Ġpre par
Ġrel ax
olog ist
Ġfr ame
Ġ198 4
ĠJohn son
Ġhands ome
Ġcommon ly
Ġconcer n
Ġant i
Ġsurv ive
Ġchallen ge
Ġfal se
D es
S ec
a res
in ter
ĠW end
ĠL ife
Ġcon qu
Ġpl ate
Ġgot ten
Ġcl ient
ĠBr other
ĠZ iggler
Ġgovern or
Ġfall s
ĠComm ission
Ġconcer t
Ġrecogn ized
cons cious
Ġexchan ge
4 5
Ã ¤
Ġa im
Ġw ished
ĠR ural
Ġcon sequ
Ġex act
Ġcomp on
Ġatt ended
Ġstr ing
Ġdisc over
Ġpain ting
rill iant
ĠJer sey
3 6
D an
D avid
t urn
Ġd ust
Ġp ool
ĠC am
Ġat m
ĠR oll
ĠN avy
Ġsp ell
ĠV en
Ġdes cend
Ġdist inct
ok es
Ġsent ence
Ġleg isl
cri pt
for ce
la use
Ġeff orts
Ġwa ited
ĠJew ish
Ġsen ior
ĠConf eder
K E
l ife
u ce
Å į
Ġd ies
Ġl ake
as p
Ġh i
ĠA v
ĠC O
Ġu nt
ĠB ern
Ġr ac
ĠN ic
Ġear ned
Ġcap ac
Ġtra il
Ġexist ence
Ġagre ement
h u
p oint
Ġs ons
ic ulous
ĠS up
ro se
Ġr iding
ĠN ick
ĠN orthern
ive red
-- --
Ġapp arently
ĠUn cle
Ġele ven
Ġele ments
Ġinte gr
Ġ198 7
ĠFran ces
3 8
T oo
u art
w orks
Ġt a
Ġha bit
Ġan cest
ĠD aw
Ġv ia
ak h
Ġint ended
Ġcrit ical
Ġrecogn ize
J im
L ife
on ly
Ġto w
ot o
ĠM iddle
ĠT y
ĠT am
ĠO l
ag ue
Ġspe ct
ins on
Ġref used
ĠHar ry
Ġestab lish
Ġcous in
ĠOx ford
C omm
F rank
b ly
w ow
Ġw ounded
Ġo we
Ġd u
ĠO cean
Ġcont est
Ġdec isions
AR R
ĠOr der
ĠFil m
E d
T ING
f our
ea ks
Ġr ot
Ġall ows
ĠR ick
ĠE astern
hm m
Ġgar age
Ġassist ant
2 6
D own
f ish
m ond
ê ¯
Ġw ha
Ġw ore
Ġd un
Ġto wer
The ir
ĠH ea
Ġor ange
per ial
av ar
Ġac ad
pha nt
E h
O Y
U D
Ġ ille
on ic
ĠI nt
ĠI rish
Ġh idden
ĠH ave
ust ed
ĠT re
ĠT imes
ĠD ra
ĠJ ones
ra ham
Ġv alley
ier ce
Ġsort s
hib ition
Ġhun ting
F our
g ot
g ues
Ã ´
Ġs ed
Ġf olk
Ġin qu
ĠR h
ĠE ven
Ġjust ice
ep s
Ġsp are
be c
Ġhapp iness
Ġfl ood
Ġcomm ission
Ġ197 1
Ġcor por
Ġphot o
. [
E m
I m
c os
Ġm ort
Ġd read
Ġh o
Ġwe b
ĠF e
Ġthr own
Ġfriend ly
ĠBr ad
Ġsy mpt
Ġpoint ed
Ġ6 4
Ġdev il
ĠSer vice
Ġconne ct
Ġcomb ination
ĠCast le
Ġterrit ory
re ll
er a
Ġp a
Ġhe ight
and al
ain ts
ell e
ĠN orm
ink ing
ast s
omet imes
ale m
ĠRoman ized
Ġrepe ated
G eor
m at
t le
ou ri
ĠH al
Ġsa v
Ġpro ced
Ġob vious
Ġoffic ially
Ġcreat ing
ĠPet e
S hall
c ont
e rest
g ian
he w
Ġm ood
Ġn ut
ic y
im al
Ġse lected
Ġsh ook
Ġag ric
ord on
ĠV iet
ult ural
Ġcomm itted
Ġacc omp
ĠAnd rew
Ġid iot
Ġexp ed
go ing
LA UGH
ĠSec ond
Ġdeg rees
itzer land
I E
m iss
as mus
Ġh ired
ĠS ur
ch ief
ĠP lease
ĠR om
Ġwor ship
ĠE ach
Ġsha ke
Ġcr iminal
Ġac id
ger y
Ġnear by
Ġest ate
ĠComm ittee
Ġcompl icated
Ġliter ature
Ġscient ists
B ob
O B
b ased
n ce
Ġc ute
Ġp ages
ar ant
ĠA N
ĠC ab
ĠH ind
ĠB oth
ĠD ave
Ġpl ot
Ġfl ow
Ġmov es
Ġimport ance
Ġ198 1
ron ic
Ġste al
ĠFor ce
Ġval ues
aim ed
Ġeffect ive
eal ous
M ove
S te
] .
o oth
Ġ Î
Ġf ishing
Ġl ocked
Ġst ir
Ġas ide
ĠP ic
ĠT ra
ie ve
Ġev olution
Ġmed al
ask ed
Ġrefer red
Ġsevent y
happ y
C ha
T urn
m om
p ers
re ts
le nd
ĠM ir
th ose
ĠD et
Ġde ck
ĠG al
ĠR am
ĠF ox
Ġpro ved
ca hedron
ER S
Ġexpl ained
cri ption
Ġreport s
ĠEn ter
" ),
A nt
l av
Ã ¢
ing ly
um es
ĠJ r
ĠSt an
Ġqu e
Ġsure ly
Ġgener ation
Ġmill ions
Ġcommun ities
Ġconv in
wr iter
IF A
ĠMaz ra
' ,
c alled
i at
o z
Ġa unt
Ġm ole
Ġdo zen
ol en
Ġar med
Ġfe ather
Ġen emies
Ġele v
Ġexpl os
Ġdeal ing
Ġsoft ware
AP TER
ĠBer lin
ĠWend y
s an
Ġs isters
ar io
at hy
ce ler
ĠL ab
Ġsa le
Ġtr uly
Ġcomp ared
Ġbu ying
Ġ18 0
Ġhar der
Ġret ire
Ġinter pret
Al so
ĠOn ly
Ġve ctor
ĠChar l
Ġhealth y
Ġemp ire
ĠRev olution
ĠMazra eh
S pe
is er
ĠA li
Ġthem e
ile y
li ver
Ġatt itude
Ġsy mp
hm ad
Ġ197 6
Ġbene ath
Br other
B oy
P ol
ea u
Ġr hy
Ġr andom
ĠN ap
Ġsu icide
ep ing
Ġar rang
ci p
Ġ3 2
ĠBe fore
Ġequ als
erv ative
Ġtou ched
Ġdark ness
.... ....
ĠEd ward
Ġbelong s
Ġglass es
Ġdepend s
P re
R UN
p ired
w orth
it ors
Ġl ion
Ġl ift
Ġr ang
ĠU p
ĠAr thur
app y
Ġproper ly
ĠIsland s
Ġemer gency
ĠLin coln
Ġscar ce
ropri ate
M aster
f oot
m et
ĠC ross
un te
ĠW I
end er
hild ren
cer tain
Ġsim pl
Ġcol ors
Ġspend ing
Ġbath room
Ġanal ysis
Mic hael
3 2
N OW
Ġw ound
ing ton
Ġd ude
ut ies
un ction
ĠG il
Ġun able
Ġhigh way
Ġfun eral
19 5
Ġ198 6
Ġsix th
Ġcreat ure
Ġdel ay
ades h
3 9
B S
M A
T A
c r
c omp
g reg
l ar
l ock
n i
Ġf ate
or ney
Ġn est
ĠS H
ĠA is
ĠA unt
ĠM en
ĠH u
ĠD un
Ġshe l
ĠO ut
ĠK im
ca re
Ġwhen ever
az e
Ġrev olution
Ġdescri be
CH APTER
Ġdisapp ear
Ġreview s
Ġnumer ous
ĠSup reme
i ri
Ġt ort
is ms
Ġm ental
Ġto ile
Ġh m
ĠS and
Ġpl astic
ag s
og ue
ip ment
Ġsc ript
Ġwin ner
Ġhor rible
Ġcru el
Ġinvestig ation
B ar
Ġt ur
Ġh orn
ĠS el
Ġwh ist
ĠD uke
ĠE st
Ġle cture
ĠCl ass
Ġste am
Ġenjoy ed
ĠRec ords
g ive
h ot
ĠS ong
se x
her s
ĠH ome
ĠH oly
ĠG all
ĠG ame
os al
el a
ĠU h
av a
Ġer a
Ġnight s
Ġ198 5
ĠBe ach
Ġmark ed
Ġprot est
ĠBo ard
A VE
L ES
s ar
Ġb orrow
Ġp ity
Ġn ominated
Ġcon ce
ĠN E
Ġex cellent
Ġdra ft
Ġair port
Ġ196 4
Ġeight y
mm a
ĠCo ast
g aret
Ġto ols
Ġst ole
ĠA T
ĠT im
ĠW ater
Ġv ent
ens es
Ġtalk s
dd ie
Ġmer chant
rog en
Ġwood s
Ġple asant
Ġpot ential
Ġinj ury
Ġrecomm end
9 9
w ich
or ial
ĠA ny
ĠR ich
ĠN ether
ĠE s
ĠV ice
ĠIn tern
aw s
Ġcoll ea
ĠAt t
Ġrecord ing
Ġclose ly
Ġstrong er
ĠSw itzerland
Ġappl ication
Ġindepend ence
Ġswim ming
Ġinstru ctions
Ġwebs ite
m es
o cc
r ot
Ġt icket
Ġy ard
un ior
Ġ" "
ĠO ffic
Ġcomp osed
Ġed itor
Ġ197 8
ĠGerm ans
Ġpain ted
Ġcommun ication
Ġbud dy
S im
n ote
Â °
on ne
Ġc hampion
Ġf olks
ĠA dd
ĠC ub
Ġtr ains
Ġph r
Ġbad ly
app ed
do or
Ġoper a
Ġoper ating
Ġexc iting
Ġadv anced
Ġstat istics
ĠTur k
J e
R un
W he
ha i
Ġto ys
ĠI da
al o
Ġre ar
ĠM onday
ĠF IFA
ven ue
gg ing
ĠAr ch
Ġdra g
ipp ing
Ġcook ing
Ġperm an
Ġlone ly
Ġatm osphere
3 7
m outh
Ġt ear
Ġo k
Ġp ale
ar l
ir us
ĠM id
ĠD am
Ġsp r
the w
Ġcomm it
ĠCh ris
ont o
Ġ5 00
Ġ198 3
rop ol
Ġexpl an
Ġdef in
ĠMiss ouri
Ġrul ed
Ġphot ograph
Ġident ity
Ġobs erved
ĠTur key
Ġenvironment al
ĠAss y
B A
I ll
p ass
en cies
all el
ĠH as
cl ass
int o
Ġsy n
ĠAl though
Ġdec or
che ster
Ġburn ing
gl as
ĠFrancis co
quar ters
b age
i ac
Ġm ile
Ġd umb
as ters
ac hel
ĠR oss
ĠN ight
Ġapp ly
Ġreg ret
Ġcent uries
bs olutely
Ġill ust
Ġtrack s
ĠJe an
Ġadop ted
F in
Ġc ert
ot te
oo f
ĠA y
han iel
Ġbut t
Ġv ision
we ight
ov a
Ġcr ash
ild ing
Ġed ition
ĠSte ve
Ġsucceed ed
ĠJac ob
Ġrestaur ant
R ob
Y ep
b its
Ġt ub
Ġp uzz
om y
Ġme al
ge on
itt y
Ġ3 6
Ġ18 4
Ġfact ory
Ġ197 3
Ġref lect
Ġequ ipment
Ġengine ering
Ġappl ied
Ġmethod s
Ġcy cle
Ġfright ened
ĠSid ney
u y
w ait
Ġf ans
Ġre ference
Ġst ab
Ġan ger
ĠB attle
ĠB udd
Ġat h
ul s
Ġde vice
os is
ĠL uc
Ġke ys
Ġdes ert
Ġend ing
Ġinc ome
Ġ197 5
Ġ193 0
Î¿ u
Ġrid iculous
Ġrom antic
ĠGeorg ia
B oth
c ut
Ġb on
Ġd ump
Ġn ick
Ġbe ating
ĠB ank
ĠG rey
Ġprov in
ĠGu ard
Ġvol ume
Ġexam ples
Ġmor al
Ġcondu ct
Ġbab ies
H enry
e very
Ġf art
or gan
ver ted
ir s
ĠH olly
ĠB ab
ĠT est
Ġsu fficient
Ġv en
ag ger
Ġtr ained
Ġsp o
ens ions
Ġco vers
Ġcr is
Ġac celer
Ġvis ited
Ġconf used
Ġann ual
Ġvict ims
ĠBang l
Ġdisci pl
ĠAis ne
g reat
l ers
o be
Ġt orn
re te
Ġw o
Ġb ul
ĠA D
ĠB ush
ĠT ang
Ġj ealous
ne ver
Ġover all
Ġfl ash
Ġput s
ĠAl so
Ġ197 4
Ġ196 9
Ġsend ing
ĠEl izabeth
Ġclaim ed
Ġinit ial
Ġunus ual
M a
in ent
le ts
Ġre ject
if ying
ĠT a
un ting
Ġcons ult
ok ed
Ġinc ident
Ġfact or
Ġsk ills
Ġexper t
ĠMan ip
urs day
ĠSer geant
Ġindust rial
Ġshop ping
Ġfle et
Ġreve aled
Ġschol ars
Ġsympt oms
F oot
Ġto oth
at hered
Ġl ung
Ġre ward
Ġgo als
ĠO ver
Ġinc or
Ġ194 0
Ġcre ation
Ġdefe at
Ġsepar ated
Ġmathem at
G e
M ad
b al
g ie
n on
s en
t han
u ing
u able
Ġw and
Ġs an
Ġp ushed
ĠT er
ĠL ieutenant
ĠK at
ĠV al
Ġrem aining
Ġimp ress
att les
Ġinterest s
Ġhold s
Ġair craft
com ing
Ġauthor ities
Ġmass ive
Ġperm ission
Ġregard ed
h in
y cl
Ġ /
at han
ĠS ub
ĠB ow
ĠP ers
ĠT em
ĠL and
Ġwant ing
Ġsec ure
Ġcr icket
ham ed
Ġreg ions
Ġent rance
Ġass ume
ĠAn other
Ġmil it
Ġopp osed
ĠAd am
Ġdiffic ulty
Ġdep th
Ġda wn
ĠPhil ipp
Ġsurr ounded
ĠDis ney
Ġmob ile
Ġcuri ous
resp ond
Ġapprox imately
3 1
I L
M on
k h
Å ¡
Ġp ension
ar o
Ġn ort
st al
ĠB BC
ĠL ib
ĠN ob
ĠV an
ĠIn c
Ġchar ged
Ġinter rupt
Ġdri ven
Ġ197 2
Ġprov ides
Ġcontro vers
ĠAb out
may be
ĠOff ice
intend o
à ¦
Ġt alent
ou ch
Ġc ore
Ġg ained
ut ation
ĠC ont
ĠH ol
ie ur
Ġsh ift
ost er
Ġgr ade
Ġdes k
fect ure
oun ce
ON E
Ġclot hing
Ġfort une
ĠKore an
Ġbal ance
oog le
F ive
Ġf o
Ġp ed
Ġdo ctors
ĠG reg
Ġso ci
ak ers
Ġsp ite
Ġro de
Ġdes erve
ib i
ĠNew s
Ġsub sequ
Ġimp ression
ĠCl a
eng ers
Ġmur dered
Ġla unch
ĠMc C
ev in
Ġjump ed
Ġsour ces
ĠGree ce
Ġveh icle
U M
f ly
f ire
l ies
Ġ ing
Ġw aves
or age
Ġg or
ent ed
st ers
st ance
ad or
ĠC ro
Ġse ed
el ine
ate ful
own ed
Ġact s
Ġmar gin
Ġbo om
Ġinst ant
Ġsit u
Ġmusic ian
Ġlad der
Ġbur st
Ġaffect ed
Ġadminist r
Ġpregn ant
Ġg rey
ap ore
hing s
Ġact ed
ons ense
Ġrel ation
ple ment
Ġbit s
ĠInd ians
Ġ196 8
Ġdem ocr
ray ed
Ġobject s
Ġmir ror
S aint
it ure
Ġre ign
ĠA p
Ġact ions
av an
cl usion
Ġstud ying
Ġass ign
Ġcap able
Ġposs ibility
Ġocc as
Ġcheck ed
ĠDan ny
Ġinit i
Ġgodd ess
ĠDire ctor
ĠStep hen
iffe rent
F C
c ase
Ġb rilliant
Ġc ats
Ġy o
Ġre in
ĠH ong
ĠB alt
and ie
ĠD i
ho ot
up on
az ed
Ġlist ed
Ġlead s
Ġhor ror
enn es
Ġview s
Ġgra v
cher s
Ġliter ally
Ġwide ly
Ġreven ge
duc ation
S how
T en
t ake
Ġb ones
et ime
Ġre fe
ĠC D
ĠB ook
Ġr ings
ĠE ric
Ġbo ats
ĠAl ice
Ġdrink s
Ġ194 5
Ġvide os
ĠSy stem
Ġearth qu
Ġbene fits
Ġdistrict s
elp hia
Ġsac red
Ġcerem ony
Ġescap ed
C ong
N O
f irst
v o
Ġw ra
Ġst ress
Ġkn ocked
ĠR yan
ĠN an
em et
ĠJ ill
Ġgu arant
Ġele phant
Ġcons ists
Ġstr anger
Ġiss ued
Ġpract ical
IS T
Ġcult ural
Ġredu ced
Ġwat ers
Gr and
Ġsuff er
Ġinhabit ants
l ittle
m ic
Ġb en
Ġm ent
Ġf uel
et e
ĠS on
ĠS ab
ad elphia
Ġst olen
ear ch
Ġun s
aught ers
Ġprogram me
ask a
Ġcop s
Ġinvest ment
Ġindivid uals
Ġcapt ure
Ġdeb t
Ġgradu ated
Ġtyp ical
Ġpil ot
b b
u v
Ġt ip
ea ble
ĠT op
ul se
Ġne ut
um ble
ĠN intendo
Ġpro fit
ĠE le
ak s
Ġmon ster
Ġ15 0
Ġdel ivered
Ġroad s
hampions hips
Ġnecess arily
Ġblock s
ĠTai wan
Ġast ron
Norm andie
N E
R obert
T ime
b ach
Ġw ire
Ġc rap
ĠI ra
Ġe ager
ab s
Ġar ts
AT OR
Ġtem ple
Ġcop ies
Ġver t
Ġcomb ined
Ġhop ed
Ġadminist ration
ĠVictor ia
Ġneighbor hood
M us
k ind
n ame
v ior
Ġt ale
Ġs ought
Ġf asc
Ġf estival
en ly
es ome
om pl
ri x
ĠA k
ĠM ah
ur g
un a
Ġr ush
ĠD av
ĠO liver
ous ing
ord ers
Ġown ers
Ġreg ional
Ġsw all
oun ced
Ġpass age
ĠAs h
Ġequ ation
Ġshort ly
arr ing
Ġvo ices
II I
ĠCol onel
Ġmach ines
Ġtend er
ĠBas se
ĠNether lands
L ittle
P eter
S w
c ould
d og
g ust
p ol
u er
z y
Ġm art
Ġf ed
Ġto mb
Ġp ants
Ġl oyal
ot i
Ġit ems
ir med
il ton
ĠW alk
iam i
Ġconf idence
Ġtre m
Ġvers ions
ĠJust ice
Ġprinci pal
ĠRad io
ĠColumb ia
Ġtoile t
3 3
B O
H L
f in
y gen
Ġb om
Ġm ama
es se
at i
Ġsp lend
Ġgu ests
Ġrem ove
Do ctor
Ġacc ompl
Ġmom ents
Ġbre ast
Ġ196 3
Ġest im
Ġsn ake
ĠRep resent
Ġfair y
Ġdev ices
Ġver te
Ġprison ers
Ġpers ons
ĠWil son
Ã³ n
Ġstrugg le
emet ery
C o
I nt
R Y
Ġp upp
ke l
ĠB us
Ġcon clud
Ġex ha
Ġour s
de rer
St ep
Ġperson ally
row s
Some body
Ġfig ured
Ġbow l
nes day
ĠChan nel
ĠSing apore
Ġsatisf ied
ĠAdm iral
Ġshad ow
b ra
c us
i ency
n et
t ell
Ġm ud
Ġm amm
Ġin fect
Ġn aked
ĠS C
ĠT ok
un ts
Ġr ising
Ġj ew
ĠR on
Ġro pe
Ġpr ote
Ġim plement
Ġsc enes
Ġperson ality
Ġdisc overy
Ġpar ish
Ġmark s
Ġbes ides
ĠRail way
Ġmaid en
Ġgrant ed
ĠSwed en
J o
m ade
o ard
Â ´
ã ĥ
ĠC ho
ĠB rian
Ġv ast
ĠO s
Ġcont ext
Ġsl ide
Ġsur gery
Ġstr ate
Ġins ult
Ġcontro lled
Ġ194 7
Ġorgan ized
Ġdiscuss ion
Ġbran ches
ĠMet ro
Ġpoll ution
Ġnuc lear
P res
b ro
Ġa id
it ched
Ġb ike
as ha
ĠS P
ĠS cience
oo h
ct ive
Ġkn ees
Ġr ice
ĠG re
We re
ĠAr ts
Ġext ended
Ġheart s
ues day
Ġexpl ore
Ġbed room
ĠSen ator
ĠAlex ander
Ġbeg un
Ġdemon str
ĠWal ter
Ġliqu id
Ġansw ers
Ġarrang ed
A ye
A lex
B el
C T
b ird
u i
v or
it ter
Ġc hampionship
en ess
Ġto ast
Ġn urse
ĠC op
ĠC ape
Ġj ury
ud a
int on
Ġshould ers
Ġsm iled
Ġ3 00
Ġchild hood
ĠAr k
ĠAr gent
St and
Ġbit ter
Ġphot os
Ġide al
Ġemot ions
Ġintell ect
Ġaltern ative
Ġstrate gy
B en
E M
O H
p ent
p op
s l
er ted
Ġp iss
om be
us ive
ĠS ure
ul ed
ĠW he
Ġ19 20
Ġun like
Ġte en
Ġgl obal
Ġmet ers
ĠCon ference
Ġelect ions
ĠCha ir
Ġkiss ed
Ġredu ce
Ġanal y
Ġcompos er
ĠPic ard
w ind
Ġt ries
Ġs oup
Ġf ond
at ures
Ġl ately
Ġh ockey
ur ches
ĠH ay
th ony
ĠN i
Ġno ble
Ġer ror
ĠBr idge
Ġins pired
Ġalong side
Ġ194 4
ĠYOU R
aur a
Ġmax imum
ĠDou glas
Ġaband oned
T alk
m ail
er able
Ġp our
ĠC orn
ĠP en
ol ves
ĠW E
ĠD ie
ĠG er
ĠL l
ra k
It s
ud ge
Ġsp ons
ĠSt uart
Ġcont em
ĠBr and
Ġdri ves
Ġtrans form
Ġreturn ing
ĠSha h
Ġill ness
su it
Ġexec utive
ĠEr asmus
Ġemot ional
Ġdesp ite
Ġarchite ct
Ġmere ly
Ġdom estic
Ġcandid ate
9 5
B I
B esides
P P
Ã ±
Ġw ars
ha w
Ġc hamber
Ġg athered
Ġfor b
ĠC hi
ĠM D
ĠM aine
ĠR od
ĠN ever
ĠO tt
ĠSt ation
Ġlet ting
Ġ3 7
Ġlist ened
Ġmind s
Ġprom oted
Ġ196 7
Ġpar liament
ĠAust ria
Ġann oy
Pro bably
Ġeld er
U ntil
Y o
p o
r ons
Ġc raw
an ed
an ks
Ġp eak
Ġl t
im b
if ts
ĠB ad
th rough
ĠE ve
erson al
Ġacc ur
Ġ197 7
Ġ196 5
Ġdi agn
Ġarchite cture
ĠMu hammad
ĠProt est
Ġpunish ment
B ring
F ollow
p ite
Ġt ack
Ġm al
Ġf ab
Ġto y
Ġy ards
Ġn uts
ĠF ire
ap h
omet hing
Ġim ages
Ġunder ground
ons ieur
Ġsc ored
Ġpos itions
Ġoper ated
Ġattack s
Ġvill ages
Ġdep os
Ġclub s
Tr ans
Ġquiet ly
Ġsac rif
ĠBet ty
ĠIda ho
H ar
K ing
S ix
an es
Ġg ri
Ġr ug
art s
ĠN et
ia o
Ġhouse hold
ott ed
Ġchar t
Ġass ault
Ġstr ateg
ĠHow ard
Ġpar allel
Ġprofess ion
rat ulations
Ġjack et
4 7
g ers
w oman
Ġf oss
at ically
Ġh ills
Ġth read
st an
ĠC roat
if er
ĠH E
Ġat om
ul es
ĠF ord
ĠO w
Ġag ents
oy d
Ġapp ropriate
ĠAs sembly
Ġste pped
Ġcut ting
ĠAb d
Ġcrit ics
pha s
ĠPal ace
Ġelectric ity
Ġvot es
Su per
D ear
G eneral
l ad
n or
on i
Ġf ulf
ĠG a
ig s
Ġthr one
Ġcomm ander
Ġsm iling
Ġwar ning
Ġmeet ings
Good bye
ament al
uk i
Ġexist ing
Ġsail ed
Ġchair man
Ġintrodu ce
Ġspirit ual
Ġheav ily
Ġexplan ation
B ill
c ia
t an
Ġo ption
Ġc ooper
ed nesday
ic ia
Ġh unt
Ġwas hed
ro id
ir ts
ord inary
vel ope
Ġrel ief
ĠAn na
pr ise
Ġpur s
Ġrepl ace
Ġdoll ar
Ġphys ics
ĠSar ah
Ġpers u
Ġepis odes
Ġbeha vior
Ġconstit ution
ĠRog er
Ġcapac ity
A bsolutely
t es
u ate
it led
Ġp hen
Ġp ump
Ġst im
Ġst airs
ill ing
Ġse lect
os c
od ge
pe ople
ick ing
Ġhead ed
pect ive
Ġdef ense
Ġ194 1
ĠComm ander
Ġexpect ing
Ġengine er
Ġvol unte
ĠMex ican
ĠTor onto
SP EAK
Ġdram atic
" ...
H ang
N one
N ARR
c ried
Ġwas hing
ĠC ir
Ġk itt
Ġas hamed
ĠB C
Ġal pha
ĠJ ay
ast ed
ci ences
hed ral
Ġcomp ar
Ġset s
ĠMar garet
ĠRe ally
OU LD
ĠSo cial
Ġalbum s
Ġcross ing
ĠEm ily
ĠNot hing
Ġviol ent
Dad dy
Ġfrequ ently
Ġox ygen
ĠHon or
Ġexped ition
F ind
M ary
P ar
k now
Ġd aughters
Ġin se
Ġe fficient
ly ne
ĠH AVE
ĠT an
Ġadd ing
Ġtre asure
Ġmess ages
Ġdescri ption
Ġproject s
Ġpresident ial
Ġsubject s
ĠPhil adelphia
Ġexperien ces
Geor ge
NARR ATOR
B Y
K en
m ont
y ard
Ġd ow
et ers
st ru
Ġse ats
ĠH it
ĠT ake
ag ers
Ġco ordin
IN E
ĠTh us
Ġcol umn
ĠCent re
LA US
Ġident ified
Bl ack
Ġbase ball
Ġpir ate
hell o
Ġconvin ced
4 8
O w
g s
g ic
Ġc od
Ġto ol
us a
un es
Ġgr ateful
Ġpart ly
iss a
Ġpre cious
Ġdist ingu
ĠInd ones
Ġless on
ode cahedron
With out
Ġserv ant
Will iam
Tw enty
Foot note
ĠPicard ie
. &
E s
H on
S H
S y
o ons
r in
Ġs am
on ies
Ġd ating
ac her
ĠB ible
un s
ĠW el
Ġne at
ĠD NA
ab el
Ġgr ay
Ġpr on
Ġcont ained
ĠTh ursday
Ġsoon er
Ġhat ed
Ġcor respond
Ġdel icious
augh ing
Ġmur derer
Ġproper ties
Ġrail road
ĠCor por
Ġprep are
Ġaff air
Ġdoc uments
Ġvac c
Ġille gal
E ach
e ven
h us
r im
Ġc attle
ll y
om ed
ot y
ĠB ha
Ġwor n
be en
Ġdiffe rences
Ġform at
Ġcoll abor
ĠJohn ny
Ġrep utation
Ġsit es
Ġpick ing
ĠLe on
Ġallow ing
Ġabs or
Ġabs olute
ĠAir port
sm ith
Ġtele phone
Ġadult s
Ġmyst ery
ĠDaw son
d ney
r ison
Ġf aced
ac c
Ġnot able
ĠB and
Ġr abbit
ĠL iber
ig a
em a
Ġnow here
hen s
Ġsm ooth
Ġland ed
ĠAll en
Ġadv oc
Ġappro ved
Ġtest ing
Ġess entially
Ġexperien ced
Ph il
R el
p ur
Ġw icked
or i
Ġp ant
Ġth ir
Ġas h
Ġas ks
ch o
ĠF air
Ġpro sec
ag ne
Ġen orm
ix on
ful ness
Ġ4 8
Ġca using
Ġext end
AR D
Ġfriends hip
Ġnat urally
ĠTe am
Ġcollect ed
bour ne
Ġinit ially
ĠHaw ai
ĠSant a
Ġlat est
W ant
r um
u ji
Ġthe atre
Ġf er
Ġh its
Ġbe ings
ri el
Ġst able
Ġst ones
ĠB illy
ĠP ower
ol i
ĠW as
ĠW AS
ry ing
pe i
Ġtw in
Ġinv asion
Ġstop s
Ġob lig
Ġprob ability
Ġpur ple
Ġadm itted
Ġdi pl
Ġstar red
Ġprinci ple
Ġpossess ion
Ġprec ise
L RB
Y et
d iv
f a
l ims
p ack
p ool
he me
is k
or ious
en ote
at tered
ĠS in
out s
out heast
all ing
ĠH ard
op her
ea ut
ĠP ublic
ĠG ib
ist ol
ud es
Ġag es
Ġsp oon
Ġbr id
gin es
Ġcour ts
Ġpass es
Ġlarge ly
Ġpull ing
Ġbreat hing
Ġpurp oses
ĠSim on
Ġsust ain
R RB
d ie
Ġt ank
Ġo oh
Ġp ipe
se a
... !
Ġch rist
Ġchar ges
Ġsing les
Ġext ent
Ġequ ival
Ġdef ined
cha e
Ġappoint ment
ĠCamp bell
Sid enote
ĠBru ce
B rit
l aughter
Ġt ropical
Ġb one
or ation
Ġl over
Ġn it
ic ians
Ġth orough
ĠC y
ĠH ospital
ĠP op
ĠF C
Ġnew ly
Ġform al
ĠDe ath
Ġmod els
ĠBe at
Ġamong st
ĠDad dy
Does n
Ġded icated
ennes see
L ou
L ong
M c
P art
z ing
Ã £
Ã §
Ġw ow
or ig
as er
ĠS k
ri ve
ĠA S
ĠM Y
Ġshe et
ĠO per
ĠU P
ark s
Ġatt ached
Ġhead quarters
ib ilities
Ġval uable
Ġbeat en
Ġclaim s
Ġban ks
Ġthreat ened
ĠOlymp ic
Ġintern al
keep er
Ġlic ense
Ġren amed
ĠMill er
7 5
A ren
A ss
t ure
w alk
an ne
Ġin du
ic it
ac les
ĠA g
ĠP ost
ĠW ork
Ġde ce
ĠR a
Ġus er
ĠHe alth
ne ath
Ġdown stairs
ĠV ol
Ġad j
te enth
ock s
Ġent ry
olog ists
Ġrest rict
Ġhur ts
Ġport ion
US T
Ġstore s
ĠGold en
Ġrepe at
ĠBro ok
Ġsli pped
Ġexerc ise
ĠIra q
4 2
M um
M ike
P ardon
b us
Ġ Ä
in er
Ġw ing
Ġs ink
is en
Ġf ir
Ġth ief
am my
ith m
ĠM iami
ĠH art
ĠG oogle
ĠF ederal
Ġus eless
ĠE v
ag a
Ġag ency
ĠĠ Ġ
Ġpr ide
Ġwhere ver
Ġyoung est
sh it
Ġdevelop ing
Ġclass ic
Ġaw ake
Ġstrong ly
ida e
Ġgen us
chan ge
Ġtax es
ĠRob in
4 3
4 9
Ġd omin
st ate
ur rent
em on
Ġv ul
Ġgr ace
ĠY ug
ret ty
Ġstand ards
Ġ195 4
ĠMin istry
Ġclean ing
Ġtechn ical
Ġspir its
Ġjournal ist
Ġrelative ly
ĠHarr ison
Ġresc ue
ĠFre ud
ĠIntern et
M ust
c ular
d ers
i ro
p han
an et
Ġd ates
Ġn ap
ch ild
ĠB ah
ĠT oday
um ps
ĠN a
Ġar gue
Ġpe asant
ĠSt one
Ġun happy
Ġpar ad
ĠCon ne
Ġorgan izations
Ġsuper ior
Ġneg oti
Ġregard ing
Ġble w
Ġalt ogether
Ġmyster ious
8 6
C omp
M S
S ub
e qu
f le
r idge
u ct
Ġw ishes
nd e
Ġf aint
Ġd ea
Ġg al
Ġg ross
Ġth rill
se ll
ĠC ole
Ġan gel
Ġas sociation
Ġse ized
ĠP rem
ĠW ait
um a
ĠR ober
ens ity
uck er
tern al
Ġlea f
St ar
Ġ196 6
Ġwond ered
Ġsol o
Re ady
Ġ195 6
Ġconf ident
Ġru ined
Ar t
ĠRoman ia
Ġpolic ies
Ġinj ured
Ġprint ed
Ġacqu ired
Ġlin ear
L aughter
P at
a way
o a
Å Ł
á ½
Ġthe ater
Ġf isher
Ġy ield
Ġin ch
Ġan ch
est ion
os lav
ĠN ar
hi bit
pl ane
Ġun conscious
Ġcar riage
ran e
St ation
Ġru in
Un cle
ĠPol ish
ĠMus lim
Ġopportun ities
Ġnewsp apers
Ġresour ce
Ġpir ates
Ġvessel s
Ġfant astic
Ġdesper ate
Ġphr ase
ropol itan
A w
A hmad
C L
s pe
in n
ha h
id ers
im ore
ĠA ld
Ġkn ight
ea gan
ĠT uesday
Ġso ap
Ġup d
ud i
Ġdis ag
tain ment
Ġgreat ly
Ġch oo
Ġel imin
Ġri vers
Ġes c
Ġinvol ve
Ġforest s
Ġcell s
Ġdeb ate
Bet ter
Ġwrest ling
Ġinvent ed
D O
V ID
g ro
s uch
w anna
Ġt ube
Ġc otton
ic ing
ir it
oo re
her ry
Ġse lection
Ġgo sh
ĠG ordon
ĠR u
ĠF ound
Ġpro f
ber ry
ĠHe ad
Ġen gines
Ġlast ed
Ġop ens
Ġmight y
Ġform ation
Ġstr ict
less ly
velop ment
Ġfell ows
Ġcompet e
Ġcomput ers
Ġang le
Ġsecret ary
Ġdistribut ion
Ġadvent ure
C r
r ary
Ġc ant
Ġl ap
Ġn arr
ĠI D
Ġbe gged
ĠS uff
ĠP ut
ĠT ennessee
the less
ail ed
Ġshow er
Ġcr imes
Ġworld wide
Ġsl ip
Ġacc used
Ġem peror
Ġ194 8
Ġconf irmed
Ġconcer ns
Ġgrand father
Ġgen ius
Ġvac ation
AC K
Ġemot ion
Che ck
Ġplatform s
Ġoccup ied
Ġtick ets
Ġprovin ces
4 1
P oor
c har
e pend
h um
p ress
r ace
Ġt iss
in ations
in ction
Ġf ake
Ġd uties
Ġbe nd
Ġre aching
oo s
ĠA venue
ĠM ot
ter y
ĠP oint
um ph
Ġab oard
ĠL uther
ĠK an
ĠK ings
Ġoff ers
Ġoff ering
Ġgu ide
Ġinc hes
Ġart icles
Ġhur ricane
Ġ196 1
Ġsqu ad
Ġ194 2
Ġeight een
Ġmer ged
Ġarri ve
Ġsurv ived
ĠTol ombe
Ġdefin ition
ĠTolombe h
9 7
E F
N ER
i per
u ght
ã Ĥ
is p
Ġb ot
Ġc ub
or f
or ous
ad ies
ĠM ust
ĠB ase
ĠF amily
Ġsl ave
ĠAl bert
io let
sel s
For get
As k
Ġ195 2
ĠChar lie
Ġcompet ed
Ġpriv ile
Ġserv ants
Ġhost ed
Ġlie utenant
Ġthrow ing
Ġsevent h
ĠJew s
Ġlif ted
Ġapolog ize
Ġeth nic
Ġincred ible
Ġperman ent
ĠTok yo
eaut iful
4 4
R ed
m aster
Ġs ample
Ġb old
Ġm ath
Ġto ler
le te
ad er
ĠA mb
ĠB ishop
Ġr ic
Ġal gor
el son
Ġsa ving
ĠO ri
av ig
Ġfound er
Ġhead ing
Ġreg ist
pect ed
Ġret reat
ged y
Ġmove ments
Ġconst antly
Ġprim arily
Ġcelebr ated
Ġbac ter
Ġconstru cted
Ġconc rete
Ġnea rer
Ġpha se
ĠHolly wood
* *
I G
d in
g as
Ġa wards
Ġw reck
Ġs ou
is y
Ġo bey
Ġl ob
ĠH o
ĠT ell
ul ating
Ġj am
ĠG en
ĠR o
Ġsh oe
Ġcon ven
ĠN ations
Ġv ain
ĠO ur
ĠK al
Ġint ense
Ġwr ites
ip ed
Ġlong est
Ġ3 3
Ġexp ressed
Mm m
Ġ196 2
Ġclass ical
Ġdiv ide
ĠAust en
Ġbag s
Ġident ify
Ġhol es
ĠMount ain
Ġmemor ies
ĠÂ £
Ġrapid ly
H oney
R es
w he
is bon
it als
Ġb ent
Ġb ars
Ġf rank
Ġf iction
Ġd oo
om er
Ġn ic
Ġre b
ur ation
ĠP LA
ĠW ars
ĠL es
ig en
ag le
Ġtr unk
urn ame
Ġsc heme
ale nd
Ġsw ift
Ġem phas
Ġ7 5
ues e
Ġri val
Ġreason able
ĠAb b
Ġlo an
ĠReg ion
Ġintellig ence
Ġearthqu ake
M ark
e enth
in stein
Ġm ars
Ġn a
ic op
ut er
ĠC ost
ĠW ednesday
ĠL at
ĠK NOW
so ft
pt on
ru its
Ġfl ed
ĠAr men
Ġdist ant
Ġinst inct
Ġpass engers
ES S
ask et
Ġtest s
Ġwood en
Ġearli est
Ġprinci ples
Ġachie ved
ĠMat thew
Ġinstr uments
Ġpaint ings
Ġsem i
Ġcateg ory
Ġkil omet
mom my
O b
S outh
W est
c ers
g ate
w orld
Ġ utter
it able
es ar
ĠH ad
ĠH ur
ĠH og
op p
ĠP ress
ĠT ar
ĠG ardens
ĠF a
ĠF orm
ĠF ield
res ents
Ġpro port
ĠE ddie
Ġint ention
ĠU s
Ġro lled
Ġ3 8
ott o
Ġfour teen
Ġob tained
Ġinter act
Ġmed ium
Ġdeath s
Ġaw esome
Ġ195 8
ĠBar b
Ġliter ary
Ġhonest ly
ĠMount ains
ĠOffic er
Ġcris is
Ġsplend id
r ors
Ġs ang
Ġp ushing
as ia
Ġg rief
Ġth under
ĠC hildren
um in
ĠL ew
ĠJ oy
ood y
Ġv ice
Ġwho a
ĠU t
erm ans
ord an
ĠV eg
Ġrem ote
Ġ4 00
Ġgl ance
Ġpass enger
Ġrep ly
Ġmod e
Ġ194 6
Ġarri val
Ġexcept ion
Ġrecogn ition
Ġsail ing
ett le
ĠMary land
Ġdise ases
Ġaff airs
Ġpray er
Ġrough ly
Tom orrow
S on
d s
s ix
t w
w ick
Ġw oke
Ġw ounds
Ġs na
it ement
Ġm os
Ġm ouse
an while
Ġe c
ĠT ha
ol ve
Ġsh ining
Ġwhe els
Ġv on
ĠO b
ag ain
Ġdis gust
Ġpre ced
ĠDe f
Ġass igned
Ġcreat ures
Ġanim ated
Ġinde x
Ġmer ry
Un less
De ath
udd enly
ĠBoy er
Ġclim b
M ur
m ate
m ates
s k
Ġs orrow
Ġd ign
Ġin her
at on
ot es
id ency
Ġst arring
ĠP ot
Ġr it
ĠG ive
ĠR el
ĠF ive
nt own
ig hed
Ġpl ates
ĠE ducation
ort ed
Ġint ent
ass es
Ġbr ush
St art
Ġprodu cing
Ġ194 3
ES T
ĠSy dney
Ġrelations hips
Ġimmedi ate
Qu ick
ĠSil ver
ctic ut
dad dy
ĠHea ven
a a
d r
j e
j ud
l og
Ġb rig
Ġc oc
Ġd ull
Ġp owder
le ans
id el
ĠC ontin
ur ther
ĠB or
ant ry
ĠP o
ĠG i
ĠG ot
Ġal ien
ĠR eagan
ĠF ace
ab i
ĠJ erry
ra ve
ĠE lect
itt s
av ed
Ġcount ing
Ġch urches
Ġfact ors
Ġless ons
Ġstra w
Ġmot iv
Ġdeep ly
Ġamount s
Ġterri f
Ġannoun ce
ais y
Ġdistribut ed
G irl
M or
T hings
m ission
â Ĥ
Ġp up
ĠI V
ĠA M
ĠM A
Ġli ed
Ġkn ee
ol and
ĠL A
ĠL ion
em ed
ĠJ ess
Ġus ers
Ġpe e
Ġcl oth
ĠV iv
Ġunder neath
Ġpo em
ect ive
Ġser ves
Ġbel t
ĠDe an
Ġev al
Ġext ensive
ĠSp eak
Ġstru ctures
Ġ193 8
Ġgrand ma
ĠUS A
ĠChristian ity
Ġhistor ic
pir ation
Ġcustom ers
Ġwhis pered
Ġpoet ry
Ġtroub les
Ġrhy th
I VE
O ld
w all
Ġb oring
Ġp ond
Ġl oving
al ph
ĠA my
ĠC reek
ul pt
ĠD yn
ĠThe atre
Ġro ots
per t
int s
Ġmon arch
ĠZ e
Ġpresent ation
Ġdiv ine
Ġtem porary
ĠTe chn
Ġmist akes
Ġfac ilities
Ġextra ordinary
Ġgodd amn
Ġreck on
ĠBangl adesh
Ã£ o
8 3
I A
l aughs
n is
Ġt ag
Ġb ark
Ġit em
ĠS of
Ġst orage
ĠA lf
ĠM m
ĠH istor
ĠB all
th ink
ra it
the se
Ġ4 6
Ġdec ent
Ġtra p
sh ine
Ġ195 9
Ġprotect ed
Ġprison er
ĠSte ven
Ġess ential
Ġspecific ally
Ġrare ly
ĠManip ur
S uch
i i
p at
r ine
s a
z ed
Ġa ye
Ġf ox
Ġin ner
Ġg est
Ġg reet
st ock
ĠA ff
Ġk ings
Ġr ural
ĠL ind
Ġ( _
Ġex ists
Ġsp aces
pl ess
Ġpr ices
Ġad apt
Ġsy nt
Ġrep resents
Ġsound ed
Ġopp osition
ald a
Ġsweet heart
ograp her
ĠPol and
Ġconsider able
Ġvisit ors
ĠSpe cial
Ġdivor ced
Care er
avar ia
ĠViet nam
Ill ustration
G RUN
K ill
d ist
ha b
Ġto ss
Ġh oly
ut or
ĠS n
Ġdo de
ĠH or
ĠG or
Ġint end
ĠU N
Ġfe ver
ĠV ery
Ġgu ards
Ġhand ed
Ġrec overed
gg ie
clud ing
Ġexp osed
Ġoffic es
Ġprov iding
ĠChrist ians
Ġdep ression
ĠSer ies
Ġsearch ing
ĠMus lims
Ġofficial s
Ġcelebr ate
Ġcondu cted
Ġunivers ities
Ġbub bles
Ġfart her
H ad
S am
T ony
c ham
l E
l ast
t it
v ation
Ġt une
er ick
it age
Ġd irt
Ġp unch
us hes
Ġbe ast
ĠS ix
ĠC ass
ĠM un
ĠH un
ĠB ud
rom ise
Ġor phan
Ġwho ever
Ġtr am
Ġsc ary
tain s
hes is
Ġwar n
Ġ194 9
Ġrequ ires
Ġdam aged
Ġrepresent ing
Ġexist ed
ĠMo z
Ġintern et
Ġgradu ate
ĠFore st
Ġaccomp an
ĠLab our
ĠTurk ish
Ġincor por
Cong ratulations
ĠSuff olk
) :
B ad
F e
S il
U s
l ow
Â Ŀ
Ġa ired
Ġn onsense
id ering
Ġe y
st ar
ch i
Ġor chestra
ĠL ive
ĠN ed
Ġsa uce
oc ation
be fore
Ġ5 5
Ġdist ract
Ġass ass
ĠSo on
Ġwind s
ĠOn ce
ĠLe g
cent ury
ĠCol or
Ġgrad ually
ĠPan ama
ĠTai pei
Ġmanufact ure
ĠPortug uese
ĠEnter tainment
Ġtrem end
ĠConne cticut
' ?
U CK
Â ¶
he astern
ou st
Ġc ows
Ġf are
or ters
Ġd ial
Ġh id
Ġis ol
ĠG ene
Ġsh ops
os ity
Ġar c
Ġcl in
So on
Ġback wards
Ġen velope
Ġcont aining
Ġrec on
ah n
AR T
Ġpartic les
cri bed
Ġsum m
Ġnat haniel
Ġsafe ly
Ġpolic eman
Ġclos ing
Ġbreat he
ĠPol ice
Ġdepend ing
Ġfund s
ĠMor gan
Ġinj uries
mus ic
Ġsurr ounding
Ġtyp ically
Ġbare ly
Eng lish
Ġenorm ous
4 6
? '
b urn
n els
p iece
z es
in burgh
re c
Ġb ond
ĠI r
ion e
ĠS uch
st ract
ĠC as
ĠC AN
ĠH oll
il st
Ġr ude
Ġr acing
Ġj azz
ĠG ro
ĠK night
Ġcl own
Ġbu ff
IN D
Ġfact s
Ġins ist
ĠGr ant
ĠAust rian
ffic iency
Ġ193 9
IC E
Ġattempt ed
Ġlink ed
Char les
Ġfro zen
ĠHot el
Sec ond
Ġretire ment
Ġadministr ative
ĠCorpor ation
H al
M ind
d ale
i ors
r ome
re ally
is dom
Ġin cl
Ġn ations
ot hy
Ġbe ars
im m
ĠS av
ĠC ru
ain ted
ĠG ET
os ure
ĠN OT
han a
Ġcom ic
we ather
Ġsha res
Ġkind a
de f
ret t
Ġind ic
Ġvis ible
Ġcamp us
Ġlad s
Ġrese ar
Ġhop es
Ġaccount s
Ġfrog s
rib ute
Ġdun no
ĠYug oslav
J ul
m n
m itted
o ft
re nder
ac ement
ĠM i
ĠB re
ĠB ir
ant le
ĠT urn
Ġcan ce
ĠF ame
ĠL ow
Ġher s
ous ed
Ġact ors
ars on
Ġcle ared
Ġfun ctions
Ġelse where
Ġcond ens
Ġstar ing
Ġlim its
Ġring ing
Ġinflu enced
Ġintrodu ction
uel a
Ġbeha lf
Ġfoc used
ĠAnt on
Ġanx ious
Ġwrit ers
C al
Ġ vel
in et
re p
Ġs ession
Ġd well
ar se
ay an
ĠS ometimes
Ġse ated
ĠH ou
ĠB os
ĠB aby
ĠW rest
Ġal arm
Ġsh ield
ig r
ck er
ĠE p
Ġv oted
fe ld
ans ion
Ġrec over
Ġland ing
ai ries
Ġprom inent
Ġcontro ls
Ġopp on
ĠOr leans
Ġimag ination
Ġjud gment
Ġpers pective
Ġdig ital
Ġdeterm ine
Ġdocument ary
spect or
Ġstro ke
Ġfeather s
Ġnort heast
Ġgrav ity
ĠRepresent atives
B oss
d am
n um
Ġw ax
Ġs ar
Ġs urname
Ġf etch
Ġy Î¿u
ĠI ce
al ie
Ġst amp
all as
if ted
ĠH ook
ĠB ul
ĠB avaria
un ning
Ġex cess
ber y
Ġfe e
Ġper ce
Ġcr ay
ug s
Ġsur vey
Al ways
Ġterm in
ĠPl atform
ĠComm on
Ġperform ing
ĠTH IS
Ġpal m
Ġsens itive
Pl ay
ĠDar ling
lem n
Ġtransfer red
Ġcompon ents
ĠBalt imore
Ġthir teen
Ġequival ent
. !
6 7
C han
G O
I LL
L u
L ater
r ong
r ound
y ep
re hens
Ġb ills
at ers
st ream
ĠC hile
ĠM oon
Ġse as
Ġse eds
ĠW ild
ĠR us
ĠL O
ck ets
ĠE conom
ĠK evin
ide o
ure au
Ġbu zz
Ġ3 9
ever al
gg er
Ġsl aves
ĠAnd y
Ġent ering
Ġmet ro
ung le
Ġev ident
Ġmusic ians
Ġequ ally
Ġvis ual
Ġexc itement
enn is
Ġtem pt
Ġappear ances
Ġtit les
eder ation
Ġgar bage
iff s
Ġfeed ing
Ġfarm ers
Ġsequ ence
Ġsusp ic
Mart in
C oll
p ower
r ings
Ä ±
Ġ +
Ġb ass
Ġb unny
Ġc hips
Ġf ierce
Ġin put
Ġg ently
al ia
Ġre jo
ĠS ally
st ruction
ri ans
ĠB ry
ĠT ower
ge ous
ĠR an
Ġcom ments
ind er
ite i
Ġevery day
Ġad just
Ġdis hes
Ġatt orney
Ġstop ping
ĠAn cient
Ġ6 5
Ġrep rodu
Ġfil es
Ġpay ment
Ġref ers
Ġspeak er
Ġbed s
ĠSh ut
Ġdifficult ies
ĠSar had
Ġblow ing
ĠPat rick
Ġdemand ed
En ough
Ġremark able
Ġbub ble
M ed
R ic
S ame
m al
m ill
u ine
on om
Ġc alend
ĠS erv
st op
ri fic
Ġst ack
ĠA B
ĠC amer
ĠM att
qu iao
ck now
ĠSt op
Ġgood bye
Ġrec ycl
ild a
gr ad
âĻ «
Ġent itled
Ġsix teen
ĠSc ots
Ġsupport ing
Ġsuccess fully
ĠAd ams
Ġmer cy
com fort
Ġattract ed
Ġnuc le
Ġentertain ment
ĠWI TH
Ġsacrif ice
A ha
R ec
l on
o ir
v ol
Ġa uth
Ġb id
Ġb ore
ot al
ay a
Ġbe ans
Ġe ase
ĠM oore
ĠB uck
ĠD og
qu es
ĠK elly
Ġpe as
ĠU r
Ġdis miss
Ġfin ishing
ific ations
ĠTh ose
ik i
Ġ193 7
Ġsca re
bre ak
Ġstret ched
Ġdiam ond
Ġmicro phone
Ġexpand ed
Ġfurn iture
ĠHind u
Ge ography
A my
p lease
p hew
s ub
Ġm ister
Ġf ranch
ed y
Ġin ject
ĠS lyne
ro b
ad i
ĠM P
Ġse ctor
ĠH ug
Ġr aid
Ġab road
ie v
el ing
Ġshe d
Ġv ary
ĠO pen
Ġcomp ass
Ġwhere as
ĠV I
ĠV ill
cc er
ĠCh uck
Ġfound ation
Ġdec ades
Th ou
sh ot
Ġjo ining
umb led
Ġ195 7
Ġconf irm
Ġeffect ively
Ġdest ruction
Ġabs ence
yr ics
Ġbelong ed
Ġappl ications
Ġcompan ion
Ġleaders hip
Ġlands cape
C C
H appy
O P
S a
g han
h h
i op
r ous
s ighs
t oo
es ter
ar med
Ġl oop
om on
Ġre bell
Ġst adium
ĠH istory
Ġcon clusion
Ġsu p
Ġsee king
Ġsc ulpt
Ġcons cience
Ġdri ft
ony m
Ġ17 0
angu age
Ġstat ue
ĠMe itei
Ġtechn iques
Ġeduc ated
ĠDep uty
Ġarrange ment
Ġwithd raw
ĠRoll o
5 7
9 8
F ire
N or
Q ue
S ar
X X
c ond
i ge
Ġw ins
Ġb ay
Ġc raft
ing o
ver ty
ĠC ook
Ġse ar
ĠH op
ĠF R
ĠN elson
ĠJ ordan
Ġpro s
Ġsp ark
Ġdis aster
Ġsec rets
Ġsupp er
Ġfollow ers
Ġass hole
Ġkid na
Ġsk ill
ĠCl ark
Ġdef ence
An n
ze ch
Ġband s
Ġz one
ĠAm endment
Ġworth y
ĠPhil ip
Ġquar ters
Ġemploy ed
ĠCr own
ĠFin n
Ġfaith ful
Ġlif etime
Ġchap ter
Ġaspect s
Ġconscious ness
Ġbatter y
ĠPhilipp ines
Ġestim ated
! !
B aby
O ff
S ounds
b ors
re z
Ġf ence
Ġf eared
ing le
or ia
Ġp ip
ac hi
ro it
ĠH old
ĠP ict
ĠR os
ud y
Ġgr an
ob ile
Ġpo verty
Ġinst antly
ivers ary
ĠAn im
Ġref use
Ġgovern ments
ĠMay or
Ġcreat ive
AR E
Ġste ady
lev ant
ĠCha p
Ġrul er
Ġmeant ime
Ġjud ges
ĠMed ia
cul iar
ĠBel g
Ġtail or
Ġrom ance
Ġbelief s
Ġpattern s
ĠBroad way
ĠTem ple
ĠHawai i
ĠVeg as
G ee
M in
M al
P ersonal
S O
d le
s hall
Ġa cknow
re k
Ġc ave
Ġp or
Ġl amb
Ġwe lf
ĠC L
ĠC amb
il and
Ġne phew
Ġj oseph
ĠD ale
ak u
ag an
Ġtr act
Ġen sure
Ġapp les
Ġsw ing
At t
ĠSp ring
pr ing
Ġeight h
ĠJo han
TH ER
Ġbox es
uri ous
ĠTe levision
Ġshar k
Ġsoft ly
Ġfool ish
Ġsevent een
Ġkick ed
Ġparticip ate
Ġscr atch
Ġoccasion ally
Ġassum ed
ĠWay ne
Ġdyn am
Ġdyn asty
ĠCO VID
Ġcollea gues
ĠProtest ant
ĠFound ation
Ġwelf are
N umber
W ork
b ie
g un
g ments
Ġt iger
Ġa rose
Ġb in
Ġb ump
ll er
le ment
Ġhe sit
ĠS her
ter m
if est
ĠH en
Ġso le
Ġsh ots
el f
ĠN FL
Ġres ident
ail ing
Ġcour ses
Ġhelp ful
Ġ4 7
Ġreg ister
ple te
Ġmon key
Al an
OU R
Ġins ane
Ġ195 5
Ġcheck ing
Ġmer c
ien na
Ġvers us
ĠSer b
sc ar
Ġfac ing
Ġoffe nd
Ġexec ution
Ġble eding
Ġbrief ly
Ġopt ions
Ġflo ating
odd ed
Ġdisappoint ed
ĠNap ole
Ġscarce ly
Ġintellect ual
Ġdipl om
D in
h r
u its
w w
Ġa ston
Ġg ates
ĠA z
ĠC ON
ĠC ooper
ĠM ain
ab oo
ate ur
ĠO nt
ĠK urd
Ġun certain
Ġsomet ime
Ġco inc
Ġ3 4
Ġmar ch
Ġpres ents
Ġsur ve
ĠAn thony
Ġca res
Ġimp ressed
Ġins pect
Ġconf ront
ĠEd inburgh
Ġrad iation
Ġgen uine
sp eaking
Ġcoun sel
Ġpen cil
Ġmis erable
Ġmad am
Ġdiscuss ed
Ġmid night
Ġrout es
Ġaff ili
Ġpan el
Ġopt im
Ġexcl aimed
Ġdelight ed
Ġscream ing
Ġune x
BE TH
ĠNet work
ĠPrem ier
3 00
J apan
L ord
d i
f ight
l ia
p an
w atch
Ġthe rap
Ġs ack
on ial
Ġd rank
Ġp ent
Ġl amp
us sels
ac ent
Ġst ead
Ġ1 20
th ought
ĠD ove
ink s
ĠE th
ĠK ermans
Ġsp y
per ing
ĠV in
Ġke en
ran ean
man n
Ġent hus
Ġcha se
OU T
Ġprom pt
umb ling
Ġrece iving
eng u
Ġprogram ming
Ġsuggest s
Ġshar ks
Ġprim itive
Ġimpro ved
Ġchem istry
wh oops
ĠRes earch
ĠWin ter
Ġcloud s
Ġdivor ce
Ġacad emic
Ġath let
ĠKermans hah
6 4
C ut
K now
M at
P A
k ward
n ames
Ġc ough
Ġf ame
Ġh itting
al ities
id odecahedron
ri or
ĠC our
Ġr aw
ĠD in
ĠG ran
em en
em ploy
ĠE mma
ort on
og an
iz za
ru ption
ĠAr m
ĠAr n
Ġ4 9
Ġfar mer
ĠWe b
Ġtri angle
ĠPro gram
Ġbreak s
for mer
Ex cept
Ġban ana
Ġbeha vi
Ġparticip ated
Ġmemor ial
Ġencour age
Ġveh icles
Ġtrave lling
Ġult imately
Ġagric ultural
Ġshel ter
ĠChair man
6 8
A F
N orth
T ube
U E
re cted
Ġm ask
an ium
Ġp ardon
ĠC ra
ĠC ard
ol as
ĠF ars
ĠF BI
ĠL aura
ĠN ative
ĠN ik
qu is
ĠJ ae
od ox
Ġex ceed
Ġv ig
ĠK y
-- _
Ġfl av
Ġrec all
Ġsha king
Ġmin imum
Ġsupp lies
az a
az on
Ġsur render
Ġwar rant
Ġmet res
ĠEng ine
Ġmeet s
Ġdesign s
Ġresult ed
ĠBar on
Ġtit led
Ġconv ince
Ġur ban
ĠNor way
Ser iously
Ġflu id
Ġcas ual
ĠTay lor
Ġboot s
Ġmilit ia
Mus ic
ĠHit ler
ĠRober ts
% .
A y
R ep
R ock
T ED
c ontin
l ah
m ph
w ear
Ġs ore
Ġc ra
Ġto m
Ġin fection
Ġn odded
Ġh ollow
Ġth irst
ac on
ĠS uz
ĠB ye
est ine
Ġab use
os aur
ĠJ os
Ġv irus
Ġgr ounds
ĠY e
be an
Ġlet s
ons in
Ġdr um
Ġmat rix
Ġland l
Ġpri ests
Ġ195 3
Ġperform ances
ĠMin nes
Ġtouch ing
Ġcult iv
Ġtrust ed
Ġattempt s
Ġpack age
Ġcro ps
ĠPac quiao
Ġcritic ism
ĠHam ilton
Ġinstit ution
ĠIm perial
iven ess
ĠNorm an
Ġverte x
Ġprote in
ĠColor ado
H el
J UL
V D
m ight
p hy
v ate
ha lf
an other
hat tan
Ġn erves
Ġre bu
ĠS um
ir ation
ke e
ĠM olly
ĠB an
ĠD ak
ĠD own
ab e
ĠK LAUS
fe rences
ĠSt ew
Ġbr ows
ĠY an
Ġfl esh
Ġsm oking
Ġch op
Ġche e
Ġacc ord
AR S
ĠSh ir
Ġ193 6
ĠBar ry
Ġcook ies
Ġsurpr ising
ĠSu pp
ograph ic
Ġcro ok
ĠAlex and
Ġdesp air
Ġeld est
lig a
Ġfavour ite
Ġfra ud
sha ped
Ġprem ie
ĠShi v
Ġfasc in
ĠDav is
ĠIndones ia
ĠBha er
ĠOnt ario
JUL lE
ĠKLAUS NER
5 5
D el
E v
N at
c ourse
Ġt ide
he ld
Ġw ives
is ible
Ġg re
ve land
Ġh ousing
Ġha l
Ġe go
Ġwe igh
ĠA riz
ĠP ra
ell er
Ġr aces
Ġr ushed
ĠD ON
ĠR oc
Ġyour selves
ĠJ an
ĠO ak
ud ible
Ġtr ace
ick en
Ġgr ain
Ġbr on
Ġam endment
au nd
Ġfound ing
Ġpol ite
gg y
ĠMar ie
Ġsecond ary
Ġinv ite
Ġed ges
Ġri b
ĠAll ah
ĠMay weather
Ġbusiness es
Ġhope fully
mm et
Ġtest ed
Ġpract ically
Ġgen etic
light s
Ġcover ing
Ġinn ov
Ġobs er
isc onsin
Ġden y
Ġsuit able
ĠEgypt ian
Ġshout ed
Ġcontr ast
Ġinstit utions
Ġresist ance
ĠDra gon
Ġdread ful
) ;
H it
W in
c or
f are
g reen
l u
s ong
Ġl aughter
as hes
ve t
Ġbe ef
ro v
ĠD u
ĠR en
ĠR em
ĠF at
ab ilities
ĠK il
ass ador
Ġhel icop
Ġchan ces
Ġass ess
ins ula
Ġinter se
AT H
ĠMay be
Ġoper ate
Ġ195 1
Ġcop per
Ġchair s
âĢİ ,
Ġpark ing
ĠSec urity
ĠGrand ma
Ġpossess ed
Ġtransl ated
Ġdetect ive
Ġtrave lled
Ġsitu ations
Ġguarant ee
Ġdow ntown
ĠSpeak er
0 7
D ude
E P
L adies
S weet
e ight
i ate
m ind
p her
s omething
Ġt act
Ġt ables
on ge
Ġf airies
Ġp airs
Ġn aval
ur u
ur is
Ġgo in
ĠW ould
ĠW OR
Ġso lemn
Ġab und
ĠR illa
ĠL uke
ag u
Ġwork er
oc ated
Ġres idents
Ġrel atives
Ġsy nd
Ġmon itor
Ġinst all
Ġob tain
Th ough
Ġair plane
Ġorgan ic
Ġdescri bes
Ġshar ing
Ġweak ness
Ġge omet
Ġtun nel
ĠWind ows
Ã¦ sar
osc ow
Brit ish
Ġfir ms
B est
S S
U gh
d ed
e yes
m aking
x ual
Ġs its
it ches
es c
Ġp anc
Ġn avig
us ter
ke ys
Ġst ages
ĠA gain
out e
ĠC zech
Ġgo at
ĠG un
ĠG ary
Ġab dom
Ġab stract
Ġv ital
ard o
Ġsp eaks
ĠU k
Ġdis order
Ġsc attered
Ġch uck
ĠDe velopment
ĠInd epend
Ġmain tained
HE N
eb ast
Ġswe at
Ġbar n
ĠOr chestra
RE AM
Ġattract ive
Ġcitiz en
ym n
Ġproced ure
ĠCharl otte
Ġdiscipl ine
igen ous
ĠSarhad i
Ġcalend ar
lah oma
F F
M er
P op
S us
g i
n est
w ord
Ġw olf
Ġb ust
Ġm r
Ġf ires
Ġg le
om ot
id ays
Ġst y
ĠA st
il ation
ore t
Ġj unior
qu et
Ġcl ar
ree ze
Ġfl ows
Ġcar avan
ott a
Ġadd ressed
Ġlight house
Ġimp rison
Ġinter fe
Ġtra gedy
Ġref uge
Ġreturn s
Ġpat ri
Ġhor iz
ĠTr ust
room s
Ġeduc ational
Ġet ern
ĠCor ps
Ġneigh bors
ĠDev il
Ġtransl ation
rish na
ĠMars hall
aret te
Ġcandid ates
ĠNaz i
Jim my
Je ff
Ġimpress ive
Ġsubsequ ently
Ġoccas ions
Ġalpha bet
ĠHou ston
Ric hard
8 9
H ope
M orning
X T
b ound
m i
Ġ {
Ġm ild
Ġl yrics
Ġg a
am ar
ĠS ay
ĠS orry
ĠA th
ĠP R
Ġr ab
ab led
od s
Ġex hibition
Ġex ternal
ĠK n
Ġsp rang
Ġro lling
Ġad ap
Ġfl ies
Ġres ign
Ġkill s
Ġbelie ves
âĻª âĻª
Ġcons ervative
Ġdist ur
Ġob st
Ġfr act
Ġind icated
ertain ly
Ġdra gged
Ġcol ours
ĠPro ject
An ne
Ġocc urs
Ġce ased
Ġappro val
Ġelect ronic
Ġinvol ves
Ġtrad ing
Ġdeep er
Ġlab our
Ġrepresent ative
su ccess
Ġstri p
Äģ n
ĠLouis iana
Ġox id
ĠJud y
Ġreven ue
Ġgro cer
ĠCommun ity
nat ural
Ġquant ity
ĠCa esar
ĠJon athan
Ġmamm als
Ġash ore
ĠMinnes ota
8 5
= =
F red
G old
S al
b ig
m ake
o an
p rodu
r Ã©
Ġb attles
Ġc age
Ġf est
Ġd ia
Ġg ig
Ġn aught
ac ious
ir y
ĠF el
ard ed
ear l
Ġpe culiar
Ġcl er
Ġaf fection
Ġun ited
Ġun fortunately
ĠIn ca
oc ol
fore st
Ġbu cks
az y
Ġdifferent ly
Ġsub stance
Ġloc ations
Ġcontin ent
Ġsol ar
Ġinform ed
cha ir
ĠPl ace
Ġprocess es
Ġcirc uit
Ġclos et
Ġfac ulty
Ġjump ing
Ġmid st
Dr ink
ĠSqu are
ĠLy nde
Ġliber ty
ĠPre fecture
Ġsched ule
ĠNob el
ĠWel sh
! '
8 00
B u
K at
L ING
P e
h on
l an
p erson
r ade
u ary
Ġt ons
Ġa er
Ġs ung
an cing
Ġd ict
ĠI mp
al ty
Ġst iff
ĠC ham
ĠH OY
Ġgo lf
op er
ĠW oman
Ġr ust
ĠD allas
ĠN ag
Ġout put
ĠY ale
Ġpre v
vel t
Ġreal ise
Ġcons idering
Ġstay s
Ġkid ney
uss y
OU GH
AT ION
che ll
Ġpain ter
Ġlay ing
Ġra ising
Ġla ura
Ġmist ress
Ġcand y
orks hire
Ġpig s
Ġbutter fly
Ġvul ner
comfort able
ĠHOY T
D a
s hi
Ġ q
re ls
Ġc able
Ġf ict
ar ians
Ġn asty
ut t
Ġre le
am ents
ĠS hip
Ġst ern
Ġu na
ĠM aced
ill ery
ĠH uman
il er
ĠT our
ĠR oy
ĠJ am
od ore
Ġv oc
Ġpe ep
ne cess
ire ct
oy age
Ġhel pless
Ġkind ly
ĠBr ussels
Ġreg iment
ĠDe h
Ġgl ory
ash t
Ġmother s
Ġlight ing
Ġtra pped
Th rough
not hing
Ġhur ried
Ġaw kward
Ġfood s
Ġstat ements
Ġrelig ions
Ġprop osal
De f
Ġinn it
Ġfac ility
Ġbur nt
tr ack
ĠMal ays
Ġexec uted
Ġreve al
Ġload ed
ĠJul ie
Ġign or
Ġanx iety
Ġmulti pl
heim er
ĠDie go
Ġkitt ie
Que en
C ont
e ges
f ree
he nt
is n
Ġf its
Ġd at
Ġe fficiency
ad ays
ĠA LL
ĠH em
ul ance
Ġr ats
ĠD er
ĠL arry
Ġout er
ĠE nd
ĠK aren
ĠSt and
Ġgr ows
Ġdis pl
Ġdis gr
Ġfl our
Ġsc an
gin s
Ġsub t
Ġdist urb
Go ing
Ġfuck in
Ġleg it
Ġpresent ly
OR E
Ġcut s
oose velt
Cl ub
Ġenc oun
Ġnovel s
Ġdeli ber
Ġassist ance
Ġpra ised
Ġmeas ured
ĠCommun ist
Ġhyd ro
ĠAssy rian
Ġacceler ation
Ġbacter ia
Ġaccompan ied
A f
F ar
M en
R ay
S A
S ister
b one
b aby
c al
c ount
Ġt urb
Ġthe ories
Ġw ipe
Ġs ke
Ġb um
Ġb ishop
Ġc ord
le ton
Ġre he
ĠS ult
ĠS ky
ĠH orn
and o
You ng
ĠP ur
ĠW isconsin
ĠD om
Ġcon vent
Ġcon vention
Ġgr at
In stead
Ġbu g
Ġinter ior
Ġexp ansion
Ġtop ic
Ġfree ly
head ed
Ġappro aching
Ġcre ep
Ġdest ro
Ġdro pping
rem ember
Ġcomb at
Ġinf inite
ĠPer haps
Ġopin ions
ĠGirl s
Ġbless ed
Ġunivers al
Ġassign ment
Ġtiss ue
ĠLew is
6 00
B re
E ver
p ot
v ard
Ġw agon
Ġb orders
Ġo ath
Ġc ure
or us
Ġp itch
Ġg ear
st ick
Ġst ove
ĠC all
ol ished
est ly
ĠF ree
ĠL ast
ĠL ead
Ġdon t
ub s
ĠV ar
ang a
ĠY orkshire
Ġco ins
ee k
Ġchar ity
cy cle
Ġbre ed
anna h
Ġart ific
Ġgener ations
Ġtri bes
Ġround s
ĠGr ace
iter ranean
Ġpur se
Ġste aling
Ġval id
aim ie
ĠMic ro
Ġdirect ions
Ġtechn ique
Ġcook ie
su pp
ĠHigh ness
Qu ite
Ġscient ist
Con nor
Ġtruck s
Ġschol ar
Ġreject ed
ĠBow l
Ġben ch
Ġtremend ous
A ng
H oly
K ING
P retty
T O
f r
h op
k ers
x ic
ï ¼
is ha
Ġc hess
Ġd ick
Ġd uke
Ġto es
at he
Ġl ux
ĠA gency
ĠW WE
ĠD aisy
ĠG riff
ĠR y
ĠL im
ĠJ u
Ġtr un
Ġle nd
Ġcomp ounds
Ġbl ast
be ing
Ġres igned
Ġmin es
ĠYou Tube
Ġpres um
Ġdec re
ten ance
omm od
Ġdisc har
Ġsent iment
ĠOr gan
Ġsil k
ĠCha h
ĠCha nd
Ġperiod s
Ġbear ing
Ġ192 8
Ġfre ak
inist ration
Ġtax i
Ġfund ing
Ġrout ine
Ġemploy ment
Ġpan ic
ĠPe ace
Ġpred ict
Ġsequ el
aval ry
Fin ally
ĠPLA Y
Ġdisgust ing
ĠAriz ona
6 9
C A
C lear
D P
b ish
m ount
in ch
nd a
Ġf ert
Ġd ated
ot ing
Ġhe d
im ens
Ġre ci
ĠS O
ĠA R
ĠA RE
ĠB eng
ĠP ad
ĠP ho
ĠG ulf
ers en
Ġsh ocked
ĠN HL
Ġ19 19
ĠK a
Ġar row
Ġcl ients
ĠSt at
ĠSt adium
Ġfe ud
pl ed
iz er
ĠIn stead
ĠY oon
Ġpo ckets
aw are
Ġsl a
Ġcons ent
Ġpar am
Ġdream ing
Ġcond em
ĠEm my
Ne ither
Ġant ib
ĠMed ic
Ġnet works
Ġcondu ctor
wh ite
Ġqual ified
Ġmagn ific
Ġblank et
Ġnea rest
Ġconsequ ences
ĠNapole on
0 5
A ugust
C ount
H aven
R ad
j amin
k ur
l ater
o qu
re f
ha nt
it is
Ġo ri
Ġm ast
Ġd ared
Ġn igg
ow ell
ow ered
ve ll
Ġha y
im ir
Ġst ake
ĠH ockey
ĠP ap
th odox
pp ers
ĠK on
Ġsp ray
his m
ĠV ienna
ĠUn ivers
Ġrec overy
ial s
Ġ4 4
Ġche ek
Ġacc ommod
Ġstr ings
iet h
ĠTh om
Th omas
Ġpublic ation
Ġann iversary
Ġav o
Ġsn eak
TH AT
ĠAm azon
US IC
Ġenjoy ing
ĠPol a
Ġcivil ization
Ġpeace ful
hand ed
App arently
ĠIslam ic
Ġsusp icious
Ġpurcha se
ĠOk lahoma
Es pecially
Ġauth ors
Ġfranch ise
Ġsla very
" ;
E ight
F ort
F rench
I X
S an
U se
W ar
c at
d ess
h our
l ines
p arent
Ġ Ð
Ġm ac
Ġm ock
Ġf ib
as hi
ĠS A
ri ly
ĠM oscow
ant e
th rop
Ġj e
ĠD ream
ĠG OT
ĠR ound
ĠR ights
ĠL ane
ĠJ ob
ra h
ĠE arl
ia h
Ġgr im
Ġbr ut
Ġen s
Ġbu nd
mb ling
ĠĠĠĠ Ġ
ĠAnd erson
Ġcent im
ane ously
Ġwalk s
Ġmod er
Ġ193 4
Ġcho ices
amb ling
Ġgrand mother
ĠWh it
Tr ust
Ġself ish
ĠNe xt
Ġconsider ation
Ġcommand ed
Ġhistor ian
Ġdeli very
Ġir rit
Ġbell y
Ġarg ued
Ã¨ re
Ġstret ch
ĠHarr is
ĠTay eb
Whe ther
Ġsou ls
ĠDak ota
6 5
C ent
I mp
P H
S ch
W ater
d ig
j u
t own
Ġw isdom
Ġc ul
Ġc rop
Ġg ender
le vel
ve x
Ġre aches
ri ver
ĠB enn
ĠP rop
Ġr age
ĠD VD
ĠR idge
ĠF ederation
Ġbr ick
orn s
iz a
ĠV as
ĠY et
Ġcar ries
Ġ4 1
ird s
Ġph ones
Ġev olved
Ġtrans ition
Ġrecord er
Ġprom otion
Ġdeal t
ĠFran z
Ġconf usion
Ġlay er
Ġelect ron
RE E
Ġhung er
Ġfund amental
Ġbur den
cul es
ĠApp le
Ġfrequ ent
rell a
Ġpuzz le
ĠTayeb i
7 7
C le
C ons
D IC
H igh
M el
P R
S R
S upp
S ighs
V I
n amed
o ffic
t op
Ġt id
Ġs ank
Ġo l
Ġd ip
Ġg ap
Ġg rie
om i
ic ip
Ġre verse
ĠA the
ĠB ack
ĠT en
ĠR un
ie ved
ĠF le
ĠL yn
ĠN ash
Ġv amp
Ġtw ist
Ġbr ains
Ġbl oke
Ġsl ope
Ġsleep y
Ġz oo
Ġformer ly
Ġfill ing
ĠQue ens
Ġbelong ing
gu ing
gress ive
Ã¡ n
ĠBob by
ĠAtlant a
Ġcrowd ed
Ġmechan ism
Ġcontr ary
Ġpretend ing
hell e
Ġnurs ery
ĠBrother s
Ġancest ors
Ġexplos ion
Ġexha usted
Ġcontem porary
Ġaccur ate
Ġpurs ue
Ġdistingu ished
ebast ian
C ast
H am
M et
z i
Î ±
Ġ Å
re h
Ġc in
ed ge
en cer
us alem
Ġwe ary
ĠS N
ĠA uthor
il ight
ĠB aker
op les
Ġr ating
ist inct
ĠL isa
Ġcon gress
Ġ( ),
ĠE ver
ind ing
Ġint r
Ġun comfortable
Ġbu ck
form ula
Ġext ension
ĠChrist opher
Ġ193 2
Ġelect rical
Ġconcer ning
Ġwall et
entle men
Ġmount ed
Ġpen ny
Ġbull shit
Ġcompan ions
Ġemploy ees
Ġess ay
Ġcamer as
Ġlink s
Gu ys
Ġrub ber
ĠMur ray
Ġrank ed
war f
Ġshout ing
ĠRog ers
Ġcabin et
ĠServ ices
Ġdia lect
A ir
B ur
D ick
M ont
c od
Ġa u
Ġf ruits
Ġp ressed
Ġbe es
ut o
ac ha
ĠS ports
ĠM it
ĠM as
ĠM ack
ur an
Ġwh ilst
Ġse ctions
ĠB ee
op en
th y
Ġall e
ĠR O
ab a
os er
Ġcon verted
ĠN ation
ig ration
Ġv ocal
Ġover se
ĠIn f
cl osed
Ġhapp ily
Ġdes cent
Ġacc ent
Ġchar ming
Ġbus h
Ġrest ored
Ġdri ll
Ġtri be
AT TER
Ġhuman ity
ĠChar usa
ĠAf ghan
Ġcook ed
Ġpray ers
Other wise
Ġder ived
Ġmeas ures
ĠStud ios
ĠCarl os
ĠArgent ina
Ġrhyth m
0 8
D is
J ean
L O
h ol
h ouses
i u
n ik
Â ²
Â Ļ
Ġt in
Ġb ri
Ġc hip
as ures
le in
Ġh ire
ĠC EO
if ty
ch uckles
ĠH aven
ĠB ou
Ġj oking
ĠR alph
ĠN C
ĠN ine
ĠJ ose
ra wn
Ġpro spect
ich i
Ġ19 00
hi gh
ca le
ĠY u
iss ipp
Ġch im
irl ines
oot s
Ġche aper
Ġmon aster
Ġgl oom
Ġca red
AN S
Ġcoll aps
Ġext ract
ĠSp rings
Ġ9 9
Ġlear nt
Ġmembers hip
Ġdest ination
Ġterri bly
Ġsus pend
Ġarm ies
ĠNe il
af a
AP RI
ĠAre a
Ġfort un
Ġimm ense
Ġcomed ian
Ġclim bed
ĠON E
Ġvot ing
ĠBu ilding
fortun ate
Christ ian
WH AT
Ġintellig ent
Ġcompon ent
Ġmathemat ics
Ġwra pped
ĠBus iness
ĠBrook lyn
ĠAff airs
ĠBelg ium
G UN
P ER
S at
S ON
Y e
e ve
g irl
i able
n ut
Ġt on
Ġb ored
Ġd ot
Ġre un
ĠC old
ĠM ong
ĠM erc
ĠB urn
ant a
Ġgo ss
un ted
ĠW onder
ĠD oc
ĠD omin
ĠF ollow
ĠN O
ap se
ag ine
ps on
vent h
ĠAl icia
Ġwar ned
ene z
ĠTh rough
Ġcol ony
Ġri g
ik a
Ġsqu ee
Ġdiv isions
bo at
Ġsat ell
ĠMan chester
Ġadv is
ĠAb raham
Ġdep uty
ĠEx cuse
Ġsail ors
ĠLa ure
Sp eaking
Ġpack ed
Ġtour ist
Pl us
Ġhol idays
Ġpun ished
Ġcow ard
Wh oo
Ġconstit u
ĠSol omon
ĠCle veland
ĠHung arian
Ġnom ination
Ġsched uled
ĠConfeder ate
ĠDet roit
Spe cies
Ġmart ial
orig inal
Ġgest ure
7 9
B i
H ard
I d
W oman
c ross
i ary
Ġw oo
Ġs oph
Ġo ven
Ġd iver
Ġp ace
ic ular
Ġbe ard
ĠS OME
ri k
ĠC hampionships
Ġdo in
op y
op es
ĠP ass
ge ls
Ġde leg
Ġal ert
ĠR abbit
ĠL ax
ĠN ice
Ġout ta
iv ia
Ġqu ote
oll a
we gian
Ġbel oved
Ġsur f
sh ow
ĠGr ay
ĠGr ammy
Ġste ep
ĠSh ort
Ġmess enger
Ġtem por
ĠSe ven
Ġ193 5
Ġprotect ing
Ġtrad itions
ĠAm anda
ĠSw iss
ipp er
ĠDon ald
Ġviol in
ĠRepublic ans
Ġsepar ation
Ġvol can
Ġredu ction
Ġsal ary
Ġden ied
Car l
Ġbless ing
Ġamb ulance
Ġchat ter
ĠFore ign
ĠSwed ish
Ġpurcha sed
Ġham mer
Ġembarrass ing
Ġbutt ons
Ġfoss il
Hal f
Ġchee ks
6 2
M arch
P LE
Ġt urt
Ġw ard
er g
Ġb ury
an as
Ġp ier
Ġp ills
ar ms
as m
Ġg ene
ac ter
ri ac
ĠC ensus
ĠM s
ĠM ove
if ies
Ġse al
ĠH ig
ĠH icks
ĠB oss
ĠB ox
ol in
ol ics
ĠW y
Ġj ungle
Ġde als
ĠF alls
ĠN ay
ĠN em
ĠJ enn
Ġpro cl
ĠO rigin
ak o
Ġno on
ĠK r
iv als
act ive
ov ie
Ġbl own
int erest
Ġrec urs
old s
Ġdes ired
gr at
Ã© e
Ġsw ept
olog ies
ane ous
Ġgener ous
fl u
ĠAll ies
Ġcreat es
co ver
Ġeng agement
Ġstru ct
Ġappro ached
ĠAm ong
Ġpopular ity
ĠEx ec
ĠSy ria
Ġcover age
str ong
Ġbeha ve
tr ans
Ġload s
ker chief
Com ing
Ġtroub led
Ġspin ning
Ġvari able
ï¼ Į
APRI O
B ro
B orn
L eg
c ated
s or
Ġthe r
ha ra
or g
Ġp ic
at ar
Ġg ifts
am ma
st eps
ĠA L
ĠC ox
ie val
Ġsh y
ĠF ern
os idodecahedron
ĠL as
Ġcon sec
Ġcon ception
ĠN ancy
Ġup side
ĠO UT
Ġ19 18
ĠK ang
Ġar chae
og y
ire n
ren cy
Ġthr ust
Ġfl ights
Ġsc en
Ġcr iter
ĠAl b
Ġcons pir
Ġass ure
Ġart istic
Ġdead ly
Ġprom ote
Ġprov ision
Ġbusiness man
iver pool
Ġten nis
Ġsuccess ion
Ġresult ing
Ġsun shine
Ġdi ag
Ġdro ps
with out
Ġcatch ing
Ġnin th
ĠLaw rence
Ad m
Bet ween
ĠWH AT
Ġinterpret ation
Ġinse cts
itts burgh
uris d
DIC APRIO
8 7
? !
K n
M ac
M ight
M ah
P C
w yn
y ers
Ġc ries
ar ation
Ġl oo
Ġg reed
Ġhe nce
ĠC ur
ĠC hes
ill er
ĠH ills
ĠB orough
Ġ1 000
op ed
ĠG y
ĠR oosevelt
os hi
ĠL I
res pect
ort ion
Ġqu id
av ia
Ġmake up
Ġfin ance
Ġhar sh
Ġstr angers
Ġind icate
Ġtrans mit
Ġnice ly
rop hy
ĠCl are
ĠGr ound
ĠCon vention
Ġran ks
Ġve ter
Sh h
ĠComm and
Ġcho ir
amb a
Ġtreat y
Ġ192 9
Ġmis under
OM AN
Ġident ical
ĠFrank lin
ograph ical
Ġdemand s
Ġcritic ized
ĠMel bourne
Ġpra ise
ĠDen mark
Ġadvert ising
Ġhyp ot
Ġveget ables
ĠPortug al
Ġsymp athy
Ġwhist le
Ġing red
Ġbehavi our
. -
L ee
i w
s hire
ou ver
Ġs outheast
Ġb er
an im
Ġd ough
Ġp unk
Ġp ause
am ous
ĠS ara
st a
ĠA x
ĠA BC
Ġdo ct
ĠH ell
ĠB und
ĠP erry
ĠT R
th ings
Ġal ike
Ġall eg
ĠF ine
ĠF uck
ĠL au
ĠL isbon
han e
ĠJ in
ck ed
Ġv it
ĠK u
Ġday light
Ġhand ling
Ġown s
Ġbelie ving
Ġprodu ces
ĠZ one
Ġcur ve
Ġfight s
ON G
Ġfuck ed
Ġdef ensive
Ġexper iments
ĠWar ren
Ġincre ases
bor ough
Ġfem ales
ĠMed iterranean
Ġpercent age
Ind eed
Ph one
Ġencour aged
Ġpoly hedron
Ġadvent ures
Ġpill ow
Ġcig arette
Ġproced ures
ĠSel ena
Ġdign ity
ĠHoll and
issipp i
" '
5 9
A B
B UT
E ast
E asy
J ac
O l
P ort
S hoot
c hard
j in
l ied
m un
m ers
m are
p res
Ä į
Ġw ag
Ġf erry
Ġf iring
Ġp orn
Ġp atch
at oes
us er
ac co
Ġwe ld
ĠS andy
st all
ĠA le
ĠP un
ĠT un
ĠT el
Ġj erk
ĠD C
um ns
Ġab e
ĠR achel
ĠE instein
Ġv est
Ġv ague
Ġ19 14
Ġun employ
Ġbet ray
Ġdis gu
In ternational
ale h
Ġsub urb
Be ing
Ġass ets
Ġsmall est
Ġhum or
Ġhat h
Ġdesign er
Ġpract ices
Ġclean ed
who a
AP P
Ġregular ly
ĠDar win
Ġcy cl
Ġfrequ ency
Ġign ore
Ġchemical s
ĠJeff erson
bec ca
Ġagric ulture
Ġelev ator
ĠCub a
Ġsoci et
Ġvacc ine
Ġdea f
4 00
H y
H aving
K S
L SB
M ax
S ur
U RE
v als
Ã ª
Ġt ales
Ġt ension
Ġs ab
it ate
it ness
Ġo d
Ġm ales
or ne
Ġy og
Ġh ut
us ions
Ġth umb
Ġbe gg
Ġe ats
ĠS W
st orm
ĠA cc
ĠH IS
ĠP C
ĠW ANT
ĠG ra
ist a
ĠR EA
ĠJ en
ĠE ight
Ġ19 17
Ġman ifest
ĠV ik
Ġmus cle
Ġtra gic
ĠPr ice
Ġclass ified
ĠPro du
Ġpain ful
Any body
Ġlocal ities
Ġdest iny
ĠGu y
yr am
Ġmist aken
Ġrecogn ised
Ġcirc us
Ġobs ervation
Ġconv icted
Ġcand le
ĠMo hammad
Wh ite
ĠDemocr ats
Ġsuspect ed
Ġreact ions
Ġdiam eter
Ġprepar ation
ĠLib rary
Ġconclud ed
Ġfab ric
Ġstrateg ic
Ġalgor ithm
ĠAlf red
B ull
D un
N ick
R oman
R SB
d el
g iving
s un
s ky
x ide
or o
Ġp ile
et a
us k
im ony
ĠA ge
ill es
if ully
ol ia
th s
Ġr ates
Ġso b
Ġsh one
Ġcon ver
ĠJ uan
ort ing
Ġtr ash
Ġsp an
ace y
Ġle ctures
pt ic
ov ak
Ġcar pet
Ġch lor
Ġhome work
Ġsub stant
ĠAn gel
less ness
Look ing
Ġsign als
Ġexpl o
Ġexpl ains
ĠAll ied
Ġdef ine
Ġpolit icians
Ġcor on
Ġcommun icate
rap es
hamp agne
Ġlay out
EN D
Ġ193 3
Ġsuggest ion
Ġbull ets
Ġtravel ing
ĠDem i
Ã¼ r
Ġpsych iat
Ġbell s
Se ven
Ã¶ n
ĠJud ge
Ġcontribut ion
Ġconcent ration
ĠRick y
ĠEth iop
ĠAth let
ĠMalays ia
C O
R oll
T er
v ia
z heimer
Ï Ħ
Ġ Î¿
Ġm ol
or able
Ġnot ion
ĠB i
ĠW at
ĠW ag
ĠW olf
ell i
ĠG yp
ĠR ap
ĠR oom
ĠL eb
ĠN ixon
ig ious
ig ma
Ġman s
ĠK irk
Ġsp ots
ĠU pper
ish ment
Ġqu ack
Ġam ateur
Ġcomp are
Ġser ial
Ġsc ores
ors hip
Ġmust n
vent ually
Ġpres erved
ib bean
Ġdr own
Ġpoint ing
Ġcons ol
Ġsw itched
ier re
Ġloc omot
Ġmain tenance
Re g
Ġbar rel
unt ary
Ġrev ol
ming ham
Ġmur m
Ġabs urd
col m
reg on
rel ated
Ġrob ot
Ġarg uments
Ġchallen ged
ĠPope ye
Ġliber al
Ġmyster ies
ĠMem orial
Ġtrail er
Ġpa used
Pol ice
Ġmargin al
Ġneut ral
ĠLl oyd
Ġthorough ly
Ġrit ual
Ġunex pected
8 8
W on
a hedron
l D
l ove
o j
r ating
Ġw are
Ġre nd
Ġre ception
Ġre new
ac re
ĠC are
ĠC emetery
ĠM aha
ol is
ell ig
Ġr h
ĠG ir
ĠF u
ĠL am
ĠE N
ĠO range
Ġ19 13
ĠK l
ose xual
ne um
Ġback s
oll ey
ĠV enez
Ġgu id
Ġunder t
Ġres olution
Ġcar n
Ġch in
Ġlea p
gr and
Ġ4 2
ĠMar io
ott age
Ġdec ides
Ġmus h
Ġbus es
Ġbas ement
Ġet han
Ġ192 4
Ġ192 7
Ġactiv ist
Ġcelebr ation
Ġfat al
Ġwa ist
Gu ess
Ġrequire ments
Ġut il
Ġax is
ĠWalk er
Ġphen omen
asket ball
ĠDyn asty
Ġpros per
Ġfict ional
0 4
0 9
6 6
D et
L ondon
T y
a o
a us
s il
w hel
Ã º
â Ī
Ġt ent
Ġw ages
Ġb icy
Ġc ater
ĠI van
Ġh osp
am o
ĠC hampion
ĠM and
and in
ĠP ir
ĠW alt
qu al
ĠK ay
ĠK ey
Ġag encies
Ġpe oples
Ġtw isted
Ġfe ast
Ġun fortunate
iss ions
ĠShe l
Ġdist inction
Ġread er
Ġcoll ar
Ġrep ublic
Ġsk ull
Ġfil med
Ġins piration
Ġsol ic
co very
Ġorgan isation
Ġtre nd
Ġce iling
Ġappro ve
ĠMiss issippi
Ġinvol ving
Ġpost ed
Ġdep ressed
Ġprop ag
Ġrespect ively
Ġrepresent ation
Tr ue
gu ard
anc ouver
ĠReg ional
Ġdan ced
Ġ189 0
Ġlog ic
ek aboo
Ġcustom er
ĠArab ia
ĠFred erick
IGH S
ĠCat al
Ġwid ow
Ġwrit ings
Ġcorpor ate
Ġtort ure
ĠHun ter
7 2
C am
G S
J uly
N ational
T onight
W S
d ia
h ist
s ometimes
á »
Ġt Î¿
Ġw olves
Ġs ins
Ġb onds
Ġf et
Ġp ub
ar at
Ġl od
ĠI ng
ĠS ey
Ġst ared
ĠH ERE
Ġli ver
th ou
ĠW hich
ĠG us
ĠR et
Ġsh ove
ĠL ang
ĠL ock
ĠN ich
Ġv irgin
ĠO p
Ġno bles
ven ge
Ġcl ay
ho ibi
ĠY outh
Ġcount ed
Ġmin i
Ġreg ards
Ġcol umns
Ġri fle
Ġins isted
Ġvis its
Ġadm ire
ĠMan hattan
ĠPh ill
Ġbott les
Ġhang ed
Ġstick s
OW N
Ġthreat ening
ĠJer usalem
Ġoccup ation
ĠLu cy
Ġcateg ories
Ġlegisl ation
Ġcert ific
Ġcontrovers y
uer to
child ren
Ġbot hered
Ġconven ient
9 2
D R
H ot
W O
b ear
k u
à ¥
Ġt enth
in ea
is ure
Ġc am
ing e
Ġp oo
Ġn erve
et ing
ĠS now
ĠC ors
ĠC BS
ĠC Ã¦sar
ĠM ans
ĠM AN
Ġdo ggie
ill o
ĠB rig
ĠP ole
ell s
Ġj er
ĠR ain
ĠR ab
ĠJ ama
Ġex it
ud son
we alth
orm al
Ġneed le
Ġcont ents
Ġcont empt
Ġdif f
Ġreal ised
Ġdec ade
Ġwar ming
ins ky
ream ing
uff s
Ġrep air
Ġev ac
Th us
Th ought
Ġtri ple
ĠCar ibbean
ik es
Ġmark ets
Ġvis iting
umb ai
ĠLord s
Ġstri king
ĠMed ical
Ġban ned
Pro fessor
Ġsens ation
ĠNor wegian
ĠJul iet
Ġdisp ute
Ġmir acle
Ġbab e
ĠFer rier
Ġmyth ology
Ġpartners hip
Ġlung s
ĠPers ian
Ġnit rogen
Ġterrif ied
ĠWrest ling
Ġadap ted
Ġnaught y
Ġgoss ip
. ;
B as
G erman
L ady
M L
l ace
o vers
r ations
v ar
v onne
Ġb ob
Ġc ents
Ġd ried
at ivity
as ks
Ġg um
Ġg au
Ġre ct
ĠM oney
ĠB art
ĠB ert
ĠP ed
ĠP ant
ĠT all
Ġj okes
Ġcan n
ist ical
ĠR aven
Ġcon vert
ear ly
pl ing
pl us
Ġcomp ound
Ġim per
ru cture
Ġper pet
Ġres erve
Ġcount ies
Ġkind ness
Ġsy mmet
Ġass ured
ĠRe al
ĠInd ust
Ġart illery
Ġcol onel
ĠCount ry
ĠAust in
Ch ief
Ġsn akes
Ġkiss ing
ĠGl en
Sure ly
ĠMad rid
ĠAnt ar
agon al
Ġremark ed
Ġansw ering
Ġgor geous
Ġdemocr acy
Ġswall ow
ĠStew art
Ġvulner able
Ġrehe ars
S I
W omen
] ,
h ur
m aid
q i
Ġt um
Ġc ups
et on
Ġre levant
ĠS weet
ĠC hel
ĠM ess
ĠP ay
ĠT erry
ol ine
Ġj unk
Ġso cks
ĠR oute
Ġcon grat
ĠN ev
âĢ ĺ
ud dy
ĠK az
ĠK atherine
Ġcl ick
hy d
Ġbl ows
ĠV is
ĠIn spector
ru p
au x
Ġcar go
riend s
Ġdr ummer
ĠAl aska
Ġinv aded
Ġinv isible
Ġfew er
Ġmain land
ĠTh ird
Ġ9 5
Ġprom ises
Ġcontin uous
Ġcontro lling
Ġage nda
ster dam
Ġfilm ing
Ġappear ing
Ġsend s
Ġdi ary
com b
Ġlow est
Ġprop ose
omin ations
Ġ192 1
Ġ192 6
Ġcompl ain
ĠMed al
Ġsurv iv
Ġfle e
Ġlo vers
min ute
Fuck ing
Ġclim bing
Ġvan ished
ĠDes pite
Ġrequest ed
Ġpure ly
Ġprior ity
ĠGe off
........ ........
Ġnick name
ĠCroat ian
oty pe
Ġsustain able
Ġgal ax
ĠArmen ian
ĠTechn ology
ĠSof la
names e
C la
D E
G A
G ar
J une
M il
S eptember
T R
b ul
b rew
f u
f ront
l ist
l ings
t ra
z an
Ġthe at
ou g
it udes
an gel
es y
ot on
Ġh int
al ysis
Ġha z
Ġre tain
ĠS is
Ġse w
Ġli p
ĠP in
un o
ĠW es
est on
ĠR ub
art e
Ġsh orter
od ia
ĠO t
Ġdown load
Ġun c
Ġun re
ĠIn n
Ġco in
form ed
Ġsl ap
ib al
Ġgl oves
Ġsw orn
Ġrest ing
Ġind igenous
br aska
app er
Al most
ĠBe ck
Ġorder ing
Ġaw ait
enn on
Ġcre pt
Ġ192 5
Ġsail or
Ġperm it
Ġrefer ring
iot ics
Che ers
book s
Ġprefer red
Ġrestaur ants
intend ent
LAUGH TER
Ġsymp at
Ġinterrupt ed
Ġvert ices
Pres ident
Ġbrid ges
ĠJoy ce
Ġsuspic ion
Ġartific ial
7 8
A pril
B o
B on
C ertainly
E X
S ave
T ur
W alk
h ill
t ar
v ironment
Ã ł
Ġt u
on ce
Ġc ust
Ġc emetery
Ġm aps
Ġf lex
Ġd warf
Ġp neum
at ched
Ġn an
Ġh ug
Ġe cho
ent on
ĠM orning
Ġdo ck
ĠB ea
ĠP ittsburgh
ĠD al
ĠD ug
Ġal ter
ĠF uk
Ġman ip
Ġman aging
Ġtr ous
Ġtw ent
ĠSt ill
ĠSt ock
Ġpre y
Ġrec ru
ĠBr on
Ġmar ching
ative ly
Ġprodu cers
Ġcha sing
ĠFr ont
sh op
AT T
Ġpat hetic
Ġoper ates
Ġorgan ised
Ġdesign ated
Ġdel icate
Ġrock et
Ġsex y
Ġpubl isher
Ġforget ting
reg ular
Un fortunately
amm ar
Ġmix ture
Ġsand wich
ĠBen jamin
Sc ott
ĠDel aware
Ġrub bish
Tom my
ĠÂ ¶
ĠNaz is
Ġtow el
Ġestablish ment
ĠBrad ford
Ġcontrovers ial
Ġbom bs
Ġregist ered
ĠCost a
ĠHur ricane
Ġproport ion
ĠAB OUT
Ġmagnific ent
7 6
A unt
L ist
P ull
d et
r ice
s qu
t ic
t able
Ġt ast
Ġt ies
Ġw ret
Ġm ice
Ġp i
Ġre cept
ĠS cient
ir able
ir rel
ĠA ud
ĠA ges
ĠM O
ĠB ed
un ity
ĠD ance
Ġde fect
Ġcan cel
ĠG ab
ĠR io
ĠF itz
ĠN iger
od ed
ĠK eep
Ġtr icks
hi ka
so ever
ĠSt r
Ġoff ensive
Ġco ff
Ġmon ument
ĠRe ed
Ġclass room
Ġterm inal
Ġball oon
Ġattack ing
Ġsouth west
Ch uckles
Ġ193 1
ĠHar vard
Ġcry stal
Ġinfl ation
Ġpen alty
Ġengine ers
Ġphys ically
Ġobs erv
Ġsurv ival
ĠMon te
ĠOly a
ĠSa udi
Ġconsum er
Ġconsum ption
Ġsubs id
amps hire
Ġrespond ed
LAUGH S
ĠRom ans
ĠStan ley
ĠCla ire
Ġpiss ed
Ġdiagn osed
Ġrug by
ĠUt ah
Ġalle ged
5 2
C alm
Q U
S n
W onder
a ac
m ust
Ġt ang
re pre
Ġw rap
on ing
Ġp izza
Ġin fer
Ġin ev
Ġl emon
Ġl azy
ĠI ron
Ġh ip
Ġhe n
Ġhe ap
Ġbe e
am ples
ĠS em
ĠS ound
ĠC ond
ĠM ind
ter ior
ĠH ampshire
ĠB ol
Ġne uro
Ġj im
ĠG on
ab ama
ĠL abor
el ic
ĠE uro
Ġex hib
Ġman kind
ag en
ag raph
so on
ov an
Ġfl ame
Ġsc andal
Ġ4 3
ĠAl ber
ĠAl zheimer
Ġmus cles
of fe
Ġ6 00
Ġcoll eges
Ġfight er
ON D
Ġpat ience
Ġpur su
ĠLe o
Ġeng age
ĠPl an
Any one
Ġworry ing
Ġru ins
Ġcharacter istics
Ġ25 0
Ġexcept ions
off s
Ġpen et
Ġrain bow
Ġfeat uring
Ġinflu ential
Ġdress es
Ġsurv iving
ĠMad ame
Ġsmell s
ĠCath olics
Ġloss es
ĠRail road
Ã¨ s
him self
Ġadop t
Ġrecomm ended
Ġautom atically
ĠSong s
ĠLuc as
Ġfrank ly
ĠAnton io
Ġrecycl ing
Ġoverse as
ĠAfghan istan
Ġguid ance
repre ne
0 6
: "
A ah
R et
b in
c s
e re
f ar
h ou
l ic
r ise
u ously
z o
ha us
it ated
Ġl ou
Ġl ane
Ġbe gging
Ġre vers
out ing
ĠM aimie
ĠH ose
ĠP hys
ul u
ĠW right
Ġde er
ie ves
ĠN BA
ĠJ ason
ĠJ esse
Ġman ners
ĠK now
so le
Ġcl ue
Ġcl ip
Ġcl ause
Ġbr ass
ov iÄĩ
ĠY i
iss ance
ons on
Ġhand led
Ġhand kerchief
gr im
gr ade
Ã© s
Ġsur geon
Ġ5 2
Ġob sc
Ġlight er
Ġlight ning
ĠSp irit
For give
Ġtri umph
ĠBe y
Ġwin ners
Ġest imate
Ġmur ders
TH ING
ĠAm sterdam
Ġ192 3
Ġcool ing
Ġfem in
Would n
wr iting
ÃŃ a
oph ie
Ġmechan ical
Ġcompos ers
ĠBra hm
Ġgather ing
Ġmole cules
Ġloyal ty
Ob viously
Ġsear ched
ĠMaced onia
âĪ Ĵ
7 4
A ust
D A
J oe
M ajor
R on
S uddenly
g ans
h uman
k har
Ġt el
Ġs igh
er als
Ġo ct
Ġf ist
ar on
Ġl es
ly mouth
ĠS ax
ĠS ciences
ĠC art
ĠM iy
Ġas pir
Ġse aled
ĠH at
ĠH ER
ĠB oo
ĠB ranch
ĠT rent
th row
Ġr ag
Ġso vere
ie ge
ĠF rem
ĠL iverpool
Ġle ather
hy l
Ġbet rayed
ress ing
Ġsha lt
Ġpol ar
Ġche ating
Ġreg ul
Don ald
Ġel abor
ph ones
Ġmed ieval
Ġdra wer
Ġri p
Go vern
umb o
Ġcou ch
Ġelect rons
ĠItal ians
Ġgra ves
Ġpost er
Ġcollect ing
Ġrul ing
Ġsecret ly
Ġpot ato
Me anwhile
Ġdiscuss ing
Ġplant ed
Ġdig ging
Ġspread ing
Ġsymb ols
Ġphilosop her
Ġsurr ound
mark et
Ġbound aries
Ġremind s
Ġloud ly
Ġalt ar
Ġdelight ful
Ġghost s
Ġconstru ct
VER Y
EE P
Ġvirt ue
ĠBern ard
Ġaccomp any
ĠHu gh
ĠCro ce
Ġaccompl ished
Ġstim ul
ĠFa ith
Ġpeas ants
Ġhed ge
Ġbund le
9 4
P ad
R L
T ra
W il
b oth
m el
m od
n un
n ine
Î ½
Ġs unk
er ies
Ġm and
Ġp ul
Ġp ian
ar in
ar ter
ow l
Ġh ipp
Ġhe els
ut ing
ĠS i
ĠC row
Ġas semb
ĠB R
ĠP age
un ci
ĠW r
ĠD ob
ĠD raft
ab er
ĠJ ournal
Ġv oyage
ĠK w
ĠK lein
ick y
ĠSt ory
Ġover come
pl ant
pl ain
ade h
Ġbl oom
ens ed
ĠUn like
Ġpo le
ition ally
li er
air y
Ġent ers
Ġcons isted
ĠNew ton
me al
Ġpop ulations
ream s
Ġimp at
Ġsit com
Ġext inct
Ġsqu ire
Ġdream ed
Ġsum mon
ien ces
Ġpriv acy
Ġver se
Ġphys ic
ĠHigh land
Bl oody
Ġ190 4
Ġrob bery
ĠFin land
Ġdan cer
ĠMag azine
Ġchap el
Ġminor ity
heart ed
izz y
Ġconsist ent
Ġtradition ally
Ġlabor atory
ĠBrazil ian
Ġbatter ies
ĠTed dy
ĠFrances co
Ġque er
ĠGil bert
ĠSP EAK
ĠBase ball
ĠPict ures
Ġbron ze
necess ary
ĠPho en
ĠBund es
7 1
B er
B LE
F re
L y
M s
R aw
V er
W r
c ard
d isc
i ens
j am
r ics
Ġt att
re my
ha ving
Ġb ail
Ġb isc
Ġf oul
Ġd ent
Ġd ensity
en cing
Ġg ardens
Ġn ail
Ġhe ir
Ġbe am
Ġwas ting
ro lled
ĠC atherine
ĠP as
ĠT alk
ĠF und
ab et
ĠK am
ĠIt anium
ne red
Ġback pack
ĠV ancouver
here nt
be at
Ġbu rial
Ġfl ung
Ġapp et
Ġsc oring
Ġrel ieved
Ġfin est
Ġreg ulations
âĻ ¬
IN K
Ġele g
Ġele ctor
Ġcap s
Ġcha sed
Ġinc om
Ġimp ulse
Ġcoll apse
ĠTh ough
ĠSp ace
uss ia
Ġlaw yers
Ġpat ron
Ġpast e
Ġtest imony
Ġprocess ing
Ġprop os
Ġdin ing
Ġrecogn ise
Ġobject ive
Ġobs erve
raw ford
Ġtour ists
Ġbi ological
Ġble nd
Ġkick ing
ĠMet ropolitan
rav is
ĠDev on
bel iev
Ġlic ence
Ġdiam onds
Ġmanufact uring
ĠHung ary
Ġembarrass ed
Ġgeomet ry
urisd iction
0 3
B R
B eth
K im
M ag
S en
_ _
c ame
c ott
i ji
s hips
w ife
{ \
is ons
Ġb ol
Ġb ats
ll ey
Ġto re
at ics
Ġh ood
Ġth ri
Ġbe w
Ġre ef
ĠS op
st ill
ĠC ould
ĠM aur
ĠM onsieur
Ġwh ip
un ty
ĠD y
ĠD avy
ĠD ennis
pp en
pp le
ĠN am
Ġsu its
Ġshe ets
Ġpro found
ĠO regon
ĠK is
Ġcl o
Ġover whel
Ġgr asp
Ġbl ade
oc ese
Ġres erv
li est
Ġhar vest
az ines
Ġform ing
Ġdr ums
Ġsw ore
Ġchar m
Ġ6 6
Ġmed ication
OU ND
Ġplan es
Ġcur tains
AR Y
Ġhat es
Ġcor p
Ġdeal er
Ġpublic ly
Ġtreat ing
ĠMic key
Ġdev oted
Ġ192 2
Ġcompl aint
Ġmarket ing
Ġdress ing
Ġbow ed
Ġaccess ible
ĠBel gian
Ġacqu aint
ĠDel ta
ĠMars hal
Ġstrugg ling
Ġshad ows
Ġcalcul ated
ĠPlay Station
ĠMod ern
Ġwealth y
Ġprepar ing
Ġborrow ed
Rel ax
Ġanch or
ĠOri ental
Ġmos que
Ġhelicop ter
Ġinterfe re
Ġdat ab
ĠFollow ing
Ġcriter ia
0 1
5 4
E ric
G er
G reen
I O
M E
M em
M EN
S end
d amn
i h
k an
l C
l ay
m ie
m ia
r ast
t ree
ã ģ
er os
an che
Ġto b
al and
ac o
am oto
st able
Ġme als
ĠM ember
ĠM ale
Ġwh ore
ĠW ant
ĠG raham
Ġso ccer
ess ed
ĠF ruit
ĠL an
ĠL ower
ĠN umber
ĠJ unior
Ġwor ries
Ġthem es
ĠK rishna
Ġar guing
Ġun l
iz ar
ater n
ĠV o
oc ity
Ġpre jud
Ġres idence
Ġsc ra
Ġsha pes
Ġmar ched
Ġ5 4
Ġdr ain
Ġexp ense
Ġexp osure
ec hes
Al ice
Ġpar agraph
iam ond
arch y
Ġcamp s
uk a
reed om
Ġrad ical
Ġdepend ent
Ġtravel ed
Ġperm itted
ĠGreat er
Ġtend ency
Ġsens es
John ny
ĠSam uel
Ġhero es
Ġtext s
ĠÃ Ĺ
Ġdefend ant
Ġsatisf action
ĠCons ervative
Ġinstrument al
ĠCam bridge
Ġcollea gue
Ġsyn c
Bill board
tit les
ĠBul gar
ĠCra ig
ĠAuthor ity
0 2
5 8
9 1
H ome
M P
M od
m il
o ks
s pring
Ã ī
Ġm aj
Ġp ap
Ġin aug
ĠC hat
Ġas cend
ch urch
ĠH aj
ĠB ass
ĠB asketball
and ed
ant ine
ĠP A
ge red
ĠR i
ĠF ood
Ġout fit
Ġex hibit
ĠO scar
Ġ19 15
Ġ19 12
ne g
Ġqu ad
ru ck
Ġpre cip
Ġfl ip
Ġapp rent
Ġser ver
ix ed
Ġsec ured
Ġname ly
Ġhar bour
Ġdr owned
ĠAl abama
Ġsub way
Ġcha ins
Ġlist s
Ġsim ult
att i
br id
ĠCl inton
Ġcontin uing
ĠBl air
Ġpur suit
Ġswe ep
Ġguess ed
ĠTr ump
ĠMan agement
Ġcir cles
ĠJo an
Ġarri ves
Ġimag ined
Ġant icip
cast ing
ID E
ĠRob inson
Ġmultip ly
ĠJul ia
Ġcontribut ions
boy s
ĠSqu ad
Ġresc ued
Ġsevere ly
Ġguitar ist
ĠRaj a
Ġjew el
Ġoblig ed
Lou is
ĠViv ie
Ġfascin ating
ĠMicro soft
ĠFrem antle
C R
E ither
L aughs
O ctober
P E
S N
c orn
c ourt
f olk
f ucker
h or
h og
i ated
m ag
y ay
he ard
Ġw ilt
ha k
Ġc odes
Ġd ual
as per
us ively
ay ed
Ġwas ted
st ones
ĠA C
ĠC ut
ĠM aid
ĠB ureau
ĠT iger
ĠT roll
ĠW ald
est one
ĠF M
ĠL ar
em ale
Ġex port
Ġtw ins
ond e
og er
Ġcomp ens
Ġcomp osition
ov ich
." --_
Ġsc ales
Ġchan nels
xt on
Ġmin isters
Ġche w
ple x
Ġinv itation
Ġchar ts
Ġinst ruction
ok o
ier ra
Ġsign ing
Ġ8 5
Ġpay s
Ġcur rency
Ġcor rupt
ĠTr ade
Ġbar gain
Ġdepart ure
ĠColl ins
Ġener g
Ġclos es
Ġ190 9
gl ass
Ġdefend ed
ĠRes erve
Ġfirm ly
Ġwitness es
App lause
Ġexcl usive
Ġfro st
Ġhonour able
Ġult imate
Ġfant asy
Ġincreasing ly
ĠDet ective
ĠPen insula
omed ay
Ġchrist mas
Ġadj acent
Ġnarr ative
Ġprivile ge
Ġoppon ent
Ġsatell ite
ĠExec utive
9 6
B ER
E urope
F r
F er
F ight
L aw
R ose
S un
c up
l iter
p ill
p owder
r aine
t ail
u um
u ity
it ical
Ġb io
Ġb orough
an ch
Ġto xic
Ġp ad
Ġp oured
Ġp add
Ġp yram
Ġn ails
Ġha w
Ġha re
Ġha bits
im er
am il
ĠS lo
ĠS ection
ĠS ebastian
ri ger
Ġst alk
ĠA c
ĠC and
Ġu mb
ĠH im
ĠB uff
ĠP uerto
Ġr ack
Ġr ational
our ces
ĠG ON
um i
ĠR angers
Ġ19 16
ĠSt orm
Ġam id
ov al
âĢĿ .
no x
Ġsign ature
Ġhum ili
Ġref lected
ĠCl ay
Ġshort est
arr ison
umb ers
ĠLe ft
Ġball et
Ġsupport s
Ġstar ving
ĠJack ie
ĠEd ith
atter ing
iment ary
Ġcorn ers
Ġgrad uation
Ġblock ed
Ġsad dle
Ġcontract s
Ġexam ined
min ar
min ster
tt es
Ġdefend ing
Ġscrew ed
Ġqual ities
Ġmotor cycle
Ġmagn etic
Ġmo ist
Ġadvert is
Ġpupp y
Ġpron ounced
opp y
Ġannounce ment
UCK LES
Ġdismiss ed
Ġdisgr ace
Ġvamp ire
Ġchim ney
Ġsociet ies
Ġtrous ers
B eautiful
C ool
D rop
G entlemen
M ine
P ri
Y a
a ver
i pt
r ams
in ate
in cluding
Ġc akes
Ġc hampions
Ġf og
Ġf ran
ed a
ot he
Ġh ind
ĠS everal
st ri
ro d
ro ph
ad v
ĠC hem
all ie
Ġas sembly
ĠT amp
ĠW ard
ĠW ick
ĠW als
Ġj et
um ed
ĠR IGHT
ess ions
ĠF urther
ĠL t
ĠL iz
ĠL EO
ry stal
ment ed
Ġag gressive
ia z
ĠHe art
Ġle an
ond a
Ġbr u
Ġun success
Ġam end
Ġfl ames
Ġsc rap
Ġcr ick
Ġcr ashed
rest rial
Ġmar ine
Ġpres erve
Ġgl obe
Ġsub div
Ġpret t
Ġcol ored
Ġsent enced
ĠBl ake
Ġsol ved
co at
Ġz inc
ĠOr thodox
Ġmag azines
Ġdi aper
Ġcharacter istic
Ġfootball er
ĠRoman ian
Ġcollect ions
Ġstick ing
ĠGree ks
ĠPet ers
Ġtemper atures
Ġur gent
wr itten
Ġir re
ĠSal z
Ġmum my
ĠMat cham
itar ian
ĠAdm inistration
Ġimprove ment
Ġarrange ments
Ġneighbour hood
Ġfold ed
Ġconsequ ence
ĠVen ice
Im agine
ĠAN Y
Ġdelay ed
Ġvent ure
Ġatom ic
lad imir
Ġprecise ly
Ġlob by
ĠBir mingham
Ġabund ant
Ġsty les
believ able
9 00
B M
H ur
L es
M uch
P ass
b oo
j ack
s at
s al
s ince
s wer
t or
t ri
t em
w ent
Ã ¸
Ġs ighed
Ġb rew
Ġb arr
Ġd io
Ġp ione
as i
ĠI d
ic ity
Ġh ilda
et us
Ġha ste
us cript
Ġon wards
ld er
am ation
ĠS ave
st ro
ri ages
ad t
Ġme lt
Ġan k
if ting
ĠH orse
ul um
ĠD ol
ĠD OWN
ĠG ang
Ġall iance
Ġor n
Ġor che
ĠE P
ind e
Ġ19 10
ĠK ha
ĠK ra
are r
Ġcl an
Ġoff ence
ĠV ic
cc ane
Ġcount s
Ġatt ach
ham es
ubl in
ib a
Ġrest ore
Ġpret ended
Th irty
Ġfil ed
Ġ8 1
fl ies
Ġfore head
Ġexpl aining
Ġra pe
amb oo
Ġview ers
Ġdefe ating
Ġdam ned
Ġla wn
Ġcat hedral
Ġport rait
Ġtravel s
Ġredu cing
Qu iet
Ġpet rol
Ġassoci ate
ĠDes ign
ĠMil ton
rend ered
Ġconfess ion
Em ily
Ġstab bed
Ġsubsequ ent
ĠOtt oman
Ġcraw l
Follow ing
Ġgri p
ĠHard y
urrent ly
Ġprof ile
ĠTha iland
mph ony
Ġetern al
ĠGir alda
# #
9 3
A ud
E ll
E at
F ant
L ight
M oney
P an
T ri
c H
d em
f ol
m ble
Ġw ides
Ġs or
Ġo ak
Ġc hampionships
ing way
Ġd ub
Ġl est
Ġl ime
Ġg rapes
ic ial
Ġbe an
ĠS out
se en
se ven
ĠM all
ĠH IM
Ġli ly
ĠP y
ĠP lymouth
ol o
est ed
est yle
ĠR ud
ĠR ena
ĠF inal
ĠL i
ast ics
ĠK ir
iv an
Ġnow adays
Ġover night
ount ain
Ġpart ial
ff ff
ang ular
ĠY a
ĠY ang
cl ose
Ġres olved
Ġcr ushed
Ġatt ribut
Ġear ning
Ã© t
Ġent reprene
Ġperson nel
Ġpass port
Ġread ers
ina udible
ai ro
Ġfoot age
Ġtop ics
Ġexper ts
Ġprot ocol
Ġhon ored
Ġreport ing
Ġbar rier
Ġadv ise
aim a
ĠAb original
ĠCha se
ĠCap ital
Ġmot ive
su i
Ġterri fic
Cl ass
Ġmis ery
Ġshar ply
âĢİ ?
Mar ie
Ġpark s
Ġinflu ences
bl ack
bl ood
Ġpers ist
Ġemploy ee
Ġcoast al
Ġsignific ance
ĠChan g
Ġphilosop h
Ġremark s
Ġcontribut ed
Ġcopy right
Ġscr ub
Ġmanufact ured
Ġbac on
Ġconsist ing
Ġconcent rate
Ġphotograph s
Ġwand ering
Ġdemocr atic
ĠAdmiral ty
ĠRon ald
Ġforb idden
din and
Ġkidna pped
Ġpresum ably
ĠLeb an
Ġtob acco
, .
M ade
M att
R ural
S ing
W OMAN
e ast
i ology
p in
s im
s chool
t alk
x y
Ġt ails
in ated
re a
Ġd ug
Ġp p
Ġp ulse
Ġy elling
Ġh ither
Ġth ither
Ġre vel
ĠS ri
ro ck
Ġst out
Ġme ad
Ġas hes
ĠB our
ĠB esides
ĠD ig
ĠD ong
ĠD ark
ĠF an
ĠF all
os om
ĠL ist
Ġcon greg
ĠN ature
ĠN BC
ĠJ a
Ġshe lf
ĠE X
Ġv om
ven ant
ĠHe brew
Ġcl erk
Ġover head
Oh h
Ġad equ
Ġdes erted
Ġpres idency
ĠMar illa
ener ation
Ġgl orious
Ġdist ress
Ġbre eding
Ġhigh light
Ġinter ference
Ġtrans action
Ġsk etch
Ġtri b
ĠAll ison
Ġdef inite
Ġweek ly
Ġsol utions
Ġsum mit
Ch ris
look ed
ĠX X
ĠDo es
Ġcult ures
sc reen
Ġphys ician
Ġrespons ibilities
Ġcivil ian
Ġaud io
Ġdecl are
pro fit
Ã¼ h
Ġattract ion
ĠCarol ine
Le ft
ĠBet ween
bet ween
Ġshell s
Ġframe work
Des pite
Ġque ue
lar ge
Ġhorn s
Ġdrag ons
Ġbul k
Ġmathemat ical
ĠTer rit
Ġcompar ison
ĠLA UGH
Ġcance lled
Ġcompass ion
Ġtherap y
Ġthirst y
Ġencoun ter
ĠMedic ine
5 1
5 6
7 00
A sh
B uck
F O
F il
S ports
S IGHS
n ard
n ia
is le
Ġo at
Ġc avalry
Ġc ottage
Ġm asters
Ġd um
at u
Ġg inger
Ġh orm
et ta
am us
ĠA w
ĠC ow
ĠM erry
if th
Ġli ar
ĠT reat
ĠG R
ie ls
Ġor bit
ĠN in
Ġlike wise
Ġar ray
Ġen han
Ġcomp rehens
ĠV ideo
Ġbu cket
ict ions
ps y
There fore
Ġhead ache
ĠShe riff
Ġche f
ĠBr id
Ġgl ow
Ġem ail
Who ever
Ġopen ly
ĠTh or
Ġtrans formation
br other
Ġref lection
fess ional
OR GE
Ġfree ze
Ġorgan isms
Ġmess ed
Ġrepl acing
ĠHar per
Ġfail s
Ġconne ctions
Un ited
Ġrese mb
Ġhost s
Ġclos est
Ġvol umes
Ġ190 2
Sp eak
Ġhistor ians
ĠSte el
Ġpath s
sec ond
Ġbi ology
rav o
Ġcorrect ly
Ġmeas uring
Ġbac hel
ĠTw enty
Ġelement ary
Ġdetail ed
Ġdim ensions
Ste ve
ĠGall ery
Ġoccas ional
Ġinfect ions
Bel ieve
ĠAbd ul
ĠBarb ara
ĠOb ama
ĠLion el
Ġevident ly
Ġrebell ion
Ġsup reme
Japan ese
ĠMit chell
ĠHose yn
" :
F rance
G reg
H arry
R ead
U B
W ELL
] :
b ag
p read
r ades
re ng
Ġw ider
ing ham
an or
Ġp istol
Ġy er
Ġh ob
Ġhe x
Ġhe ating
ent e
Ġst ub
ĠA gent
ĠA FC
Ġan gels
ĠM es
ĠB ess
ĠB ret
ea v
ĠW eek
Ġr ows
ĠG ate
ĠG arden
ĠR and
ĠF al
Ġwhat soever
ab l
ab ul
ĠL ily
ink y
Ġpro ven
Ġdon key
ĠO R
ĠK ham
Ġtw e
are l
ĠSt aff
Ġapp arent
Ġsc hem
Ġer r
ĠAl ger
Ġgl anced
Ġwar rior
Ġfar ming
ĠNo ah
ĠInd ies
Ġrest r
Ġext r
sh in
Ġ7 1
Ġequ ipped
for ced
ĠAb bey
ĠHar vey
ĠDan ish
Ġcompl ications
Ġhost ile
ĠHigh way
Ġstick y
ĠNe braska
ĠMad am
Ġfool s
Per fect
ĠCr icket
Ġcru ise
Ġemer ged
Ġcommer ce
ĠArab ic
Ġremind ed
Ġren ov
ĠKar l
ĠEvery thing
Ġtim ing
Ġnurs es
Sl ow
Ġincred ibly
turn ed
Ġcoordin ates
Ġesc ort
GRUN TING
ĠYugoslav ia
mill ion
onym ous
ĠKurd ish
Ġgrat itude
Ġnigg a
Ġmonaster y
Ġsuspend ed
Ġsoph ist
Ġpneum onia
ĠSalz burg
- (
B ru
F ore
F ebruary
G RO
H m
H ell
I P
L and
M ars
N ovember
O ffic
P ark
S and
T or
b ad
c op
e cess
e lection
f an
f ig
f orth
l as
m ans
m ama
p ost
he e
re ction
Ġw aking
er ness
is ations
Ġf urious
or ph
Ġl an
as ps
Ġg own
Ġg oose
Ġn aima
Ġh ier
Ġe ut
am as
Ġst er
ĠM ec
ur red
ill ance
ĠB id
ĠB rew
ĠB eth
ĠB ald
Ġkn ot
Ġde eds
Ġor gans
ĠL ag
Ġher itage
Ġwor shi
Ġwho lly
ough s
Ġtr ump
Ġar rog
Ġsp ider
Ġle aning
Ġqu art
mer ce
ach t
Ġim perial
Ġnight mare
ĠAr ctic
Ġacc um
Ġ5 1
Ġmon k
Ġinst alled
cy cl
ok a
Ġposs ibilities
Ġtri but
Ġshall ow
Ġ9 6
ĠChrist ine
Ġvis itor
Ġlay ers
work ing
ĠMic hel
Ġpubl ishing
Ġhy per
Cl ose
Ġrain forest
Ġeconom ics
Ġconv iction
Ġcommand s
ĠBoy d
ĠMaj nun
Ġimm ort
Ġhun ts
Ġpet ition
Could n
En joy
keep ing
comm on
Ġdebut ed
ĠBa gh
Ġliqu or
Ġconqu er
Ġsav age
Ġsam ples
ĠFace book
Ġacknow led
Ġbrows er
ĠBeng al
Ġbicy cle
Ġcertific ate
Ġgau ge
ĠBundes liga
ĠGON NA
, [
8 1
E p
H ea
I ES
J anuary
O rigin
P et
T otal
W al
W ashington
d est
d ire
f ollow
i ott
s se
Ġw ires
Ġs ne
Ġc ited
Ġof the
Ġl ined
om ers
ĠI P
ic he
Ġhe al
Ġbe asts
Ġre li
ĠS part
st ration
st yle
se lling
ĠC OM
ĠM ason
ĠH uh
ĠH udson
il ia
ĠP il
ĠP oly
Ġj ar
Ġde e
Ġso d
Ġso ber
ĠR E
Ġsh ipping
Ġcon j
Ġpl aint
Ġv ine
ud ent
ous y
Ġpe an
pt ions
Ġhapp ier
ob s
Ġpo ems
Ġco aching
Ġcr ust
Do or
ĠAr chie
ĠBr istol
Ġfar ms
ok er
Ġhard ware
sh ore
fl ower
Ġmod ified
Ġequ ations
ĠAll an
ĠAll iance
Ġhat red
cri be
Ġsol vent
Ġcommun ist
Ġfree zing
Ġtem ples
Ġdepart ments
Ġpost s
Ġfear s
Ġboard ing
Ġsens ible
ĠMad ison
Was n
Car ter
Wh ose
IM E
Ġknock ing
Ġplain ly
Ġterrit ories
Ġcuri osity
ĠHel en
cel ona
ĠCommission er
Ġmort al
ĠViet namese
ĠAtt orney
Ġrein force
Ġelimin ated
ĠMust ang
Ġswift ly
Ġutter ly
Ġincl ined
ĠCommon wealth
Ġstead ily
ĠFel ix
ĠChand ler
ĠNC AA
Ġcollaps ed
5 3
C ourse
D ave
D ON
D ev
G M
J os
M o
P oint
P apa
S aid
V EN
a ud
k ets
p resent
u f
u ated
v as
Ġt ire
in ery
Ġs ciences
it us
Ġl ust
Ġl un
Ġl akes
ic us
Ġhe m
Ġhe ars
Ġwe ars
ĠS ic
ĠS ang
Ġst all
ĠC ase
ĠC hamber
Ġk ettle
ĠM ing
ĠM ort
ĠM ull
ĠH and
ĠB right
ĠB ach
op ing
ĠP it
ĠP am
ĠP sych
ĠW P
ist ant
ĠR OB
ĠF act
ĠL inda
ĠN ort
ĠJ osh
Ġsa fer
Ġus age
Ġv ap
Ġint im
Ġsp ill
are ttes
Ġback up
Ġen force
Ġam p
Ġpr ick
ob a
Ġsha ft
Ġdes erved
ee z
gr ic
clud ed
ĠMar cus
ple asant
Ġbo ards
Ġmat t
Ġhum our
Ġ7 2
ats u
Ġ8 00
Ġrecord ings
Ġshort s
Ġaw oke
Ġappro aches
Ġview ed
ĠHar old
Ġnat ives
ĠCol in
Ġcompet ing
Ġdirect ors
Ġarri ving
Ġmis chief
Ġcompl aints
Ġaut umn
Ġaut hent
unic ations
Ġ190 8
wh ose
Ġprint s
Ġconvers ations
Ġvot ers
Ġwhis per
Pr ot
ĠDou g
Ġproceed ed
ĠShar on
Ġwand ered
Ġinher ited
Ġresident ial
ĠVenez uela
8 2
? ?
A c
A in
G N
G AS
H o
J ess
N ine
P al
W ake
b at
c m
d an
f amily
g age
m ist
t in
y ears
Ġw iped
Ġb a
Ġo wing
Ġc hi
Ġm all
Ġto e
Ġin ward
ar ound
ar ity
Ġl ords
al ian
Ġbe hold
ĠS CH
ĠC os
ĠC hampions
Ġdo se
ĠB L
ant ages
op in
ĠP apa
ĠT ak
ĠW on
Ġr ides
Ġj olly
ĠD iana
Ġcan s
ĠG osp
Ġcon vey
Ġcon sole
Ġv ag
ĠK iss
Ġar rows
Ġen able
Ġcomp elled
Ġbl ues
ĠV ance
ĠV alent
Ġad am
Ġnever theless
ces ter
Ġspe eches
Ġrel uct
Ġrel ativity
Ġ5 7
Ġcha os
Ġsince re
Ġfr action
Ġsk ip
20 10
Ġref riger
Ġsong writer
Ġ9 4
pend ing
ĠCan al
Ġblack smith
ĠFl ore
ĠFl owers
Ġcompet itive
lect ric
Ġsuggest ing
sc ap
Ġphot ographer
ĠQue bec
Ġris es
ĠGl obe
Äģ r
Ġemploy er
Ġsignific antly
Ġprint ing
Ġheaven s
Ġbound ary
Ġdom ain
Ġcerem onies
ĠĠĠĠĠĠĠĠĠĠĠĠĠĠĠĠ ĠĠĠĠĠĠĠĠĠĠĠĠĠĠĠĠ
Ġcoal ition
Fran ces
Ġwha les
ĠHea vy
TA IN
Ġdraft ed
Ġath lete
Grand ma
Ġvolunte ers
Ġadvoc ate
Ġfare well
ĠEconom ics
ĠVill age
Ġpremie red
Ġdestro ying
Ġantib iotics
Ġori ent
Ġmoder ate
Ġingred ients
ellig ence
Ġpropos als
Ġcorp se
C ho
E st
G un
N ah
S W
S har
T ed
a ire
b ot
b ishop
f old
l isted
o ise
p ush
r ust
u gged
v ision
y on
Ï Ĥ
Ġt ense
Ġs hat
on so
er ts
or p
ed ed
Ġp uff
Ġl y
as a
Ġn ests
ic ism
Ġhe ck
al og
Ġre ass
ac ular
ĠS HE
ri um
ri ers
ĠC ad
Ġan throp
ĠM ake
Ġse gment
il ian
ĠB ali
ant o
ant on
ĠT ag
Ġ" ".
ĠW W
ĠW iz
ĠG T
ĠG aga
ist ocr
ĠL E
ĠL ud
ĠL iter
ĠJ ake
ĠE aster
Ġv ib
ĠK ate
iv a
Ġqu ery
av il
ĠY vonne
Ġper f
Ġrem oval
Ġhand ful
ave nder
gin a
Ġ18 00
Ġsupp orters
St upid
Ġlight ly
Ġinter rog
ĠTh ink
Ġ7 3
Ġplan ets
Ġmonth ly
Ġhur ting
Ġpartic le
Ġprot ests
Ġcommun ications
Ġste re
Ġvar iation
ped o
Ġtre ason
Ġcost ume
ĠSha w
ĠWest minster
Ġill usion
Ġdin osaur
Ġgen es
Ne il
Ġhop eless
ĠGl obal
De cember
ĠTur ks
back s
Gr ab
ĠIran ian
ĠFin ally
ĠFin ance
Ġpsych ological
Am ong
Ġsac rific
Ġ186 9
Ġsettle ments
ĠKent a
Ġmechan ics
Ġder iv
Ġencour aging
Ġbother ing
Ġtransport ation
Ġprogress ive
osa urs
Ġcolon ial
Ġunf air
Ġrac ial
Ġintegr ated
andal ay
ĠHas an
Ġtransform ed
Ġdepos it
ĠMot or
Ġcondens er
Ġdynam ic
Ġcoinc idence
Ġlandl ord
Ġsynd rome
Ġvoc als
Ġlux ury
Ġcentim eters
Supp ose
B illy
C hildren
I RE
L ieutenant
V en
V ol
c oll
c ule
e als
l n
m uch
n ings
w ig
z ig
in nat
Ġs ings
Ġs aint
Ġs izes
Ġs aints
Ġd ivers
Ġd ys
Ġd imin
Ġp engu
Ġin k
as is
Ġn avy
Ġn iece
id o
Ġre tained
ĠS S
ĠS ac
se ud
ĠC R
ĠM eth
ĠH ang
ĠP owell
ĠT ournament
ĠT hames
ĠW oo
pp y
um ar
Ġwhe at
ĠJ un
ink le
Ġag greg
Ġcl am
Ġsc rat
Ġch ill
Ġcr imin
oth s
Ġrel ate
St an
IN A
Ġreal m
Ġsub tle
ner y
Ġfr ust
Ġgener ated
ĠSp ani
Ġ7 7
ex per
Ġpri zes
ered ith
con vex
Ġaw fully
Ġsn ap
ĠHar bor
ĠBar celona
ien ne
Ġfast est
Ġgrand son
Ġlim bs
Ġhy mn
Ġep ic
EA H
Ġclaim ing
Ġ190 5
Ġtend s
Ġdecl ine
ĠMor ris
ĠPort land
inc innat
Ġaddress es
Ġconvers ion
sm all
Ġpred ecess
ĠNat han
Ġstrugg led
ĠHel ena
ias m
Ġneighbour s
ĠMod el
ĠMem bers
ĠHy de
ĠEll is
ĠTam il
Ġrevolution ary
Ġrefe rences
Ġvert ical
Ġelder ly
Ġfoss ils
ĠHistor ic
Ġcray ons
onom ous
Ġresign ation
Ġtempor arily
D S
E nd
J on
L uc
O O
c u
d ep
n ell
s ho
y g
y ed
Ġc yl
Ġf ug
Ġd il
Ġn od
Ġre ly
Ġfor k
ĠS af
ri gg
Ġst ating
ĠA PP
ĠM ik
ĠH aut
ĠB uc
ĠL en
ĠN ong
em p
ĠE xt
ĠE ug
ber ries
Ġman uscript
Ġint u
ian g
Ġsp it
ci als
Ġro ses
og en
Ġun ity
Ġam us
Ġam azed
Ġbl amed
Ġcont ribute
Ġfl ank
Ġres ort
Ġsha ped
Ġspe cially
oss ibly
form ance
Ġsw ords
let ter
Ġmind fulness
ĠZ oo
ĠIs le
ING S
Ġtri gger
Ġ8 8
ĠThere fore
Get ting
la us
ĠTr uth
unk irk
Ġconcer ts
Ġgrand pa
ĠEx cell
Ġstri kes
Ġmass es
Ġfre ight
ĠQu ick
ĠEn vironment
ĠPer u
ĠPer kins
Ġfort night
Ġfoc using
Ġaffect s
Ġtall er
Ġinvestig ate
Ġmoon light
Ġcustom s
ĠDel hi
Ġchallen ges
Ġsatisf y
Ġbomb ing
bet ter
Ġduck s
Ġexcl usively
ĠGO OD
Ġcalcul ate
Ġdesper ately
Ġaim ed
Ġwha le
ĠTest ament
ĠÄ Ģ
Ġdisag re
ĠMun ich
Ġvel ocity
ĠRus sell
Ġaffili ate
Ġhoriz ont
Ġcler gy
Ġsubt ract
Ġpian ist
ĠSop hia
C at
D ay
G ame
P a
R est
c ity
f aced
l en
l oss
m aker
o ct
r ays
s ized
s ki
w orm
Î µ
re b
Ġw aving
it i
Ġd orm
Ġp and
Ġl id
ĠI ike
ic able
Ġhe aling
al ways
id al
Ġwe pt
ĠA ut
ĠA ction
Ġk m
ĠH amm
ĠP ie
ĠT ob
Ġne ur
Ġj aw
our ning
ĠD ublin
Ġso y
ĠR aw
ĠR ah
ĠL ennon
ĠJ UST
Ġpl uck
Ġpl ug
ong s
od ka
ĠE nt
Ġwill iam
ĠK it
ĠU RL
reat ed
Ġoff spring
og o
Ġun ions
Ġam bit
Ġbl ah
har m
Ġgu ilt
Ġfl owing
port ant
man y
Ġsur rendered
olog ically
Ġrep orter
ING ING
Ġhalf way
20 11
Ġmiss ions
Ġsound track
ik h
ey ed
ĠFor ces
ĠComm ons
Ġvill ain
Ġprocess ion
Ar thur
Ġcomput ing
ĠTH ERE
AS T
Ġinf rast
bl ue
Ġgar ments
ĠPal m
Ġpray ed
Ġhun ter
Ġhom osexual
ÃŃ n
Ġroll er
ĠSus sex
Char lie
ĠMur phy
ĠColumb us
Sid ney
ĠTrans port
Ġwithd rew
ĠSom ers
Ġcommission ed
ĠMir anda
Ġcommit ment
Ġexha ust
ĠCroat ia
ĠLeon ard
Ġabsor bed
Ġbrig ade
Ġresear chers
Ġperce ived
ĠArn old
Ġsquee ze
Ġmans ion
Ġphenomen on
Ġhosp itals
Ġtel esc
Ġwides pread
Ġbachel or
% )
D i
D ead
E nt
F E
F OR
G R
G y
M ill
M ister
P rodu
S et
V X
W orld
u j
Â Ĵ
Å ¾
Ġt ens
re qu
Ġs ul
Ġs ib
ha y
ha ge
is an
is hi
Ġb ou
Ġb ade
Ġc atherine
Ġf res
or c
Ġd ominated
Ġp ussy
ĠS it
ĠS ad
st ory
ĠC ob
ĠC elt
ĠC AP
ur ring
ĠB arr
Ġli z
op ard
Ġr ay
um er
ĠF ull
el and
ĠN ep
Ġout standing
ak ened
Ġint imate
Ġtr amp
Ġsp ont
ĠU l
ass y
ble m
av i
be e
ip her
Ġres id
Ġsm ugg
ting ham
Ġcr ush
Ġche ated
Ġreg ulation
Ġform ally
Ġsw ung
Ġdist ances
Ġlight ed
Ġind irect
hm ed
Ġsort ed
Ġ8 9
Ġmod est
Ġcontin ually
Ġspeak ers
Ġdet er
Ġanim ation
Re al
ĠCan on
fic ial
Ġtre mbling
ring ton
Ġsun light
Ġdev ast
Mar ia
Ġpark ed
Ġindust ries
AM E
ĠSm all
ĠBur ke
Ġneck lace
wr ite
Ġalcoh olic
Ġconsum ers
Ġcous ins
ĠCat hedral
OD Y
Ġwrest ler
Ġmathem atic
hang ba
Ġconqu ered
Ġdescend ed
ĠRh ine
Ġsitu ated
Ġpupp et
ĠOtt awa
rim ination
Ġcollabor ation
ĠWork ers
Ġisol ated
ĠHop kins
Ġfest ivals
Ġpic nic
Ġconspir acy
Ġtwent ieth
Ġdio xide
Ġschem es
incinnat i
B us
B ell
C AR
D em
F ull
F air
K iss
N ay
O le
V ictor
f ull
i ard
m oon
in ci
is fact
Ġc ri
Ġc oup
ll o
Ġd ense
Ġd iversity
en ne
es pecially
Ġin vention
al ong
ĠS port
st age
se nd
Ġst eak
ĠC ary
ĠH ob
Ġr am
Ġr otten
Ġj elly
ĠD ue
ĠG ol
ĠG har
Ġsh iver
ĠL ore
ĠL av
ood le
ĠE M
ĠE li
ĠE mb
ear ing
ian ne
Ġback ed
Ġro d
Ġfe es
ub a
ress es
Ġwr ist
au er
ĠUn iverse
Ġsc orn
Ġsha de
Ġmin ing
ĠMar ine
ĠDe ad
Ġstr ain
ĠRe view
Ġread ily
Th row
Ġ7 8
Ġtri ps
Ġtri als
Ġ8 2
Ġ9 1
Ġpar rot
Ġcor al
Ġste pping
umb ria
Ġhot els
Sh ort
Ġabs ent
com es
Ġtrad ed
Ġrespect able
Ġgen re
ĠEx press
Ġstri pes
Ġnon convex
IT T
Ġ190 1
Ġquar rel
ĠGrand pa
ĠEr nest
Sc ot
utter stock
Ad am
apt ist
ym ph
Ġcontr ad
Ġdemon stration
ĠFer dinand
ĠTw itter
ĠWH O
Ġautom atic
ĠNE ED
Ġrecommend ation
Sim on
CL ARE
Ġincorpor ated
ĠHen ri
pher d
ĠUk raine
Ġimprison ed
Jeff rey
Ġlegit imate
ĠInf antry
ATTER ING
Ġdiag ram
ĠWals h
Ġsophist icated
C amp
H and
L ear
L isa
M ain
P ower
S hi
S chool
T op
U r
W ay
a ired
b ug
b ank
g onna
h un
l iness
l isten
m id
s n
u ana
w oo
à ¸
Ġt ed
Ġt al
re ra
Ġw age
er ie
Ġb att
Ġf itting
ar ia
Ġg ut
ĠI F
Ġst are
ĠC rawford
ĠB erm
Ġde ploy
ĠG U
Ġal armed
ĠR at
ĠR ot
art ed
ĠF ried
ĠL ear
ĠL anc
ack ing
Ġsa us
Ġpl ague
Ġex agger
pe ekaboo
Ġ19 11
Ġar istocr
Ġsp ine
Ġle aned
Ġle isure
ass ie
ub by
Ġcomp act
ty pe
ĠY o
Ġfl ashed
ft en
Ġsc old
Ġ5 3
Ġret ail
Ġcent ers
Ġ6 7
Ġread s
ĠIs aac
Ġ8 4
Ġ8 6
ex p
fl oor
ĠSc andin
pr int
Ġclass ification
Ġcor ruption
Ġquestion ing
Ġclear ing
lev ard
Ġorgan ize
Ġsuccess or
ĠAd vent
Ex cellent
Ġcheck s
Ġpoor ly
Ġelect ro
Ġcompet itions
Ġconne cts
ades hi
Ġfix ing
Ġris en
Ġburn s
AM ES
Ġmarry ing
Ġcru cial
ĠMark et
Ġbroadcast ing
Ġstream s
Ġmaintain ing
Ġpassion ate
Ġquant um
Ġtap es
Ġhyd rogen
ĠKe ith
Ġdies el
Ġinqu iry
ĠAssy rians
Ġastron aut
Ġowners hip
ĠBah rain
Ġfisher men
Ġupd ate
Ġinvolve ment
Ġstrict ly
Ġkilomet ers
Ġdial ogue
Ġinterse ction
Ġrab bits
Ġignor ance
imens ional
Ġau ction
Ġfortun ate
Ġconsec utive
Ġrh omb
olley ball
