#version: 0.2 - Trained by `huggingface/tokenizers`
Ġ t
h e
Ġ a
i n
Ġt he
r e
Ġ w
o u
Ġ s
o n
e r
h a
n d
i s
i t
Ġ b
Ġ o
Ġ c
Ġ m
Ġ f
in g
o r
a n
e d
l l
Ġ d
e n
Ġt o
e s
Ġ p
Ġo f
Ġ y
Ġ in
a r
a t
Ġa nd
Ġ l
ha t
Ġy ou
a s
Ġ g
o m
Ġ n
Ġ I
i c
o w
l e
v e
o t
Ġ h
Ġ he
a l
e t
Ġ ha
' s
u s
Ġt h
a y
Ġ it
Ġ is
Ġb e
Ġt hat
Ġ on
i on
i d
Ġ e
g h
u t
l d
en t
i m
Ġ re
Ġw as
a c
Ġw e
v er
a m
T he
. .
Ġf or
l y
Ġ S
s t
r i
r o
i r
a d
s e
k e
Ġ .
Ġs t
gh t
o o
' t
Ġ A
ou t
it h
Ġm e
Ġ C
a ll
Ġ k
Ġ u
Ġa n
Ġ M
Ġw ith
u r
Ġa s
Ġd o
c t
he r
c e
i ll
t er
i f
c h
Ġw h
Ġs e
om e
Ġa re
Ġ H
i l
Ġn ot
Ġha ve
Ġ B
Ġ 1
a nd
Ġa t
Ġth is
ou ld
an t
Ġg o
us t
at ion
Ġl i
o p
a in
Ġk n
Y ou
e a
Ġ P
Ġ T
Ġ ,
u n
g e
o l
t h
Ġh is
u l
Ġ "
r om
.. .
o re
Ġ W
e ll
Ġn e
Ġ r
Ġkn ow
Ġ j
ou r
Ġ D
Ġd e
p p
Ġc an
Ġ G
Ġthe y
u m
Ġ The
Ġs o
es t
Ġ ?
Ġa l
Ġa ll
Ġa b
Ġm y
is t
er s
Ġ R
i e
Ġyou r
ar t
Ġb y
Ġf rom
es s
Ġs h
Ġo r
Ġ 2
Ġ F
Ġw hat
n t
a b
o s
Ġ L
e l
Ġon e
Ġc on
Ġ N
Ġw he
Ġthe re
i g
i ght
ha n
all y
Ġu p
q u
e m
Ġc om
on e
Ġha d
Ġb ut
Ġhe r
Ġs u
re d
r y
Ġ J
' re
Ġh im
Ġ out
r a
ac k
at e
oo d
ver y
oo k
Ġli ke
Ġw or
Ġs a
re s
am e
i ve
Ġp l
Ġ us
Ġ (
on g
' m
Ġwe re
â Ģ
a ke
o d
in k
c k
Ġs he
Ġp ro
Ġab out
Ġ E
as t
Ġg et
Ġe x
Ġ v
p e
I t
or t
ou nd
in d
ar d
it y
Ġd on
A nd
ic h
ri ght
Ġ O
Ġj ust
Ġ1 9
i es
H e
Ġwh o
e ar
ea h
Ġd id
a k
Ġhe re
b er
Ġthe m
Ġn o
im e
in e
Ġm an
Ġw ant
Ġw ould
Ġ2 0
Ġ if
Ġ '
Ġw ill
u d
a p
Ġ K
Ġth ink
ou s
' ll
v en
Ġs ome
o st
W hat
e p
h ing
Ġin t
Ġan y
ow n
ic e
a g
Ġ right
m ent
id e
Ġg ot
Ġha s
t her
us e
it t
Ġwh ich
ou gh
Ġt r
f e
h i
c a
Ġse e
Ġwhe n
Ġsa id
u re
Ġa r
Ġa g
Ġp e
Ġs ay
w ay
i a
Ġt ime
Ġt w
i v
ĠH e
s o
Ġbe en
i an
Ġs p
a re
ac e
Ġn ow
o ve
ic k
op le
c i
Ġ U
W e
ĠI t
' ve
Ġthe ir
o se
Y eah
Ġl e
Ġl ook
- -
Ġc l
is h
l f
re at
n a
Ġm ore
Ġthe n
Ġgo ing
a ge
S o
it e
re e
Ġo ther
Ġpe ople
ar y
Ġc ould
Ġ =
ĠS t
N o
ot her
n e
Ġof f
u e
Ġb ack
h is
ac t
B ut
Ġo ver
ir st
O h
as s
Ġ qu
ou nt
on d
Ġ very
ing s
ca use
Ġ ro
b le
p er
Ġg r
Ġa f
p t
Ġf e
an s
Ġwor k
Ġtw o
Ġg ood
T hat
Ġto o
Ġb r
e nd
om et
Ġ en
er m
o g
p l
at ed
o ll
Ġ Ġ
t he
Ġf irst
ion s
or d
Ġint o
he d
as e
Ġp art
k ay
0 0
Ġh ow
Ġd own
or n
al k
u b
w e
Ġu n
Ġw ay
ad e
Ġt han
i re
Ġal so
o y
f f
itt le
Ġc all
i z
m er
Ġa m
ou ght
Ġy ear
h y
at er
Ġp r
Ġcom p
o v
Ġc ome
W ell
Ġb l
Ġ our
an ce
Ġwhe re
nd er
ac h
if e
Ġag ain
Ġ im
n g
Ġon ly
Ġ V
Ġe very
ĠI n
Ġl ittle
Ġa d
c c
ur n
ha r
o h
Ġs omet
r u
Ġd ay
w n
Ġb et
an g
Ġpl ay
h o
Ġwe ll
am p
he re
or m
Ġt e
Ġa ct
Ġne ed
en ce
res s
u ch
a v
Ġcon t
Ġbe cause
Ġd is
Ġg u
t y
. "
se lf
Ġm ake
I n
Ġt ake
Ġaf ter
Ġ Y
ab le
c l
re n
o c
or y
f ore
in t
b e
ig n
Ġb u
Ġsh ould
Ġre ally
Ġl et
e w
ar k
th ing
Ġw r
is s
ic al
en s
i p
Ġthe se
ic t
Ġha pp
at her
Ġt ell
Ġp re
o b
ul t
Ġ20 1
a u
Ġth r
Ġu nder
on na
Ġm uch
Ġdo es
Ġf l
Ġp ut
f t
u ck
Ġa pp
ĠU n
Ġme an
T his
Ġp o
l and
at es
Ġne w
Ġsomet hing
Ġp er
i ed
oo l
on s
he n
l es
Ġg onna
i le
e ct
Ġre s
Ġm ade
Ġc o
v ing
Ġs er
The y
v ed
a il
Ġl ong
Ġcom m
Ġm ay
Ġs c
ation s
' d
u ll
od y
Ġ' '
` `
Ġ er
Ġe ven
Ġ âĢ
Ġt alk
t e
it ed
Ġit s
Ġne ver
Ġbe fore
d u
ad y
ver s
p ort
Ġdid n
Ġs m
Ġc ar
i ly
u ally
p s
k s
at h
a w
or s
ou se
Ġre m
i ous
it ion
S he
o ck
t ing
The re
Y es
ri ed
Ġ 3
ve l
Ġ ke
r an
Ġman y
Ġha nd
Ġre c
t ain
ĠC h
Ġd if
Ġyear s
Ġg reat
w ard
Ġl ife
âĢ Ŀ
Ġm ost
i x
y ou
Ġthr ough
is e
I f
a ve
f ul
Ġhe l
Ġc han
re nt
g et
i gh
Ġ20 0
ct ion
Ġs ha
Ġst ill
Ġth ing
d ay
Ġth ought
c es
Ġth ings
Ġse c
Ġbe l
in ce
g in
o ld
Ġbe c
Ġo ld
Ġth ose
i al
w hat
Ġs pe
Ġw ent
e ver
Ġth ree
Ġst art
Ġa way
he s
v es
Ġc ame
Ġus ed
os s
one y
Ġcall ed
Ġc ount
Ġf ound
Ġl ove
ent s
Ġl ast
Ġm ust
Ġd es
Ġdo ing
H ow
ter n
Ġas k
Ġf ind
Ġc h
Ġsh ow
Ġh ome
Ġ !
ri end
im es
Ġc r
ot h
l i
x t
" .
Ġe nd
Ġc our
Ġhel p
u p
Ġbe ing
g an
c ed
le ase
en ed
Ġat t
Ġo wn
Ġg ive
Ġ i
mer ic
f orm
m y
at ch
Ġm in
Ġsu ch
al s
Ġ You
ar s
Ġn ame
Ġl ea
hi ld
Ġf am
ir l
Ġs ame
o ot
on t
way s
D o
Ġn ight
Ġk ind
y e
Ġdif fe
m an
ĠM r
Ġl ot
ch ool
s s
a it
N ow
id ent
Ġm ov
Ġt ry
re st
Ġw on
ak ing
n ing
W hy
Ġb ig
n y
ha m
d e
out h
Ġc are
an y
i ld
Ġwh y
Ġe ar
ĠA meric
e e
Ġ1 8
b ody
Ġc hild
Ġwor ld
Ġo p
ers on
Ġw om
Ġfe el
Ġre l
Ġsu pp
Ġm ight
as ed
Ġp ol
Ġpl ace
g g
Ġhe ad
Ġn um
ĠS he
s ide
d er
em ber
Ġk ill
ow er
ation al
at ing
ut e
Ġus e
ĠA r
ur ing
) .
Ġar ound
a ir
Ġf riend
g r
Ġ 4
Ġt urn
" ,
Ġc he
ĠB r
Ġf in
t s
Ġha r
Ġre g
Ġs et
ub l
t hat
Ġm ar
Ġan other
pe ct
Ġal ways
Ġs l
) ,
Ġgu y
ĠThe y
Ġa cc
Ġa c
m b
we en
â Ļ
S t
v ent
L et
A ll
ic s
a h
D on
cl ud
Ġsu re
Ġh ouse
Ġle ft
I N
Ġp res
ĠM ar
Ġm oney
Ġs y
au ght
i b
en er
ĠâĢ ľ
ul ar
Ġbet ter
Ã ©
Ġany thing
l ed
a z
ĠUn ited
ĠĠ ĠĠ
or ry
i ble
ot t
C ome
oll ow
n ess
m ber
Ġf our
Ġfor m
u nd
Ġke ep
u g
Ġs ur
Ġbel ie
p le
Ġre al
Ġdiffe rent
âĻ ª
Ġe le
Ġb it
ter s
Ġd one
Ġto ld
fe ct
Ġ 5
Ġd r
Ġe l
Ġm om
Ġb oy
E R
ir d
Ġbet ween
Ġm on
Ġ |
Ġr un
Ġwor d
u al
Ġb o
ĠA nd
p h
, "
ci al
Ġc ity
Ġg irl
u h
Ġsec ond
ĠD e
Ġknow n
a le
ĠA l
or th
Ġ ent
Ġpo int
is hed
y es
Ġs chool
Ġwh ile
O kay
Ġe ver
as on
r ic
M y
j ect
Ġp erson
am es
Ġtoo k
Ġg l
r ow
ĠT his
Ġm at
Ġcon s
I s
Ġre t
ak es
or k
Ġ19 9
i o
ĠSt ates
ĠN ew
Ġ ;
Ġin clud
Ġde c
Ġ erm
Ġs w
nt il
âĢ Ļ
Ġsu b
re t
Ġin v
Ġc le
a j
Ġm en
Ġst ud
re w
Ġc har
it ies
Ġw ar
Ġm et
He y
ce pt
Ġb ook
Ġw ater
at ive
ol og
it s
hi p
Ġo kay
oh n
Ġst op
c ess
Ġm us
n o
Ġne xt
b ut
T han
W hen
Ġb us
B e
n er
Ġd ist
Ġf ollow
Ġu h
ou n
Ġcour se
Ġin st
op e
Ġas s
Ġo b
Ġb oth
Ġf ar
c y
i vers
Ġst r
ct or
ĠW hat
t on
ĠE ng
in s
o f
Ġc ent
Ġnot hing
un e
Ġse em
ĠR e
ĠA n
Ġb est
Ġp ass
ea k
Ġsa w
Ġpro du
ro ss
N ot
Ġe ach
Ġ -
w here
Ġu ntil
Ġc ap
l ing
Ġwe e
st and
t o
m e
is ion
Ġs ing
ver n
u res
Ġp h
ĠA s
Ġy eah
Ġact ually
Ġnum ber
Ġsm all
a x
un g
ĠG od
c er
Ġf ather
Ġl ater
Ġp op
ĠN o
ot e
os ed
Ġdoes n
Ġc ha
as h
Ġb re
m s
Ġl ar
re am
Ġh igh
Ġm other
Ġad d
i red
o k
Ġl ist
Ġe m
i er
Ġli ght
ĠI nd
l ess
i et
Ġon ce
Ġf un
1 9
Ġwant ed
u ff
p art
Ġel se
O n
g ed
Ġagain st
ĠAmeric an
a id
Ġfam ily
r ist
ut h
Ġin c
Ġ 6
le t
if ic
ubl ic
Ġc a
Ġro om
Ġpro ble
Ġen ough
Ġ --
W here
Ġbec ame
Ġl oc
Ġse en
ab ly
t en
Ġw ait
g er
W ho
Ġf act
get her
Ġto gether
n ed
in es
J ust
Ġst and
Ġfe w
A N
Ġevery thing
Ġhar d
Ġint e
Ġim p
Ġyou ng
is ter
Ġsay s
ĠB ut
ur y
Ġs ince
in ess
Ġs im
ri es
Ġy es
Ġre st
Ġqu ite
Ġf r
Ġwith out
L ook
Ġs ide
Ġst ay
Ġim port
Ġin ter
Ġop en
an e
Ġd ied
f ter
Ġm ind
om m
Ġ Z
Ġs orry
Ġme et
Ġb ad
Ġs ign
Ġ19 8
en e
Ġre ad
Ġhe ar
at t
Ġt ra
orn ing
d d
Ġli ve
Ġin d
Ġ id
u c
Ġc oll
is ed
o kay
i ke
an k
en se
r al
The n
ĠJ ohn
Ġcom ing
is m
Ġd uring
ĠI s
ut ion
Ġlook ing
Ġunder stand
Ġs ix
ie w
Ġre p
Ġhapp ened
Ġf ive
in a
Ġlea ve
A re
s on
Ġbelie ve
Ġe v
er tain
Ġpre t
Ġm ain
Ġd ri
Ġd ire
Ġqu est
Ġte am
Ġth ough
Ġh um
Ġto day
Ġwho le
Ġdis c
it her
re ady
se l
Ġk id
Ġchild ren
IN G
Ġex p
it al
Ġl and
st em
Ġs it
Ġday s
Ġs on
Ġex t
Ġto wn
an na
b all
le ep
Ġt imes
h m
Ġm ove
Ġs ir
b y
Ġm ed
Ġget ting
e c
ĠT h
Ġis n
as ter
00 0
ie ld
Ġtr ans
ist s
Ġn ice
Ġf ace
Ġmus ic
et s
Ġb ro
Ġhe ard
ivers ity
ĠF r
H E
Ġinte rest
ct ed
Ġ Q
Ġbu ild
ou p
Ġd ra
Ġ ed
Ġj ob
ant s
Ġp lease
Ġp oss
Ġne ar
Ġs ort
Ġcount ry
Ġar t
T h
ment s
s h
A t
iz ed
Ġ19 7
Ġg ener
Ġhim self
Ġwom an
ĠS p
ow s
ĠK ing
b r
Ġg ave
Ġs k
Ġw alk
Ġe yes
Ġm orning
Ġe as
F or
Ġy et
M m
a pp
ro p
Ġde ath
in ed
ĠW e
Ġc ol
Ġf il
Ġha ving
Ġimport ant
U h
us s
Ġ 7
er y
d y
Ġle ad
iz e
y eah
l ish
Ġhe art
Ġm il
at s
Ġt ri
Ġde ad
Ġal ready
Ġst ate
Ġ 8
Ġp ower
A s
e x
Ġask ed
Ġkn ew
? "
iv es
D id
Than k
Ġan s
ĠA t
Ġha lf
2 0
Ġh our
t a
A l
aught er
Ġh old
m ost
Ġg ame
Ġwr ong
ĠP r
Ġc ase
O U
u es
Ġpl an
R ight
Ġsay ing
g t
Ġp ay
G ood
ĠS o
vel op
is on
a ut
ward s
t ed
. âĢĿ
f l
Ġm od
Ġa ir
ĠG erm
c hed
Ġ1 0
ab y
Ġup on
Ġre f
Ġe at
Ġrem ember
o ber
Ġtalk ing
d o
Ġme ans
ĠH ow
Ġpro b
Ġb orn
Ġc ur
Ġbe gan
Ġso on
n ot
Ġs ong
y ing
âĢ ĵ
Ġf ore
ic ally
ĠS c
Ġsy stem
Ġsha ll
Ġ _
on y
Ġstart ed
Ġf ull
ain s
Ġmon th
Ġtry ing
ur al
Ġrec ord
Ġret urn
Ġp ri
ag es
re en
Ġ ri
Ġgo vern
Ġg i
Ġm ill
r on
Ġl aw
id ed
Ġin s
e red
n ow
Ġ 9
Ġhis t
Ġoff ic
ĠB e
Ġm iss
le ased
Ġal ong
Ġdo or
Ġof ten
Ġe qu
Ġbr ing
G o
ne y
at ure
a i
il ity
er ing
ĠC l
Ġid ea
Ġr ound
Ġg one
Ġw ife
Ġex pl
Ġh ur
Ġf ight
ĠThe re
C an
Ġbr other
Ġw ind
Ġc ertain
Ġp rom
f ess
m ed
r ict
ĠA ll
Ġ19 6
ate ly
O N
Ġpro v
v ice
Ġw in
Ġhapp en
c le
Ġchan ge
er n
Ġf oot
pp ed
us h
Ġj o
ĠC ar
am ed
u red
G et
Ġhand s
Ġl ine
Ġplay ed
ĠCh rist
Ġf ell
Ġs ent
Ġb as
âĢ ľ
ion al
Ġ1 5
A T
ĠG r
Ġl ear
Ġf uck
Ġpret ty
Ġs ound
ak en
Ġt y
id es
Ġcont in
g es
e b
id d
ĠM ay
Ġmat ter
Ġgo es
O ne
Ġl ess
Ġab le
u ro
it er
Ġst ory
um p
Ġc reat
Ġor der
Ġ [
ĠC ount
m or
Ġsp eak
Ġp ar
Ġ1 7
Ġb ed
pe nd
Ġto p
A R
Ġmom ent
p r
Ġproble m
Ġ ...
Ġde velop
Ġwom en
Ġare a
an u
Ġd et
a red
i k
ic es
Ġs leep
You r
ri gin
ren ce
Ġw anna
Ġsome one
Ġcl ass
i am
Ġ es
Ġl ost
e y
ap an
ĠP ro
Ġde f
ar ch
o on
Ġwas n
il t
E r
Ġf all
Ġw atch
Ġle g
Ġpart ic
ain ed
Ġm aking
e ad
Ġbus iness
r act
He re
l er
A n
Ġpol it
Ġt erm
Ġlar ge
Ġsh ort
c on
ac es
! "
ĠB l
Ġfriend s
Ġcom es
Ġp at
ĠC on
Ġyour self
ian s
w ell
Ġprob ably
em ent
o le
h ow
Ġ hat
Ġguy s
amp le
Ġpres ent
ap er
Ġex per
Ġbe aut
Ġdr ink
ĠO h
c he
Ġlook ed
c hes
Ġtr ue
ĠEng lish
Ġp ain
am a
c ri
Ġm ark
ul ation
Ġcont ro
Ġbec ome
i ver
ent ion
l t
O R
Ġw ond
Ġwork ing
ang u
Ġb ody
Ġpr ot
Ġwee k
at or
g y
Ġd ad
re et
Ġs qu
Ġp ur
ĠBr it
Ġf ine
us ed
w er
le y
ĠO n
Ġag o
Ġan im
Ġd iv
Ġbl ood
i ent
ĠT hat
Ġs ol
Ġal most
ĠJ apan
Ġp ie
Ġsh ip
ell o
ar r
Ġwould n
Ġc or
Ġa ge
Ġcomm un
gr am
ĠUn iversity
M ay
ĠH is
ĠâĢ ĵ
et h
are nt
Ġh ope
m p
c o
et er
Ġ19 4
Ġgr oup
Ġo rigin
Ġb aby
Ġst e
Ġear ly
Ġc ut
Ġp os
ĠFr ance
Ġf ree
ent y
ou ble
Be cause
R e
h ind
anu ary
Ġmov ie
Ġde al
ard s
Ġv is
Ġgi ven
Ġha ven
T o
um b
or ld
Ġcon st
ra p
Ġo h
ie f
ur ch
od e
Ġre ady
aj or
Ġp ick
ĠY es
u ly
Ġo cc
z e
ep t
et y
Ġh or
Ġs we
Ġo pp
ĠF or
Ġcomp le
Ġspe c
c ome
Ġre leased
Ġquest ion
Ġl ate
Ġh on
Ġmy self
Ġv ar
Ġt er
Ġo per
cc ess
Â ł
Ġbre ak
om an
Ġcle ar
Ġbe gin
Ġa w
Ġbr ought
Ġnew s
Ġst uff
st er
ĠW ar
y s
Ġre ce
Ġ1 6
Ġcl ose
Ġle ast
es e
Ġkill ed
Ġf ood
Ġf ire
ĠC an
ha ps
if ul
Ġ ``
Ġbl ack
ĠJ anuary
ĠCount y
Ġd aughter
iv ed
Ġ1 2
el t
sel ves
in o
ĠP res
el s
al th
Ġst ation
Ġword s
Ġt aken
Ġe ight
Ġmay be
e or
m m
Ġre ason
Ġgovern ment
Ġk ing
Ġex ample
ĠW hen
ĠF ran
Ġt en
Ġr an
Ġ Yeah
Ġgu ess
ĠL e
it ing
Ġp ast
Ġse ver
o ke
Ġ19 5
Ġcomp any
Ġp ublic
ĠF l
b o
c ent
b orn
ĠY ork
E S
Ġbe hind
olog y
E very
p ed
M r
ĠS outh
P lease
Ġfr ont
Ġcon f
Ġl angu
er t
h ich
le v
f ic
Ġor gan
Ġhapp y
al ity
Ġmar ried
Ġmill ion
ud e
v ious
f or
en g
Ġb all
ut es
Ġdo g
he ad
on es
Ġsever al
om p
Ġall ow
Ġwh ite
i qu
Ġin de
os p
m en
Ġm akes
Ġn orth
Ġr ather
Ġt aking
ac ed
g ue
und red
ou d
b um
uro pe
Ġso ld
Ġv o
Ġchar ac
, âĢĿ
ĠA ust
b s
c an
Ġp ict
l a
er v
Ġal one
Ġv al
Ġpro gram
b ed
Ġ âĻª
Ġin form
Ġe ither
Ġ est
itt en
Ġ ve
ren ch
Ġdes ign
Ġhum an
p ri
i um
Ġre port
Ġen g
i ence
am ent
ci ent
A h
Ġh ot
Ġex c
the re
Ġ &
Ġser ies
Ġturn ed
Ġt re
ent ly
ull y
ĠC al
en cy
Ġhe ll
Ġstr ong
Ġatt ack
at ic
c ha
o int
o or
ĠT r
Ġs at
ĠW orld
h uh
Ġli ving
Ġsupp ort
b and
en n
Ġan n
Ġpart y
f ord
Ġqu ick
Ġsu ccess
Ġthink ing
ham p
ot s
Ġcomm on
Ġc ou
S ome
Ġ 0
Ġother s
ĠP l
Ġcould n
Ġres p
S h
Ġl ay
Ġre d
Ġtr ain
ĠMar ch
ĠA d
Ġde m
Ġf ig
Ġh undred
Ġfil m
ĠE urope
r ing
un k
Ġad m
id ge
ĠC omm
Ġb ar
b it
f fect
o ver
act ly
Ġde l
Ġal bum
her n
Ġd ream
Ġgr ow
ou b
Ġs um
Ġn amed
E x
ĠMr s
g o
ĠS h
itt ing
i or
Ġb and
ept ember
ran ge
s y
Ġlook s
Ġsomet imes
L L
ĠM an
Ġt ou
Ġst ru
Ġhe ld
Ġ $
ĠBrit ish
Ġche ck
ra z
Ġwith in
ĠThe n
iv ing
w o
Ġhist ory
p ar
Ġc ost
Ġm ess
Ġt em
Ġwant s
Ġlist en
un t
Ġbeaut iful
Ġth ird
ĠN orth
Ġad v
Ġs outh
Ġex pect
Ġh it
Ġv ill
Ġbu ilt
a im
Ġc e
Ġmin ute
ri e
ĠP ar
ĠA b
au gh
m a
Ġper form
Ġ z
Ġus ually
Ġro ad
Ġres ult
ĠO r
es tern
f ully
Ġin side
ĠT HE
ug ust
ĠG o
Ġspe cial
ĠS e
O r
id er
E N
ond on
Ġthan k
C h
Ġro ck
Ġapp ro
Ġre qu
Ġgo ld
Ġsing le
e ge
Ġpo or
d om
Ġr a
Ġme mb
ill e
Ġac ross
o ad
in ation
l s
Ġa v
Ġre v
Ġmonth s
Ġse ason
ĠJ uly
ff ic
Ġmin utes
Ġde ar
l ook
ĠS eptember
m ing
ound s
H ello
Ġplay ing
Ġposs ible
Ġc ir
Ġst at
al d
Ġout side
H ave
ĠW ill
Ġgot ta
ous and
an a
Ġte ac
ĠPres ident
res ent
Ġus ing
Ġbu y
pri l
Ġre pl
Ġinclud ing
Ġ19 3
as k
Ġto t
Ġbuild ing
re ad
ch n
Ġe ffect
ĠF rench
u ed
A ny
Ġele ct
Ġwond er
ĠC har
Ġapp ear
Ġse nd
Ġ *
Ġ X
Ġt ried
us band
ang er
Ġde part
hi le
f ort
Ġs il
Ġc op
ove red
Ġam ong
ĠM in
ct ober
al es
Ġc ho
Ġ1 1
mor row
ac hed
Ġcon cer
Ġloc al
it ch
ĠS ha
ir th
Ġc amp
Ġmemb ers
I I
as es
Ġha ir
Ġli ved
ress ed
Ġpop ulation
li ke
Ġm ajor
Ġc re
ĠJ une
| |
Ġm ag
Ġd est
Ġd ark
th ough
ĠD o
Ġpro fess
Ġoff ice
ĠG eor
Ġfollow ing
att le
Ġm ur
ce mber
uth or
Ġt est
e en
Ġswe et
Ġs n
y n
Ġv ide
Ġle vel
Ġd ie
A fter
or ies
un ch
g est
Ġwr itten
a ul
ĠL ondon
Ġcon d
Ġf elt
Ġany one
ĠN ational
c ing
ĠA f
ove mber
Ġwor ry
m ore
ĠJ o
idd le
ĠA ugust
ea red
if ied
Ġab s
ke y
Ġpro cess
b ers
Ġg un
am b
Ġget s
ĠM iss
Ġse a
Ġh usband
Ġis s
May be
ov ed
ĠEng land
Ġans wer
r it
R E
so ci
Ġth ousand
Ġb ird
ur s
Ġ1 3
lev ision
i od
ĠA pril
Ġv iew
W ith
Ġt reat
Ġfor mer
Ġwork ed
Î ¿
Ġme mber
ĠC ha
Ġt ill
ru ary
eb ruary
Ġpartic ular
Ġvo ice
it ions
w ork
Ġse ven
Ġ1 4
ain t
ĠR ep
o x
Ġcomple te
Ġs un
ĠH ar
Ġlangu age
Ġf av
ir on
u k
Ġde fe
Ġwork s
Ġn at
Ġb ased
Ġon es
ĠO ctober
Ġf a
ra id
Ġt able
Ġevery one
ĠC ent
Ġcan not
Ġst ra
Ġchan ce
.. ..
1 0
Ġpro per
Ġcent ury
re ed
ĠDe cember
Ġwr ote
ĠC ity
ĠIt al
f er
air s
Ġp ull
O f
ĠC ap
Ġinv ol
Ġc ross
Ġwhe ther
ĠB ar
ore d
Ġpol ice
Ġhour s
Ġc ry
as ure
Ġwe ar
Ġm er
ro du
ag ed
ay s
Ġd i
ĠW est
Ġw ish
ĠH er
ĠN ovember
Ġcou ple
Ġfor g
T H
Ġwr ite
Ġeas y
Ġd am
Ġpr act
Ġto morrow
ĠI f
Ġseem s
Ġinform ation
c om
Ġbo x
Ġg ra
Ġdif fic
Ġcle an
p or
on ight
Ġst ar
Ġ3 0
ĠJ ack
Ġboy s
ro om
Ġl ow
Ġknow s
Ġprot ect
ĠM ic
Ġf ur
ĠC ol
Ġp aper
Ġl a
tern ational
Ġli ves
Ġ201 3
Ġe vent
ĠM e
Ġs ense
ĠG u
i en
Ġw all
id ing
Ġcur rent
Ġtr ad
Ġgr ound
ĠGerm an
Ġser vice
ĠP h
Ġhow ever
Ġchan ged
Ġp ost
ĠA m
Ġf if
hy s
Ġco ld
Ġc al
Ġfe et
y r
Ġde p
ĠE d
ĠD an
ci ally
id ence
ĠA fter
ĠF ebruary
our n
Ġmov ed
Ġm ine
Ġf ast
ĠAmeric a
T ake
Ġr u
Ġr ad
is ing
c il
Ġl ad
ro g
og n
av y
oo se
th is
Ġgr and
Ġcomp et
s he
Ġis land
it ive
Ġf ield
Ġlong er
at a
Ġp arent
r ation
Ġs ca
Ġph one
ir ty
u ri
Ġb irth
an ces
Ġsupp osed
Ġf ail
Ġst ep
Ġex actly
Ġtw enty
Ġcomm une
Ġsu per
Ġ20 2
I S
iv il
Ġcontro l
Ġdra w
Ġd ro
Ġh ig
ĠInd ian
k es
Ġ ill
id a
um ent
Ġcare er
Ġ201 0
1 8
A r
Ġ vers
Ġl ady
Ġper iod
ir gin
Ġf air
Ġaf raid
if t
Ġreg ion
Ġpri v
Ġthem selves
iz ation
w ho
I C
ord ing
Ġsh ot
Ġcharac ter
st it
H is
ul a
Ġhur t
ha el
ci ence
Ġtr uth
S ee
em y
Ġinc re
Ġt it
Ġb ott
ĠO ne
re m
Ġgener al
end ed
L A
L ike
Ġs ister
ĠT e
u ation
Ġn ational
ir t
Ġrel ig
Ġm ot
Ġpro p
har d
ent le
Ġd in
Ġke pt
c ol
w ith
Ġse x
Ġneed s
iss ion
Ġte levision
pt ion
Ġdire ct
Ġtr ouble
Ġrece ived
Ġkid s
Ġa uthor
Ġper haps
W ait
ad a
Ġrun ning
Ġsh oot
e al
ĠS w
Ġlet ter
Ġdes cri
i pp
Ġpict ure
il ar
Ġvide o
e ople
Ġde ep
ĠAf ric
f fe
ow ers
in al
Ġpop ular
con om
le x
ĠD ist
l ant
Ġcour t
Ġfoot ball
Ġde v
Ġte chn
Ġt onight
op s
E D
at ter
Ġ2 5
r ay
Ġac cept
Ġp ubl
Ġdo ctor
ĠR oman
Ġar ri
Ġsp ace
Ġed uc
ĠS er
Ġcon ne
Ġc ook
Ġin fl
Ġfor get
Ġent ire
the y
Ġt ree
j oy
Ġab ove
v al
Ġc at
Ġty pe
d ing
Ġvill age
ed er
ill y
Ġser ious
Ġinst ead
Ġseem ed
ill s
gg est
Ġm ount
Ġcl ot
Ġinclud e
Ġpr in
b ur
u z
Ġset t
i ol
Ġh uh
ĠD r
Ġc os
ĠD on
Ġl im
he l
ct ure
Ġf ly
se e
Ġcl ub
g ing
Ġtou ch
Ġwait ing
Ġwhat ever
Ġst re
Ġcoll ect
Ġcreat ed
Ġp ress
al t
Ġper fect
ĠW ell
Ġf ut
ĠM c
r or
Ġn orm
Ġcount ries
le ct
ol ute
Ġres pect
Ġw ood
ou l
Ġl ab
Ġdepart ment
Ġc ult
Ġp ort
Ġl uck
Ġh y
Ġplay er
Er m
Ġpos ition
Ġit self
re g
Ġpie ce
ĠHow ever
ĠY OU
Ġe p
G H
hamp ions
Than ks
k y
k en
fe rence
Ġhor se
osp ital
ac y
Ġr ul
Ġex cept
av id
i ally
Ġfuck ing
C H
Ġgo d
ol ution
ĠI ll
Ġsu ggest
ĠĠĠĠ ĠĠĠĠ
dd en
Ġtr ust
Ġd ue
Ġinv est
Ġrep resent
ri but
Ġare n
Ġpro ject
Ġt akes
Ġsome body
Ġam ount
ĠL ea
Ġevery body
Ġp le
om in
Ġm ist
Ġfam ous
Ġgirl s
Ġdiffic ult
Ġg en
s p
ĠE x
Ġcomp ut
Ġl ed
Ġbe ar
ĠM y
ĠT om
ri an
Ġan g
k ing
ĠV irgin
Ġcr it
Ġwee ks
ĠDist rict
e v
Ġsu dden
ĠT H
Ġdec ided
l ight
re y
Ġrec ogn
Ġcap ital
Ġstra ight
ĠH ouse
ĠSt ate
ar a
Ġwor th
s c
Ġ ]
pe cially
S orry
ĠE m
Ġsur pr
Ġc oun
Ġro le
Ġprodu ct
o ff
Ġm ult
ad es
Ġph ot
ĠP art
ĠW h
Ġser ved
Ġlear n
ĠAust ral
Ġbl ue
raz y
Ġha ng
ĠThe se
T ell
Ġfeel ing
as hing
Ġst ood
Ġse ll
Ġ2 4
iv al
ener al
Ġsh it
Ġsa fe
A S
Ġp en
Ġfut ure
Ġc ast
Ġg ames
ĠGeor ge
a ur
it ary
am er
Ġfun ny
1 5
Ġd a
ĠU S
t ime
s u
Ġhe alth
Ġtell ing
Ġv ict
ĠS ome
Ġcar ry
Ġeven ing
Ġpass ed
ri age
Ġsl ow
om b
Ġme ant
Ġex ist
Ġe ye
U n
St op
o es
ĠS y
ĠP eter
ĠL ord
Ġbook s
Ġproble ms
Ġc ried
Ġn ine
Ġsec ret
Ġdo ll
Ġst ri
em pt
Ġco ver
Ġear th
Ġ ver
Ġf ill
Ġfur ther
w as
Ġim ag
ress ion
han k
Ġtr ack
Ġ et
ic ation
Ġj ud
Ġcount y
Ġpol ic
Ġa head
ce ed
ĠN ot
re me
Ġm atch
Ġ19 2
ci ety
Ġeng ine
Ġb ene
te en
Ġd oub
The se
Ġf ix
Ġg reen
im ent
Ġso cial
Ġa in
Ġg entle
Ġsp ir
Ġser v
Ġmeet ing
Ġfig ure
Ġp hys
Ġcom b
Ġany way
oc r
Ġrel ations
ino is
vious ly
Ġ ide
Ġpres ident
Ġdri ve
U S
ll ed
and er
Ġter ri
ru g
C l
Ġm is
Ġparent s
p ing
Ġs us
Ġfam il
T ER
Ġsub ject
1 7
c han
ic a
ĠInd ia
Ġreturn ed
y le
Ġcom pl
âĢ Ķ
Ġfollow ed
H i
Ġher self
Ġsa il
pl oy
Ġop ened
ĠQ ue
b or
Ġhapp ens
Ġc atch
Ġn on
ĠGerm any
Ġcir c
Ġm outh
Ġr ain
Ġ201 1
Ġf ear
ic ian
ag er
Ġcha ir
Ġanim als
L E
p es
ist en
Ġpr ison
Ġdist rict
Ġc ool
Ġc razy
Ġre se
Ġsa ve
Ġspec ies
Ġd anger
ar th
Ġob ject
Ġv iol
ĠJapan ese
Ġp ot
Ġ200 6
W ill
Ġm ass
Ġh oney
ĠC oll
Ġteac her
o ly
he m
en ry
M e
a ff
ĠG ood
Ġen joy
ĠRep ublic
1 2
1 4
N e
med i
T r
Ġr is
ĠJ ames
ĠS chool
Ġr ing
ĠIs land
ĠP ark
ĠE l
Ġpart s
Ġh ost
ĠR uss
Ġ201 2
Ġmov ing
Ġh op
Ġen er
Ġbu ll
Ġne g
Ġbec om
Ġan t
we red
Ġs ick
ra ph
Ġar m
k ed
Ġp al
Ġsim ilar
Ġb ag
ro y
Ġwh om
Ġ1 00
c her
Ġe conom
Ġfor ce
Ġli e
Ġca use
n ight
in ite
er ry
Ġf ish
Ġbegin ning
Ġest ab
itt ed
Ġcertain ly
o e
Ġb urn
Ġse par
ĠWill iam
ĠVirgin ia
is hing
Ġm iddle
ĠH igh
a ven
Ġst ick
O M
Ġquick ly
Ġs har
ĠE ast
ĠIll inois
et t
Ġpl aces
Ġwho se
c ast
Ġcl os
Ġspe nd
Ġch urch
Ġp aid
Ġbe at
pl es
Ġso ft
Ġthr ow
Ġs itting
Ġfin al
Ġfin ished
Ġinterest ing
i res
it or
Ġm ad
Ġfe at
Ġfl oor
a ha
n el
Ġto wards
im ate
um e
p ha
Ġm ater
Ġk iss
G ive
p ly
Ġquest ions
if orn
i ers
u ge
ut y
Ġv ol
_ ,
ĠG l
Ġorigin al
âĢ İ
Ġann oun
Ġne cess
Ġ ident
Ġin f
Ġact iv
Ġg iving
Ġsh ut
Ġst reet
og rap
Ġdis app
Ġlea ving
Ġf re
hi ps
iforn ia
l ine
in y
Ġm ention
M ar
Ġse lf
ĠR ic
. ,
Ġal right
Ġqu iet
E A
Ġb reat
Ġp ark
ĠM ary
Ġstud ents
v ille
Ġtot al
Ġl ose
Ġ( "
ition al
Ġc orn
ĠP ol
Ġpolit ical
O K
re l
ab ad
Ġcommun ity
Ġr ail
iv id
B y
E ven
B l
Ġre ached
ĠW hy
our t
Ġsupp ose
Ġterm s
Ġb ill
D e
ri ll
Ġgr ad
Ġbel ong
Ġmod ern
ĠFl or
S omet
ĠC or
k a
ic ated
ĠS u
ĠT O
ing er
ir m
ct ions
Ġway s
Ġ #
Ġfor ward
Ġfore st
Ġth ou
ro ad
Ġu m
ort s
oy al
Ġacc ount
ĠQ u
Ġh ospital
F rom
Ġexper ience
Ġinfl u
l in
ain ing
Ġans wered
Ġri ver
Ġvar ious
ens ive
Ġgl ass
p ut
Ġne igh
ĠN e
Ġnum bers
Ġpubl ished
Ġm ach
ĠR iver
Ġor d
he t
O W
ĠS ec
in ist
Ġse arch
ĠT o
ĠCal ifornia
G od
ci ous
ens us
Ġind ust
f ace
Ġt ax
Ġa ut
Ġh ung
ĠPh il
g ar
en a
Ġn in
Ġresp ons
Ġe gg
Ġany more
A M
am s
Ġmark et
Ġc ivil
Ġallow ed
b ye
g u
Ġgl ad
ĠS an
Ġde pend
Ġ2 3
Ġint rodu
Ġcl aim
Ġequ al
h ouse
n s
Ġd ress
olute ly
ca pe
w hich
ĠS m
a f
w ood
Ġl augh
it es
Ġdisc uss
Ġbro ad
Ġwind ow
ĠI I
Ġshow s
Ġinvol ved
r is
ĠLea gue
ĠN ow
Ġstud y
j ust
Ġc aught
Ġ5 0
1 3
Ġin n
Ġbl ock
i us
it z
act ion
Ġcons ider
Ġnat ural
Ġob s
? âĢĿ
Ġf em
Ġloc ated
ru ction
Ġmil es
A P
b on
h ood
in ary
Ġen v
Ġst ore
ĠM ed
ol ic
Ġsome where
Ġmom my
ĠCap tain
Ġst age
Ġst range
Ġtra vel
ort un
Ġbo ard
" )
A b
Ġa ud
ĠC o
oll y
Ġ0 1
Ġmater ial
f it
ha d
ĠS ir
Ġs ad
ag o
Ġ201 4
ĠCh urch
eng th
er ve
Ġsim ple
er o
Ġn et
ĠT V
Ġneed ed
ĠGo vern
Ġclot hes
I T
v iew
Ġal ive
Ġen c
Ġg ives
ĠFlor ida
Ġdin ner
Ġs ize
Ġse at
Ġany body
up id
a e
ĠP aul
un ic
ie l
am m
Ġe mb
a pe
Ġfin ally
Ġbo at
Ġval ue
Ġyour s
W hich
Ġvis it
en ces
Ġde g
Ġsh op
ĠJ ust
Not hing
c use
b l
Ġpe ace
ober t
Ġes pecially
Ġener gy
B r
Ġa part
il s
Ġsur v
ĠM on
ĠM us
ĠĠĠĠ ĠĠ
in ing
Ġf und
ound ed
Ġ x
Ġsit uation
Ġfav or
Ġsp ent
Ġke y
Ġpriv ate
Ġ )
us es
ĠJ im
Ġtit le
Ġcon side
ig g
Ġconside red
Ġf ac
Ġp erm
as ons
Ġn ature
Ġapp eared
ĠUn ion
ĠL ou
Ġdis e
Ġpl ant
Ġcol or
ill a
Ġj ump
Ġ2 1
Ġar my
id ay
Ġ200 7
ĠFran k
Ġadd ed
f ield
Ġg ar
Ġ201 6
Ġprofess ional
ĠMic hael
Ġw ild
ou ps
if f
ĠE n
ear s
b our
Ġb ur
Ġd ance
Ġg rew
ud d
Ġstop ped
Ġs our
Ġb ought
Ġact ion
Re ally
ri a
ĠA re
ce ll
Ġm id
om as
ĠHe y
Ġim medi
Ġprodu ced
ra ft
Ġb an
Ġd rug
Ġ19 0
m hm
ĠJ e
ail s
m on
u nder
Ġqu ar
Ġapp l
v an
ĠP er
Ġwr iting
c ul
Ġcon v
Ġinde ed
u el
out hern
ĠW ho
Ġ2 6
rie f
is c
Ġt ea
est s
Ġpur p
Ġsum mer
d on
pl ay
2 00
ĠD avid
te red
Ġear li
Ġext ra
ĠPro v
Ġbro ke
5 0
ort hern
gr ound
ĠChrist ian
ĠPart y
n ers
Ġf le
at ors
el p
A L
ĠG ree
Ġ2 2
iqu es
in ct
ĠL a
ĠS en
Ġsee ing
Ġatt empt
L isten
ha ll
Ġd ate
Ġstand ing
re r
ell ow
Ġthan ks
iqu e
W ould
Ġr out
ĠG eneral
Ġpr im
Ġav ail
Ġcomm and
ib ility
Ġdevelop ment
O T
Ġr id
ĠG reat
Ġcomp an
V E
a use
o id
es us
Ġl iter
ĠS ar
S p
ous ly
Ġsim ply
Ġm ix
ĠD em
P ro
d id
Ġc ell
Ġp ers
os ing
ap ers
is es
iron ment
g on
Ġn ames
Ġatt ention
if y
Ġcoll ege
sy ch
u ke
Ġre du
ĠSc ott
Ġhist or
Ġoffic ial
w ise
Ġp ack
st r
ist ic
Ġw ide
Ġc and
an c
ge l
ive ly
Ġgr oups
N D
y l
Ġs cience
le br
ho ld
Ġdad dy
Ġt end
ĠD ad
Ġy e
Ġde cl
bo ard
Ġinclud ed
Ġs al
Ġb attle
ra w
ĠO F
Ġask ing
Ġlar gest
Ġ ice
1 6
ur ity
de red
Ġopp ortun
y a
ab ility
ock ed
Ġmil itary
Ġhat e
Ġar ms
Ġpoint s
olog ical
Ġspir it
Ġw est
Ġs ens
ĠM or
Ġdiffe rence
Ġt our
Ġbl ow
h od
re ct
ist ory
ĠO ly
Ġep is
k n
Ä ģ
Ġbe ha
Ġ200 9
Ġind ivid
Ġdest roy
Ġcomplete ly
Ġal though
qu e
Ġcar ried
Ġdoub t
S ure
Ġl oved
Ġspe ed
Ġmur der
ĠC ong
Do es
Ġvers ion
ashing ton
k i
Ġb ow
ĠSt e
Ġeduc ation
ĠM ad
Ġperson al
Ġcomput er
ast ic
M an
Ġd ry
ĠK en
soci ation
ĠRic hard
P l
g l
Ġt ro
Ġmar riage
Ġcap tain
Ġbro ken
Ġ `
all ey
ĠT ur
Ġcont ract
Ġoffic er
Ġjo ined
p ro
Ġ200 8
O ur
ch ie
ĠL et
Ġref er
Ġm aster
Ġem ploy
ĠC omp
pp er
Ġshould n
Ġ201 5
b ack
n es
Ġl ength
H er
m as
it ude
an cy
Ġp ath
Ġre ach
Ġplay s
Ġwatch ing
Ġb ank
Ġmean ing
ter day
Ġhe avy
ĠB ur
ord s
ĠH enry
Ġ2 8
ens ion
ard en
T wo
w est
Ġl ying
Ġbel ow
ĠQue en
t r
Ġl o
ant ly
ĠRe g
U m
u x
he st
Ġb ase
Ġr ich
Ġtalk ed
ĠP ort
ĠSt reet
og raph
Ġco ast
W as
Ġs ight
ar i
ĠR ed
Ġar ch
led ge
as ion
Ġcap t
Ã ¼
ll en
I D
J ohn
Ġe ff
Ġro b
Ġsha re
Ġinde pend
g ress
Ġf ool
Ġanim al
P er
Ġpl us
ber t
Ġpre p
Ġ202 2
Ġocc ur
Q u
ic le
Ġfor t
Ġare as
Ġ20 00
Ġhappen ing
Ã ¡
Ġb ra
Ġp age
Ġnear ly
Ġw at
ĠM al
or row
ic o
Ġapp oint
Ġca used
Ġimp ro
E T
an ish
hi re
Ġacc ess
Ġb ud
Ġst ates
ran k
ĠBl ack
Ġhon est
V ery
Ġc ensus
Ġin it
ic ed
ict ion
Ġwe l
Ġs ite
ĠP al
Ġaf f
hampions hip
im s
D ad
se c
ĠC ourt
Ġfell ow
Ġce lebr
Ġe ast
Ġex am
Ġman age
e ep
Ġs cient
ust om
Ġhig her
unic ip
G r
ĠM o
Ġ2 7
Ġev idence
Ġf at
il es
ĠW here
om en
et her
Ġreg ard
Ġprom ise
Ġnorm al
Ġfamil ies
id s
ĠS am
ĠB y
ĠP ri
ĠO kay
Ġrad io
am n
Ġwar m
Ġsudden ly
il ed
3 0
ar ily
Ġst upid
ĠC ome
ous es
Ġs and
ick s
Ġsong s
in c
ĠA ir
Ġr ace
Ġmar ry
Ġinterest ed
Ġin j
Ġdo c
Ġco ffe
Ġ4 0
Ġf it
Ġf oc
ĠM art
res h
z a
Ġh ol
Ġ200 5
Ġc ases
Ġsc ene
Ġtre es
ĠB en
os op
Ġshow ed
Ġform ed
Ġn or
gg ed
Ġdevelop ed
b ing
ĠI N
Ġact or
Ġc ard
ĠW ith
Ġmov ies
1 1
Ġp un
Ġpr ay
Ġh uge
ak er
Ġcontin ued
Ġbott om
Ġavail able
Ġtr ade
ib ly
ĠA nt
ick et
Ġspeak ing
Ġcoffe e
Ġb i
Ġde b
hi b
Ġreg ular
Ġbirth day
Ġannoun ced
Ġb ath
Ġfe ed
Ġper cent
n Ã©
Ġd ig
us ion
ab les
Ġsqu are
e g
Ġd en
Ġth reat
ĠP at
ĠP et
ol k
inite ly
ha l
Ġne ck
Ġhelp ed
Ġmil k
Ġs now
ĠB oy
ain e
ĠE arth
Ġmove ment
ĠAfric a
s et
Ġd ata
pp ing
Ġfound ed
ĠEurope an
ĠAustral ia
Ġb es
Ġl ines
Ġestab l
Ġ2 9
ll ing
ĠA ct
Ġwere n
o om
ĠSc ot
ĠWh ite
C on
y ear
ha nd
n ie
ast e
ĠO K
Ġsp oke
Ġend ed
Ġtem per
Ġsca red
ĠColl ege
Ġe ating
ĠM ex
Ġpie ces
Ġwonder ful
st e
Ġenv ironment
Ġg as
ĠC up
ĠCh ina
U N
d a
Ġt ired
Ġsu ff
use um
D r
i ation
Ġw ed
Ġo il
ce an
um mer
Ġso ciety
ĠW ashington
Ġoff er
Ġse vent
Ġright s
ĠGr and
m in
Ġst ories
Ġra ised
c hen
at form
Ġa ward
ĠA ward
ĠB el
Ġno vel
Ġstart ing
On ly
y er
Ġof fe
el ve
Ġchan ges
ĠI ran
Ġu r
Ġex ec
Ġcl osed
S ir
p en
Ġ :
ent ial
Ex cuse
Ġrese arch
Ġmet hod
Ġhe ro
Ġcom fort
ĠE r
Ġpolit ician
ent al
ro at
ĠD ick
Ġte xt
Ġdec ision
Ġwalk ed
Ġtrain ing
Ġrev iew
y ond
Ġwor se
Ġar rest
ov es
Ġcent er
Ġlear ned
ograp hy
a ign
j i
ar m
Ġadd ress
Ġbird s
Ġb right
Ġde li
Ġsound s
Ġa p
ot ed
us hed
ver age
Ġass ist
f act
Ġl ower
Ġcho ice
ĠOly mp
st on
us ing
il ing
itt ee
Ġput ting
Ġc ro
Ġlike ly
Ġw a
ĠD ar
ĠR ob
ub e
Ġdem and
c ad
s hip
w r
ĠPar is
Ġme m
ĠC r
ate g
od ay
Ġbr ain
Ġyes terday
Ġmed ic
Ġdet erm
Ġu nd
Ġph il
Ġcall ing
Ġexpl ain
i ar
ĠF in
ap s
ru it
Ġafter no
Ġmod el
Ġprin ci
p ir
Ġ ir
Ġr ide
Ġlet ters
Ġchar ge
ĠN or
li ament
F irst
Ġp sych
Ġno body
Ġun iversity
Ġschool s
l am
Ġ ought
Ġc ow
ĠD ep
Ġbelie ved
Ġcre ate
ĠItal ian
Ġ ess
Ġw it
er ved
or ing
Ġmost ly
Ġfin ish
Ġev ents
Ġjo in
Ġspec ific
Ġiss ue
P eople
il ities
Ġsu it
ĠMin ister
g ent
an i
Ġbe ll
Ġfour th
Ġd ouble
ur t
Ġaf fect
Ġt all
Ġc rew
ol s
Ġsm ell
Ġlead er
. '
w estern
as c
ĠB o
Ġdist ance
At lant
Ġang ry
B C
Ġm or
Ġv ac
Ġide as
Ġthe ory
Ġc ru
ĠS al
ĠP yr
ber g
Ġag ree
Ġsp read
Ġch ief
A C
ore s
f ast
k et
is ions
Ġc ab
Ġth irty
ash ion
Ġmess age
bur g
in i
ut en
Ġst ars
Ġem ot
Ġdire ctor
Ġdise ase
Ġimmedi ately
Ġst orm
ĠC ath
Ġbus y
Ġafterno on
ĠS ch
ĠAl an
Ġfa ith
S e
Ġt ail
at ives
se qu
ĠC oun
Ġan cient
A m
Ġru le
Ġb le
ut s
Ġst yle
Ġan al
ĠH all
ĠB ob
Ġche m
Ġfar m
Ġprodu ction
ight s
Ġsp l
Ġbr idge
Ġlove ly
ĠAr my
ĠProv ince
Ġs ac
Ġen emy
Ġ200 4
Ġc up
ose ph
Ġblood y
Ġd an
est y
Ġarri ved
Ġearli er
S c
Ġs oul
ĠM aj
uck y
Ġcontin ue
ĠS at
ĠA lex
ĠM ac
cc ording
Ġfa ult
Ġc overed
Ġim m
S T
e es
Ġs le
Ġh un
Ġele ction
ĠCent ral
Ġnecess ary
ver t
ĠJ ew
Ġtr uck
Ġwe ap
Ġar g
Ġ18 9
Ġterri ble
ĠS im
um ents
Ġk ick
ĠK ore
ru pt
Ġstre ng
az ing
w hy
se y
Ġbr an
N ew
k in
ĠB er
ĠW il
Ġthere fore
Ġ( )
Ġacc ident
Ã© nÃ©
kn own
Ġestabl ished
C ar
i ents
Ġl og
Ġr ap
ĠR obert
Ġco ach
Ġcare ful
Ġsign ific
Ġsuccess ful
ĠItal y
Ġrelations hip
e h
Ġhe y
al ed
Ġcon du
Ġop in
ĠChar les
ĠCong ress
os ition
Ġ18 6
Ġfight ing
e ch
w h
Ġc ities
as ant
ĠM ark
Ġcont act
Ġsl ight
iver se
Ġpolic y
Ġc red
Ġf rog
ro s
W h
l or
ĠIt s
av es
w ould
at ory
Ġfor ces
ri g
Ġsk in
ed s
Ġp et
Ġl if
Ġha ll
st airs
Ġst one
ord er
oss ible
Ġsett le
Ġpurp ose
Ġre ve
Ġli ked
Ġ20 20
Ġpr ice
Ġpr int
Ġ200 1
Ġcamp aign
Ġmult ip
e k
Ġc y
Ġm ic
ar ies
Ġl oad
ĠIn ternational
Ġatt ract
ott en
iet y
i ot
Ġn one
âĢİ .
C ould
Ġt ar
Ġin ternational
Ġfor th
Ġsh own
ines e
Al right
ĠCan ada
Ã©nÃ© es
Ġfor ced
iz ing
Ġtell s
Ġhold ing
ĠPyr Ã©nÃ©es
R O
l o
Ġc amer
au g
Ġ ..
an n
Ġd rop
Ġl ink
Ġsp ot
Ġmin us
Ġes cape
Ġwel come
ac hing
and a
Atlant iques
Ġl oss
Ġ201 8
s es
ri al
ĠPr in
Ġinvest ig
Ġr ate
R I
z en
it ation
ĠC han
Ġcr ow
Ġkind s
Ġwalk ing
Ġpract ice
Ġm unicip
Ġdire cted
Ġin tern
ent h
Ġk it
Ġcom ed
ck s
hed ron
t t
ĠT hank
ĠG old
Ġabs olutely
ourn al
Ġcorn er
Ġmach ine
Ġc ode
Ġre pe
Ġext reme
Ġmount ain
g ood
Ġe mer
ict or
Ġch ick
Ġmed ia
ĠSp anish
ĠKing dom
Ġp an
ur a
Ġsign ed
Ġserv ices
Ġs ch
as ing
Ġwe ight
ck et
Ġlea ves
Ġthe e
Ġm um
Ġth us
em s
ĠJ ul
Ġknow ledge
Ġsing er
Ġread ing
um ber
G ot
b a
Ġp ounds
Ġtw ice
Ġpat ient
g ain
is f
Ġh om
ist ed
b ell
Ġbe yond
Ġre lease
Ġwe ak
Ġhas n
Ġimag ine
Ġa verage
ĠD uring
ific ation
Ġleg s
eder al
Ġopen ing
c ap
w in
ĠM et
Ġcall s
Ġbig gest
Ġdro pped
Ġp ush
ve re
ul ations
i ant
Ġm oon
Ġdis p
Ġopportun ity
. --
Ġa chie
at in
ĠH ill
ĠP eople
ĠK ent
Ġnews p
Ġdoll ars
G u
Ã Ń
et ic
Ġint ell
ĠYou r
Ġdri ving
Ġsystem s
w are
Ġs ides
Ġro se
Ġun less
Ġdisc overed
Ġem pt
is ters
ĠF rom
Ġcon vers
ĠAn ge
y an
ph one
ĠScot land
m us
Ġy ellow
ĠR oyal
el ess
Ġac qu
Ġele cted
Ġ198 0
P ut
Ġ Ã
or ks
Ġsy mb
Ġsold iers
Ġdefe nd
Ġphil osop
ĠI T
ut ter
oo p
ĠD ay
ĠR es
Ġno se
Ġfem ale
d en
Ġc ustom
Ġacc ording
Ġsur face
ĠCar ol
Ġhig hest
O oh
u le
ĠM ost
ĠP e
our s
Ġpr oud
Ġ201 7
Ġteam s
Every thing
k ins
Ã ³
ut ch
ist an
os es
Ġmist ake
. _
h ost
Ġb rief
Ġf irm
ic ious
Ġlot s
, --
Ġany where
ors es
Ġent ered
Ġdanger ous
! âĢĿ
W ow
Ġf resh
Ġ199 0
Ġsmall er
Ġcharac ters
ĠM ount
Ġfl owers
Ġrem ain
Ġcurrent ly
Ġmem ory
F uck
T HE
Ġb oss
ĠM ag
Ġgrow ing
ĠCoun cil
le ar
all ed
ol f
land s
Ġepis ode
Ġte ach
Ġres our
Ġthrough out
Ġrelig ious
U T
Ġdog s
ĠB ay
Ġsk y
Ġeas ily
ĠW estern
Ġo pt
Ġm ir
Ġg arden
ra v
Ġplay ers
Ġinclud es
Ġfif ty
Ġris k
A Y
ac ing
op h
Ġus es
Ġpict ures
ĠM any
Ġcl im
Ġsw im
Ġwear ing
Ġrul es
ĠDem ocr
H istory
Ġp ound
ic ago
ĠM at
ul f
est ival
Ġold er
Ġfore ign
er c
ĠC om
Ġfun ction
z z
and y
ĠT ex
Ġpl ants
Ġv an
Ġtw elve
Ġwin ter
Ġpos itive
Ġexpect ed
A meric
c ies
Ġp ig
ĠL aw
Ġmiss ing
Ġorigin ally
Ġindust ry
Ġgr own
ĠAs sociation
Th ose
E n
K eep
s m
it iz
Ġg e
Ġrelig ion
S ince
Ġp red
le cted
Ġas soci
Ġneg ative
b es
as tern
Ġ18 8
Ġw ine
Ġl aid
c is
i ber
Ġthink s
Ġrem ained
Ġcr ime
AN D
Ġbas ket
Ġparticular ly
stit ution
it ar
ĠD el
Ġcar s
C he
Ġsur r
r am
ur b
Ġnot e
Ġsp ring
Ġtri p
uten ant
M ic
d Ã©
i j
m ark
Ġh ide
Ġcom mer
per or
ĠCh inese
Ġdes p
Ġform ula
Ġposs ess
Ġadm inist
ro l
ist ry
Ġfor ty
Ġdire ction
A d
d own
im a
ĠG reen
ĠTh omas
Ġcond ition
Ġst aff
ĠC he
L e
N A
Ã ¶
ce nd
Ġr ub
Ġfl at
Ġfin an
g a
Ġd uty
ĠR ad
Ġro ll
Ġch oose
an ge
Ġv ote
Ġprov ide
Ġgrad u
R em
Ġbre ad
Ġdef initely
Ġpartic ip
ĠCath olic
u pp
re ci
Ġwor ried
ĠE mp
Ġcult ure
f rom
ar row
ĠA cad
ĠP ac
Ġcor rect
Ġcrit ic
ĠLou is
om s
be red
tain ed
ĠAr t
ĠAt lant
Ġsouth western
Ġegg s
Ġdeg ree
g en
ĠL ee
Ġslow ly
S E
f riend
s ing
on ed
it a
Ġyou th
Ġpl aced
Ġ200 3
Ġsec urity
Ġiss ues
c oh
r at
r ough
w hen
Ġp oll
Ġhe at
ol a
Ġag reed
be cause
A ct
Ġl ack
ĠA pp
ĠHe re
Ġstud ent
Ġlar ger
Ġfre qu
Ġ rom
ĠD es
Ġmention ed
Ġh ill
Ġlaw yer
Ġstreng th
I F
Ġf ashion
Ġhe aven
Ġth y
Ġadd ition
Ġord ers
ic les
Ġr ough
ag ing
Ġact ing
Ġelect ric
ĠM a
ĠP ak
ign ed
cept ion
Ġdesign ed
Ġjud ge
on a
ch ing
Ġnot ice
ap t
Ġbrother s
Ġdam n
Ġluck y
I nd
L D
Ġ iron
ow a
ĠM ont
ĠR ail
ĠJ er
Ġbig ger
Ġrel ated
ĠDe v
Ġcha llen
gy pt
Ġtot ally
Ġtro ops
re es
our ney
Ġ( ,
Ġgu ard
ye h
ĠAr ab
ĠAn ne
Ġrecord s
Ġbecom es
Ġcompan ies
H old
Ġse ction
ist ics
G reat
Ġt ape
ic ate
Ġh ouses
ĠM il
oot ball
; /
Ġt aught
... ?
Ġcont ent
Ġfl ight
Ġpick ed
Ġaw are
Ġrepl aced
Ġbe g
ag on
Ġsc reen
ĠSp ain
Ġperform ance
Ġsour ce
ar n
as hed
ĠG irl
ast y
Ġdream s
Ġbreat h
Ġwed ding
c ons
Ġ200 2
Ġform s
Ġdr unk
Ġmain ly
Ġmed ical
Ġpress ure
N ever
Ã ¨
ha ve
ĠM ike
Ġrem ark
Ġbas ically
Ġty pes
Ġreport ed
T om
Ġser ve
Ġgener ally
stit ute
uz z
Ġcrow d
Ġwe ather
ĠM om
il i
os h
Ġwr iter
ĠCh icago
Ġhon or
Ġran ge
Ġ202 1
Somet hing
C os
l N
Ġp air
Ġy a
le m
ul ous
ĠR ock
Ġpl ans
Ġsm art
Ġplan et
ĠS us
Ġpl atform
Ġwill ing
Ġrecord ed
idd en
Ġcomple x
ffic ient
Ġindivid ual
al i
ab or
ĠO N
Ġtrans l
Ġpower ful
Ġperform ed
r ang
ve y
ak ed
Ġun cle
Ġlead ing
Ġcompet ition
Ġfill ed
Ġarch ite
Ġo x
Ġwe ird
Ġte eth
Ġ197 0
I R
ĠC hampionship
Ġv ot
Ġcond itions
m it
on el
im p
Ġwas te
Ġspe ech
Ġleg al
Ġinflu ence
Ġnet work
Ġkit chen
ĠTex as
Ġb ound
ĠC ast
the n
Ġob viously
Ġevent ually
Ġfeat ures
y our
Ġforg ot
Ġmedic ine
c raft
u ries
w ill
he red
ĠM ass
Ġbr own
ĠPr ince
Ġm aid
st ood
ĠT or
vent ion
Th ree
Ġet c
is hes
Ġp ir
Ġh ole
ont in
Ġent er
Ġsing ing
part ement
M om
ad ed
Ġst uck
Ġact ress
Ġsm ile
Ġrem ind
Ġfail ed
ĠAfric an
Ġoffe red
Ġl oud
ĠB u
ĠJ ud
Ġsa ke
ard on
Ġcent ral
Ġclear ly
dÃ© partement
s ed
Ġf inger
ĠB et
Ġship s
Ġhot el
ĠJack son
ourn ament
ĠSm ith
Ab out
B ye
O ther
ar ing
od es
Ġinst r
Ġdescri bed
Ġempt y
g ency
i pe
Ġt ight
Ġn ative
Ġh orses
ĠS ing
Ġme asure
Ġwh is
ĠD iv
od ies
Ġag ed
Ġple asure
Per haps
4 0
H elp
Ġw et
Ġn orthern
ĠD is
ĠF red
ĠO f
ian o
Ġrepl ied
Ġl ock
ĠS und
Ġkill ing
On ce
Ġproper ty
Ġbecom ing
C har
l aw
ĠA ND
Ġli es
Ġhand le
Ġed ge
ĠPrin cess
r ish
Ġr are
Ġbl ess
Ġmiss ed
a is
c ar
l im
ac hes
Ġhar m
Ġinter view
Ġpain t
Ġdiv ided
Ġresult s
Ġconcer ned
ĠAcad emy
H a
Ġf right
ĠA ss
ĠR oad
Ġstud io
Ġprodu ce
b el
Ġsa ved
Ġman ager
Ġatt end
Ġocc up
ĠJo e
Ġcal m
Ġtar get
D uring
Ġc itiz
Ġn ation
ri f
Ġgo al
Ġstud ied
; &
U R
g n
Ġpart ner
ip s
Ġgreat est
ĠChrist mas
ĠMaj esty
Ġopin ion
ar ly
at o
ĠRuss ian
A D
I GH
a ult
Ġf aces
an ced
ĠV ictor
Ġreal ize
Ġbit ch
Ġoffic ers
7 0
Ġre asons
am i
os ite
ian ce
Ġte le
ok en
Ġstru cture
l ie
or a
Ġp apers
ĠM ur
ĠM aster
Ġor dered
Ġbu ried
Ġ201 9
Ġstart s
Ġmiss ion
Ġdirect ly
az ine
Ġeas ier
Ġtechn ology
ĠSu per
Ġwit ness
I M
ĠI owa
im in
ĠS ov
ĠW in
Ġne ither
ren ces
ĠâĢ Ķ
Ġj ack
Ġbut ter
Ġro of
Ġhead s
19 9
b ook
Ġb al
im ately
Ġme at
Ġme chan
ĠL in
ĠL os
ĠN at
Ġcomp let
Ġsha pe
Ġart ist
Ġbreak fast
Ġsat isf
Ġquar ter
Ġst ock
ĠP an
Ġgreat er
Ġdec ide
fess or
Ġexper ien
ĠSov iet
er al
Ġme re
ĠB as
Ġcan cer
ĠF irst
ig er
Ġrun s
arent ly
O k
Ġd om
ĠM ars
ul ty
Ġal t
ĠR ome
Ġwor st
Ġlead ers
Ġstru gg
se mb
ĠH i
ĠB ro
Ġad ult
Ġsurpr ised
' .
m ay
Ġb omb
Ġd er
Ġl unch
Ġz ero
Ġcry ing
Ġincre ase
Ġpal ace
6 0
h im
v a
Ġc art
ke ep
ur day
ĠF ather
Ġam b
Ġsecond s
Ġ199 9
Ġty p
Ġteac hing
Ġfly ing
ĠEmp ire
y m
Ġs en
et te
igh s
Ġev il
Ġtrad itional
Ġgentle men
ĠGree k
Ġprep ared
c omm
Ġm m
en ing
as y
Ġme mor
Ġas leep
Ġli kes
Ġal coh
Ġour selves
Ġhur ry
fort un
Ġcirc um
. ]
2 5
P h
ĠH aw
Ġj u
Ġsh oes
Ġkeep ing
ell ing
ĠL u
ick ed
Ġrec ently
Ġbuild ings
Ġdet ect
Ġsurpr ise
M AN
m ad
r ate
Ġt aste
Ġs illy
ir ing
Ġr ank
Ġj ourney
ĠL ake
ĠE gypt
Ġstand ard
i os
r id
Ġ ign
Ġon to
Ġmet al
Ġdist ribut
T S
w ar
ĠS a
Ġbl ind
Ġprov ince
m ar
Ġb ab
le ction
... "
Ġsh out
Ġcons um
Ġdrink ing
E LL
w an
ing ers
Ġl ic
os en
Ġimp ossible
Ġsleep ing
Ġrequ est
Ġcoun cil
P r
ond s
ans as
Ġim age
Ġapp reci
Ġlear ning
B et
Ġth ick
Ġe ld
ish op
Ġcamer a
r ated
ĠS un
if orm
ĠB ill
Ġfore ver
p re
Ġ Â
Ġj oy
ig an
Ġsu c
ĠBr own
ĠMex ico
b et
b les
Ġc ash
ĠT ai
ĠF il
az z
Ġcost s
ic ations
Ġse qu
Ġpro ve
Ġ3 1
Ġlad ies
Ġsepar ate
Ġhung ry
Ġsuc ceed
M ost
or ough
Ġsa f
Ġpre vent
Ch rist
L ea
ri er
are t
Ġam azing
av al
Ġprom ised
Ġdoc ument
Ġmultip le
Ġmunicip ality
A pp
ĠO ther
Ġgr ant
Ġcont ribut
Ġpo cket
Ġking dom
s ome
Ġd uck
Ġact ual
Ġem p
Ġstay ed
Ġprogram s
l ig
ur ance
ct ors
Ġkn ock
ĠJ esus
Ġrem em
Ġplan ning
Ġ196 0
ut ions
ĠS T
ĠS ant
Ġex cl
ag n
Ġbelie f
Ġcha p
Mr s
Ġlangu ages
Ġsold ier
Ġturn s
Ġpat tern
Ġconst it
Ġfavor ite
Ġm ut
ĠS ea
ĠT ony
Ġlisten ing
Ġsus pect
Ġa st
Ġm ate
ĠH on
ĠT wo
ĠG et
Ġcent re
Ġ-- &
G E
Ġth rew
ĠSec ret
ou red
Ġp ure
Ġe ars
Ġj ournal
Ġpl ain
Ġcont r
Ġorgan ization
Ġbroad cast
Ġenc our
ĠAnge les
F ine
M iss
b an
ut ive
Ġpre vious
ĠGovern ment
W hile
b ar
i pped
ant ic
Ġr at
pl ace
cl ock
Ġsw ear
Ġrequ ired
is l
is her
Ġm ob
Ġf reed
Ġd rew
Ġre n
Ġre ven
Ġre act
Ġgo dd
Ġsc ar
Ġpret end
Ġcast le
ĠComp any
8 0
w ater
om a
ĠB ang
Ġappoint ed
A dd
Ġm a
st ra
ir a
Ġman aged
ĠK ar
ord in
Ġact ive
2 3
S ay
Ġb other
Ġl oves
ĠH am
Ġsp orts
are n
Ġun it
Ġcr ack
Ġspl it
Ġsignific ant
H uh
um n
Ġun its
ned y
Ġnin et
Ġsch ol
b u
ar ling
ad ian
Ġde but
iv ity
Ġsc rew
Ġdel ight
Ġcop y
T e
Ġs outhern
Ġp il
ab out
Ġgr ass
aw a
Ġreal ity
Ġcho col
S ha
j o
ac he
ĠL ine
Ġpl ane
Ġtrans port
Ġdem on
e an
ot a
ĠA h
ĠF er
Ġlight s
Ġloc ation
Ġstru ck
he y
ic an
Ġqu al
Ġfav our
Ġmot or
R B
it an
ad o
ur ry
ĠThe ir
ĠR ay
og ether
av ing
Ġsil ver
ĠIndian a
C K
b re
k er
Ġc hat
Ġf ra
Ġst ream
Ġun iverse
Ġtrans fer
Ġbeaut y
Ġter rit
Ġappear s
Ġrout e
Ġdestroy ed
O ut
ĠD id
art ment
ĠO ld
Ġ199 6
Be fore
Ġhum ans
Ġconst ruction
Ġphys ical
Ne xt
b oy
al ing
oo per
Ġpo et
cha nt
Ġstre ets
Ġintrodu ced
Ġindepend ent
C om
Ġm ale
Ġl osing
us hing
be y
ĠCh ief
Ġrel ative
ĠIs lam
ĠFran cis
Ġeconom ic
2 4
Ġb ast
ĠM el
Ġsm oke
ious ly
Ġfeel s
Ġturn ing
Ġposs ibly
, '
Ġf ought
Ġp in
ĠM u
ge nd
Ġal tern
Ġpro gress
Ġrequ ire
Somet imes
O ver
or ter
ow ed
ut ed
Ġro y
Ġfind ing
An other
Ġoper ation
Act ually
T w
Ġc uri
ĠL ady
ĠE very
Ġtri al
Ġtreat ment
le g
Ġst ret
Ġun ivers
Ġsw ord
Ġinst ru
Ġhard ly
Ġlaw s
Any way
Ġaccept ed
o ch
s ha
Ġa h
Ġw ake
ell a
ĠD O
Ġshow ing
Ġ199 8
ĠRe c
Ġneigh bor
Ġrespons ible
aug hed
Ġfinan cial
A LL
S P
Ġd are
ri ff
ĠP enn
ge ant
Ġsc ream
Ġmag n
ĠGovern or
Ġcand id
C ap
C ause
Ġf ruit
Ġd irty
Ġwas h
hi a
ach us
Ġ199 7
Ġ6 0
het ic
C E
M ake
M any
n am
Ġg all
Ġre nt
ĠS il
ĠS qu
Ġhad n
ian a
Ġqu ality
ĠAmeric ans
ER E
Ġret ired
Ġsymb ol
T oday
Ġd ressed
Ġto ward
ri b
ost on
Ġdrug s
" ?
E L
t ies
u ous
u fact
Ġt ick
al a
ly ing
ke nd
ant age
el come
Ġrec ent
Ġhelp ing
Ġ18 5
Ġdiv ision
Ġrock s
Americ an
s ay
he ast
Ġg ro
ĠB est
ĠR og
ĠK h
Ġstat ement
Ġfix ed
Ġbra ve
t wo
t hank
w hile
Ġt ong
Ġin ha
um an
Ġsc r
Is n
AN T
Ġland s
Rem ember
L a
S m
ir al
ell ed
Ġbr and
Ġsc ore
Ġnum er
Ġfall ing
Ġexc han
Ġcomed y
Ġf ro
Ġp ra
ic ide
im um
am ing
Ġj ail
ĠF ootball
ĠU K
Ġjob s
ĠBe cause
Sh ut
ĠPar liament
ĠSat urday
ĠSund ay
U GH
f ather
he ll
Ġo dd
Ġg host
Ġme as
all s
ol es
Ġpr ince
Ġyoung er
Ġgi ant
Ġrail way
Ġsaf ety
y o
Ġp leased
ĠM ajor
ĠB a
Ġfl o
Ġco at
Ġmin or
Ġappro ach
Ġproduct s
Ġaud ience
N ice
ĠH ans
Ġend s
Ġinst it
Ġbott le
an ing
Ġd iam
at re
Ġl ord
ĠA ng
Ġr ise
S er
b ow
p ret
r ance
Ġt ournament
ĠS l
ĠW al
ell y
Ġman ufact
ĠPr ime
Ġve h
ĠCent er
Ġmanage ment
v i
w ing
Ġt im
he art
Ġl aughed
Ġg ay
ct s
Ġafter wards
cl es
oc ent
Ġpo ly
Ġpull ed
Ġtemper ature
Ġmic ro
u yeh
Ġd ying
ĠC amp
il ty
ĠT han
ĠW ood
ĠV alley
Ġad op
ĠAd m
Ġdefe ated
2 1
Ġth roat
Ġre form
Ġnot iced
fe ction
Ġag re
Ġcl ock
ov ing
Ġexc use
Ġwall s
Ġb ac
en ced
id ents
am in
ĠM er
ĠM ill
ĠL y
Ġun iform
Ġpre fer
Ġc ards
es sel
ir k
Ġby e
ather ine
Ġsha d
Ġmat ters
Every body
ĠScott ish
Ġimpro ve
ĠDiv ision
Ġt iny
on se
ĠI S
hi o
Ġrem ains
ĠAs ia
ys is
ĠCan adian
omin ated
cell ent
ste in
Ġf ingers
ar ian
Ġn uc
Ġdis play
Ġexp ress
Ġconst ant
Ġhon our
Ġthousand s
Ġstep s
b i
u gg
y p
Ġb ub
Ġwhe el
Did n
Ġocc asion
s aid
Ġs li
et ts
Ġli br
ĠT w
Ġag ent
-- "
fl ict
Ġbas ic
ro ll
res p
ĠSt ud
ham mad
Ġ18 7
Ġmus ical
Ġgra ve
Ġgentle man
Ġeff ort
Ġs in
en ny
Ġbe ach
ĠP ope
Ġrem oved
Ġpolit ics
hamp ion
Ġra ise
Ġav oid
Ġsil ence
Ġsus p
Ġb odies
qu ar
Ġar range
Ġsub s
Ġopp osite
Ġrece ive
Ġfif th
ĠRuss ia
v ad
Ġb at
Ġf aster
ct ic
Ġli ber
Ġus ual
Ġent ertain
Ġdet ails
ĠBrit ain
Ġce rem
Ġsweet ie
Ġgun s
u als
oc key
Ġmat ches
Ġass um
Ġsol ution
Ġm ax
Ġp it
al right
ĠD ou
ĠG O
Ġaf ford
ĠRe v
M ore
Ġcom ment
ĠK oh
What ever
ĠâĢ ĺ
Ġ199 4
Ġjo ke
Ġattack ed
g il
st ances
ad d
Ġaw ful
Ġentire ly
achus etts
u a
u it
v est
Ġb are
Ġknow ing
ĠL ook
ĠO ff
Ġcomp os
Ġprov ided
Ġconne cted
Ġsett led
Ġm o
ĠI re
Ġha st
st ead
Ġse es
Ġkn ife
Ġgood s
iz z
Ġrec omm
St ay
Ġ199 5
Ġmain tain
Ġauthor ity
Ġclos er
ĠKen nedy
Ġbud get
Ġcred it
Ġcomplet ed
E C
ha pp
Ġb oo
Ġf ired
ow ing
ĠD ire
Ġcon cept
em ic
Ġevery where
Ġca uses
Ġcol our
ĠCon stitution
Ġfoc us
Ġchocol ate
Ġroy al
Ġc ous
ĠS ol
oo ps
ĠL atin
ĠJ ac
Ġqu een
Ġhigh ly
W H
j a
Ġt un
Ġw estern
al ent
ĠS aint
ur d
ĠP re
Ġsh ore
ĠF ore
Ġexp ensive
Ġcir cle
Ġcoun ter
van ia
Ġslight ly
f its
on ia
ĠS id
ĠM ich
Ġpro ceed
Ġcont ains
Ġforg otten
Ġnewsp aper
p al
Ġ ut
ĠI m
ĠS pe
ĠC at
Ġab ility
Ġsp oken
Ġfl u
eak ing
Ġwee kend
Ġtra ve
Ġmajor ity
Ġshoot ing
ĠĠĠĠĠĠĠĠ ĠĠĠĠĠĠĠĠ
Ġchick en
2 9
p a
Ġm ap
ĠM ore
em an
Ġuse ful
St ill
Ġsw itch
ĠSw ed
Ġactiv ity
r ick
ĠR ight
Ġsome what
Ġstud ies
Ġrest aur
Ġvict ory
Ġchem ical
il a
Ġli ps
int end
Ġfeel ings
Ġwin ning
Ġstat us
Ġcal cul
Ġalcoh ol
D amn
O D
Ġo cean
ing u
ĠH el
ol ved
th ur
Ġbring ing
ĠRepublic an
Ġconvers ation
I ON
Ġf al
ĠH ot
ĠD utch
ĠO x
ĠV er
Ġpre m
uck les
ĠFr iday
Every one
ĠComm un
Ġgra ph
Ġprin cess
Ġextreme ly
i ven
u an
Ġw rest
ĠH arr
ea re
ĠJ ane
we et
Ġfl ower
ĠBl ue
Ġrap id
L Y
o very
r s
v is
Ġt ough
ver se
Ġan x
Ġgr ab
we re
Ġgu ilty
ĠPr ot
Ġpri or
ĠDo ctor
ĠMass achusetts
en ger
ĠW H
Ġsu gar
iz es
Ġad vent
Ġad vice
port s
Ġdr ama
à ¤
Ġin vent
ĠS ummer
ĠM ax
Ġno ise
Ġman ner
Ġpr ime
Ġown ed
Ġele ment
ok ing
ĠCar l
Ġconst ru
ĠAustral ian
Ġbene fit
V ER
e ed
ar ry
Ġtr ick
Ġ3 5
B ack
J ames
r ain
en es
ĠW hile
ĠW omen
Ġv essel
No body
How ever
Ġear n
Ġcons ist
Ġdam age
Ġaut om
Ġfle w
Ġaward ed
Ġl in
al m
un ched
Ġplan ned
Ġgold en
Ġtrad ition
Ġsuggest ed
Ġresour ces
Ġninet een
2 7
n at
Ġe h
ac le
ĠG e
Ġsh irt
Ġpres ence
Ġfull y
por ary
ĠSen ate
E E
N orm
ĠS hi
ĠW ind
ĠG ames
os a
Ġup set
Ġco al
ham ber
Ġcollect ion
Ġcommer cial
W atch
Ä ĩ
Ġme l
ce l
ul ate
ab eth
Ġres c
Ġhel ps
ĠYou ng
Ġche st
Ġ199 2
Ġpass ing
ĠOlymp ics
Lea ve
ĠSecret ary
2 8
i est
Ġf ederal
Ġg ain
Ġu lt
Ġse m
ĠB ig
Ġli qu
ĠW ay
ab bit
erm an
Ġpart ies
Ġkeep s
Ġexp and
Ġes cap
ĠPl ay
g ment
is a
ĠS ince
ĠS outhern
ang le
Ġres ist
ric ane
ĠCon f
itz er
ĠMich igan
M hm
ir lf
ĠB ell
ĠL ittle
Some one
sy l
raz il
Ġsex ual
irlf riend
L ove
O S
g al
Ġn erv
ri ble
Ġcon c
oc al
Ġunder stood
Ġcar bon
Ġdes ire
Ġtra ffic
ĠGr oup
ĠPri ze
. )
P S
p eare
r as
Ġnot es
Ġup stairs
Ġpro of
ond er
Ġfl ag
Ġsca le
Ġhang ing
A A
Ġg ift
our se
ĠD en
ĠIn stitute
Ġkill er
Ġ199 1
ĠSo ciety
ĠCl ub
Ġnorth west
Sh it
kes peare
ĠCarol ina
E l
e f
Ġth in
ĠT own
Ġcha in
ĠJim my
Ġoccur red
Ġwat ched
ĠKoh gil
ĠKohgil uyeh
l oad
Ġwe bs
Ġdo ors
Ġat e
ĠF re
Ġch osen
Ġsign al
rop ri
Ġdet ail
Ġadm it
Ġdraw ing
Ġlim ited
Y OU
s it
s pect
ur se
ind a
ĠSt ep
Ġ199 3
Ġpresent ed
Ġrepresent ed
S u
W E
f all
i as
Ġr um
Ġcon cent
the m
Ġdr am
Ġunderstand ing
Ġeffect s
Ġperfect ly
Ġap olog
Ġdan cing
J ack
k m
Ġt ears
Ġw ings
Ġp ill
Ġh ook
ĠS how
Ġst ations
Ġdis ci
Ġexp ression
ĠCar ter
ĠCol umb
ĠTH AT
Ġintell ig
Ġc ateg
et ch
Ġst ated
ĠC H
Ġcare fully
Th ink
erv ation
Ġmount ains
Ġcab in
m o
Ã ¦
am ily
ound ing
ĠSt ar
Ġun ique
Ġmag azine
Ġconne ction
Ġpun ish
k o
v in
ha s
Ġc ream
ot ion
ĠH a
um s
ĠU nder
Ġgrow th
Ġappear ance
Ġincre ased
Ġre action
ĠH ello
ol ks
Ġtr oub
Ġcl oud
Ġapp eal
Ġbre aking
Ġhear ing
Ġteacher s
EA K
d is
er ves
ill ed
ĠG ar
ĠO hio
ĠK ansas
Ġqu it
Ġshould er
ict ed
Ġsign s
Ġkid ding
ĠPro fessor
Ġdiv or
Ġforg ive
Ġdro ve
ĠDep artment
Ġachie ve
v y
Ġl oose
st one
ĠW all
ack s
ang ers
Ġans w
Ġball s
Ġmag ic
Ġlab or
Ġneigh bour
syl vania
" ).
ul ated
Ġmy th
ĠN az
Ġcl imate
ree k
Ġcont ain
Ġinst ance
19 7
Ġbas is
ĠGeor g
Ġda ily
Ġbull et
Ġnin ety
Ġbes ide
Ġbran ch
Add ons
E O
O pen
_ .
Ġm useum
Ġl it
Ġh iding
ĠA wards
Ġsp in
Ġother wise
Ġexc ited
Ġhell o
Sh ould
Ġdecl ared
R A
Ġd yn
Ġn arrow
Ġsh r
Ġown er
Ġ4 5
stand ing
Ġresp onse
Ġadv antage
Ġfail ure
Ġnorm ally
Ġremem bered
C all
U nder
Ġf old
ed ing
Ġu ne
Ġse vere
Ġbut ton
Ġcomm ittee
Ġsha red
Ġlea gue
19 8
Ġstay ing
Ġfig ures
augh s
E ng
b ably
Ġf an
ĠC ons
ĠM az
ĠL ater
Ġwork ers
Ġdri ver
rop ical
ĠDan iel
Ġlaugh ing
P aul
o is
Ġd im
Ġmy ster
Ġsh ock
Ġex erc
Ġbl ame
Ġbl ank
Ġeas tern
Ġbill ion
ĠJe ff
Ġmix ed
ĠDemocr atic
S it
d ad
u ps
Ġp owers
ad s
ust ration
ie utenant
Ġgu itar
ob al
Ġmat hem
ĠAs ian
Ġimp act
Ġ7 0
Ġcarry ing
ĠPac ific
ĠIre land
Ġ eth
Ġf ant
ĠS har
ĠM other
ĠM useum
Ġpl enty
ak i
Ġpass ion
arr ass
Ġviol ence
Ġcomfort able
g ly
w ide
im inal
ĠL ove
ĠJ oseph
Ġvar iety
Ġsle pt
ĠT ime
est ic
ra el
Ġqu ant
Ġinv ited
Ġcol on
Ġappro x
2 2
3 5
w ant
Å «
Ġn urs
Ġcitiz ens
ĠPenn sylvania
A ccording
J esus
g or
Ġc as
Ġf urn
Ġd ed
Ġn ea
Ġst ro
ĠB at
ĠL ike
Ġpo ison
ĠTh ree
Al though
Ġclass es
che stra
Ġoper ations
Ġprotect ion
Ġprop osed
ĠKent ucky
Ġt ask
in ity
ent ially
Ġas pect
um my
Ġshe ep
ĠMar ia
Ġfollow s
Ġdra gon
Ġpur cha
Ġ195 0
Ġshar p
Ġdeli ver
lN G
Ġtong ue
3 4
F ather
n ic
Ä «
Ġt ied
Ġw id
Ġm ail
ĠC le
ĠB razil
ĠT ay
Ġun ion
Ġchan ging
Ġpri ze
Ġwind ows
Ġsqu ared
semb ly
m pt
or se
Ġg irlfriend
om ach
ĠB road
Ġsome how
age ment
Ġro les
ĠIn ter
Ġpre c
Ġtown s
Ġart ists
Ġ9 0
E arly
i y
Ġ ic
oo g
ct ures
ĠH ung
Ġcon ference
Ġsu ffe
Ġapp le
sh ould
Ġfall en
Ġsil ent
Ġsell ing
ĠMart in
Ġsettle ment
b ury
am an
Ġv irt
ne w
Ġthought s
Ġeat en
Ġsupport ed
Ġadv ance
Ġhistor ical
Ġcapt ured
B E
s ure
re al
re ck
Ġcon flict
Ġshe ll
ap a
ĠK han
amp s
du c
Ġsha me
Ġpay ing
Ġvict im
Ġinha bit
e xt
r ant
Ġt ap
Ġw ave
an o
Ġl atter
al y
ĠS ee
end ment
Ġun known
iz abeth
ult ure
Ġold est
Ġch ose
Ġset ting
Ex actly
bur gh
Ġmult i
Ġhol iday
Ġarrest ed
S id
d es
Ġt or
Ġbe er
Ġse asons
un ny
form ation
Ġprodu cer
Ġdra wn
Ġgod s
Ġstri ke
Ġfeat ured
Ġmaterial s
ĠSus an
Ġbast ard
F l
r ont
Ġa x
Ġc ig
ĠB E
ĠB oston
Ġmy st
do es
Ġins urance
Ġresp ond
Ġprim ary
Ġnerv ous
S l
e z
i Äĩ
Ġb oot
Ġp iano
Ġha m
ad ium
ak a
Ġser ving
Ġboy friend
Ġdisapp eared
p et
Ġs alt
Ġc ake
ĠM od
ie ce
ond ay
Ġwr it
Ġste el
Ġfif teen
Ġfield s
ĠKore a
Ġassoci ated
Ġfreed om
l ong
r ical
Ġf ile
es ides
Ġbr ide
Ġpart ners
Ġad vert
Ġdis s
Ġdes per
Ġche ese
Ġfair ly
Ġmot ion
H as
H mm
S C
re nd
Ġs ust
Ġl at
ĠB al
ist or
Ġsee k
Ġsp ort
ĠY ear
ĠAn n
ĠZ eal
Ġvar i
Ġter ror
Ġtreat ed
Ġhy p
Cap tain
S B
T ry
W elcome
he im
er k
it o
Ġg ate
Ġn om
ĠI II
ad ing
Ġk il
ĠL ong
pe red
Ġpre viously
Ġmin ister
Ġpat ients
Ġexper iment
Ġhundred s
Ġarg ument
Ġsuffe red
c est
w a
Ġd iet
Ġg ang
Ġwe alth
ĠM em
ur ally
ĠB ra
and s
ĠT ol
Ġr ow
Ġab and
ĠR ose
Ġback ground
Ġche er
Who a
app ing
Ġjo int
Ġlab el
Ġhy d
Ġeconom y
OM E
Ġemb arrass
ĠThan ks
a fter
Ġt ie
Ġp ha
Ġhe av
Ġst omach
ĠC ivil
ĠB ull
ĠD a
em ents
ĠK e
Ġun f
ho le
Ġgu est
Ġ198 9
Ġbegin s
osp here
Ġweap ons
Ġbasket ball
f ound
is ation
ĠW ales
od d
Ġim pl
Ġchan nel
Ġsupp ly
Ġpri est
Ġve get
Ġfamil iar
ĠMus ic
Ġweap on
9 0
I V
Ġb unch
ing ing
Ġl one
Ġcon fess
Ġsc hed
Look s
Ġsix ty
Ġsol id
Ġhop ing
Ġactiv ities
Ġappreci ate
C ol
F L
H urry
M other
O L
r un
Ġon line
ĠH y
ess ion
Ġpre gn
ott on
Ġreal ized
Ġ198 8
Ġfil ms
ĠTr ans
Ġinn ocent
T V
Ġb ang
Ġp ink
ot ic
ly n
ĠC a
ter ing
Ġso il
em ies
ard ens
Ġbr ings
19 6
Ġeng aged
look ing
ĠSha kespeare
Ġprofess or
Ġburn ed
Ġapart ment
igg ler
G l
al so
ĠB on
ĠD or
Ġle gend
br idge
Ġ8 0
Any thing
ĠEm peror
Ġdeterm ined
Ġhom es
1 00
U p
Ġb ite
ĠT ri
ĠR aj
ĠF ar
Ġsu ck
Ġ( ;
ĠK ong
Ġmay or
Ġart icle
Ġwond ering
Ġcross ed
Ġord inary
Ġju ice
F ran
Ġo w
Ġd ish
Ġd arling
Ġre ck
ĠL ight
ĠJ on
ĠE ll
Ġco ck
Ġcle ver
col n
Ġlim it
Ġscient ific
ĠPak istan
ĠZeal and
C or
s ur
Ġb order
Ġfe ature
Ġgood ness
Ġcons cious
Ġroom s
bo x
ĠCal vad
Ġla unched
Ġserious ly
ĠCalvad os
B ig
Ġf ancy
es h
ow der
ut her
st ant
ĠM E
th ree
ĠO k
Ġun us
Ġche ap
Ġ197 9
Ġsol ve
EN T
fortun ately
U L
j an
r d
r ich
Ġw ise
Ġs ales
Ġb atter
ri z
Ġu pper
Ġwith d
if fe
ĠB ru
and om
ĠF our
Ġro ot
hes s
Ġcr own
Ġinc red
ĠIs rael
Ġcontin ues
Ġincre asing
Ġrespons ibility
Ġphilosop hy
Ġinstr ument
L ast
M art
Ġt one
im ents
Ġnot ed
ĠF estival
han g
Ġfind s
Ġadd itional
Ġ198 2
Ġisland s
ĠTom my
ĠWilliam s
Ġcircum stances
5 00
A gain
m other
s er
z er
ri pt
ĠA ccording
ĠP a
ĠT ed
ĠF OR
the ir
ect ion
Ġcour age
Ġstand s
Ġlevel s
Ġdisapp oint
ĠPort ug
IGH T
f ive
s w
t i
Ġg ather
ĠS om
Ġu gly
ĠH an
ol t
iz ations
ran ch
Ġsuff ering
ĠAtlant ic
Ġlibr ary
C are
r ad
Ġw itch
ĠF ort
Ġpre par
Ġrel ax
olog ist
Ġfr ame
Ġ198 4
ĠJohn son
Ġhands ome
Ġcommon ly
Ġconcer n
Ġant i
Ġsurv ive
Ġchallen ge
Ġfal se
D es
S ec
a res
in ter
ĠW end
ĠL ife
Ġcon qu
Ġpl ate
Ġgot ten
Ġcl ient
ĠBr other
ĠZ iggler
Ġgovern or
Ġfall s
ĠComm ission
Ġconcer t
Ġrecogn ized
cons cious
Ġexchan ge
4 5
Ã ¤
Ġa im
Ġw ished
ĠR ural
Ġcon sequ
Ġex act
Ġcomp on
Ġatt ended
Ġstr ing
Ġdisc over
Ġpain ting
rill iant
ĠJer sey
3 6
D an
D avid
t urn
Ġd ust
Ġp ool
ĠC am
Ġat m
ĠR oll
ĠN avy
Ġsp ell
ĠV en
Ġdes cend
Ġdist inct
ok es
Ġsent ence
Ġleg isl
cri pt
for ce
la use
Ġeff orts
Ġwa ited
ĠJew ish
Ġsen ior
ĠConf eder
K E
l ife
u ce
Å į
Ġd ies
Ġl ake
as p
Ġh i
ĠA v
ĠC O
Ġu nt
ĠB ern
Ġr ac
ĠN ic
Ġear ned
Ġcap ac
Ġtra il
Ġexist ence
Ġagre ement
h u
p oint
Ġs ons
ic ulous
ĠS up
ro se
Ġr iding
ĠN ick
ĠN orthern
ive red
-- --
Ġapp arently
ĠUn cle
Ġele ven
Ġele ments
Ġinte gr
Ġ198 7
ĠFran ces
3 8
T oo
u art
w orks
Ġt a
Ġha bit
Ġan cest
ĠD aw
Ġv ia
ak h
Ġint ended
Ġcrit ical
Ġrecogn ize
J im
L ife
on ly
Ġto w
ot o
ĠM iddle
ĠT y
ĠT am
ĠO l
ag ue
Ġspe ct
ins on
Ġref used
ĠHar ry
Ġestab lish
Ġcous in
ĠOx ford
C omm
F rank
b ly
w ow
Ġw ounded
Ġo we
Ġd u
ĠO cean
Ġcont est
Ġdec isions
AR R
ĠOr der
ĠFil m
E d
T ING
f our
ea ks
Ġr ot
Ġall ows
ĠR ick
ĠE astern
hm m
Ġgar age
Ġassist ant
2 6
D own
f ish
m ond
ê ¯
Ġw ha
Ġw ore
Ġd un
Ġto wer
The ir
ĠH ea
Ġor ange
per ial
av ar
Ġac ad
pha nt
E h
O Y
U D
Ġ ille
on ic
ĠI nt
ĠI rish
Ġh idden
ĠH ave
ust ed
ĠT re
ĠT imes
ĠD ra
ĠJ ones
ra ham
Ġv alley
ier ce
Ġsort s
hib ition
Ġhun ting
F our
g ot
g ues
Ã ´
Ġs ed
Ġf olk
Ġin qu
ĠR h
ĠE ven
Ġjust ice
ep s
Ġsp are
be c
Ġhapp iness
Ġfl ood
Ġcomm ission
Ġ197 1
Ġcor por
Ġphot o
. [
E m
I m
c os
Ġm ort
Ġd read
Ġh o
Ġwe b
ĠF e
Ġthr own
Ġfriend ly
ĠBr ad
Ġsy mpt
Ġpoint ed
Ġ6 4
Ġdev il
ĠSer vice
Ġconne ct
Ġcomb ination
ĠCast le
Ġterrit ory
re ll
er a
Ġp a
Ġhe ight
and al
ain ts
ell e
ĠN orm
ink ing
ast s
omet imes
ale m
ĠRoman ized
Ġrepe ated
G eor
m at
t le
ou ri
ĠH al
Ġsa v
Ġpro ced
Ġob vious
Ġoffic ially
Ġcreat ing
ĠPet e
S hall
c ont
e rest
g ian
he w
Ġm ood
Ġn ut
ic y
im al
Ġse lected
Ġsh ook
Ġag ric
ord on
ĠV iet
ult ural
Ġcomm itted
Ġacc omp
ĠAnd rew
Ġid iot
Ġexp ed
go ing
LA UGH
ĠSec ond
Ġdeg rees
itzer land
I E
m iss
as mus
Ġh ired
ĠS ur
ch ief
ĠP lease
ĠR om
Ġwor ship
ĠE ach
Ġsha ke
Ġcr iminal
Ġac id
ger y
Ġnear by
Ġest ate
ĠComm ittee
Ġcompl icated
Ġliter ature
Ġscient ists
B ob
O B
b ased
n ce
Ġc ute
Ġp ages
ar ant
ĠA N
ĠC ab
ĠH ind
ĠB oth
ĠD ave
Ġpl ot
Ġfl ow
Ġmov es
Ġimport ance
Ġ198 1
ron ic
Ġste al
ĠFor ce
Ġval ues
aim ed
Ġeffect ive
eal ous
M ove
S te
] .
o oth
Ġ Î
Ġf ishing
Ġl ocked
Ġst ir
Ġas ide
ĠP ic
ĠT ra
ie ve
Ġev olution
Ġmed al
ask ed
Ġrefer red
Ġsevent y
happ y
C ha
T urn
m om
p ers
re ts
le nd
ĠM ir
th ose
ĠD et
Ġde ck
ĠG al
ĠR am
ĠF ox
Ġpro ved
ca hedron
ER S
Ġexpl ained
cri ption
Ġreport s
ĠEn ter
" ),
A nt
l av
Ã ¢
ing ly
um es
ĠJ r
ĠSt an
Ġqu e
Ġsure ly
Ġgener ation
Ġmill ions
Ġcommun ities
Ġconv in
wr iter
IF A
ĠMaz ra
' ,
c alled
i at
o z
Ġa unt
Ġm ole
Ġdo zen
ol en
Ġar med
Ġfe ather
Ġen emies
Ġele v
Ġexpl os
Ġdeal ing
Ġsoft ware
AP TER
ĠBer lin
ĠWend y
s an
Ġs isters
ar io
at hy
ce ler
ĠL ab
Ġsa le
Ġtr uly
Ġcomp ared
Ġbu ying
Ġ18 0
Ġhar der
Ġret ire
Ġinter pret
Al so
ĠOn ly
Ġve ctor
ĠChar l
Ġhealth y
Ġemp ire
ĠRev olution
ĠMazra eh
S pe
is er
ĠA li
Ġthem e
ile y
li ver
Ġatt itude
Ġsy mp
hm ad
Ġ197 6
Ġbene ath
Br other
B oy
P ol
ea u
Ġr hy
Ġr andom
ĠN ap
Ġsu icide
ep ing
Ġar rang
ci p
Ġ3 2
ĠBe fore
Ġequ als
erv ative
Ġtou ched
Ġdark ness
.... ....
ĠEd ward
Ġbelong s
Ġglass es
Ġdepend s
P re
R UN
p ired
w orth
it ors
Ġl ion
Ġl ift
Ġr ang
ĠU p
ĠAr thur
app y
Ġproper ly
ĠIsland s
Ġemer gency
ĠLin coln
Ġscar ce
ropri ate
M aster
f oot
m et
ĠC ross
un te
ĠW I
end er
hild ren
cer tain
Ġsim pl
Ġcol ors
Ġspend ing
Ġbath room
Ġanal ysis
Mic hael
3 2
N OW
Ġw ound
ing ton
Ġd ude
ut ies
un ction
ĠG il
Ġun able
Ġhigh way
Ġfun eral
19 5
Ġ198 6
Ġsix th
Ġcreat ure
Ġdel ay
ades h
3 9
B S
M A
T A
c r
c omp
g reg
l ar
l ock
n i
Ġf ate
or ney
Ġn est
ĠS H
ĠA is
ĠA unt
ĠM en
ĠH u
ĠD un
Ġshe l
ĠO ut
ĠK im
ca re
Ġwhen ever
az e
Ġrev olution
Ġdescri be
CH APTER
Ġdisapp ear
Ġreview s
Ġnumer ous
ĠSup reme
i ri
Ġt ort
is ms
Ġm ental
Ġto ile
Ġh m
ĠS and
Ġpl astic
ag s
og ue
ip ment
Ġsc ript
Ġwin ner
Ġhor rible
Ġcru el
Ġinvestig ation
B ar
Ġt ur
Ġh orn
ĠS el
Ġwh ist
ĠD uke
ĠE st
Ġle cture
ĠCl ass
Ġste am
Ġenjoy ed
ĠRec ords
g ive
h ot
ĠS ong
se x
her s
ĠH ome
ĠH oly
ĠG all
ĠG ame
os al
el a
ĠU h
av a
Ġer a
Ġnight s
Ġ198 5
ĠBe ach
Ġmark ed
Ġprot est
ĠBo ard
A VE
L ES
s ar
Ġb orrow
Ġp ity
Ġn ominated
Ġcon ce
ĠN E
Ġex cellent
Ġdra ft
Ġair port
Ġ196 4
Ġeight y
mm a
ĠCo ast
g aret
Ġto ols
Ġst ole
ĠA T
ĠT im
ĠW ater
Ġv ent
ens es
Ġtalk s
dd ie
Ġmer chant
rog en
Ġwood s
Ġple asant
Ġpot ential
Ġinj ury
Ġrecomm end
9 9
w ich
or ial
ĠA ny
ĠR ich
ĠN ether
ĠE s
ĠV ice
ĠIn tern
aw s
Ġcoll ea
ĠAt t
Ġrecord ing
Ġclose ly
Ġstrong er
ĠSw itzerland
Ġappl ication
Ġindepend ence
Ġswim ming
Ġinstru ctions
Ġwebs ite
m es
o cc
r ot
Ġt icket
Ġy ard
un ior
Ġ" "
ĠO ffic
Ġcomp osed
Ġed itor
Ġ197 8
ĠGerm ans
Ġpain ted
Ġcommun ication
Ġbud dy
S im
n ote
Â °
on ne
Ġc hampion
Ġf olks
ĠA dd
ĠC ub
Ġtr ains
Ġph r
Ġbad ly
app ed
do or
Ġoper a
Ġoper ating
Ġexc iting
Ġadv anced
Ġstat istics
ĠTur k
J e
R un
W he
ha i
Ġto ys
ĠI da
al o
Ġre ar
ĠM onday
ĠF IFA
ven ue
gg ing
ĠAr ch
Ġdra g
ipp ing
Ġcook ing
Ġperm an
Ġlone ly
Ġatm osphere
3 7
m outh
Ġt ear
Ġo k
Ġp ale
ar l
ir us
ĠM id
ĠD am
Ġsp r
the w
Ġcomm it
ĠCh ris
ont o
Ġ5 00
Ġ198 3
rop ol
Ġexpl an
Ġdef in
ĠMiss ouri
Ġrul ed
Ġphot ograph
Ġident ity
Ġobs erved
ĠTur key
Ġenvironment al
ĠAss y
B A
I ll
p ass
en cies
all el
ĠH as
cl ass
int o
Ġsy n
ĠAl though
Ġdec or
che ster
Ġburn ing
gl as
ĠFrancis co
quar ters
b age
i ac
Ġm ile
Ġd umb
as ters
ac hel
ĠR oss
ĠN ight
Ġapp ly
Ġreg ret
Ġcent uries
bs olutely
Ġill ust
Ġtrack s
ĠJe an
Ġadop ted
F in
Ġc ert
ot te
oo f
ĠA y
han iel
Ġbut t
Ġv ision
we ight
ov a
Ġcr ash
ild ing
Ġed ition
ĠSte ve
Ġsucceed ed
ĠJac ob
Ġrestaur ant
R ob
Y ep
b its
Ġt ub
Ġp uzz
om y
Ġme al
ge on
itt y
Ġ3 6
Ġ18 4
Ġfact ory
Ġ197 3
Ġref lect
Ġequ ipment
Ġengine ering
Ġappl ied
Ġmethod s
Ġcy cle
Ġfright ened
ĠSid ney
u y
w ait
Ġf ans
Ġre ference
Ġst ab
Ġan ger
ĠB attle
ĠB udd
Ġat h
ul s
Ġde vice
os is
ĠL uc
Ġke ys
Ġdes ert
Ġend ing
Ġinc ome
Ġ197 5
Ġ193 0
Î¿ u
Ġrid iculous
Ġrom antic
ĠGeorg ia
B oth
c ut
Ġb on
Ġd ump
Ġn ick
Ġbe ating
ĠB ank
ĠG rey
Ġprov in
ĠGu ard
Ġvol ume
Ġexam ples
Ġmor al
Ġcondu ct
Ġbab ies
H enry
e very
Ġf art
or gan
ver ted
ir s
ĠH olly
ĠB ab
ĠT est
Ġsu fficient
Ġv en
ag ger
Ġtr ained
Ġsp o
ens ions
Ġco vers
Ġcr is
Ġac celer
Ġvis ited
Ġconf used
Ġann ual
Ġvict ims
ĠBang l
Ġdisci pl
ĠAis ne
g reat
l ers
o be
Ġt orn
re te
Ġw o
Ġb ul
ĠA D
ĠB ush
ĠT ang
Ġj ealous
ne ver
Ġover all
Ġfl ash
Ġput s
ĠAl so
Ġ197 4
Ġ196 9
Ġsend ing
ĠEl izabeth
Ġclaim ed
Ġinit ial
Ġunus ual
M a
in ent
le ts
Ġre ject
if ying
ĠT a
un ting
Ġcons ult
ok ed
Ġinc ident
Ġfact or
Ġsk ills
Ġexper t
ĠMan ip
urs day
ĠSer geant
Ġindust rial
Ġshop ping
Ġfle et
Ġreve aled
Ġschol ars
Ġsympt oms
F oot
Ġto oth
at hered
Ġl ung
Ġre ward
Ġgo als
ĠO ver
Ġinc or
Ġ194 0
Ġcre ation
Ġdefe at
Ġsepar ated
Ġmathem at
G e
M ad
b al
g ie
n on
s en
t han
u ing
u able
Ġw and
Ġs an
Ġp ushed
ĠT er
ĠL ieutenant
ĠK at
ĠV al
Ġrem aining
Ġimp ress
att les
Ġinterest s
Ġhold s
Ġair craft
com ing
Ġauthor ities
Ġmass ive
Ġperm ission
Ġregard ed
h in
y cl
Ġ /
at han
ĠS ub
ĠB ow
ĠP ers
ĠT em
ĠL and
Ġwant ing
Ġsec ure
Ġcr icket
ham ed
Ġreg ions
Ġent rance
Ġass ume
ĠAn other
Ġmil it
Ġopp osed
ĠAd am
Ġdiffic ulty
Ġdep th
Ġda wn
ĠPhil ipp
Ġsurr ounded
ĠDis ney
Ġmob ile
Ġcuri ous
resp ond
Ġapprox imately
3 1
I L
M on
k h
Å ¡
Ġp ension
ar o
Ġn ort
st al
ĠB BC
ĠL ib
ĠN ob
ĠV an
ĠIn c
Ġchar ged
Ġinter rupt
Ġdri ven
Ġ197 2
Ġprov ides
Ġcontro vers
ĠAb out
may be
ĠOff ice
intend o
à ¦
Ġt alent
ou ch
Ġc ore
Ġg ained
ut ation
ĠC ont
ĠH ol
ie ur
Ġsh ift
ost er
Ġgr ade
Ġdes k
fect ure
oun ce
ON E
Ġclot hing
Ġfort une
ĠKore an
Ġbal ance
oog le
F ive
Ġf o
Ġp ed
Ġdo ctors
ĠG reg
Ġso ci
ak ers
Ġsp ite
Ġro de
Ġdes erve
ib i
ĠNew s
Ġsub sequ
Ġimp ression
ĠCl a
eng ers
Ġmur dered
Ġla unch
ĠMc C
ev in
Ġjump ed
Ġsour ces
ĠGree ce
Ġveh icle
U M
f ly
f ire
l ies
Ġ ing
Ġw aves
or age
Ġg or
ent ed
st ers
st ance
ad or
ĠC ro
Ġse ed
el ine
ate ful
own ed
Ġact s
Ġmar gin
Ġbo om
Ġinst ant
Ġsit u
Ġmusic ian
Ġlad der
Ġbur st
Ġaffect ed
Ġadminist r
Ġpregn ant
Ġg rey
ap ore
hing s
Ġact ed
ons ense
Ġrel ation
ple ment
Ġbit s
ĠInd ians
Ġ196 8
Ġdem ocr
ray ed
Ġobject s
Ġmir ror
S aint
it ure
Ġre ign
ĠA p
Ġact ions
av an
cl usion
Ġstud ying
Ġass ign
Ġcap able
Ġposs ibility
Ġocc as
Ġcheck ed
ĠDan ny
Ġinit i
Ġgodd ess
ĠDire ctor
ĠStep hen
iffe rent
F C
c ase
Ġb rilliant
Ġc ats
Ġy o
Ġre in
ĠH ong
ĠB alt
and ie
ĠD i
ho ot
up on
az ed
Ġlist ed
Ġlead s
Ġhor ror
enn es
Ġview s
Ġgra v
cher s
Ġliter ally
Ġwide ly
Ġreven ge
duc ation
S how
T en
t ake
Ġb ones
et ime
Ġre fe
ĠC D
ĠB ook
Ġr ings
ĠE ric
Ġbo ats
ĠAl ice
Ġdrink s
Ġ194 5
Ġvide os
ĠSy stem
Ġearth qu
Ġbene fits
Ġdistrict s
elp hia
Ġsac red
Ġcerem ony
Ġescap ed
C ong
N O
f irst
v o
Ġw ra
Ġst ress
Ġkn ocked
ĠR yan
ĠN an
em et
ĠJ ill
Ġgu arant
Ġele phant
Ġcons ists
Ġstr anger
Ġiss ued
Ġpract ical
IS T
Ġcult ural
Ġredu ced
Ġwat ers
Gr and
Ġsuff er
Ġinhabit ants
l ittle
m ic
Ġb en
Ġm ent
Ġf uel
et e
ĠS on
ĠS ab
ad elphia
Ġst olen
ear ch
Ġun s
aught ers
Ġprogram me
ask a
Ġcop s
Ġinvest ment
Ġindivid uals
Ġcapt ure
Ġdeb t
Ġgradu ated
Ġtyp ical
Ġpil ot
b b
u v
Ġt ip
ea ble
ĠT op
ul se
Ġne ut
um ble
ĠN intendo
Ġpro fit
ĠE le
ak s
Ġmon ster
Ġ15 0
Ġdel ivered
Ġroad s
hampions hips
Ġnecess arily
Ġblock s
ĠTai wan
Ġast ron
Norm andie
N E
R obert
T ime
b ach
Ġw ire
Ġc rap
ĠI ra
Ġe ager
ab s
Ġar ts
AT OR
Ġtem ple
Ġcop ies
Ġver t
Ġcomb ined
Ġhop ed
Ġadminist ration
ĠVictor ia
Ġneighbor hood
M us
k ind
n ame
v ior
Ġt ale
Ġs ought
Ġf asc
Ġf estival
en ly
es ome
om pl
ri x
ĠA k
ĠM ah
ur g
un a
Ġr ush
ĠD av
ĠO liver
ous ing
ord ers
Ġown ers
Ġreg ional
Ġsw all
oun ced
Ġpass age
ĠAs h
Ġequ ation
Ġshort ly
arr ing
Ġvo ices
II I
ĠCol onel
Ġmach ines
Ġtend er
ĠBas se
ĠNether lands
L ittle
P eter
S w
c ould
d og
g ust
p ol
u er
z y
Ġm art
Ġf ed
Ġto mb
Ġp ants
Ġl oyal
ot i
Ġit ems
ir med
il ton
ĠW alk
iam i
Ġconf idence
Ġtre m
Ġvers ions
ĠJust ice
Ġprinci pal
ĠRad io
ĠColumb ia
Ġtoile t
3 3
B O
H L
f in
y gen
Ġb om
Ġm ama
es se
at i
Ġsp lend
Ġgu ests
Ġrem ove
Do ctor
Ġacc ompl
Ġmom ents
Ġbre ast
Ġ196 3
Ġest im
Ġsn ake
ĠRep resent
Ġfair y
Ġdev ices
Ġver te
Ġprison ers
Ġpers ons
ĠWil son
Ã³ n
Ġstrugg le
emet ery
C o
I nt
R Y
Ġp upp
ke l
ĠB us
Ġcon clud
Ġex ha
Ġour s
de rer
St ep
Ġperson ally
row s
Some body
Ġfig ured
Ġbow l
nes day
ĠChan nel
ĠSing apore
Ġsatisf ied
ĠAdm iral
Ġshad ow
b ra
c us
i ency
n et
t ell
Ġm ud
Ġm amm
Ġin fect
Ġn aked
ĠS C
ĠT ok
un ts
Ġr ising
Ġj ew
ĠR on
Ġro pe
Ġpr ote
Ġim plement
Ġsc enes
Ġperson ality
Ġdisc overy
Ġpar ish
Ġmark s
Ġbes ides
ĠRail way
Ġmaid en
Ġgrant ed
ĠSwed en
J o
m ade
o ard
Â ´
ã ĥ
ĠC ho
ĠB rian
Ġv ast
ĠO s
Ġcont ext
Ġsl ide
Ġsur gery
Ġstr ate
Ġins ult
Ġcontro lled
Ġ194 7
Ġorgan ized
Ġdiscuss ion
Ġbran ches
ĠMet ro
Ġpoll ution
Ġnuc lear
P res
b ro
Ġa id
it ched
Ġb ike
as ha
ĠS P
ĠS cience
oo h
ct ive
Ġkn ees
Ġr ice
ĠG re
We re
ĠAr ts
Ġext ended
Ġheart s
ues day
Ġexpl ore
Ġbed room
ĠSen ator
ĠAlex ander
Ġbeg un
Ġdemon str
ĠWal ter
Ġliqu id
Ġansw ers
Ġarrang ed
A ye
A lex
B el
C T
b ird
u i
v or
it ter
Ġc hampionship
en ess
Ġto ast
Ġn urse
ĠC op
ĠC ape
Ġj ury
ud a
int on
Ġshould ers
Ġsm iled
Ġ3 00
Ġchild hood
ĠAr k
ĠAr gent
St and
Ġbit ter
Ġphot os
Ġide al
Ġemot ions
Ġintell ect
Ġaltern ative
Ġstrate gy
B en
E M
O H
p ent
p op
s l
er ted
Ġp iss
om be
us ive
ĠS ure
ul ed
ĠW he
Ġ19 20
Ġun like
Ġte en
Ġgl obal
Ġmet ers
ĠCon ference
Ġelect ions
ĠCha ir
Ġkiss ed
Ġredu ce
Ġanal y
Ġcompos er
ĠPic ard
w ind
Ġt ries
Ġs oup
Ġf ond
at ures
Ġl ately
Ġh ockey
ur ches
ĠH ay
th ony
ĠN i
Ġno ble
Ġer ror
ĠBr idge
Ġins pired
Ġalong side
Ġ194 4
ĠYOU R
aur a
Ġmax imum
ĠDou glas
Ġaband oned
T alk
m ail
er able
Ġp our
ĠC orn
ĠP en
ol ves
ĠW E
ĠD ie
ĠG er
ĠL l
ra k
It s
ud ge
Ġsp ons
ĠSt uart
Ġcont em
ĠBr and
Ġdri ves
Ġtrans form
Ġreturn ing
ĠSha h
Ġill ness
su it
Ġexec utive
ĠEr asmus
Ġemot ional
Ġdesp ite
Ġarchite ct
Ġmere ly
Ġdom estic
Ġcandid ate
9 5
B I
B esides
P P
Ã ±
Ġw ars
ha w
Ġc hamber
Ġg athered
Ġfor b
ĠC hi
ĠM D
ĠM aine
ĠR od
ĠN ever
ĠO tt
ĠSt ation
Ġlet ting
Ġ3 7
Ġlist ened
Ġmind s
Ġprom oted
Ġ196 7
Ġpar liament
ĠAust ria
Ġann oy
Pro bably
Ġeld er
U ntil
Y o
p o
r ons
Ġc raw
an ed
an ks
Ġp eak
Ġl t
im b
if ts
ĠB ad
th rough
ĠE ve
erson al
Ġacc ur
Ġ197 7
Ġ196 5
Ġdi agn
Ġarchite cture
ĠMu hammad
ĠProt est
Ġpunish ment
B ring
F ollow
p ite
Ġt ack
Ġm al
Ġf ab
Ġto y
Ġy ards
Ġn uts
ĠF ire
ap h
omet hing
Ġim ages
Ġunder ground
ons ieur
Ġsc ored
Ġpos itions
Ġoper ated
Ġattack s
Ġvill ages
Ġdep os
Ġclub s
Tr ans
Ġquiet ly
Ġsac rif
ĠBet ty
ĠIda ho
H ar
K ing
S ix
an es
Ġg ri
Ġr ug
art s
ĠN et
ia o
Ġhouse hold
ott ed
Ġchar t
Ġass ault
Ġstr ateg
ĠHow ard
Ġpar allel
Ġprofess ion
rat ulations
Ġjack et
4 7
g ers
w oman
Ġf oss
at ically
Ġh ills
Ġth read
st an
ĠC roat
if er
ĠH E
Ġat om
ul es
ĠF ord
ĠO w
Ġag ents
oy d
Ġapp ropriate
ĠAs sembly
Ġste pped
Ġcut ting
ĠAb d
Ġcrit ics
pha s
ĠPal ace
Ġelectric ity
Ġvot es
Su per
D ear
G eneral
l ad
n or
on i
Ġf ulf
ĠG a
ig s
Ġthr one
Ġcomm ander
Ġsm iling
Ġwar ning
Ġmeet ings
Good bye
ament al
uk i
Ġexist ing
Ġsail ed
Ġchair man
Ġintrodu ce
Ġspirit ual
Ġheav ily
Ġexplan ation
B ill
c ia
t an
Ġo ption
Ġc ooper
ed nesday
ic ia
Ġh unt
Ġwas hed
ro id
ir ts
ord inary
vel ope
Ġrel ief
ĠAn na
pr ise
Ġpur s
Ġrepl ace
Ġdoll ar
Ġphys ics
ĠSar ah
Ġpers u
Ġepis odes
Ġbeha vior
Ġconstit ution
ĠRog er
Ġcapac ity
A bsolutely
t es
u ate
it led
Ġp hen
Ġp ump
Ġst im
Ġst airs
ill ing
Ġse lect
os c
od ge
pe ople
ick ing
Ġhead ed
pect ive
Ġdef ense
Ġ194 1
ĠComm ander
Ġexpect ing
Ġengine er
Ġvol unte
ĠMex ican
ĠTor onto
SP EAK
Ġdram atic
" ...
H ang
N one
N ARR
c ried
Ġwas hing
ĠC ir
Ġk itt
Ġas hamed
ĠB C
Ġal pha
ĠJ ay
ast ed
ci ences
hed ral
Ġcomp ar
Ġset s
ĠMar garet
ĠRe ally
OU LD
ĠSo cial
Ġalbum s
Ġcross ing
ĠEm ily
ĠNot hing
Ġviol ent
Dad dy
Ġfrequ ently
Ġox ygen
ĠHon or
Ġexped ition
F ind
M ary
P ar
k now
Ġd aughters
Ġin se
Ġe fficient
ly ne
ĠH AVE
ĠT an
Ġadd ing
Ġtre asure
Ġmess ages
Ġdescri ption
Ġproject s
Ġpresident ial
Ġsubject s
ĠPhil adelphia
Ġexperien ces
Geor ge
NARR ATOR
B Y
K en
m ont
y ard
Ġd ow
et ers
st ru
Ġse ats
ĠH it
ĠT ake
ag ers
Ġco ordin
IN E
ĠTh us
Ġcol umn
ĠCent re
LA US
Ġident ified
Bl ack
Ġbase ball
Ġpir ate
hell o
Ġconvin ced
4 8
O w
g s
g ic
Ġc od
Ġto ol
us a
un es
Ġgr ateful
Ġpart ly
iss a
Ġpre cious
Ġdist ingu
ĠInd ones
Ġless on
ode cahedron
With out
Ġserv ant
Will iam
Tw enty
Foot note
ĠPicard ie
. &
E s
H on
S H
S y
o ons
r in
Ġs am
on ies
Ġd ating
ac her
ĠB ible
un s
ĠW el
Ġne at
ĠD NA
ab el
Ġgr ay
Ġpr on
Ġcont ained
ĠTh ursday
Ġsoon er
Ġhat ed
Ġcor respond
Ġdel icious
augh ing
Ġmur derer
Ġproper ties
Ġrail road
ĠCor por
Ġprep are
Ġaff air
Ġdoc uments
Ġvac c
Ġille gal
E ach
e ven
h us
r im
Ġc attle
ll y
om ed
ot y
ĠB ha
Ġwor n
be en
Ġdiffe rences
Ġform at
Ġcoll abor
ĠJohn ny
Ġrep utation
Ġsit es
Ġpick ing
ĠLe on
Ġallow ing
Ġabs or
Ġabs olute
ĠAir port
sm ith
Ġtele phone
Ġadult s
Ġmyst ery
ĠDaw son
d ney
r ison
Ġf aced
ac c
Ġnot able
ĠB and
Ġr abbit
ĠL iber
ig a
em a
Ġnow here
hen s
Ġsm ooth
Ġland ed
ĠAll en
Ġadv oc
Ġappro ved
Ġtest ing
Ġess entially
Ġexperien ced
Ph il
R el
p ur
Ġw icked
or i
Ġp ant
Ġth ir
Ġas h
Ġas ks
ch o
ĠF air
Ġpro sec
ag ne
Ġen orm
ix on
ful ness
Ġ4 8
Ġca using
Ġext end
AR D
Ġfriends hip
Ġnat urally
ĠTe am
Ġcollect ed
bour ne
Ġinit ially
ĠHaw ai
ĠSant a
Ġlat est
W ant
r um
u ji
Ġthe atre
Ġf er
Ġh its
Ġbe ings
ri el
Ġst able
Ġst ones
ĠB illy
ĠP ower
ol i
ĠW as
ĠW AS
ry ing
pe i
Ġtw in
Ġinv asion
Ġstop s
Ġob lig
Ġprob ability
Ġpur ple
Ġadm itted
Ġdi pl
Ġstar red
Ġprinci ple
Ġpossess ion
Ġprec ise
L RB
Y et
d iv
f a
l ims
p ack
p ool
he me
is k
or ious
en ote
at tered
ĠS in
out s
out heast
all ing
ĠH ard
op her
ea ut
ĠP ublic
ĠG ib
ist ol
ud es
Ġag es
Ġsp oon
Ġbr id
gin es
Ġcour ts
Ġpass es
Ġlarge ly
Ġpull ing
Ġbreat hing
Ġpurp oses
ĠSim on
Ġsust ain
R RB
d ie
Ġt ank
Ġo oh
Ġp ipe
se a
... !
Ġch rist
Ġchar ges
Ġsing les
Ġext ent
Ġequ ival
Ġdef ined
cha e
Ġappoint ment
ĠCamp bell
Sid enote
ĠBru ce
B rit
l aughter
Ġt ropical
Ġb one
or ation
Ġl over
Ġn it
ic ians
Ġth orough
ĠC y
ĠH ospital
ĠP op
ĠF C
Ġnew ly
Ġform al
ĠDe ath
Ġmod els
ĠBe at
Ġamong st
ĠDad dy
Does n
Ġded icated
ennes see
L ou
L ong
M c
P art
z ing
Ã £
Ã §
Ġw ow
or ig
as er
ĠS k
ri ve
ĠA S
ĠM Y
Ġshe et
ĠO per
ĠU P
ark s
Ġatt ached
Ġhead quarters
ib ilities
Ġval uable
Ġbeat en
Ġclaim s
Ġban ks
Ġthreat ened
ĠOlymp ic
Ġintern al
keep er
Ġlic ense
Ġren amed
ĠMill er
7 5
A ren
A ss
t ure
w alk
an ne
Ġin du
ic it
ac les
ĠA g
ĠP ost
ĠW ork
Ġde ce
ĠR a
Ġus er
ĠHe alth
ne ath
Ġdown stairs
ĠV ol
Ġad j
te enth
ock s
Ġent ry
olog ists
Ġrest rict
Ġhur ts
Ġport ion
US T
Ġstore s
ĠGold en
Ġrepe at
ĠBro ok
Ġsli pped
Ġexerc ise
ĠIra q
4 2
M um
M ike
P ardon
b us
Ġ Ä
in er
Ġw ing
Ġs ink
is en
Ġf ir
Ġth ief
am my
ith m
ĠM iami
ĠH art
ĠG oogle
ĠF ederal
Ġus eless
ĠE v
ag a
Ġag ency
ĠĠ Ġ
Ġpr ide
Ġwhere ver
Ġyoung est
sh it
Ġdevelop ing
Ġclass ic
Ġaw ake
Ġstrong ly
ida e
Ġgen us
chan ge
Ġtax es
ĠRob in
4 3
4 9
Ġd omin
st ate
ur rent
em on
Ġv ul
Ġgr ace
ĠY ug
ret ty
Ġstand ards
Ġ195 4
ĠMin istry
Ġclean ing
Ġtechn ical
Ġspir its
Ġjournal ist
Ġrelative ly
ĠHarr ison
Ġresc ue
ĠFre ud
ĠIntern et
M ust
c ular
d ers
i ro
p han
an et
Ġd ates
Ġn ap
ch ild
ĠB ah
ĠT oday
um ps
ĠN a
Ġar gue
Ġpe asant
ĠSt one
Ġun happy
Ġpar ad
ĠCon ne
Ġorgan izations
Ġsuper ior
Ġneg oti
Ġregard ing
Ġble w
Ġalt ogether
Ġmyster ious
8 6
C omp
M S
S ub
e qu
f le
r idge
u ct
Ġw ishes
nd e
Ġf aint
Ġd ea
Ġg al
Ġg ross
Ġth rill
se ll
ĠC ole
Ġan gel
Ġas sociation
Ġse ized
ĠP rem
ĠW ait
um a
ĠR ober
ens ity
uck er
tern al
Ġlea f
St ar
Ġ196 6
Ġwond ered
Ġsol o
Re ady
Ġ195 6
Ġconf ident
Ġru ined
Ar t
ĠRoman ia
Ġpolic ies
Ġinj ured
Ġprint ed
Ġacqu ired
Ġlin ear
L aughter
P at
a way
o a
Å Ł
á ½
Ġthe ater
Ġf isher
Ġy ield
Ġin ch
Ġan ch
est ion
os lav
ĠN ar
hi bit
pl ane
Ġun conscious
Ġcar riage
ran e
St ation
Ġru in
Un cle
ĠPol ish
ĠMus lim
Ġopportun ities
Ġnewsp apers
Ġresour ce
Ġpir ates
Ġvessel s
Ġfant astic
Ġdesper ate
Ġphr ase
ropol itan
A w
A hmad
C L
s pe
in n
ha h
id ers
im ore
ĠA ld
Ġkn ight
ea gan
ĠT uesday
Ġso ap
Ġup d
ud i
Ġdis ag
tain ment
Ġgreat ly
Ġch oo
Ġel imin
Ġri vers
Ġes c
Ġinvol ve
Ġforest s
Ġcell s
Ġdeb ate
Bet ter
Ġwrest ling
Ġinvent ed
D O
V ID
g ro
s uch
w anna
Ġt ube
Ġc otton
ic ing
ir it
oo re
her ry
Ġse lection
Ġgo sh
ĠG ordon
ĠR u
ĠF ound
Ġpro f
ber ry
ĠHe ad
Ġen gines
Ġlast ed
Ġop ens
Ġmight y
Ġform ation
Ġstr ict
less ly
velop ment
Ġfell ows
Ġcompet e
Ġcomput ers
Ġang le
Ġsecret ary
Ġdistribut ion
Ġadvent ure
C r
r ary
Ġc ant
Ġl ap
Ġn arr
ĠI D
Ġbe gged
ĠS uff
ĠP ut
ĠT ennessee
the less
ail ed
Ġshow er
Ġcr imes
Ġworld wide
Ġsl ip
Ġacc used
Ġem peror
Ġ194 8
Ġconf irmed
Ġconcer ns
Ġgrand father
Ġgen ius
Ġvac ation
AC K
Ġemot ion
Che ck
Ġplatform s
Ġoccup ied
Ġtick ets
Ġprovin ces
4 1
P oor
c har
e pend
h um
p ress
r ace
Ġt iss
in ations
in ction
Ġf ake
Ġd uties
Ġbe nd
Ġre aching
oo s
ĠA venue
ĠM ot
ter y
ĠP oint
um ph
Ġab oard
ĠL uther
ĠK an
ĠK ings
Ġoff ers
Ġoff ering
Ġgu ide
Ġinc hes
Ġart icles
Ġhur ricane
Ġ196 1
Ġsqu ad
Ġ194 2
Ġeight een
Ġmer ged
Ġarri ve
Ġsurv ived
ĠTol ombe
Ġdefin ition
ĠTolombe h
9 7
E F
N ER
i per
u ght
ã Ĥ
is p
Ġb ot
Ġc ub
or f
or ous
ad ies
ĠM ust
ĠB ase
ĠF amily
Ġsl ave
ĠAl bert
io let
sel s
For get
As k
Ġ195 2
ĠChar lie
Ġcompet ed
Ġpriv ile
Ġserv ants
Ġhost ed
Ġlie utenant
Ġthrow ing
Ġsevent h
ĠJew s
Ġlif ted
Ġapolog ize
Ġeth nic
Ġincred ible
Ġperman ent
ĠTok yo
eaut iful
4 4
R ed
m aster
Ġs ample
Ġb old
Ġm ath
Ġto ler
le te
ad er
ĠA mb
ĠB ishop
Ġr ic
Ġal gor
el son
Ġsa ving
ĠO ri
av ig
Ġfound er
Ġhead ing
Ġreg ist
pect ed
Ġret reat
ged y
Ġmove ments
Ġconst antly
Ġprim arily
Ġcelebr ated
Ġbac ter
Ġconstru cted
Ġconc rete
Ġnea rer
Ġpha se
ĠHolly wood
* *
I G
d in
g as
Ġa wards
Ġw reck
Ġs ou
is y
Ġo bey
Ġl ob
ĠH o
ĠT ell
ul ating
Ġj am
ĠG en
ĠR o
Ġsh oe
Ġcon ven
ĠN ations
Ġv ain
ĠO ur
ĠK al
Ġint ense
Ġwr ites
ip ed
Ġlong est
Ġ3 3
Ġexp ressed
Mm m
Ġ196 2
Ġclass ical
Ġdiv ide
ĠAust en
Ġbag s
Ġident ify
Ġhol es
ĠMount ain
Ġmemor ies
ĠÂ £
Ġrapid ly
H oney
R es
w he
is bon
it als
Ġb ent
Ġb ars
Ġf rank
Ġf iction
Ġd oo
om er
Ġn ic
Ġre b
ur ation
ĠP LA
ĠW ars
ĠL es
ig en
ag le
Ġtr unk
urn ame
Ġsc heme
ale nd
Ġsw ift
Ġem phas
Ġ7 5
ues e
Ġri val
Ġreason able
ĠAb b
Ġlo an
ĠReg ion
Ġintellig ence
Ġearthqu ake
M ark
e enth
in stein
Ġm ars
Ġn a
ic op
ut er
ĠC ost
ĠW ednesday
ĠL at
ĠK NOW
so ft
pt on
ru its
Ġfl ed
ĠAr men
Ġdist ant
Ġinst inct
Ġpass engers
ES S
ask et
Ġtest s
Ġwood en
Ġearli est
Ġprinci ples
Ġachie ved
ĠMat thew
Ġinstr uments
Ġpaint ings
Ġsem i
Ġcateg ory
Ġkil omet
mom my
O b
S outh
W est
c ers
g ate
w orld
Ġ utter
it able
es ar
ĠH ad
ĠH ur
ĠH og
op p
ĠP ress
ĠT ar
ĠG ardens
ĠF a
ĠF orm
ĠF ield
res ents
Ġpro port
ĠE ddie
Ġint ention
ĠU s
Ġro lled
Ġ3 8
ott o
Ġfour teen
Ġob tained
Ġinter act
Ġmed ium
Ġdeath s
Ġaw esome
Ġ195 8
ĠBar b
Ġliter ary
Ġhonest ly
ĠMount ains
ĠOffic er
Ġcris is
Ġsplend id
r ors
Ġs ang
Ġp ushing
as ia
Ġg rief
Ġth under
ĠC hildren
um in
ĠL ew
ĠJ oy
ood y
Ġv ice
Ġwho a
ĠU t
erm ans
ord an
ĠV eg
Ġrem ote
Ġ4 00
Ġgl ance
Ġpass enger
Ġrep ly
Ġmod e
Ġ194 6
Ġarri val
Ġexcept ion
Ġrecogn ition
Ġsail ing
ett le
ĠMary land
Ġdise ases
Ġaff airs
Ġpray er
Ġrough ly
Tom orrow
S on
d s
s ix
t w
w ick
Ġw oke
Ġw ounds
Ġs na
it ement
Ġm os
Ġm ouse
an while
Ġe c
ĠT ha
ol ve
Ġsh ining
Ġwhe els
Ġv on
ĠO b
ag ain
Ġdis gust
Ġpre ced
ĠDe f
Ġass igned
Ġcreat ures
Ġanim ated
Ġinde x
Ġmer ry
Un less
De ath
udd enly
ĠBoy er
Ġclim b
M ur
m ate
m ates
s k
Ġs orrow
Ġd ign
Ġin her
at on
ot es
id ency
Ġst arring
ĠP ot
Ġr it
ĠG ive
ĠR el
ĠF ive
nt own
ig hed
Ġpl ates
ĠE ducation
ort ed
Ġint ent
ass es
Ġbr ush
St art
Ġprodu cing
Ġ194 3
ES T
ĠSy dney
Ġrelations hips
Ġimmedi ate
Qu ick
ĠSil ver
ctic ut
dad dy
ĠHea ven
a a
d r
j e
j ud
l og
Ġb rig
Ġc oc
Ġd ull
Ġp owder
le ans
id el
ĠC ontin
ur ther
ĠB or
ant ry
ĠP o
ĠG i
ĠG ot
Ġal ien
ĠR eagan
ĠF ace
ab i
ĠJ erry
ra ve
ĠE lect
itt s
av ed
Ġcount ing
Ġch urches
Ġfact ors
Ġless ons
Ġstra w
Ġmot iv
Ġdeep ly
Ġamount s
Ġterri f
Ġannoun ce
ais y
Ġdistribut ed
G irl
M or
T hings
m ission
â Ĥ
Ġp up
ĠI V
ĠA M
ĠM A
Ġli ed
Ġkn ee
ol and
ĠL A
ĠL ion
em ed
ĠJ ess
Ġus ers
Ġpe e
Ġcl oth
ĠV iv
Ġunder neath
Ġpo em
ect ive
Ġser ves
Ġbel t
ĠDe an
Ġev al
Ġext ensive
ĠSp eak
Ġstru ctures
Ġ193 8
Ġgrand ma
ĠUS A
ĠChristian ity
Ġhistor ic
pir ation
Ġcustom ers
Ġwhis pered
Ġpoet ry
Ġtroub les
Ġrhy th
I VE
O ld
w all
Ġb oring
Ġp ond
Ġl oving
al ph
ĠA my
ĠC reek
ul pt
ĠD yn
ĠThe atre
Ġro ots
per t
int s
Ġmon arch
ĠZ e
Ġpresent ation
Ġdiv ine
Ġtem porary
ĠTe chn
Ġmist akes
Ġfac ilities
Ġextra ordinary
Ġgodd amn
Ġreck on
ĠBangl adesh
Ã£ o
8 3
I A
l aughs
n is
Ġt ag
Ġb ark
Ġit em
ĠS of
Ġst orage
ĠA lf
ĠM m
ĠH istor
ĠB all
th ink
ra it
the se
Ġ4 6
Ġdec ent
Ġtra p
sh ine
Ġ195 9
Ġprotect ed
Ġprison er
ĠSte ven
Ġess ential
Ġspecific ally
Ġrare ly
ĠManip ur
S uch
i i
p at
r ine
s a
z ed
Ġa ye
Ġf ox
Ġin ner
Ġg est
Ġg reet
st ock
ĠA ff
Ġk ings
Ġr ural
ĠL ind
Ġ( _
Ġex ists
Ġsp aces
pl ess
Ġpr ices
Ġad apt
Ġsy nt
Ġrep resents
Ġsound ed
Ġopp osition
ald a
Ġsweet heart
ograp her
ĠPol and
Ġconsider able
Ġvisit ors
ĠSpe cial
Ġdivor ced
Care er
avar ia
ĠViet nam
Ill ustration
G RUN
K ill
d ist
ha b
Ġto ss
Ġh oly
ut or
ĠS n
Ġdo de
ĠH or
ĠG or
Ġint end
ĠU N
Ġfe ver
ĠV ery
Ġgu ards
Ġhand ed
Ġrec overed
gg ie
clud ing
Ġexp osed
Ġoffic es
Ġprov iding
ĠChrist ians
Ġdep ression
ĠSer ies
Ġsearch ing
ĠMus lims
Ġofficial s
Ġcelebr ate
Ġcondu cted
Ġunivers ities
Ġbub bles
Ġfart her
H ad
S am
T ony
c ham
l E
l ast
t it
v ation
Ġt une
er ick
it age
Ġd irt
Ġp unch
us hes
Ġbe ast
ĠS ix
ĠC ass
ĠM un
ĠH un
ĠB ud
rom ise
Ġor phan
Ġwho ever
Ġtr am
Ġsc ary
tain s
hes is
Ġwar n
Ġ194 9
Ġrequ ires
Ġdam aged
Ġrepresent ing
Ġexist ed
ĠMo z
Ġintern et
Ġgradu ate
ĠFore st
Ġaccomp an
ĠLab our
ĠTurk ish
Ġincor por
Cong ratulations
ĠSuff olk
) :
B ad
F e
S il
U s
l ow
Â Ŀ
Ġa ired
Ġn onsense
id ering
Ġe y
st ar
ch i
Ġor chestra
ĠL ive
ĠN ed
Ġsa uce
oc ation
be fore
Ġ5 5
Ġdist ract
Ġass ass
ĠSo on
Ġwind s
ĠOn ce
ĠLe g
cent ury
ĠCol or
Ġgrad ually
ĠPan ama
ĠTai pei
Ġmanufact ure
ĠPortug uese
ĠEnter tainment
Ġtrem end
ĠConne cticut
' ?
U CK
Â ¶
he astern
ou st
Ġc ows
Ġf are
or ters
Ġd ial
Ġh id
Ġis ol
ĠG ene
Ġsh ops
os ity
Ġar c
Ġcl in
So on
Ġback wards
Ġen velope
Ġcont aining
Ġrec on
ah n
AR T
Ġpartic les
cri bed
Ġsum m
Ġnat haniel
Ġsafe ly
Ġpolic eman
Ġclos ing
Ġbreat he
ĠPol ice
Ġdepend ing
Ġfund s
ĠMor gan
Ġinj uries
mus ic
Ġsurr ounding
Ġtyp ically
Ġbare ly
Eng lish
Ġenorm ous
4 6
? '
b urn
n els
p iece
z es
in burgh
re c
Ġb ond
ĠI r
ion e
ĠS uch
st ract
ĠC as
ĠC AN
ĠH oll
il st
Ġr ude
Ġr acing
Ġj azz
ĠG ro
ĠK night
Ġcl own
Ġbu ff
IN D
Ġfact s
Ġins ist
ĠGr ant
ĠAust rian
ffic iency
Ġ193 9
IC E
Ġattempt ed
Ġlink ed
Char les
Ġfro zen
ĠHot el
Sec ond
Ġretire ment
Ġadministr ative
ĠCorpor ation
H al
M ind
d ale
i ors
r ome
re ally
is dom
Ġin cl
Ġn ations
ot hy
Ġbe ars
im m
ĠS av
ĠC ru
ain ted
ĠG ET
os ure
ĠN OT
han a
Ġcom ic
we ather
Ġsha res
Ġkind a
de f
ret t
Ġind ic
Ġvis ible
Ġcamp us
Ġlad s
Ġrese ar
Ġhop es
Ġaccount s
Ġfrog s
rib ute
Ġdun no
ĠYug oslav
J ul
m n
m itted
o ft
re nder
ac ement
ĠM i
ĠB re
ĠB ir
ant le
ĠT urn
Ġcan ce
ĠF ame
ĠL ow
Ġher s
ous ed
Ġact ors
ars on
Ġcle ared
Ġfun ctions
Ġelse where
Ġcond ens
Ġstar ing
Ġlim its
Ġring ing
Ġinflu enced
Ġintrodu ction
uel a
Ġbeha lf
Ġfoc used
ĠAnt on
Ġanx ious
Ġwrit ers
C al
Ġ vel
in et
re p
Ġs ession
Ġd well
ar se
ay an
ĠS ometimes
Ġse ated
ĠH ou
ĠB os
ĠB aby
ĠW rest
Ġal arm
Ġsh ield
ig r
ck er
ĠE p
Ġv oted
fe ld
ans ion
Ġrec over
Ġland ing
ai ries
Ġprom inent
Ġcontro ls
Ġopp on
ĠOr leans
Ġimag ination
Ġjud gment
Ġpers pective
Ġdig ital
Ġdeterm ine
Ġdocument ary
spect or
Ġstro ke
Ġfeather s
Ġnort heast
Ġgrav ity
ĠRepresent atives
B oss
d am
n um
Ġw ax
Ġs ar
Ġs urname
Ġf etch
Ġy Î¿u
ĠI ce
al ie
Ġst amp
all as
if ted
ĠH ook
ĠB ul
ĠB avaria
un ning
Ġex cess
ber y
Ġfe e
Ġper ce
Ġcr ay
ug s
Ġsur vey
Al ways
Ġterm in
ĠPl atform
ĠComm on
Ġperform ing
ĠTH IS
Ġpal m
Ġsens itive
Pl ay
ĠDar ling
lem n
Ġtransfer red
Ġcompon ents
ĠBalt imore
Ġthir teen
Ġequival ent
. !
6 7
C han
G O
I LL
L u
L ater
r ong
r ound
y ep
re hens
Ġb ills
at ers
st ream
ĠC hile
ĠM oon
Ġse as
Ġse eds
ĠW ild
ĠR us
ĠL O
ck ets
ĠE conom
ĠK evin
ide o
ure au
Ġbu zz
Ġ3 9
ever al
gg er
Ġsl aves
ĠAnd y
Ġent ering
Ġmet ro
ung le
Ġev ident
Ġmusic ians
Ġequ ally
Ġvis ual
Ġexc itement
enn is
Ġtem pt
Ġappear ances
Ġtit les
eder ation
Ġgar bage
iff s
Ġfeed ing
Ġfarm ers
Ġsequ ence
Ġsusp ic
Mart in
C oll
p ower
r ings
Ä ±
Ġ +
Ġb ass
Ġb unny
Ġc hips
Ġf ierce
Ġin put
Ġg ently
al ia
Ġre jo
ĠS ally
st ruction
ri ans
ĠB ry
ĠT ower
ge ous
ĠR an
Ġcom ments
ind er
ite i
Ġevery day
Ġad just
Ġdis hes
Ġatt orney
Ġstop ping
ĠAn cient
Ġ6 5
Ġrep rodu
Ġfil es
Ġpay ment
Ġref ers
Ġspeak er
Ġbed s
ĠSh ut
Ġdifficult ies
ĠSar had
Ġblow ing
ĠPat rick
Ġdemand ed
En ough
Ġremark able
Ġbub ble
M ed
R ic
S ame
m al
m ill
u ine
on om
Ġc alend
ĠS erv
st op
ri fic
Ġst ack
ĠA B
ĠC amer
ĠM att
qu iao
ck now
ĠSt op
Ġgood bye
Ġrec ycl
ild a
gr ad
âĻ «
Ġent itled
Ġsix teen
ĠSc ots
Ġsupport ing
Ġsuccess fully
ĠAd ams
Ġmer cy
com fort
Ġattract ed
Ġnuc le
Ġentertain ment
ĠWI TH
Ġsacrif ice
A ha
R ec
l on
o ir
v ol
Ġa uth
Ġb id
Ġb ore
ot al
ay a
Ġbe ans
Ġe ase
ĠM oore
ĠB uck
ĠD og
qu es
ĠK elly
Ġpe as
ĠU r
Ġdis miss
Ġfin ishing
ific ations
ĠTh ose
ik i
Ġ193 7
Ġsca re
bre ak
Ġstret ched
Ġdiam ond
Ġmicro phone
Ġexpand ed
Ġfurn iture
ĠHind u
Ge ography
A my
p lease
p hew
s ub
Ġm ister
Ġf ranch
ed y
Ġin ject
ĠS lyne
ro b
ad i
ĠM P
Ġse ctor
ĠH ug
Ġr aid
Ġab road
ie v
el ing
Ġshe d
Ġv ary
ĠO pen
Ġcomp ass
Ġwhere as
ĠV I
ĠV ill
cc er
ĠCh uck
Ġfound ation
Ġdec ades
Th ou
sh ot
Ġjo ining
umb led
Ġ195 7
Ġconf irm
Ġeffect ively
Ġdest ruction
Ġabs ence
yr ics
Ġbelong ed
Ġappl ications
Ġcompan ion
Ġleaders hip
Ġlands cape
C C
H appy
O P
S a
g han
h h
i op
r ous
s ighs
t oo
es ter
ar med
Ġl oop
om on
Ġre bell
Ġst adium
ĠH istory
Ġcon clusion
Ġsu p
Ġsee king
Ġsc ulpt
Ġcons cience
Ġdri ft
ony m
Ġ17 0
angu age
Ġstat ue
ĠMe itei
Ġtechn iques
Ġeduc ated
ĠDep uty
Ġarrange ment
Ġwithd raw
ĠRoll o
5 7
9 8
F ire
N or
Q ue
S ar
X X
c ond
i ge
Ġw ins
Ġb ay
Ġc raft
ing o
ver ty
ĠC ook
Ġse ar
ĠH op
ĠF R
ĠN elson
ĠJ ordan
Ġpro s
Ġsp ark
Ġdis aster
Ġsec rets
Ġsupp er
Ġfollow ers
Ġass hole
Ġkid na
Ġsk ill
ĠCl ark
Ġdef ence
An n
ze ch
Ġband s
Ġz one
ĠAm endment
Ġworth y
ĠPhil ip
Ġquar ters
Ġemploy ed
ĠCr own
ĠFin n
Ġfaith ful
Ġlif etime
Ġchap ter
Ġaspect s
Ġconscious ness
Ġbatter y
ĠPhilipp ines
Ġestim ated
! !
B aby
O ff
S ounds
b ors
re z
Ġf ence
Ġf eared
ing le
or ia
Ġp ip
ac hi
ro it
ĠH old
ĠP ict
ĠR os
ud y
Ġgr an
ob ile
Ġpo verty
Ġinst antly
ivers ary
ĠAn im
Ġref use
Ġgovern ments
ĠMay or
Ġcreat ive
AR E
Ġste ady
lev ant
ĠCha p
Ġrul er
Ġmeant ime
Ġjud ges
ĠMed ia
cul iar
ĠBel g
Ġtail or
Ġrom ance
Ġbelief s
Ġpattern s
ĠBroad way
ĠTem ple
ĠHawai i
ĠVeg as
G ee
M in
M al
P ersonal
S O
d le
s hall
Ġa cknow
re k
Ġc ave
Ġp or
Ġl amb
Ġwe lf
ĠC L
ĠC amb
il and
Ġne phew
Ġj oseph
ĠD ale
ak u
ag an
Ġtr act
Ġen sure
Ġapp les
Ġsw ing
At t
ĠSp ring
pr ing
Ġeight h
ĠJo han
TH ER
Ġbox es
uri ous
ĠTe levision
Ġshar k
Ġsoft ly
Ġfool ish
Ġsevent een
Ġkick ed
Ġparticip ate
Ġscr atch
Ġoccasion ally
Ġassum ed
ĠWay ne
Ġdyn am
Ġdyn asty
ĠCO VID
Ġcollea gues
ĠProtest ant
ĠFound ation
Ġwelf are
N umber
W ork
b ie
g un
g ments
Ġt iger
Ġa rose
Ġb in
Ġb ump
ll er
le ment
Ġhe sit
ĠS her
ter m
if est
ĠH en
Ġso le
Ġsh ots
el f
ĠN FL
Ġres ident
ail ing
Ġcour ses
Ġhelp ful
Ġ4 7
Ġreg ister
ple te
Ġmon key
Al an
OU R
Ġins ane
Ġ195 5
Ġcheck ing
Ġmer c
ien na
Ġvers us
ĠSer b
sc ar
Ġfac ing
Ġoffe nd
Ġexec ution
Ġble eding
Ġbrief ly
Ġopt ions
Ġflo ating
odd ed
Ġdisappoint ed
ĠNap ole
Ġscarce ly
Ġintellect ual
Ġdipl om
D in
h r
u its
w w
Ġa ston
Ġg ates
ĠA z
ĠC ON
ĠC ooper
ĠM ain
ab oo
ate ur
ĠO nt
ĠK urd
Ġun certain
Ġsomet ime
Ġco inc
Ġ3 4
Ġmar ch
Ġpres ents
Ġsur ve
ĠAn thony
Ġca res
Ġimp ressed
Ġins pect
Ġconf ront
ĠEd inburgh
Ġrad iation
Ġgen uine
sp eaking
Ġcoun sel
Ġpen cil
Ġmis erable
Ġmad am
Ġdiscuss ed
Ġmid night
Ġrout es
Ġaff ili
Ġpan el
Ġopt im
Ġexcl aimed
Ġdelight ed
Ġscream ing
Ġune x
BE TH
ĠNet work
ĠPrem ier
3 00
J apan
L ord
d i
f ight
l ia
p an
w atch
Ġthe rap
Ġs ack
on ial
Ġd rank
Ġp ent
Ġl amp
us sels
ac ent
Ġst ead
Ġ1 20
th ought
ĠD ove
ink s
ĠE th
ĠK ermans
Ġsp y
per ing
ĠV in
Ġke en
ran ean
man n
Ġent hus
Ġcha se
OU T
Ġprom pt
umb ling
Ġrece iving
eng u
Ġprogram ming
Ġsuggest s
Ġshar ks
Ġprim itive
Ġimpro ved
Ġchem istry
wh oops
ĠRes earch
ĠWin ter
Ġcloud s
Ġdivor ce
Ġacad emic
Ġath let
ĠKermans hah
6 4
C ut
K now
M at
P A
k ward
n ames
Ġc ough
Ġf ame
Ġh itting
al ities
id odecahedron
ri or
ĠC our
Ġr aw
ĠD in
ĠG ran
em en
em ploy
ĠE mma
ort on
og an
iz za
ru ption
ĠAr m
ĠAr n
Ġ4 9
Ġfar mer
ĠWe b
Ġtri angle
ĠPro gram
Ġbreak s
for mer
Ex cept
Ġban ana
Ġbeha vi
Ġparticip ated
Ġmemor ial
Ġencour age
Ġveh icles
Ġtrave lling
Ġult imately
Ġagric ultural
Ġshel ter
ĠChair man
6 8
A F
N orth
T ube
U E
re cted
Ġm ask
an ium
Ġp ardon
ĠC ra
ĠC ard
ol as
ĠF ars
ĠF BI
ĠL aura
ĠN ative
ĠN ik
qu is
ĠJ ae
od ox
Ġex ceed
Ġv ig
ĠK y
-- _
Ġfl av
Ġrec all
Ġsha king
Ġmin imum
Ġsupp lies
az a
az on
Ġsur render
Ġwar rant
Ġmet res
ĠEng ine
Ġmeet s
Ġdesign s
Ġresult ed
ĠBar on
Ġtit led
Ġconv ince
Ġur ban
ĠNor way
Ser iously
Ġflu id
Ġcas ual
ĠTay lor
Ġboot s
Ġmilit ia
Mus ic
ĠHit ler
ĠRober ts
% .
A y
R ep
R ock
T ED
c ontin
l ah
m ph
w ear
Ġs ore
Ġc ra
Ġto m
Ġin fection
Ġn odded
Ġh ollow
Ġth irst
ac on
ĠS uz
ĠB ye
est ine
Ġab use
os aur
ĠJ os
Ġv irus
Ġgr ounds
ĠY e
be an
Ġlet s
ons in
Ġdr um
Ġmat rix
Ġland l
Ġpri ests
Ġ195 3
Ġperform ances
ĠMin nes
Ġtouch ing
Ġcult iv
Ġtrust ed
Ġattempt s
Ġpack age
Ġcro ps
ĠPac quiao
Ġcritic ism
ĠHam ilton
Ġinstit ution
ĠIm perial
iven ess
ĠNorm an
Ġverte x
Ġprote in
ĠColor ado
H el
J UL
V D
m ight
p hy
v ate
ha lf
an other
hat tan
Ġn erves
Ġre bu
ĠS um
ir ation
ke e
ĠM olly
ĠB an
ĠD ak
ĠD own
ab e
ĠK LAUS
fe rences
ĠSt ew
Ġbr ows
ĠY an
Ġfl esh
Ġsm oking
Ġch op
Ġche e
Ġacc ord
AR S
ĠSh ir
Ġ193 6
ĠBar ry
Ġcook ies
Ġsurpr ising
ĠSu pp
ograph ic
Ġcro ok
ĠAlex and
Ġdesp air
Ġeld est
lig a
Ġfavour ite
Ġfra ud
sha ped
Ġprem ie
ĠShi v
Ġfasc in
ĠDav is
ĠIndones ia
ĠBha er
ĠOnt ario
JUL lE
ĠKLAUS NER
5 5
D el
E v
N at
c ourse
Ġt ide
he ld
Ġw ives
is ible
Ġg re
ve land
Ġh ousing
Ġha l
Ġe go
Ġwe igh
ĠA riz
ĠP ra
ell er
Ġr aces
Ġr ushed
ĠD ON
ĠR oc
Ġyour selves
ĠJ an
ĠO ak
ud ible
Ġtr ace
ick en
Ġgr ain
Ġbr on
Ġam endment
au nd
Ġfound ing
Ġpol ite
gg y
ĠMar ie
Ġsecond ary
Ġinv ite
Ġed ges
Ġri b
ĠAll ah
ĠMay weather
Ġbusiness es
Ġhope fully
mm et
Ġtest ed
Ġpract ically
Ġgen etic
light s
Ġcover ing
Ġinn ov
Ġobs er
isc onsin
Ġden y
Ġsuit able
ĠEgypt ian
Ġshout ed
Ġcontr ast
Ġinstit utions
Ġresist ance
ĠDra gon
Ġdread ful
) ;
H it
W in
c or
f are
g reen
l u
s ong
Ġl aughter
as hes
ve t
Ġbe ef
ro v
ĠD u
ĠR en
ĠR em
ĠF at
ab ilities
ĠK il
ass ador
Ġhel icop
Ġchan ces
Ġass ess
ins ula
Ġinter se
AT H
ĠMay be
Ġoper ate
Ġ195 1
Ġcop per
Ġchair s
âĢİ ,
Ġpark ing
ĠSec urity
ĠGrand ma
Ġpossess ed
Ġtransl ated
Ġdetect ive
Ġtrave lled
Ġsitu ations
Ġguarant ee
Ġdow ntown
ĠSpeak er
0 7
D ude
E P
L adies
S weet
e ight
i ate
m ind
p her
s omething
Ġt act
Ġt ables
on ge
Ġf airies
Ġp airs
Ġn aval
ur u
ur is
Ġgo in
ĠW ould
ĠW OR
Ġso lemn
Ġab und
ĠR illa
ĠL uke
ag u
Ġwork er
oc ated
Ġres idents
Ġrel atives
Ġsy nd
Ġmon itor
Ġinst all
Ġob tain
Th ough
Ġair plane
Ġorgan ic
Ġdescri bes
Ġshar ing
Ġweak ness
Ġge omet
Ġtun nel
ĠWind ows
Ã¦ sar
osc ow
Brit ish
Ġfir ms
B est
S S
U gh
d ed
e yes
m aking
x ual
Ġs its
it ches
es c
Ġp anc
Ġn avig
us ter
ke ys
Ġst ages
ĠA gain
out e
ĠC zech
Ġgo at
ĠG un
ĠG ary
Ġab dom
Ġab stract
Ġv ital
ard o
Ġsp eaks
ĠU k
Ġdis order
Ġsc attered
Ġch uck
ĠDe velopment
ĠInd epend
Ġmain tained
HE N
eb ast
Ġswe at
Ġbar n
ĠOr chestra
RE AM
Ġattract ive
Ġcitiz en
ym n
Ġproced ure
ĠCharl otte
Ġdiscipl ine
igen ous
ĠSarhad i
Ġcalend ar
lah oma
F F
M er
P op
S us
g i
n est
w ord
Ġw olf
Ġb ust
Ġm r
Ġf ires
Ġg le
om ot
id ays
Ġst y
ĠA st
il ation
ore t
Ġj unior
qu et
Ġcl ar
ree ze
Ġfl ows
Ġcar avan
ott a
Ġadd ressed
Ġlight house
Ġimp rison
Ġinter fe
Ġtra gedy
Ġref uge
Ġreturn s
Ġpat ri
Ġhor iz
ĠTr ust
room s
Ġeduc ational
Ġet ern
ĠCor ps
Ġneigh bors
ĠDev il
Ġtransl ation
rish na
ĠMars hall
aret te
Ġcandid ates
ĠNaz i
Jim my
Je ff
Ġimpress ive
Ġsubsequ ently
Ġoccas ions
Ġalpha bet
ĠHou ston
Ric hard
8 9
H ope
M orning
X T
b ound
m i
Ġ {
Ġm ild
Ġl yrics
Ġg a
am ar
ĠS ay
ĠS orry
ĠA th
ĠP R
Ġr ab
ab led
od s
Ġex hibition
Ġex ternal
ĠK n
Ġsp rang
Ġro lling
Ġad ap
Ġfl ies
Ġres ign
Ġkill s
Ġbelie ves
âĻª âĻª
Ġcons ervative
Ġdist ur
Ġob st
Ġfr act
Ġind icated
ertain ly
Ġdra gged
Ġcol ours
ĠPro ject
An ne
Ġocc urs
Ġce ased
Ġappro val
Ġelect ronic
Ġinvol ves
Ġtrad ing
Ġdeep er
Ġlab our
Ġrepresent ative
su ccess
Ġstri p
Äģ n
ĠLouis iana
Ġox id
ĠJud y
Ġreven ue
Ġgro cer
ĠCommun ity
nat ural
Ġquant ity
ĠCa esar
ĠJon athan
Ġmamm als
Ġash ore
ĠMinnes ota
8 5
= =
F red
G old
S al
b ig
m ake
o an
p rodu
r Ã©
Ġb attles
Ġc age
Ġf est
Ġd ia
Ġg ig
Ġn aught
ac ious
ir y
ĠF el
ard ed
ear l
Ġpe culiar
Ġcl er
Ġaf fection
Ġun ited
Ġun fortunately
ĠIn ca
oc ol
fore st
Ġbu cks
az y
Ġdifferent ly
Ġsub stance
Ġloc ations
Ġcontin ent
Ġsol ar
Ġinform ed
cha ir
ĠPl ace
Ġprocess es
Ġcirc uit
Ġclos et
Ġfac ulty
Ġjump ing
Ġmid st
Dr ink
ĠSqu are
ĠLy nde
Ġliber ty
ĠPre fecture
Ġsched ule
ĠNob el
ĠWel sh
! '
8 00
B u
K at
L ING
P e
h on
l an
p erson
r ade
u ary
Ġt ons
Ġa er
Ġs ung
an cing
Ġd ict
ĠI mp
al ty
Ġst iff
ĠC ham
ĠH OY
Ġgo lf
op er
ĠW oman
Ġr ust
ĠD allas
ĠN ag
Ġout put
ĠY ale
Ġpre v
vel t
Ġreal ise
Ġcons idering
Ġstay s
Ġkid ney
uss y
OU GH
AT ION
che ll
Ġpain ter
Ġlay ing
Ġra ising
Ġla ura
Ġmist ress
Ġcand y
orks hire
Ġpig s
Ġbutter fly
Ġvul ner
comfort able
ĠHOY T
D a
s hi
Ġ q
re ls
Ġc able
Ġf ict
ar ians
Ġn asty
ut t
Ġre le
am ents
ĠS hip
Ġst ern
Ġu na
ĠM aced
ill ery
ĠH uman
il er
ĠT our
ĠR oy
ĠJ am
od ore
Ġv oc
Ġpe ep
ne cess
ire ct
oy age
Ġhel pless
Ġkind ly
ĠBr ussels
Ġreg iment
ĠDe h
Ġgl ory
ash t
Ġmother s
Ġlight ing
Ġtra pped
Th rough
not hing
Ġhur ried
Ġaw kward
Ġfood s
Ġstat ements
Ġrelig ions
Ġprop osal
De f
Ġinn it
Ġfac ility
Ġbur nt
tr ack
ĠMal ays
Ġexec uted
Ġreve al
Ġload ed
ĠJul ie
Ġign or
Ġanx iety
Ġmulti pl
heim er
ĠDie go
Ġkitt ie
Que en
C ont
e ges
f ree
he nt
is n
Ġf its
Ġd at
Ġe fficiency
ad ays
ĠA LL
ĠH em
ul ance
Ġr ats
ĠD er
ĠL arry
Ġout er
ĠE nd
ĠK aren
ĠSt and
Ġgr ows
Ġdis pl
Ġdis gr
Ġfl our
Ġsc an
gin s
Ġsub t
Ġdist urb
Go ing
Ġfuck in
Ġleg it
Ġpresent ly
OR E
Ġcut s
oose velt
Cl ub
Ġenc oun
Ġnovel s
Ġdeli ber
Ġassist ance
Ġpra ised
Ġmeas ured
ĠCommun ist
Ġhyd ro
ĠAssy rian
Ġacceler ation
Ġbacter ia
Ġaccompan ied
A f
F ar
M en
R ay
S A
S ister
b one
b aby
c al
c ount
Ġt urb
Ġthe ories
Ġw ipe
Ġs ke
Ġb um
Ġb ishop
Ġc ord
le ton
Ġre he
ĠS ult
ĠS ky
ĠH orn
and o
You ng
ĠP ur
ĠW isconsin
ĠD om
Ġcon vent
Ġcon vention
Ġgr at
In stead
Ġbu g
Ġinter ior
Ġexp ansion
Ġtop ic
Ġfree ly
head ed
Ġappro aching
Ġcre ep
Ġdest ro
Ġdro pping
rem ember
Ġcomb at
Ġinf inite
ĠPer haps
Ġopin ions
ĠGirl s
Ġbless ed
Ġunivers al
Ġassign ment
Ġtiss ue
ĠLew is
6 00
B re
E ver
p ot
v ard
Ġw agon
Ġb orders
Ġo ath
Ġc ure
or us
Ġp itch
Ġg ear
st ick
Ġst ove
ĠC all
ol ished
est ly
ĠF ree
ĠL ast
ĠL ead
Ġdon t
ub s
ĠV ar
ang a
ĠY orkshire
Ġco ins
ee k
Ġchar ity
cy cle
Ġbre ed
anna h
Ġart ific
Ġgener ations
Ġtri bes
Ġround s
ĠGr ace
iter ranean
Ġpur se
Ġste aling
Ġval id
aim ie
ĠMic ro
Ġdirect ions
Ġtechn ique
Ġcook ie
su pp
ĠHigh ness
Qu ite
Ġscient ist
Con nor
Ġtruck s
Ġschol ar
Ġreject ed
ĠBow l
Ġben ch
Ġtremend ous
A ng
H oly
K ING
P retty
T O
f r
h op
k ers
x ic
ï ¼
is ha
Ġc hess
Ġd ick
Ġd uke
Ġto es
at he
Ġl ux
ĠA gency
ĠW WE
ĠD aisy
ĠG riff
ĠR y
ĠL im
ĠJ u
Ġtr un
Ġle nd
Ġcomp ounds
Ġbl ast
be ing
Ġres igned
Ġmin es
ĠYou Tube
Ġpres um
Ġdec re
ten ance
omm od
Ġdisc har
Ġsent iment
ĠOr gan
Ġsil k
ĠCha h
ĠCha nd
Ġperiod s
Ġbear ing
Ġ192 8
Ġfre ak
inist ration
Ġtax i
Ġfund ing
Ġrout ine
Ġemploy ment
Ġpan ic
ĠPe ace
Ġpred ict
Ġsequ el
aval ry
Fin ally
ĠPLA Y
Ġdisgust ing
ĠAriz ona
6 9
C A
C lear
D P
b ish
m ount
in ch
nd a
Ġf ert
Ġd ated
ot ing
Ġhe d
im ens
Ġre ci
ĠS O
ĠA R
ĠA RE
ĠB eng
ĠP ad
ĠP ho
ĠG ulf
ers en
Ġsh ocked
ĠN HL
Ġ19 19
ĠK a
Ġar row
Ġcl ients
ĠSt at
ĠSt adium
Ġfe ud
pl ed
iz er
ĠIn stead
ĠY oon
Ġpo ckets
aw are
Ġsl a
Ġcons ent
Ġpar am
Ġdream ing
Ġcond em
ĠEm my
Ne ither
Ġant ib
ĠMed ic
Ġnet works
Ġcondu ctor
wh ite
Ġqual ified
Ġmagn ific
Ġblank et
Ġnea rest
Ġconsequ ences
ĠNapole on
0 5
A ugust
C ount
H aven
R ad
j amin
k ur
l ater
o qu
re f
ha nt
it is
Ġo ri
Ġm ast
Ġd ared
Ġn igg
ow ell
ow ered
ve ll
Ġha y
im ir
Ġst ake
ĠH ockey
ĠP ap
th odox
pp ers
ĠK on
Ġsp ray
his m
ĠV ienna
ĠUn ivers
Ġrec overy
ial s
Ġ4 4
Ġche ek
Ġacc ommod
Ġstr ings
iet h
ĠTh om
Th omas
Ġpublic ation
Ġann iversary
Ġav o
Ġsn eak
TH AT
ĠAm azon
US IC
Ġenjoy ing
ĠPol a
Ġcivil ization
Ġpeace ful
hand ed
App arently
ĠIslam ic
Ġsusp icious
Ġpurcha se
ĠOk lahoma
Es pecially
Ġauth ors
Ġfranch ise
Ġsla very
" ;
E ight
F ort
F rench
I X
S an
U se
W ar
c at
d ess
h our
l ines
p arent
Ġ Ð
Ġm ac
Ġm ock
Ġf ib
as hi
ĠS A
ri ly
ĠM oscow
ant e
th rop
Ġj e
ĠD ream
ĠG OT
ĠR ound
ĠR ights
ĠL ane
ĠJ ob
ra h
ĠE arl
ia h
Ġgr im
Ġbr ut
Ġen s
Ġbu nd
mb ling
ĠĠĠĠ Ġ
ĠAnd erson
Ġcent im
ane ously
Ġwalk s
Ġmod er
Ġ193 4
Ġcho ices
amb ling
Ġgrand mother
ĠWh it
Tr ust
Ġself ish
ĠNe xt
Ġconsider ation
Ġcommand ed
Ġhistor ian
Ġdeli very
Ġir rit
Ġbell y
Ġarg ued
Ã¨ re
Ġstret ch
ĠHarr is
ĠTay eb
Whe ther
Ġsou ls
ĠDak ota
6 5
C ent
I mp
P H
S ch
W ater
d ig
j u
t own
Ġw isdom
Ġc ul
Ġc rop
Ġg ender
le vel
ve x
Ġre aches
ri ver
ĠB enn
ĠP rop
Ġr age
ĠD VD
ĠR idge
ĠF ederation
Ġbr ick
orn s
iz a
ĠV as
ĠY et
Ġcar ries
Ġ4 1
ird s
Ġph ones
Ġev olved
Ġtrans ition
Ġrecord er
Ġprom otion
Ġdeal t
ĠFran z
Ġconf usion
Ġlay er
Ġelect ron
RE E
Ġhung er
Ġfund amental
Ġbur den
cul es
ĠApp le
Ġfrequ ent
rell a
Ġpuzz le
ĠTayeb i
7 7
C le
C ons
D IC
H igh
M el
P R
S R
S upp
S ighs
V I
n amed
o ffic
t op
Ġt id
Ġs ank
Ġo l
Ġd ip
Ġg ap
Ġg rie
om i
ic ip
Ġre verse
ĠA the
ĠB ack
ĠT en
ĠR un
ie ved
ĠF le
ĠL yn
ĠN ash
Ġv amp
Ġtw ist
Ġbr ains
Ġbl oke
Ġsl ope
Ġsleep y
Ġz oo
Ġformer ly
Ġfill ing
ĠQue ens
Ġbelong ing
gu ing
gress ive
Ã¡ n
ĠBob by
ĠAtlant a
Ġcrowd ed
Ġmechan ism
Ġcontr ary
Ġpretend ing
hell e
Ġnurs ery
ĠBrother s
Ġancest ors
Ġexplos ion
Ġexha usted
Ġcontem porary
Ġaccur ate
Ġpurs ue
Ġdistingu ished
ebast ian
C ast
H am
M et
z i
Î ±
Ġ Å
re h
Ġc in
ed ge
en cer
us alem
Ġwe ary
ĠS N
ĠA uthor
il ight
ĠB aker
op les
Ġr ating
ist inct
ĠL isa
Ġcon gress
Ġ( ),
ĠE ver
ind ing
Ġint r
Ġun comfortable
Ġbu ck
form ula
Ġext ension
ĠChrist opher
Ġ193 2
Ġelect rical
Ġconcer ning
Ġwall et
entle men
Ġmount ed
Ġpen ny
Ġbull shit
Ġcompan ions
Ġemploy ees
Ġess ay
Ġcamer as
Ġlink s
Gu ys
Ġrub ber
ĠMur ray
Ġrank ed
war f
Ġshout ing
ĠRog ers
Ġcabin et
ĠServ ices
Ġdia lect
A ir
B ur
D ick
M ont
c od
Ġa u
Ġf ruits
Ġp ressed
Ġbe es
ut o
ac ha
ĠS ports
ĠM it
ĠM as
ĠM ack
ur an
Ġwh ilst
Ġse ctions
ĠB ee
op en
th y
Ġall e
ĠR O
ab a
os er
Ġcon verted
ĠN ation
ig ration
Ġv ocal
Ġover se
ĠIn f
cl osed
Ġhapp ily
Ġdes cent
Ġacc ent
Ġchar ming
Ġbus h
Ġrest ored
Ġdri ll
Ġtri be
AT TER
Ġhuman ity
ĠChar usa
ĠAf ghan
Ġcook ed
Ġpray ers
Other wise
Ġder ived
Ġmeas ures
ĠStud ios
ĠCarl os
ĠArgent ina
Ġrhyth m
0 8
D is
J ean
L O
h ol
h ouses
i u
n ik
Â ²
Â Ļ
Ġt in
Ġb ri
Ġc hip
as ures
le in
Ġh ire
ĠC EO
if ty
ch uckles
ĠH aven
ĠB ou
Ġj oking
ĠR alph
ĠN C
ĠN ine
ĠJ ose
ra wn
Ġpro spect
ich i
Ġ19 00
hi gh
ca le
ĠY u
iss ipp
Ġch im
irl ines
oot s
Ġche aper
Ġmon aster
Ġgl oom
Ġca red
AN S
Ġcoll aps
Ġext ract
ĠSp rings
Ġ9 9
Ġlear nt
Ġmembers hip
Ġdest ination
Ġterri bly
Ġsus pend
Ġarm ies
ĠNe il
af a
AP RI
ĠAre a
Ġfort un
Ġimm ense
Ġcomed ian
Ġclim bed
ĠON E
Ġvot ing
ĠBu ilding
fortun ate
Christ ian
WH AT
Ġintellig ent
Ġcompon ent
Ġmathemat ics
Ġwra pped
ĠBus iness
ĠBrook lyn
ĠAff airs
ĠBelg ium
G UN
P ER
S at
S ON
Y e
e ve
g irl
i able
n ut
Ġt on
Ġb ored
Ġd ot
Ġre un
ĠC old
ĠM ong
ĠM erc
ĠB urn
ant a
Ġgo ss
un ted
ĠW onder
ĠD oc
ĠD omin
ĠF ollow
ĠN O
ap se
ag ine
ps on
vent h
ĠAl icia
Ġwar ned
ene z
ĠTh rough
Ġcol ony
Ġri g
ik a
Ġsqu ee
Ġdiv isions
bo at
Ġsat ell
ĠMan chester
Ġadv is
ĠAb raham
Ġdep uty
ĠEx cuse
Ġsail ors
ĠLa ure
Sp eaking
Ġpack ed
Ġtour ist
Pl us
Ġhol idays
Ġpun ished
Ġcow ard
Wh oo
Ġconstit u
ĠSol omon
ĠCle veland
ĠHung arian
Ġnom ination
Ġsched uled
ĠConfeder ate
ĠDet roit
Spe cies
Ġmart ial
orig inal
Ġgest ure
7 9
B i
H ard
I d
W oman
c ross
i ary
Ġw oo
Ġs oph
Ġo ven
Ġd iver
Ġp ace
ic ular
Ġbe ard
ĠS OME
ri k
ĠC hampionships
Ġdo in
op y
op es
ĠP ass
ge ls
Ġde leg
Ġal ert
ĠR abbit
ĠL ax
ĠN ice
Ġout ta
iv ia
Ġqu ote
oll a
we gian
Ġbel oved
Ġsur f
sh ow
ĠGr ay
ĠGr ammy
Ġste ep
ĠSh ort
Ġmess enger
Ġtem por
ĠSe ven
Ġ193 5
Ġprotect ing
Ġtrad itions
ĠAm anda
ĠSw iss
ipp er
ĠDon ald
Ġviol in
ĠRepublic ans
Ġsepar ation
Ġvol can
Ġredu ction
Ġsal ary
Ġden ied
Car l
Ġbless ing
Ġamb ulance
Ġchat ter
ĠFore ign
ĠSwed ish
Ġpurcha sed
Ġham mer
Ġembarrass ing
Ġbutt ons
Ġfoss il
Hal f
Ġchee ks
6 2
M arch
P LE
Ġt urt
Ġw ard
er g
Ġb ury
an as
Ġp ier
Ġp ills
ar ms
as m
Ġg ene
ac ter
ri ac
ĠC ensus
ĠM s
ĠM ove
if ies
Ġse al
ĠH ig
ĠH icks
ĠB oss
ĠB ox
ol in
ol ics
ĠW y
Ġj ungle
Ġde als
ĠF alls
ĠN ay
ĠN em
ĠJ enn
Ġpro cl
ĠO rigin
ak o
Ġno on
ĠK r
iv als
act ive
ov ie
Ġbl own
int erest
Ġrec urs
old s
Ġdes ired
gr at
Ã© e
Ġsw ept
olog ies
ane ous
Ġgener ous
fl u
ĠAll ies
Ġcreat es
co ver
Ġeng agement
Ġstru ct
Ġappro ached
ĠAm ong
Ġpopular ity
ĠEx ec
ĠSy ria
Ġcover age
str ong
Ġbeha ve
tr ans
Ġload s
ker chief
Com ing
Ġtroub led
Ġspin ning
Ġvari able
ï¼ Į
APRI O
B ro
B orn
L eg
c ated
s or
Ġthe r
ha ra
or g
Ġp ic
at ar
Ġg ifts
am ma
st eps
ĠA L
ĠC ox
ie val
Ġsh y
ĠF ern
os idodecahedron
ĠL as
Ġcon sec
Ġcon ception
ĠN ancy
Ġup side
ĠO UT
Ġ19 18
ĠK ang
Ġar chae
og y
ire n
ren cy
Ġthr ust
Ġfl ights
Ġsc en
Ġcr iter
ĠAl b
Ġcons pir
Ġass ure
Ġart istic
Ġdead ly
Ġprom ote
Ġprov ision
Ġbusiness man
iver pool
Ġten nis
Ġsuccess ion
Ġresult ing
Ġsun shine
Ġdi ag
Ġdro ps
with out
Ġcatch ing
Ġnin th
ĠLaw rence
Ad m
Bet ween
ĠWH AT
Ġinterpret ation
Ġinse cts
itts burgh
uris d
DIC APRIO
8 7
? !
K n
M ac
M ight
M ah
P C
w yn
y ers
Ġc ries
ar ation
Ġl oo
Ġg reed
Ġhe nce
ĠC ur
ĠC hes
ill er
ĠH ills
ĠB orough
Ġ1 000
op ed
ĠG y
ĠR oosevelt
os hi
ĠL I
res pect
ort ion
Ġqu id
av ia
Ġmake up
Ġfin ance
Ġhar sh
Ġstr angers
Ġind icate
Ġtrans mit
Ġnice ly
rop hy
ĠCl are
ĠGr ound
ĠCon vention
Ġran ks
Ġve ter
Sh h
ĠComm and
Ġcho ir
amb a
Ġtreat y
Ġ192 9
Ġmis under
OM AN
Ġident ical
ĠFrank lin
ograph ical
Ġdemand s
Ġcritic ized
ĠMel bourne
Ġpra ise
ĠDen mark
Ġadvert ising
Ġhyp ot
Ġveget ables
ĠPortug al
Ġsymp athy
Ġwhist le
Ġing red
Ġbehavi our
. -
L ee
i w
s hire
ou ver
Ġs outheast
Ġb er
an im
Ġd ough
Ġp unk
Ġp ause
am ous
ĠS ara
st a
ĠA x
ĠA BC
Ġdo ct
ĠH ell
ĠB und
ĠP erry
ĠT R
th ings
Ġal ike
Ġall eg
ĠF ine
ĠF uck
ĠL au
ĠL isbon
han e
ĠJ in
ck ed
Ġv it
ĠK u
Ġday light
Ġhand ling
Ġown s
Ġbelie ving
Ġprodu ces
ĠZ one
Ġcur ve
Ġfight s
ON G
Ġfuck ed
Ġdef ensive
Ġexper iments
ĠWar ren
Ġincre ases
bor ough
Ġfem ales
ĠMed iterranean
Ġpercent age
Ind eed
Ph one
Ġencour aged
Ġpoly hedron
Ġadvent ures
Ġpill ow
Ġcig arette
Ġproced ures
ĠSel ena
Ġdign ity
ĠHoll and
issipp i
" '
5 9
A B
B UT
E ast
E asy
J ac
O l
P ort
S hoot
c hard
j in
l ied
m un
m ers
m are
p res
Ä į
Ġw ag
Ġf erry
Ġf iring
Ġp orn
Ġp atch
at oes
us er
ac co
Ġwe ld
ĠS andy
st all
ĠA le
ĠP un
ĠT un
ĠT el
Ġj erk
ĠD C
um ns
Ġab e
ĠR achel
ĠE instein
Ġv est
Ġv ague
Ġ19 14
Ġun employ
Ġbet ray
Ġdis gu
In ternational
ale h
Ġsub urb
Be ing
Ġass ets
Ġsmall est
Ġhum or
Ġhat h
Ġdesign er
Ġpract ices
Ġclean ed
who a
AP P
Ġregular ly
ĠDar win
Ġcy cl
Ġfrequ ency
Ġign ore
Ġchemical s
ĠJeff erson
bec ca
Ġagric ulture
Ġelev ator
ĠCub a
Ġsoci et
Ġvacc ine
Ġdea f
4 00
H y
H aving
K S
L SB
M ax
S ur
U RE
v als
Ã ª
Ġt ales
Ġt ension
Ġs ab
it ate
it ness
Ġo d
Ġm ales
or ne
Ġy og
Ġh ut
us ions
Ġth umb
Ġbe gg
Ġe ats
ĠS W
st orm
ĠA cc
ĠH IS
ĠP C
ĠW ANT
ĠG ra
ist a
ĠR EA
ĠJ en
ĠE ight
Ġ19 17
Ġman ifest
ĠV ik
Ġmus cle
Ġtra gic
ĠPr ice
Ġclass ified
ĠPro du
Ġpain ful
Any body
Ġlocal ities
Ġdest iny
ĠGu y
yr am
Ġmist aken
Ġrecogn ised
Ġcirc us
Ġobs ervation
Ġconv icted
Ġcand le
ĠMo hammad
Wh ite
ĠDemocr ats
Ġsuspect ed
Ġreact ions
Ġdiam eter
Ġprepar ation
ĠLib rary
Ġconclud ed
Ġfab ric
Ġstrateg ic
Ġalgor ithm
ĠAlf red
B ull
D un
N ick
R oman
R SB
d el
g iving
s un
s ky
x ide
or o
Ġp ile
et a
us k
im ony
ĠA ge
ill es
if ully
ol ia
th s
Ġr ates
Ġso b
Ġsh one
Ġcon ver
ĠJ uan
ort ing
Ġtr ash
Ġsp an
ace y
Ġle ctures
pt ic
ov ak
Ġcar pet
Ġch lor
Ġhome work
Ġsub stant
ĠAn gel
less ness
Look ing
Ġsign als
Ġexpl o
Ġexpl ains
ĠAll ied
Ġdef ine
Ġpolit icians
Ġcor on
Ġcommun icate
rap es
hamp agne
Ġlay out
EN D
Ġ193 3
Ġsuggest ion
Ġbull ets
Ġtravel ing
ĠDem i
Ã¼ r
Ġpsych iat
Ġbell s
Se ven
Ã¶ n
ĠJud ge
Ġcontribut ion
Ġconcent ration
ĠRick y
ĠEth iop
ĠAth let
ĠMalays ia
C O
R oll
T er
v ia
z heimer
Ï Ħ
Ġ Î¿
Ġm ol
or able
Ġnot ion
ĠB i
ĠW at
ĠW ag
ĠW olf
ell i
ĠG yp
ĠR ap
ĠR oom
ĠL eb
ĠN ixon
ig ious
ig ma
Ġman s
ĠK irk
Ġsp ots
ĠU pper
ish ment
Ġqu ack
Ġam ateur
Ġcomp are
Ġser ial
Ġsc ores
ors hip
Ġmust n
vent ually
Ġpres erved
ib bean
Ġdr own
Ġpoint ing
Ġcons ol
Ġsw itched
ier re
Ġloc omot
Ġmain tenance
Re g
Ġbar rel
unt ary
Ġrev ol
ming ham
Ġmur m
Ġabs urd
col m
reg on
rel ated
Ġrob ot
Ġarg uments
Ġchallen ged
ĠPope ye
Ġliber al
Ġmyster ies
ĠMem orial
Ġtrail er
Ġpa used
Pol ice
Ġmargin al
Ġneut ral
ĠLl oyd
Ġthorough ly
Ġrit ual
Ġunex pected
8 8
W on
a hedron
l D
l ove
o j
r ating
Ġw are
Ġre nd
Ġre ception
Ġre new
ac re
ĠC are
ĠC emetery
ĠM aha
ol is
ell ig
Ġr h
ĠG ir
ĠF u
ĠL am
ĠE N
ĠO range
Ġ19 13
ĠK l
ose xual
ne um
Ġback s
oll ey
ĠV enez
Ġgu id
Ġunder t
Ġres olution
Ġcar n
Ġch in
Ġlea p
gr and
Ġ4 2
ĠMar io
ott age
Ġdec ides
Ġmus h
Ġbus es
Ġbas ement
Ġet han
Ġ192 4
Ġ192 7
Ġactiv ist
Ġcelebr ation
Ġfat al
Ġwa ist
Gu ess
Ġrequire ments
Ġut il
Ġax is
ĠWalk er
Ġphen omen
asket ball
ĠDyn asty
Ġpros per
Ġfict ional
0 4
0 9
6 6
D et
L ondon
T y
a o
a us
s il
w hel
Ã º
â Ī
Ġt ent
Ġw ages
Ġb icy
Ġc ater
ĠI van
Ġh osp
am o
ĠC hampion
ĠM and
and in
ĠP ir
ĠW alt
qu al
ĠK ay
ĠK ey
Ġag encies
Ġpe oples
Ġtw isted
Ġfe ast
Ġun fortunate
iss ions
ĠShe l
Ġdist inction
Ġread er
Ġcoll ar
Ġrep ublic
Ġsk ull
Ġfil med
Ġins piration
Ġsol ic
co very
Ġorgan isation
Ġtre nd
Ġce iling
Ġappro ve
ĠMiss issippi
Ġinvol ving
Ġpost ed
Ġdep ressed
Ġprop ag
Ġrespect ively
Ġrepresent ation
Tr ue
gu ard
anc ouver
ĠReg ional
Ġdan ced
Ġ189 0
Ġlog ic
ek aboo
Ġcustom er
ĠArab ia
ĠFred erick
IGH S
ĠCat al
Ġwid ow
Ġwrit ings
Ġcorpor ate
Ġtort ure
ĠHun ter
7 2
C am
G S
J uly
N ational
T onight
W S
d ia
h ist
s ometimes
á »
Ġt Î¿
Ġw olves
Ġs ins
Ġb onds
Ġf et
Ġp ub
ar at
Ġl od
ĠI ng
ĠS ey
Ġst ared
ĠH ERE
Ġli ver
th ou
ĠW hich
ĠG us
ĠR et
Ġsh ove
ĠL ang
ĠL ock
ĠN ich
Ġv irgin
ĠO p
Ġno bles
ven ge
Ġcl ay
ho ibi
ĠY outh
Ġcount ed
Ġmin i
Ġreg ards
Ġcol umns
Ġri fle
Ġins isted
Ġvis its
Ġadm ire
ĠMan hattan
ĠPh ill
Ġbott les
Ġhang ed
Ġstick s
OW N
Ġthreat ening
ĠJer usalem
Ġoccup ation
ĠLu cy
Ġcateg ories
Ġlegisl ation
Ġcert ific
Ġcontrovers y
uer to
child ren
Ġbot hered
Ġconven ient
9 2
D R
H ot
W O
b ear
k u
à ¥
Ġt enth
in ea
is ure
Ġc am
ing e
Ġp oo
Ġn erve
et ing
ĠS now
ĠC ors
ĠC BS
ĠC Ã¦sar
ĠM ans
ĠM AN
Ġdo ggie
ill o
ĠB rig
ĠP ole
ell s
Ġj er
ĠR ain
ĠR ab
ĠJ ama
Ġex it
ud son
we alth
orm al
Ġneed le
Ġcont ents
Ġcont empt
Ġdif f
Ġreal ised
Ġdec ade
Ġwar ming
ins ky
ream ing
uff s
Ġrep air
Ġev ac
Th us
Th ought
Ġtri ple
ĠCar ibbean
ik es
Ġmark ets
Ġvis iting
umb ai
ĠLord s
Ġstri king
ĠMed ical
Ġban ned
Pro fessor
Ġsens ation
ĠNor wegian
ĠJul iet
Ġdisp ute
Ġmir acle
Ġbab e
ĠFer rier
Ġmyth ology
Ġpartners hip
Ġlung s
ĠPers ian
Ġnit rogen
Ġterrif ied
ĠWrest ling
Ġadap ted
Ġnaught y
Ġgoss ip
. ;
B as
G erman
L ady
M L
l ace
o vers
r ations
v ar
v onne
Ġb ob
Ġc ents
Ġd ried
at ivity
as ks
Ġg um
Ġg au
Ġre ct
ĠM oney
ĠB art
ĠB ert
ĠP ed
ĠP ant
ĠT all
Ġj okes
Ġcan n
ist ical
ĠR aven
Ġcon vert
ear ly
pl ing
pl us
Ġcomp ound
Ġim per
ru cture
Ġper pet
Ġres erve
Ġcount ies
Ġkind ness
Ġsy mmet
Ġass ured
ĠRe al
ĠInd ust
Ġart illery
Ġcol onel
ĠCount ry
ĠAust in
Ch ief
Ġsn akes
Ġkiss ing
ĠGl en
Sure ly
ĠMad rid
ĠAnt ar
agon al
Ġremark ed
Ġansw ering
Ġgor geous
Ġdemocr acy
Ġswall ow
ĠStew art
Ġvulner able
Ġrehe ars
S I
W omen
] ,
h ur
m aid
q i
Ġt um
Ġc ups
et on
Ġre levant
ĠS weet
ĠC hel
ĠM ess
ĠP ay
ĠT erry
ol ine
Ġj unk
Ġso cks
ĠR oute
Ġcon grat
ĠN ev
âĢ ĺ
ud dy
ĠK az
ĠK atherine
Ġcl ick
hy d
Ġbl ows
ĠV is
ĠIn spector
ru p
au x
Ġcar go
riend s
Ġdr ummer
ĠAl aska
Ġinv aded
Ġinv isible
Ġfew er
Ġmain land
ĠTh ird
Ġ9 5
Ġprom ises
Ġcontin uous
Ġcontro lling
Ġage nda
ster dam
Ġfilm ing
Ġappear ing
Ġsend s
Ġdi ary
com b
Ġlow est
Ġprop ose
omin ations
Ġ192 1
Ġ192 6
Ġcompl ain
ĠMed al
Ġsurv iv
Ġfle e
Ġlo vers
min ute
Fuck ing
Ġclim bing
Ġvan ished
ĠDes pite
Ġrequest ed
Ġpure ly
Ġprior ity
ĠGe off
........ ........
Ġnick name
ĠCroat ian
oty pe
Ġsustain able
Ġgal ax
ĠArmen ian
ĠTechn ology
ĠSof la
names e
C la
D E
G A
G ar
J une
M il
S eptember
T R
b ul
b rew
f u
f ront
l ist
l ings
t ra
z an
Ġthe at
ou g
it udes
an gel
es y
ot on
Ġh int
al ysis
Ġha z
Ġre tain
ĠS is
Ġse w
Ġli p
ĠP in
un o
ĠW es
est on
ĠR ub
art e
Ġsh orter
od ia
ĠO t
Ġdown load
Ġun c
Ġun re
ĠIn n
Ġco in
form ed
Ġsl ap
ib al
Ġgl oves
Ġsw orn
Ġrest ing
Ġind igenous
br aska
app er
Al most
ĠBe ck
Ġorder ing
Ġaw ait
enn on
Ġcre pt
Ġ192 5
Ġsail or
Ġperm it
Ġrefer ring
iot ics
Che ers
book s
Ġprefer red
Ġrestaur ants
intend ent
LAUGH TER
Ġsymp at
Ġinterrupt ed
Ġvert ices
Pres ident
Ġbrid ges
ĠJoy ce
Ġsuspic ion
Ġartific ial
7 8
A pril
B o
B on
C ertainly
E X
S ave
T ur
W alk
h ill
t ar
v ironment
Ã ł
Ġt u
on ce
Ġc ust
Ġc emetery
Ġm aps
Ġf lex
Ġd warf
Ġp neum
at ched
Ġn an
Ġh ug
Ġe cho
ent on
ĠM orning
Ġdo ck
ĠB ea
ĠP ittsburgh
ĠD al
ĠD ug
Ġal ter
ĠF uk
Ġman ip
Ġman aging
Ġtr ous
Ġtw ent
ĠSt ill
ĠSt ock
Ġpre y
Ġrec ru
ĠBr on
Ġmar ching
ative ly
Ġprodu cers
Ġcha sing
ĠFr ont
sh op
AT T
Ġpat hetic
Ġoper ates
Ġorgan ised
Ġdesign ated
Ġdel icate
Ġrock et
Ġsex y
Ġpubl isher
Ġforget ting
reg ular
Un fortunately
amm ar
Ġmix ture
Ġsand wich
ĠBen jamin
Sc ott
ĠDel aware
Ġrub bish
Tom my
ĠÂ ¶
ĠNaz is
Ġtow el
Ġestablish ment
ĠBrad ford
Ġcontrovers ial
Ġbom bs
Ġregist ered
ĠCost a
ĠHur ricane
Ġproport ion
ĠAB OUT
Ġmagnific ent
7 6
A unt
L ist
P ull
d et
r ice
s qu
t ic
t able
Ġt ast
Ġt ies
Ġw ret
Ġm ice
Ġp i
Ġre cept
ĠS cient
ir able
ir rel
ĠA ud
ĠA ges
ĠM O
ĠB ed
un ity
ĠD ance
Ġde fect
Ġcan cel
ĠG ab
ĠR io
ĠF itz
ĠN iger
od ed
ĠK eep
Ġtr icks
hi ka
so ever
ĠSt r
Ġoff ensive
Ġco ff
Ġmon ument
ĠRe ed
Ġclass room
Ġterm inal
Ġball oon
Ġattack ing
Ġsouth west
Ch uckles
Ġ193 1
ĠHar vard
Ġcry stal
Ġinfl ation
Ġpen alty
Ġengine ers
Ġphys ically
Ġobs erv
Ġsurv ival
ĠMon te
ĠOly a
ĠSa udi
Ġconsum er
Ġconsum ption
Ġsubs id
amps hire
Ġrespond ed
LAUGH S
ĠRom ans
ĠStan ley
ĠCla ire
Ġpiss ed
Ġdiagn osed
Ġrug by
ĠUt ah
Ġalle ged
5 2
C alm
Q U
S n
W onder
a ac
m ust
Ġt ang
re pre
Ġw rap
on ing
Ġp izza
Ġin fer
Ġin ev
Ġl emon
Ġl azy
ĠI ron
Ġh ip
Ġhe n
Ġhe ap
Ġbe e
am ples
ĠS em
ĠS ound
ĠC ond
ĠM ind
ter ior
ĠH ampshire
ĠB ol
Ġne uro
Ġj im
ĠG on
ab ama
ĠL abor
el ic
ĠE uro
Ġex hib
Ġman kind
ag en
ag raph
so on
ov an
Ġfl ame
Ġsc andal
Ġ4 3
ĠAl ber
ĠAl zheimer
Ġmus cles
of fe
Ġ6 00
Ġcoll eges
Ġfight er
ON D
Ġpat ience
Ġpur su
ĠLe o
Ġeng age
ĠPl an
Any one
Ġworry ing
Ġru ins
Ġcharacter istics
Ġ25 0
Ġexcept ions
off s
Ġpen et
Ġrain bow
Ġfeat uring
Ġinflu ential
Ġdress es
Ġsurv iving
ĠMad ame
Ġsmell s
ĠCath olics
Ġloss es
ĠRail road
Ã¨ s
him self
Ġadop t
Ġrecomm ended
Ġautom atically
ĠSong s
ĠLuc as
Ġfrank ly
ĠAnton io
Ġrecycl ing
Ġoverse as
ĠAfghan istan
Ġguid ance
repre ne
0 6
: "
A ah
R et
b in
c s
e re
f ar
h ou
l ic
r ise
u ously
z o
ha us
it ated
Ġl ou
Ġl ane
Ġbe gging
Ġre vers
out ing
ĠM aimie
ĠH ose
ĠP hys
ul u
ĠW right
Ġde er
ie ves
ĠN BA
ĠJ ason
ĠJ esse
Ġman ners
ĠK now
so le
Ġcl ue
Ġcl ip
Ġcl ause
Ġbr ass
ov iÄĩ
ĠY i
iss ance
ons on
Ġhand led
Ġhand kerchief
gr im
gr ade
Ã© s
Ġsur geon
Ġ5 2
Ġob sc
Ġlight er
Ġlight ning
ĠSp irit
For give
Ġtri umph
ĠBe y
Ġwin ners
Ġest imate
Ġmur ders
TH ING
ĠAm sterdam
Ġ192 3
Ġcool ing
Ġfem in
Would n
wr iting
ÃŃ a
oph ie
Ġmechan ical
Ġcompos ers
ĠBra hm
Ġgather ing
Ġmole cules
Ġloyal ty
Ob viously
Ġsear ched
ĠMaced onia
âĪ Ĵ
7 4
A ust
D A
J oe
M ajor
R on
S uddenly
g ans
h uman
k har
Ġt el
Ġs igh
er als
Ġo ct
Ġf ist
ar on
Ġl es
ly mouth
ĠS ax
ĠS ciences
ĠC art
ĠM iy
Ġas pir
Ġse aled
ĠH at
ĠH ER
ĠB oo
ĠB ranch
ĠT rent
th row
Ġr ag
Ġso vere
ie ge
ĠF rem
ĠL iverpool
Ġle ather
hy l
Ġbet rayed
ress ing
Ġsha lt
Ġpol ar
Ġche ating
Ġreg ul
Don ald
Ġel abor
ph ones
Ġmed ieval
Ġdra wer
Ġri p
Go vern
umb o
Ġcou ch
Ġelect rons
ĠItal ians
Ġgra ves
Ġpost er
Ġcollect ing
Ġrul ing
Ġsecret ly
Ġpot ato
Me anwhile
Ġdiscuss ing
Ġplant ed
Ġdig ging
Ġspread ing
Ġsymb ols
Ġphilosop her
Ġsurr ound
mark et
Ġbound aries
Ġremind s
Ġloud ly
Ġalt ar
Ġdelight ful
Ġghost s
Ġconstru ct
VER Y
EE P
Ġvirt ue
ĠBern ard
Ġaccomp any
ĠHu gh
ĠCro ce
Ġaccompl ished
Ġstim ul
ĠFa ith
Ġpeas ants
Ġhed ge
Ġbund le
9 4
P ad
R L
T ra
W il
b oth
m el
m od
n un
n ine
Î ½
Ġs unk
er ies
Ġm and
Ġp ul
Ġp ian
ar in
ar ter
ow l
Ġh ipp
Ġhe els
ut ing
ĠS i
ĠC row
Ġas semb
ĠB R
ĠP age
un ci
ĠW r
ĠD ob
ĠD raft
ab er
ĠJ ournal
Ġv oyage
ĠK w
ĠK lein
ick y
ĠSt ory
Ġover come
pl ant
pl ain
ade h
Ġbl oom
ens ed
ĠUn like
Ġpo le
ition ally
li er
air y
Ġent ers
Ġcons isted
ĠNew ton
me al
Ġpop ulations
ream s
Ġimp at
Ġsit com
Ġext inct
Ġsqu ire
Ġdream ed
Ġsum mon
ien ces
Ġpriv acy
Ġver se
Ġphys ic
ĠHigh land
Bl oody
Ġ190 4
Ġrob bery
ĠFin land
Ġdan cer
ĠMag azine
Ġchap el
Ġminor ity
heart ed
izz y
Ġconsist ent
Ġtradition ally
Ġlabor atory
ĠBrazil ian
Ġbatter ies
ĠTed dy
ĠFrances co
Ġque er
ĠGil bert
ĠSP EAK
ĠBase ball
ĠPict ures
Ġbron ze
necess ary
ĠPho en
ĠBund es
7 1
B er
B LE
F re
L y
M s
R aw
V er
W r
c ard
d isc
i ens
j am
r ics
Ġt att
re my
ha ving
Ġb ail
Ġb isc
Ġf oul
Ġd ent
Ġd ensity
en cing
Ġg ardens
Ġn ail
Ġhe ir
Ġbe am
Ġwas ting
ro lled
ĠC atherine
ĠP as
ĠT alk
ĠF und
ab et
ĠK am
ĠIt anium
ne red
Ġback pack
ĠV ancouver
here nt
be at
Ġbu rial
Ġfl ung
Ġapp et
Ġsc oring
Ġrel ieved
Ġfin est
Ġreg ulations
âĻ ¬
IN K
Ġele g
Ġele ctor
Ġcap s
Ġcha sed
Ġinc om
Ġimp ulse
Ġcoll apse
ĠTh ough
ĠSp ace
uss ia
Ġlaw yers
Ġpat ron
Ġpast e
Ġtest imony
Ġprocess ing
Ġprop os
Ġdin ing
Ġrecogn ise
Ġobject ive
Ġobs erve
raw ford
Ġtour ists
Ġbi ological
Ġble nd
Ġkick ing
ĠMet ropolitan
rav is
ĠDev on
bel iev
Ġlic ence
Ġdiam onds
Ġmanufact uring
ĠHung ary
Ġembarrass ed
Ġgeomet ry
urisd iction
0 3
B R
B eth
K im
M ag
S en
_ _
c ame
c ott
i ji
s hips
w ife
{ \
is ons
Ġb ol
Ġb ats
ll ey
Ġto re
at ics
Ġh ood
Ġth ri
Ġbe w
Ġre ef
ĠS op
st ill
ĠC ould
ĠM aur
ĠM onsieur
Ġwh ip
un ty
ĠD y
ĠD avy
ĠD ennis
pp en
pp le
ĠN am
Ġsu its
Ġshe ets
Ġpro found
ĠO regon
ĠK is
Ġcl o
Ġover whel
Ġgr asp
Ġbl ade
oc ese
Ġres erv
li est
Ġhar vest
az ines
Ġform ing
Ġdr ums
Ġsw ore
Ġchar m
Ġ6 6
Ġmed ication
OU ND
Ġplan es
Ġcur tains
AR Y
Ġhat es
Ġcor p
Ġdeal er
Ġpublic ly
Ġtreat ing
ĠMic key
Ġdev oted
Ġ192 2
Ġcompl aint
Ġmarket ing
Ġdress ing
Ġbow ed
Ġaccess ible
ĠBel gian
Ġacqu aint
ĠDel ta
ĠMars hal
Ġstrugg ling
Ġshad ows
Ġcalcul ated
ĠPlay Station
ĠMod ern
Ġwealth y
Ġprepar ing
Ġborrow ed
Rel ax
Ġanch or
ĠOri ental
Ġmos que
Ġhelicop ter
Ġinterfe re
Ġdat ab
ĠFollow ing
Ġcriter ia
0 1
5 4
E ric
G er
G reen
I O
M E
M em
M EN
S end
d amn
i h
k an
l C
l ay
m ie
m ia
r ast
t ree
ã ģ
er os
an che
Ġto b
al and
ac o
am oto
st able
Ġme als
ĠM ember
ĠM ale
Ġwh ore
ĠW ant
ĠG raham
Ġso ccer
ess ed
ĠF ruit
ĠL an
ĠL ower
ĠN umber
ĠJ unior
Ġwor ries
Ġthem es
ĠK rishna
Ġar guing
Ġun l
iz ar
ater n
ĠV o
oc ity
Ġpre jud
Ġres idence
Ġsc ra
Ġsha pes
Ġmar ched
Ġ5 4
Ġdr ain
Ġexp ense
Ġexp osure
ec hes
Al ice
Ġpar agraph
iam ond
arch y
Ġcamp s
uk a
reed om
Ġrad ical
Ġdepend ent
Ġtravel ed
Ġperm itted
ĠGreat er
Ġtend ency
Ġsens es
John ny
ĠSam uel
Ġhero es
Ġtext s
ĠÃ Ĺ
Ġdefend ant
Ġsatisf action
ĠCons ervative
Ġinstrument al
ĠCam bridge
Ġcollea gue
Ġsyn c
Bill board
tit les
ĠBul gar
ĠCra ig
ĠAuthor ity
0 2
5 8
9 1
H ome
M P
M od
m il
o ks
s pring
Ã ī
Ġm aj
Ġp ap
Ġin aug
ĠC hat
Ġas cend
ch urch
ĠH aj
ĠB ass
ĠB asketball
and ed
ant ine
ĠP A
ge red
ĠR i
ĠF ood
Ġout fit
Ġex hibit
ĠO scar
Ġ19 15
Ġ19 12
ne g
Ġqu ad
ru ck
Ġpre cip
Ġfl ip
Ġapp rent
Ġser ver
ix ed
Ġsec ured
Ġname ly
Ġhar bour
Ġdr owned
ĠAl abama
Ġsub way
Ġcha ins
Ġlist s
Ġsim ult
att i
br id
ĠCl inton
Ġcontin uing
ĠBl air
Ġpur suit
Ġswe ep
Ġguess ed
ĠTr ump
ĠMan agement
Ġcir cles
ĠJo an
Ġarri ves
Ġimag ined
Ġant icip
cast ing
ID E
ĠRob inson
Ġmultip ly
ĠJul ia
Ġcontribut ions
boy s
ĠSqu ad
Ġresc ued
Ġsevere ly
Ġguitar ist
ĠRaj a
Ġjew el
Ġoblig ed
Lou is
ĠViv ie
Ġfascin ating
ĠMicro soft
ĠFrem antle
C R
E ither
L aughs
O ctober
P E
S N
c orn
c ourt
f olk
f ucker
h or
h og
i ated
m ag
y ay
he ard
Ġw ilt
ha k
Ġc odes
Ġd ual
as per
us ively
ay ed
Ġwas ted
st ones
ĠA C
ĠC ut
ĠM aid
ĠB ureau
ĠT iger
ĠT roll
ĠW ald
est one
ĠF M
ĠL ar
em ale
Ġex port
Ġtw ins
ond e
og er
Ġcomp ens
Ġcomp osition
ov ich
." --_
Ġsc ales
Ġchan nels
xt on
Ġmin isters
Ġche w
ple x
Ġinv itation
Ġchar ts
Ġinst ruction
ok o
ier ra
Ġsign ing
Ġ8 5
Ġpay s
Ġcur rency
Ġcor rupt
ĠTr ade
Ġbar gain
Ġdepart ure
ĠColl ins
Ġener g
Ġclos es
Ġ190 9
gl ass
Ġdefend ed
ĠRes erve
Ġfirm ly
Ġwitness es
App lause
Ġexcl usive
Ġfro st
Ġhonour able
Ġult imate
Ġfant asy
Ġincreasing ly
ĠDet ective
ĠPen insula
omed ay
Ġchrist mas
Ġadj acent
Ġnarr ative
Ġprivile ge
Ġoppon ent
Ġsatell ite
ĠExec utive
9 6
B ER
E urope
F r
F er
F ight
L aw
R ose
S un
c up
l iter
p ill
p owder
r aine
t ail
u um
u ity
it ical
Ġb io
Ġb orough
an ch
Ġto xic
Ġp ad
Ġp oured
Ġp add
Ġp yram
Ġn ails
Ġha w
Ġha re
Ġha bits
im er
am il
ĠS lo
ĠS ection
ĠS ebastian
ri ger
Ġst alk
ĠA c
ĠC and
Ġu mb
ĠH im
ĠB uff
ĠP uerto
Ġr ack
Ġr ational
our ces
ĠG ON
um i
ĠR angers
Ġ19 16
ĠSt orm
Ġam id
ov al
âĢĿ .
no x
Ġsign ature
Ġhum ili
Ġref lected
ĠCl ay
Ġshort est
arr ison
umb ers
ĠLe ft
Ġball et
Ġsupport s
Ġstar ving
ĠJack ie
ĠEd ith
atter ing
iment ary
Ġcorn ers
Ġgrad uation
Ġblock ed
Ġsad dle
Ġcontract s
Ġexam ined
min ar
min ster
tt es
Ġdefend ing
Ġscrew ed
Ġqual ities
Ġmotor cycle
Ġmagn etic
Ġmo ist
Ġadvert is
Ġpupp y
Ġpron ounced
opp y
Ġannounce ment
UCK LES
Ġdismiss ed
Ġdisgr ace
Ġvamp ire
Ġchim ney
Ġsociet ies
Ġtrous ers
B eautiful
C ool
D rop
G entlemen
M ine
P ri
Y a
a ver
i pt
r ams
in ate
in cluding
Ġc akes
Ġc hampions
Ġf og
Ġf ran
ed a
ot he
Ġh ind
ĠS everal
st ri
ro d
ro ph
ad v
ĠC hem
all ie
Ġas sembly
ĠT amp
ĠW ard
ĠW ick
ĠW als
Ġj et
um ed
ĠR IGHT
ess ions
ĠF urther
ĠL t
ĠL iz
ĠL EO
ry stal
ment ed
Ġag gressive
ia z
ĠHe art
Ġle an
ond a
Ġbr u
Ġun success
Ġam end
Ġfl ames
Ġsc rap
Ġcr ick
Ġcr ashed
rest rial
Ġmar ine
Ġpres erve
Ġgl obe
Ġsub div
Ġpret t
Ġcol ored
Ġsent enced
ĠBl ake
Ġsol ved
co at
Ġz inc
ĠOr thodox
Ġmag azines
Ġdi aper
Ġcharacter istic
Ġfootball er
ĠRoman ian
Ġcollect ions
Ġstick ing
ĠGree ks
ĠPet ers
Ġtemper atures
Ġur gent
wr itten
Ġir re
ĠSal z
Ġmum my
ĠMat cham
itar ian
ĠAdm inistration
Ġimprove ment
Ġarrange ments
Ġneighbour hood
Ġfold ed
Ġconsequ ence
ĠVen ice
Im agine
ĠAN Y
Ġdelay ed
Ġvent ure
Ġatom ic
lad imir
Ġprecise ly
Ġlob by
ĠBir mingham
Ġabund ant
Ġsty les
believ able
9 00
B M
H ur
L es
M uch
P ass
b oo
j ack
s at
s al
s ince
s wer
t or
t ri
t em
w ent
Ã ¸
Ġs ighed
Ġb rew
Ġb arr
Ġd io
Ġp ione
as i
ĠI d
ic ity
Ġh ilda
et us
Ġha ste
us cript
Ġon wards
ld er
am ation
ĠS ave
st ro
ri ages
ad t
Ġme lt
Ġan k
if ting
ĠH orse
ul um
ĠD ol
ĠD OWN
ĠG ang
Ġall iance
Ġor n
Ġor che
ĠE P
ind e
Ġ19 10
ĠK ha
ĠK ra
are r
Ġcl an
Ġoff ence
ĠV ic
cc ane
Ġcount s
Ġatt ach
ham es
ubl in
ib a
Ġrest ore
Ġpret ended
Th irty
Ġfil ed
Ġ8 1
fl ies
Ġfore head
Ġexpl aining
Ġra pe
amb oo
Ġview ers
Ġdefe ating
Ġdam ned
Ġla wn
Ġcat hedral
Ġport rait
Ġtravel s
Ġredu cing
Qu iet
Ġpet rol
Ġassoci ate
ĠDes ign
ĠMil ton
rend ered
Ġconfess ion
Em ily
Ġstab bed
Ġsubsequ ent
ĠOtt oman
Ġcraw l
Follow ing
Ġgri p
ĠHard y
urrent ly
Ġprof ile
ĠTha iland
mph ony
Ġetern al
ĠGir alda
# #
9 3
A ud
E ll
E at
F ant
L ight
M oney
P an
T ri
c H
d em
f ol
m ble
Ġw ides
Ġs or
Ġo ak
Ġc hampionships
ing way
Ġd ub
Ġl est
Ġl ime
Ġg rapes
ic ial
Ġbe an
ĠS out
se en
se ven
ĠM all
ĠH IM
Ġli ly
ĠP y
ĠP lymouth
ol o
est ed
est yle
ĠR ud
ĠR ena
ĠF inal
ĠL i
ast ics
ĠK ir
iv an
Ġnow adays
Ġover night
ount ain
Ġpart ial
ff ff
ang ular
ĠY a
ĠY ang
cl ose
Ġres olved
Ġcr ushed
Ġatt ribut
Ġear ning
Ã© t
Ġent reprene
Ġperson nel
Ġpass port
Ġread ers
ina udible
ai ro
Ġfoot age
Ġtop ics
Ġexper ts
Ġprot ocol
Ġhon ored
Ġreport ing
Ġbar rier
Ġadv ise
aim a
ĠAb original
ĠCha se
ĠCap ital
Ġmot ive
su i
Ġterri fic
Cl ass
Ġmis ery
Ġshar ply
âĢİ ?
Mar ie
Ġpark s
Ġinflu ences
bl ack
bl ood
Ġpers ist
Ġemploy ee
Ġcoast al
Ġsignific ance
ĠChan g
Ġphilosop h
Ġremark s
Ġcontribut ed
Ġcopy right
Ġscr ub
Ġmanufact ured
Ġbac on
Ġconsist ing
Ġconcent rate
Ġphotograph s
Ġwand ering
Ġdemocr atic
ĠAdmiral ty
ĠRon ald
Ġforb idden
din and
Ġkidna pped
Ġpresum ably
ĠLeb an
Ġtob acco
, .
M ade
M att
R ural
S ing
W OMAN
e ast
i ology
p in
s im
s chool
t alk
x y
Ġt ails
in ated
re a
Ġd ug
Ġp p
Ġp ulse
Ġy elling
Ġh ither
Ġth ither
Ġre vel
ĠS ri
ro ck
Ġst out
Ġme ad
Ġas hes
ĠB our
ĠB esides
ĠD ig
ĠD ong
ĠD ark
ĠF an
ĠF all
os om
ĠL ist
Ġcon greg
ĠN ature
ĠN BC
ĠJ a
Ġshe lf
ĠE X
Ġv om
ven ant
ĠHe brew
Ġcl erk
Ġover head
Oh h
Ġad equ
Ġdes erted
Ġpres idency
ĠMar illa
ener ation
Ġgl orious
Ġdist ress
Ġbre eding
Ġhigh light
Ġinter ference
Ġtrans action
Ġsk etch
Ġtri b
ĠAll ison
Ġdef inite
Ġweek ly
Ġsol utions
Ġsum mit
Ch ris
look ed
ĠX X
ĠDo es
Ġcult ures
sc reen
Ġphys ician
Ġrespons ibilities
Ġcivil ian
Ġaud io
Ġdecl are
pro fit
Ã¼ h
Ġattract ion
ĠCarol ine
Le ft
ĠBet ween
bet ween
Ġshell s
Ġframe work
Des pite
Ġque ue
lar ge
Ġhorn s
Ġdrag ons
Ġbul k
Ġmathemat ical
ĠTer rit
Ġcompar ison
ĠLA UGH
Ġcance lled
Ġcompass ion
Ġtherap y
Ġthirst y
Ġencoun ter
ĠMedic ine
5 1
5 6
7 00
A sh
B uck
F O
F il
S ports
S IGHS
n ard
n ia
is le
Ġo at
Ġc avalry
Ġc ottage
Ġm asters
Ġd um
at u
Ġg inger
Ġh orm
et ta
am us
ĠA w
ĠC ow
ĠM erry
if th
Ġli ar
ĠT reat
ĠG R
ie ls
Ġor bit
ĠN in
Ġlike wise
Ġar ray
Ġen han
Ġcomp rehens
ĠV ideo
Ġbu cket
ict ions
ps y
There fore
Ġhead ache
ĠShe riff
Ġche f
ĠBr id
Ġgl ow
Ġem ail
Who ever
Ġopen ly
ĠTh or
Ġtrans formation
br other
Ġref lection
fess ional
OR GE
Ġfree ze
Ġorgan isms
Ġmess ed
Ġrepl acing
ĠHar per
Ġfail s
Ġconne ctions
Un ited
Ġrese mb
Ġhost s
Ġclos est
Ġvol umes
Ġ190 2
Sp eak
Ġhistor ians
ĠSte el
Ġpath s
sec ond
Ġbi ology
rav o
Ġcorrect ly
Ġmeas uring
Ġbac hel
ĠTw enty
Ġelement ary
Ġdetail ed
Ġdim ensions
Ste ve
ĠGall ery
Ġoccas ional
Ġinfect ions
Bel ieve
ĠAbd ul
ĠBarb ara
ĠOb ama
ĠLion el
Ġevident ly
Ġrebell ion
Ġsup reme
Japan ese
ĠMit chell
ĠHose yn
" :
F rance
G reg
H arry
R ead
U B
W ELL
] :
b ag
p read
r ades
re ng
Ġw ider
ing ham
an or
Ġp istol
Ġy er
Ġh ob
Ġhe x
Ġhe ating
ent e
Ġst ub
ĠA gent
ĠA FC
Ġan gels
ĠM es
ĠB ess
ĠB ret
ea v
ĠW eek
Ġr ows
ĠG ate
ĠG arden
ĠR and
ĠF al
Ġwhat soever
ab l
ab ul
ĠL ily
ink y
Ġpro ven
Ġdon key
ĠO R
ĠK ham
Ġtw e
are l
ĠSt aff
Ġapp arent
Ġsc hem
Ġer r
ĠAl ger
Ġgl anced
Ġwar rior
Ġfar ming
ĠNo ah
ĠInd ies
Ġrest r
Ġext r
sh in
Ġ7 1
Ġequ ipped
for ced
ĠAb bey
ĠHar vey
ĠDan ish
Ġcompl ications
Ġhost ile
ĠHigh way
Ġstick y
ĠNe braska
ĠMad am
Ġfool s
Per fect
ĠCr icket
Ġcru ise
Ġemer ged
Ġcommer ce
ĠArab ic
Ġremind ed
Ġren ov
ĠKar l
ĠEvery thing
Ġtim ing
Ġnurs es
Sl ow
Ġincred ibly
turn ed
Ġcoordin ates
Ġesc ort
GRUN TING
ĠYugoslav ia
mill ion
onym ous
ĠKurd ish
Ġgrat itude
Ġnigg a
Ġmonaster y
Ġsuspend ed
Ġsoph ist
Ġpneum onia
ĠSalz burg
- (
B ru
F ore
F ebruary
G RO
H m
H ell
I P
L and
M ars
N ovember
O ffic
P ark
S and
T or
b ad
c op
e cess
e lection
f an
f ig
f orth
l as
m ans
m ama
p ost
he e
re ction
Ġw aking
er ness
is ations
Ġf urious
or ph
Ġl an
as ps
Ġg own
Ġg oose
Ġn aima
Ġh ier
Ġe ut
am as
Ġst er
ĠM ec
ur red
ill ance
ĠB id
ĠB rew
ĠB eth
ĠB ald
Ġkn ot
Ġde eds
Ġor gans
ĠL ag
Ġher itage
Ġwor shi
Ġwho lly
ough s
Ġtr ump
Ġar rog
Ġsp ider
Ġle aning
Ġqu art
mer ce
ach t
Ġim perial
Ġnight mare
ĠAr ctic
Ġacc um
Ġ5 1
Ġmon k
Ġinst alled
cy cl
ok a
Ġposs ibilities
Ġtri but
Ġshall ow
Ġ9 6
ĠChrist ine
Ġvis itor
Ġlay ers
work ing
ĠMic hel
Ġpubl ishing
Ġhy per
Cl ose
Ġrain forest
Ġeconom ics
Ġconv iction
Ġcommand s
ĠBoy d
ĠMaj nun
Ġimm ort
Ġhun ts
Ġpet ition
Could n
En joy
keep ing
comm on
Ġdebut ed
ĠBa gh
Ġliqu or
Ġconqu er
Ġsav age
Ġsam ples
ĠFace book
Ġacknow led
Ġbrows er
ĠBeng al
Ġbicy cle
Ġcertific ate
Ġgau ge
ĠBundes liga
ĠGON NA
, [
8 1
E p
H ea
I ES
J anuary
O rigin
P et
T otal
W al
W ashington
d est
d ire
f ollow
i ott
s se
Ġw ires
Ġs ne
Ġc ited
Ġof the
Ġl ined
om ers
ĠI P
ic he
Ġhe al
Ġbe asts
Ġre li
ĠS part
st ration
st yle
se lling
ĠC OM
ĠM ason
ĠH uh
ĠH udson
il ia
ĠP il
ĠP oly
Ġj ar
Ġde e
Ġso d
Ġso ber
ĠR E
Ġsh ipping
Ġcon j
Ġpl aint
Ġv ine
ud ent
ous y
Ġpe an
pt ions
Ġhapp ier
ob s
Ġpo ems
Ġco aching
Ġcr ust
Do or
ĠAr chie
ĠBr istol
Ġfar ms
ok er
Ġhard ware
sh ore
fl ower
Ġmod ified
Ġequ ations
ĠAll an
ĠAll iance
Ġhat red
cri be
Ġsol vent
Ġcommun ist
Ġfree zing
Ġtem ples
Ġdepart ments
Ġpost s
Ġfear s
Ġboard ing
Ġsens ible
ĠMad ison
Was n
Car ter
Wh ose
IM E
Ġknock ing
Ġplain ly
Ġterrit ories
Ġcuri osity
ĠHel en
cel ona
ĠCommission er
Ġmort al
ĠViet namese
ĠAtt orney
Ġrein force
Ġelimin ated
ĠMust ang
Ġswift ly
Ġutter ly
Ġincl ined
ĠCommon wealth
Ġstead ily
ĠFel ix
ĠChand ler
ĠNC AA
Ġcollaps ed
5 3
C ourse
D ave
D ON
D ev
G M
J os
M o
P oint
P apa
S aid
V EN
a ud
k ets
p resent
u f
u ated
v as
Ġt ire
in ery
Ġs ciences
it us
Ġl ust
Ġl un
Ġl akes
ic us
Ġhe m
Ġhe ars
Ġwe ars
ĠS ic
ĠS ang
Ġst all
ĠC ase
ĠC hamber
Ġk ettle
ĠM ing
ĠM ort
ĠM ull
ĠH and
ĠB right
ĠB ach
op ing
ĠP it
ĠP am
ĠP sych
ĠW P
ist ant
ĠR OB
ĠF act
ĠL inda
ĠN ort
ĠJ osh
Ġsa fer
Ġus age
Ġv ap
Ġint im
Ġsp ill
are ttes
Ġback up
Ġen force
Ġam p
Ġpr ick
ob a
Ġsha ft
Ġdes erved
ee z
gr ic
clud ed
ĠMar cus
ple asant
Ġbo ards
Ġmat t
Ġhum our
Ġ7 2
ats u
Ġ8 00
Ġrecord ings
Ġshort s
Ġaw oke
Ġappro aches
Ġview ed
ĠHar old
Ġnat ives
ĠCol in
Ġcompet ing
Ġdirect ors
Ġarri ving
Ġmis chief
Ġcompl aints
Ġaut umn
Ġaut hent
unic ations
Ġ190 8
wh ose
Ġprint s
Ġconvers ations
Ġvot ers
Ġwhis per
Pr ot
ĠDou g
Ġproceed ed
ĠShar on
Ġwand ered
Ġinher ited
Ġresident ial
ĠVenez uela
8 2
? ?
A c
A in
G N
G AS
H o
J ess
N ine
P al
W ake
b at
c m
d an
f amily
g age
m ist
t in
y ears
Ġw iped
Ġb a
Ġo wing
Ġc hi
Ġm all
Ġto e
Ġin ward
ar ound
ar ity
Ġl ords
al ian
Ġbe hold
ĠS CH
ĠC os
ĠC hampions
Ġdo se
ĠB L
ant ages
op in
ĠP apa
ĠT ak
ĠW on
Ġr ides
Ġj olly
ĠD iana
Ġcan s
ĠG osp
Ġcon vey
Ġcon sole
Ġv ag
ĠK iss
Ġar rows
Ġen able
Ġcomp elled
Ġbl ues
ĠV ance
ĠV alent
Ġad am
Ġnever theless
ces ter
Ġspe eches
Ġrel uct
Ġrel ativity
Ġ5 7
Ġcha os
Ġsince re
Ġfr action
Ġsk ip
20 10
Ġref riger
Ġsong writer
Ġ9 4
pend ing
ĠCan al
Ġblack smith
ĠFl ore
ĠFl owers
Ġcompet itive
lect ric
Ġsuggest ing
sc ap
Ġphot ographer
ĠQue bec
Ġris es
ĠGl obe
Äģ r
Ġemploy er
Ġsignific antly
Ġprint ing
Ġheaven s
Ġbound ary
Ġdom ain
Ġcerem onies
ĠĠĠĠĠĠĠĠĠĠĠĠĠĠĠĠ ĠĠĠĠĠĠĠĠĠĠĠĠĠĠĠĠ
Ġcoal ition
Fran ces
Ġwha les
ĠHea vy
TA IN
Ġdraft ed
Ġath lete
Grand ma
Ġvolunte ers
Ġadvoc ate
Ġfare well
ĠEconom ics
ĠVill age
Ġpremie red
Ġdestro ying
Ġantib iotics
Ġori ent
Ġmoder ate
Ġingred ients
ellig ence
Ġpropos als
Ġcorp se
C ho
E st
G un
N ah
S W
S har
T ed
a ire
b ot
b ishop
f old
l isted
o ise
p ush
r ust
u gged
v ision
y on
Ï Ĥ
Ġt ense
Ġs hat
on so
er ts
or p
ed ed
Ġp uff
Ġl y
as a
Ġn ests
ic ism
Ġhe ck
al og
Ġre ass
ac ular
ĠS HE
ri um
ri ers
ĠC ad
Ġan throp
ĠM ake
Ġse gment
il ian
ĠB ali
ant o
ant on
ĠT ag
Ġ" ".
ĠW W
ĠW iz
ĠG T
ĠG aga
ist ocr
ĠL E
ĠL ud
ĠL iter
ĠJ ake
ĠE aster
Ġv ib
ĠK ate
iv a
Ġqu ery
av il
ĠY vonne
Ġper f
Ġrem oval
Ġhand ful
ave nder
gin a
Ġ18 00
Ġsupp orters
St upid
Ġlight ly
Ġinter rog
ĠTh ink
Ġ7 3
Ġplan ets
Ġmonth ly
Ġhur ting
Ġpartic le
Ġprot ests
Ġcommun ications
Ġste re
Ġvar iation
ped o
Ġtre ason
Ġcost ume
ĠSha w
ĠWest minster
Ġill usion
Ġdin osaur
Ġgen es
Ne il
Ġhop eless
ĠGl obal
De cember
ĠTur ks
back s
Gr ab
ĠIran ian
ĠFin ally
ĠFin ance
Ġpsych ological
Am ong
Ġsac rific
Ġ186 9
Ġsettle ments
ĠKent a
Ġmechan ics
Ġder iv
Ġencour aging
Ġbother ing
Ġtransport ation
Ġprogress ive
osa urs
Ġcolon ial
Ġunf air
Ġrac ial
Ġintegr ated
andal ay
ĠHas an
Ġtransform ed
Ġdepos it
ĠMot or
Ġcondens er
Ġdynam ic
Ġcoinc idence
Ġlandl ord
Ġsynd rome
Ġvoc als
Ġlux ury
Ġcentim eters
Supp ose
B illy
C hildren
I RE
L ieutenant
V en
V ol
c oll
c ule
e als
l n
m uch
n ings
w ig
z ig
in nat
Ġs ings
Ġs aint
Ġs izes
Ġs aints
Ġd ivers
Ġd ys
Ġd imin
Ġp engu
Ġin k
as is
Ġn avy
Ġn iece
id o
Ġre tained
ĠS S
ĠS ac
se ud
ĠC R
ĠM eth
ĠH ang
ĠP owell
ĠT ournament
ĠT hames
ĠW oo
pp y
um ar
Ġwhe at
ĠJ un
ink le
Ġag greg
Ġcl am
Ġsc rat
Ġch ill
Ġcr imin
oth s
Ġrel ate
St an
IN A
Ġreal m
Ġsub tle
ner y
Ġfr ust
Ġgener ated
ĠSp ani
Ġ7 7
ex per
Ġpri zes
ered ith
con vex
Ġaw fully
Ġsn ap
ĠHar bor
ĠBar celona
ien ne
Ġfast est
Ġgrand son
Ġlim bs
Ġhy mn
Ġep ic
EA H
Ġclaim ing
Ġ190 5
Ġtend s
Ġdecl ine
ĠMor ris
ĠPort land
inc innat
Ġaddress es
Ġconvers ion
sm all
Ġpred ecess
ĠNat han
Ġstrugg led
ĠHel ena
ias m
Ġneighbour s
ĠMod el
ĠMem bers
ĠHy de
ĠEll is
ĠTam il
Ġrevolution ary
Ġrefe rences
Ġvert ical
Ġelder ly
Ġfoss ils
ĠHistor ic
Ġcray ons
onom ous
Ġresign ation
Ġtempor arily
D S
E nd
J on
L uc
O O
c u
d ep
n ell
s ho
y g
y ed
Ġc yl
Ġf ug
Ġd il
Ġn od
Ġre ly
Ġfor k
ĠS af
ri gg
Ġst ating
ĠA PP
ĠM ik
ĠH aut
ĠB uc
ĠL en
ĠN ong
em p
ĠE xt
ĠE ug
ber ries
Ġman uscript
Ġint u
ian g
Ġsp it
ci als
Ġro ses
og en
Ġun ity
Ġam us
Ġam azed
Ġbl amed
Ġcont ribute
Ġfl ank
Ġres ort
Ġsha ped
Ġspe cially
oss ibly
form ance
Ġsw ords
let ter
Ġmind fulness
ĠZ oo
ĠIs le
ING S
Ġtri gger
Ġ8 8
ĠThere fore
Get ting
la us
ĠTr uth
unk irk
Ġconcer ts
Ġgrand pa
ĠEx cell
Ġstri kes
Ġmass es
Ġfre ight
ĠQu ick
ĠEn vironment
ĠPer u
ĠPer kins
Ġfort night
Ġfoc using
Ġaffect s
Ġtall er
Ġinvestig ate
Ġmoon light
Ġcustom s
ĠDel hi
Ġchallen ges
Ġsatisf y
Ġbomb ing
bet ter
Ġduck s
Ġexcl usively
ĠGO OD
Ġcalcul ate
Ġdesper ately
Ġaim ed
Ġwha le
ĠTest ament
ĠÄ Ģ
Ġdisag re
ĠMun ich
Ġvel ocity
ĠRus sell
Ġaffili ate
Ġhoriz ont
Ġcler gy
Ġsubt ract
Ġpian ist
ĠSop hia
C at
D ay
G ame
P a
R est
c ity
f aced
l en
l oss
m aker
o ct
r ays
s ized
s ki
w orm
Î µ
re b
Ġw aving
it i
Ġd orm
Ġp and
Ġl id
ĠI ike
ic able
Ġhe aling
al ways
id al
Ġwe pt
ĠA ut
ĠA ction
Ġk m
ĠH amm
ĠP ie
ĠT ob
Ġne ur
Ġj aw
our ning
ĠD ublin
Ġso y
ĠR aw
ĠR ah
ĠL ennon
ĠJ UST
Ġpl uck
Ġpl ug
ong s
od ka
ĠE nt
Ġwill iam
ĠK it
ĠU RL
reat ed
Ġoff spring
og o
Ġun ions
Ġam bit
Ġbl ah
har m
Ġgu ilt
Ġfl owing
port ant
man y
Ġsur rendered
olog ically
Ġrep orter
ING ING
Ġhalf way
20 11
Ġmiss ions
Ġsound track
ik h
ey ed
ĠFor ces
ĠComm ons
Ġvill ain
Ġprocess ion
Ar thur
Ġcomput ing
ĠTH ERE
AS T
Ġinf rast
bl ue
Ġgar ments
ĠPal m
Ġpray ed
Ġhun ter
Ġhom osexual
ÃŃ n
Ġroll er
ĠSus sex
Char lie
ĠMur phy
ĠColumb us
Sid ney
ĠTrans port
Ġwithd rew
ĠSom ers
Ġcommission ed
ĠMir anda
Ġcommit ment
Ġexha ust
ĠCroat ia
ĠLeon ard
Ġabsor bed
Ġbrig ade
Ġresear chers
Ġperce ived
ĠArn old
Ġsquee ze
Ġmans ion
Ġphenomen on
Ġhosp itals
Ġtel esc
Ġwides pread
Ġbachel or
% )
D i
D ead
E nt
F E
F OR
G R
G y
M ill
M ister
P rodu
S et
V X
W orld
u j
Â Ĵ
Å ¾
Ġt ens
re qu
Ġs ul
Ġs ib
ha y
ha ge
is an
is hi
Ġb ou
Ġb ade
Ġc atherine
Ġf res
or c
Ġd ominated
Ġp ussy
ĠS it
ĠS ad
st ory
ĠC ob
ĠC elt
ĠC AP
ur ring
ĠB arr
Ġli z
op ard
Ġr ay
um er
ĠF ull
el and
ĠN ep
Ġout standing
ak ened
Ġint imate
Ġtr amp
Ġsp ont
ĠU l
ass y
ble m
av i
be e
ip her
Ġres id
Ġsm ugg
ting ham
Ġcr ush
Ġche ated
Ġreg ulation
Ġform ally
Ġsw ung
Ġdist ances
Ġlight ed
Ġind irect
hm ed
Ġsort ed
Ġ8 9
Ġmod est
Ġcontin ually
Ġspeak ers
Ġdet er
Ġanim ation
Re al
ĠCan on
fic ial
Ġtre mbling
ring ton
Ġsun light
Ġdev ast
Mar ia
Ġpark ed
Ġindust ries
AM E
ĠSm all
ĠBur ke
Ġneck lace
wr ite
Ġalcoh olic
Ġconsum ers
Ġcous ins
ĠCat hedral
OD Y
Ġwrest ler
Ġmathem atic
hang ba
Ġconqu ered
Ġdescend ed
ĠRh ine
Ġsitu ated
Ġpupp et
ĠOtt awa
rim ination
Ġcollabor ation
ĠWork ers
Ġisol ated
ĠHop kins
Ġfest ivals
Ġpic nic
Ġconspir acy
Ġtwent ieth
Ġdio xide
Ġschem es
incinnat i
B us
B ell
C AR
D em
F ull
F air
K iss
N ay
O le
V ictor
f ull
i ard
m oon
in ci
is fact
Ġc ri
Ġc oup
ll o
Ġd ense
Ġd iversity
en ne
es pecially
Ġin vention
al ong
ĠS port
st age
se nd
Ġst eak
ĠC ary
ĠH ob
Ġr am
Ġr otten
Ġj elly
ĠD ue
ĠG ol
ĠG har
Ġsh iver
ĠL ore
ĠL av
ood le
ĠE M
ĠE li
ĠE mb
ear ing
ian ne
Ġback ed
Ġro d
Ġfe es
ub a
ress es
Ġwr ist
au er
ĠUn iverse
Ġsc orn
Ġsha de
Ġmin ing
ĠMar ine
ĠDe ad
Ġstr ain
ĠRe view
Ġread ily
Th row
Ġ7 8
Ġtri ps
Ġtri als
Ġ8 2
Ġ9 1
Ġpar rot
Ġcor al
Ġste pping
umb ria
Ġhot els
Sh ort
Ġabs ent
com es
Ġtrad ed
Ġrespect able
Ġgen re
ĠEx press
Ġstri pes
Ġnon convex
IT T
Ġ190 1
Ġquar rel
ĠGrand pa
ĠEr nest
Sc ot
utter stock
Ad am
apt ist
ym ph
Ġcontr ad
Ġdemon stration
ĠFer dinand
ĠTw itter
ĠWH O
Ġautom atic
ĠNE ED
Ġrecommend ation
Sim on
CL ARE
Ġincorpor ated
ĠHen ri
pher d
ĠUk raine
Ġimprison ed
Jeff rey
Ġlegit imate
ĠInf antry
ATTER ING
Ġdiag ram
ĠWals h
Ġsophist icated
C amp
H and
L ear
L isa
M ain
P ower
S hi
S chool
T op
U r
W ay
a ired
b ug
b ank
g onna
h un
l iness
l isten
m id
s n
u ana
w oo
à ¸
Ġt ed
Ġt al
re ra
Ġw age
er ie
Ġb att
Ġf itting
ar ia
Ġg ut
ĠI F
Ġst are
ĠC rawford
ĠB erm
Ġde ploy
ĠG U
Ġal armed
ĠR at
ĠR ot
art ed
ĠF ried
ĠL ear
ĠL anc
ack ing
Ġsa us
Ġpl ague
Ġex agger
pe ekaboo
Ġ19 11
Ġar istocr
Ġsp ine
Ġle aned
Ġle isure
ass ie
ub by
Ġcomp act
ty pe
ĠY o
Ġfl ashed
ft en
Ġsc old
Ġ5 3
Ġret ail
Ġcent ers
Ġ6 7
Ġread s
ĠIs aac
Ġ8 4
Ġ8 6
ex p
fl oor
ĠSc andin
pr int
Ġclass ification
Ġcor ruption
Ġquestion ing
Ġclear ing
lev ard
Ġorgan ize
Ġsuccess or
ĠAd vent
Ex cellent
Ġcheck s
Ġpoor ly
Ġelect ro
Ġcompet itions
Ġconne cts
ades hi
Ġfix ing
Ġris en
Ġburn s
AM ES
Ġmarry ing
Ġcru cial
ĠMark et
Ġbroadcast ing
Ġstream s
Ġmaintain ing
Ġpassion ate
Ġquant um
Ġtap es
Ġhyd rogen
ĠKe ith
Ġdies el
Ġinqu iry
ĠAssy rians
Ġastron aut
Ġowners hip
ĠBah rain
Ġfisher men
Ġupd ate
Ġinvolve ment
Ġstrict ly
Ġkilomet ers
Ġdial ogue
Ġinterse ction
Ġrab bits
Ġignor ance
imens ional
Ġau ction
Ġfortun ate
Ġconsec utive
Ġrh omb
olley ball
ĠJama ica
8 4
D ie
H O
L ock
N ope
c ir
f en
f ashion
g ia
m und
r ac
r ates
t ry
w right
Î ¤
Ġt uck
Ġt asks
Ġb og
Ġb ald
ed i
Ġl aund
om ena
Ġn oun
ic ient
ld a
im son
st reet
ĠA ri
ĠA irlines
ct uary
ant h
Ġr ated
ĠD ur
os o
ĠL isten
ĠN y
ĠN ana
ĠJ enny
ĠJ ava
ra g
ack Down
res a
ast ard
ĠO v
Ġtr im
ĠU ntil
na e
Ġoff ense
Ġqu iz
Ġro ar
Ġbl oss
Ġcont amin
Ġpre st
uck le
Ġser geant
Ġend eav
Ġac ute
Ġsur plus
Ġel bow
Ġmon sters
Ġsub stitute
Ġmet eor
me h
Ġinter face
Ġtra itor
Ġind ign
Ġid le
ĠIs abel
Ġexp enses
Ġ8 7
Ġbas in
An swer
Ġresp ir
unt il
Ġadv ised
Ġprofess ors
ĠJo ey
ĠCent ury
Ġdep ict
Ġcompl ained
Ġcirc ulation
Ġpot atoes
cast le
Ġcivil ians
ĠJust in
Br and
Ġ190 7
Ġbank rupt
ĠMal colm
Ġexam ination
Ġstorm s
Ġ186 1
Ġassoci ations
ĠMont ana
Ġattend ing
Ġbast ards
ĠAng lo
EO PLE
Ġwitch craft
---- ----
occ o
Ġdepth s
Ġpersu aded
Ġdomin ant
Ġey ew
Ġoffend ed
Ġuncertain ty
Ġsurve illance
Ġinspect or
Ġdispl ays
Ġbrut al
Ġdoct rine
Ġtast es
Ġdatab ase
Ġextr ater
Ġlan tern
A g
C a
C atch
F ree
K ind
P EN
R oger
V al
g one
h ung
p it
s uff
w on
Ġ Ø
he nd
er d
Ġc av
Ġd iverse
Ġg ent
Ġhe ated
et he
Ġha ck
ĠS ue
ĠC hild
ĠM iles
ct ica
Ġse als
ĠP int
ĠP rest
ĠT ib
Ġal tered
ĠR ica
ĠL oc
ig i
ig ible
Ġ( ).
od ing
ĠE arly
Ġv i
ĠK el
Ġsp otted
Ġcl aws
Ġover l
end ing
Ġcomp ute
Ġbl og
Ġfl ock
Ġper ception
Ġres olve
Ġend ure
any on
Ġ18 70
Ġsupp lied
Ġche at
Ġmar ble
ug ar
Ġ5 8
ĠAnd roid
ĠDe rek
ĠAl t
Ġmet ropolitan
Ġbus hes
Ġadd s
iet ies
Ġ6 2
Ġinter val
Ġtra uma
Ġexp on
by ter
ĠSp encer
br ush
Ġri ot
Ġprov isions
che ck
Ġsol itary
bo ards
Ġbar bar
See ing
Ġrespect ed
CH UCKLES
ĠTH INK
ĠNot tingham
Ġsepar ately
Ġinf ant
God damn
Ġdecl ined
ĠBur g
ĠReg iment
Ġrob bed
ustom ed
ĠWith out
Ġaccident ally
Ġcred its
ĠIT V
utter ing
Americ a
ĠAtlant is
ĠBroad casting
Ġcig ar
Ġcheer ful
ĠBudd hist
Ġiniti ative
Ġment ally
Ġeager ly
Ġinfect ed
ĠGer ald
ĠGa elic
Ġparad ox
ĠLes lie
Ġinher it
ĠCamb odia
Ġdeliber ately
Ġscen ario
Ġsubstant ial
Ġware house
ĠRaven s
Ġcust ody
Ġinfrast ructure
" --
C ou
E le
M R
M ama
N ame
S leep
d ro
g ame
j ab
l aughing
n an
p ath
w his
y stem
Ã Ł
á º
he ro
in ous
Ġw ig
ha les
Ġb ounce
Ġc el
Ġc ham
Ġf ag
or al
ed uc
Ġp ets
at ra
Ġl il
Ġg y
Ġg ard
ld om
ĠS ard
ĠS ony
ĠS eth
ĠS alem
ri et
Ġst ored
ĠA hmad
ĠC rit
ĠC anyon
ĠM R
ch t
ĠH BO
ĠB ear
ĠB ird
ĠP rom
ĠT al
ĠT oy
th on
ĠW ong
Ġr amp
ĠR ug
ĠF un
ap arte
Ġany how
Ġar bit
Ġsp here
ĠIn formation
har mon
av ian
In ter
ob i
Ġper il
Ġres ur
Ġer rors
day s
Ġhome less
Ġrel ating
Ġhar ass
Ġreg ime
ĠTh under
ĠQ aleh
Ġprob able
idd ing
Ġcor rected
Ġquestion ed
ĠWar ner
Ġval ve
Ch p
Ġrepl acement
Ġsun set
ĠHer o
Ar ab
Ġinvest ors
ĠSy riac
Ġvol untary
ĠCo ach
ĠAre na
Ġban anas
did n
ĠBoy s
Ġir regular
Ġpsych ology
Ġmunicip al
Ã³ t
THE Y
zz ar
ĠMil an
Ġtarget s
rif ied
Ġrank ing
Ġign ored
Pr ince
Ġscream ed
Ġtim ber
Ġassum ing
Ġearn est
Ġwebs ites
Ġvirt ually
Ġdescend ants
ĠAndrew s
ĠNap les
ĠUp on
Ġscholars hip
Ġtalent ed
Ġunlike ly
ĠBrand on
ĠGib bs
ĠCru z
Ġindic ates
quis ite
ĠRoc he
ĠSult an
ĠMove ment
Ġyog urt
minar ayan
" "
. âĢĻ
D iv
H A
H u
H or
R illa
S qu
T E
T IN
T ON
_ ).
c ock
c ific
c ulation
d imensional
e le
k id
l ore
n u
s orry
Â ¢
Ġt ips
Ġthe oret
Ġs ip
Ġs iege
Ġc uff
Ġm ates
Ġf u
ed o
Ġd Î¿
Ġy ep
as ury
le ft
Ġh ull
ay ing
Ġe agle
ut ure
Ġre de
ac ea
ĠS U
ĠS han
ĠS ho
ĠS ister
ĠS aints
st ep
Ġst ool
ĠM ach
ĠM anu
ur ated
Ġwh irl
ĠP hi
ĠW orks
Ġr ains
ĠD asht
ĠG ust
ist ani
ĠR ow
Ġsh ine
ĠF ight
el ia
ĠN on
han asia
em or
ĠJ i
ra gon
Ġwor m
od a
ink led
ĠE llen
Ġv ic
Ġv ault
ĠK or
fe nd
ian e
Ġgr in
Ġun pleasant
Ġcomp at
urn ing
ĠY or
ath on
gin ning
ĠMar x
Ġ5 6
Ġ5 9
Ġmother fucker
Ġrep ro
br own
Ġfil thy
ĠPr adesh
Ġ9 2
AT E
Ġdevelop ments
Ġsleep s
An na
Ġhat s
Ġconf ined
Ġorgan isations
erv atory
Ġstrong est
ĠSh in
ĠTHE Y
look s
Ġcross es
Ġpract iced
Ġrespect s
Ġport fol
Ġlearn s
Ġris ks
ĠWho a
anc ies
Ġsal ad
Ġtro op
Ġap ology
Ġvac uum
Se ems
Ġlog ical
ĠMont real
Ġaware ness
Mom my
about s
Ġhook ed
Ġcolon ies
Ġcig arettes
Ed ward
Ġinqu ired
Ġrepeated ly
Ġspo il
Ġdece ased
Ġthrill er
Ġemphas is
Ġtoss ed
igr ants
Ġcray on
ĠCamer on
Ġenthus iasm
Ġdistur bed
ĠHem ingway
vell ous
ĠAthe ns
ĠChel sea
Ġwret ched
offe e
Ġoat meal
. ?
B at
D Y
D ar
H im
J ane
L C
P O
P o
T im
V ar
b ility
c ot
i ast
l ane
p ose
Ġt ad
Ġa irl
Ġw ishing
Ġb un
Ġc her
Ġc unning
Ġf uss
Ġf itted
Ġf iber
Ġd amp
Ġd anc
Ġd agger
Ġy ell
ĠI BM
ĠS ud
ĠC Ã´
ĠC incinnati
Ġan ts
ĠM ak
ĠM ama
if u
ĠH ok
ĠH annah
op ened
ĠP eak
ĠW ow
Ġr att
Ġr ider
ĠD ow
ĠD ID
ĠD iamond
Ġde ity
ĠG ill
ĠR est
Ġsh irts
ĠF A
ĠF ant
ĠL o
ĠJ ai
Ġout come
Ġex ile
ount ered
Ġgr ades
Ġgr ammar
Ġen velop
Ġun p
ip zig
Ġfl ute
ĠâĢ İ
te xt
vers ion
Ġrec ruit
Ġmin im
St range
clud e
ric ia
ret ion
Ġinv al
ling ton
Ġca f
Ġfr idge
Ġinter vention
uc hess
uss ian
ex pl
ĠPr im
ĠCl ara
Ġsqu ares
ĠLe gend
ĠSh r
Ġmess ing
Ġexpect ations
Ġrad ar
Ġdev otion
Ġaccept able
Ġinfl amm
hel p
ĠMc K
Ġport rayed
Ġmad ness
ĠGl ass
igg le
Ġ190 6
Ġattempt ing
Ġpack ing
Ġwat ches
Ġexec ute
Ġess ence
Ġcup board
Ġlif estyle
ĠMag gie
arn ation
ĠRock y
Ġmeasure ments
bel ieve
Ġalt itude
Ġamb ition
Ġrat io
Ġrequire ment
Ġgall ery
Ġodd s
Ġflo ors
Ġswitch ing
Ġprem ises
ĠCH AR
Ġneighbour ing
ĠSom alia
Ġmole cule
ĠRich mond
Ġswall owed
bird s
pop ular
Ġvolunte er
isen h
ĠPot ter
Fe el
Ġnucle us
Ġpip es
ĠShir ley
Ġgreed y
ĠWag ner
Ġelabor ate
ĠPhoen ix
Ġdent ist
Ġacquaint ance
Ġamus ement
! --
7 3
D aw
F M
G en
G il
J oseph
M ale
P oly
P romise
S el
d ar
d aughter
g eneral
h oles
l S
l anguage
m os
p ie
t ook
Ġt an
ou na
ou ched
Ġs omeday
nd on
is ode
Ġc iv
Ġc ogn
Ġm es
Ġm as
ll i
Ġd ess
es ters
Ġp ence
Ġp ars
Ġl f
Ġl ame
Ġl ions
as an
ĠS or
ĠS ierra
ri ors
ad ers
Ġst ew
ĠA ch
ĠA ctor
ĠA gric
ĠM is
ĠM eredith
Ġdo d
Ġat oms
ĠT WO
ĠD oll
Ġcan non
ĠG RUN
ĠR aid
Ġsu ited
ra j
od o
Ġex ca
Ġv s
ap olis
Ġpart ially
Ġapp lause
Ġrem oving
Ġmust ard
Ġcr ab
ĠDe x
ric ulum
Ġret iring
Ġsub mitted
Be at
AN G
Ġind ul
ank a
ĠQ uran
ĠWe re
Ġ8 3
ex cept
Ġ9 3
Ġbas es
Ġorigin s
bo om
Ġve il
Ġadm ired
Ġadm iration
ĠAb u
Ġteac hes
ĠHer itage
ĠEd gar
Ġtrust ees
sp eak
Ġdepend ence
Ġaud iences
ĠCo venant
Ġenc ountered
yl um
pro of
ID S
osop hy
Ġdeb ts
Ġfeed back
Ġcro cod
Ġ186 4
Ġcred ited
Ġinvestig ating
Ġchick ens
ĠAnge la
ĠRad hika
ĠMil itary
Ġinterview s
Ġcalm ly
UR N
Ġbroadcast s
Sm ith
Ġimprove ments
Eng land
Ġdim ension
ĠDa ily
Ġow l
ĠTy ler
Ġacad emy
Ġille g
ĠRh ode
Ġsav ings
ĠWI LL
Ġtub es
ĠBudd hism
Ġven om
Step hen
Ġjew els
Ġdemonstr ate
ĠArgent ine
SH OT
ĠBeat les
Ġnegoti ations
DO OR
GRUN TS
ĠLeg isl
Ġclin ic
Ġaccord ance
Ġrele ases
Ġdischar ge
Ġbegg ar
Ġlou der
Ġcrick eter
Ġstub born
Ġcrimin als
ĠGhar bi
isenh ower
2 000
A K
C Y
C ON
G B
J a
J enny
M aj
R am
_ ;
b ai
f i
f ell
n ormal
p are
v on
Å Ĥ
Ġ âĻ«
Ġt ended
Ġw ool
Ġb oun
Ġc ope
Ġc ement
Ġl umber
Ġth ieves
am ine
ĠS ign
ĠC re
ĠC ode
ĠM itch
ur bs
if ference
Ġare na
ĠB ened
ĠB els
ĠB oots
ĠT on
un i
ĠD ays
pp e
ĠG ann
Ġso fa
Ġall er
Ġab rupt
ig o
Ġcom a
Ġcom rades
od ont
Ġpro fits
ind ian
Ġdon ated
Ġman ual
ĠK id
Ġsome place
Ġint estine
Ġsp elled
ci o
Ġtheir s
Ġcl uster
Ġgr ams
urn ed
ang led
ign ment
iss ors
Ġunder wear
Ġsm ack
ham e
Ġsupp lement
ĠAnd ersen
Ġsent ences
Ġdevelop ers
Ġorigin ated
Ġpublic ations
Ġconf using
Ġve nd
Ġcou ples
ĠPl ant
Ġadm ission
oub t
Ġtou g
Ġcost umes
Ġthank ed
Ġra ven
ĠGu er
IC K
Ġdin osaurs
Ġshoot er
Ġpress ing
Ġcirc ular
Ġhost age
het ti
Ġemb r
ĠPal mer
Ġpray ing
Ġur ine
Ġhun ted
Ġya wn
ĠFred dy
Ġcart oon
Ġmut ual
Ġflo at
Ġhast ily
ĠVer de
Ġexpand ing
Love ly
ĠBat man
Care ful
ĠTam sui
Rob in
Ġspo iled
Ġfo etus
Ġbitter ly
Ġannoy ing
Hon estly
ĠOper ation
Ġinject ion
Sar ah
Ġmerc ury
ĠSerb ian
ĠJos Ã©
Ġabdom en
REAM ING
Def initely
Bre ak
Ġfeud al
Ġcondem ned
Ġcin ema
Ġweld ing
ĠEthiop ia
Ġcoff in
Ġsovere ign
ĠTerrit ory
/ /
D am
D ire
E ddie
M O
N C
N N
O per
P L
P ick
W AY
b ian
f uck
l ot
l oo
r imin
s is
v ous
v oc
Â ª
Ï ģ
Ġa qu
Ġc rest
Ġc hampagne
Ġm orn
Ġd ing
Ġin e
Ġin mates
Ġl ac
Ġl ur
hat e
Ġg aining
et ary
Ġth omas
Ġre nder
ĠS EE
ĠS allie
ad der
Ġst ing
ĠC e
ĠM ap
ĠB il
ĠP le
Ġr av
Ġr ushing
ĠD A
Ġal oud
Ġal iens
ĠF oon
ĠL ocal
ĠN AS
Ġher b
Ġpl ung
ĠE t
Ġv ivid
ĠO cc
ish ops
Ġover s
Ġen light
oll en
Ġpart ed
ru gged
ip ers
Ġmean while
ect or
Ġsc ree
ĠCh un
Ġhel met
Ġdes erves
Ã© mon
Ġcons ervation
Ġsub mit
ner gy
Not e
Ġ6 8
Ġca ut
Ġinter ven
Ġinter action
Ġinter change
Ġmain stream
uss ion
ey ton
Ġpublic ity
for ward
ĠSe an
ĠX box
Ġdepart ed
Ġpull s
yr us
Ġfail ing
ĠTe ch
hel m
Ġrul ers
ĠEm il
Ġproduct ions
Ġver b
Ġpot entially
Tr uth
Ġnecess ity
Bl ue
Ġlaugh s
Ġcell ar
yl an
Ġtour ism
Äģ b
ĠPri vate
Ġmor ality
ĠJul ian
ĠRad ha
Ġreact or
Ġpin ch
ĠBa iley
Ser geant
ugg ing
ĠStud ies
Back ground
Ġconcent rated
Ġvirt ual
Ġveget able
Ġlegend ary
Ġdisappoint ment
ĠHal vor
ĠEst her
Ġanaly st
Ġannoy ed
Ġtack les
SPEAK ING
ĠCir cle
isen berg
Ġfisher man
Ġkilomet res
tw enty
Ġpup ils
Ġadapt ation
ĠIce land
Ġbuzz ing
Ġcasual ties
ĠDer by
ĠLead er
Ġreci pe
GUN SHOT
ĠLI KE
Ġrehears al
ĠAlber ta
Ġimpat ient
Ġadequ ate
Ġlaund ry
; "
C lause
I AN
L M
L in
L aughing
P ant
T aking
V an
b est
b ane
c ore
c ook
h orn
i ago
k ar
l ate
w i
y up
re na
ha zzar
Ġb ung
Ġb amboo
Ġm uff
ll ers
Ġd ive
en ance
Ġto ps
Ġp el
Ġl ent
Ġl ump
ow e
ot hes
Ġbe ats
Ġfor cing
ĠS E
Ġst em
ĠA aron
ith ms
ĠC airo
ĠM ut
Ġse ldom
ust y
ation ally
op al
ĠT erm
ĠT ogether
ĠW atch
ĠD onna
Ġde ed
Ġab olished
ĠR is
ie u
Ġcon cl
ĠN ova
ig rated
Ġsu cks
Ġout s
Ġshe er
And rew
Ġtr ay
ĠSt ra
per haps
og a
ĠV el
ĠV ict
Ġbet s
Ġfl ushed
Ġres ent
Ġres erves
ock ing
Yes terday
Ġhand y
Ġrec re
up iter
Ġrel ics
Ġac res
ĠAl ban
Ġsing ular
Ġdisc rimination
Ġmed als
Ġsk ate
20 12
Ġpay ments
Ġ9 7
Ġprom ot
ern on
Ġless er
pr ot
ĠCon stant
che t
Ġcommun es
Ġaw hile
ĠPres byter
ĠLe ima
Ġtre asures
Ġann ually
ĠSh utterstock
ĠChar t
Ġprocess or
Î¿ Î¿
Ġlow ered
Ġsuggest ions
AS E
ĠSy l
Ġcomb ine
US E
ĠRic o
Ġsad ly
Br ad
Ġfac il
Ġ190 3
ĠSen ators
Ġexam ine
Ġthreat s
Ġremain der
En ter
Ġscreen writer
Ġharm ony
Ġreform s
Ġproceed ings
ĠDen ver
Ġwid th
Ġtor pedo
Ġdiss olved
Ġsust ained
Ġterror ist
Ġlegend s
Ġconqu est
Ġcorpor ation
cos ystem
Ġcert ified
Ġiniti ated
Ġpour ing
Ġspons or
Ġstrateg ies
Phil ip
Ġeval uation
ĠFinn ish
ĠOak land
Ġoxid ation
Ġavo ided
ĠJob ling
Ġunemploy ment
Ġhunts man
Ġpand emic
" -
A way
F a
J oy
N T
P ay
P od
S k
T re
g om
h t
n ice
s cale
v ain
y et
à §
Ġa ug
Ġa ims
re ne
is se
Ġf iddle
Ġp ose
Ġp ork
Ġp apa
Ġl ens
Ġl aser
Ġl oser
Ġg ym
ot ally
id ly
im mer
Ġre leg
ĠS ide
ĠS yn
ĠC OME
ĠM um
ĠH erm
ĠH appy
ĠB O
ĠB ain
ĠP orter
ĠT IME
ĠW en
ĠW ake
Ġj urisdiction
our ce
ĠD est
ĠD rive
Ġde pri
ĠF aw
ĠF riends
ab we
Ġsu cc
ĠJ ab
ra ge
ĠE mer
ick er
act s
Ġgr ains
ĠV II
Ġsomet hin
uch i
be ck
Ġcar ing
Ġdif fer
Ġstart led
Ġmin erals
ham pton
Ġworld s
Ġrest ed
Ġdri vers
Ġmed ian
Ġed itions
br ing
Ġ7 4
Ġremember ing
Ġcur se
Ġri pped
Ġ9 8
ĠBe es
Ġdoor way
Ġequ ality
Ġbeaut ifully
Ġsqu eak
ĠHis pan
Ġpick s
Ġswe ets
Ġvar ied
enn eth
Ġquick er
ĠEurope ans
Ġce ase
ĠAb by
Ch uck
ĠEd en
Ġprin ces
ribut ion
Ġrain ing
Ġemb race
ĠJe remy
pro bably
ĠReg ister
Ã¼ l
ĠPri or
Ġur ged
Ġcro oked
ĠDar reh
Ġrub bed
Ã¨ res
Ġenter prise
ĠVictor ian
Ġmut tered
Ġassum ption
Ġut ility
Ġmyth s
ĠShar qi
Ġnurs ing
Ġvari ables
Up on
ĠCab inet
pass ed
Mad am
Ġaccompl ish
imb abwe
Ġcooper ation
Ġpurs ued
Ġconstitution al
Ġindex ed
oust ache
Ġsumm ary
ĠTurn er
Ġrebu ilt
mind ed
Sus an
Ġtrun cated
Ġfert il
ĠBenn et
Adm iral
ĠAthlet ic
ĠNev ada
ĠGab riel
abet es
Ġclo ak
Ġsimult aneously
ĠGosp el
ĠCAP TAIN
5 12
B a
D ER
F i
H ol
M u
N ight
P AN
R oyal
e gr
f urt
g ener
g rave
h ome
p os
s ays
t re
t ons
t old
u is
z ie
Î ¥
Ġ ze
Ġ âĤ
Ġt ires
Ġt anks
Ġt asted
in th
Ġw ont
Ġs out
Ġs essions
it ating
Ġc rane
Ġm it
Ġto ad
Ġp ony
Ġl ingu
Ġha lt
Ġbe aches
Ġe cosystem
im me
Ġwe ed
ĠA hmed
ĠC ult
ĠC ec
all i
ĠM ater
ĠM AR
ĠM ills
ĠM unicip
Ġwh ipped
Ġse ize
il og
Ġgo ats
ĠP earl
ĠT odd
ĠT ravis
Ġr ally
Ġj umps
Ġso da
ĠR oland
Ġsh h
ĠF oster
ĠL amb
ig ion
ĠE agle
ĠE isenhower
pe ction
ĠO z
ud der
ĠK ab
Ġpe er
Ġback ing
oll o
oy le
ĠV III
har t
ĠY ong
cl oth
Ġbu gs
Ġper sec
Ġres erved
ail i
Ġsc ent
Ġch ore
oth ic
ĠDe ep
Ġgl am
Ġdec iding
oun ge
ĠRe gan
ĠAn nie
me re
Ġph oned
Ġfact ion
Ġind oor
Ġdisc our
Ġexp ose
Ġtrans mission
Ġed ited
app a
app eared
Ġlaw suit
Ġprom ising
Ġ17 5
Ġdevelop er
ĠLe v
ĠSe attle
fort une
Ġ11 0
Ġmag ical
Ġgun powder
Ġ14 0
Ġsun ny
.... "
ĠMe anwhile
Ġsett lers
ĠIll ustration
sp ace
ĠEm erson
Ġsell s
Ne ed
medi ately
ĠPark er
De an
Ġinn oc
Ġcand les
Ġcow boy
Ġtall est
Ġ189 8
Ġmunicip alities
ĠDes ert
Ġtight ly
ĠFred die
Ġattend ance
ĠRome o
Ġprevent ed
ANT ING
Sm all
ĠDire ction
Ġgrab bed
Ġexerc ises
Dan ny
care ful
every thing
Ġsufficient ly
Ġrefe rend
bra him
Alex ander
Ġpersu ade
Ġinse ct
Ġparad ise
Ġchoo sing
again st
ĠJess ica
ĠHor ace
ĠHug hes
ĠFR OM
Ġpor ch
ĠVin cent
Ġabdom inal
Af ric
count ry
Ġtransmit ter
Ġwag ons
ĠShel ton
Ġinfer ior
ĠMaur ice
Ġenerg ies
Ġeut hanasia
Ġderiv ative
isfact ory
) "
6 3
: //
C ontin
D en
D oc
D arling
F ootball
H OW
L ake
M onsieur
O i
R ick
T C
T em
U H
f ood
g ow
g am
h oo
m ir
r ator
t ogether
w ords
z ar
er ving
is ch
Ġb ib
Ġf oe
Ġd itch
Ġg ambling
Ġhe el
ent ive
im ed
Ġre pt
ĠS G
ĠS aid
ĠS omething
se ason
ke es
Ġst air
ur as
Ġnot ably
Ġgo sp
ĠP L
ĠT ro
ĠD iet
ĠD alm
Ġcan st
est e
Ġal umin
ĠL ives
ĠN Y
Ġsu ite
Ġpl acing
Ġshe khar
ĠE ar
ĠE van
He ar
ak in
ĠK Ã¶
Ġsp arrow
Ġcl ap
act ions
Ġen chant
we e
Ġcomm emor
Ġsc issors
Ġmin eral
Ġlea gues
Ġcare less
any thing
Ġmar vel
Ġsl aughter
az i
Ġbo iling
Ġmat ure
ĠRe becca
Ġsing ers
Ġfather s
uff y
Ġgener ator
Ġsk irt
Ġfil ter
20 17
ĠSo ft
Ġ10 1
Ġprob ation
ĠCl ause
Ġfell a
Ġcreat or
Ġdef ault
ĠCon cha
OR Y
oub ted
ĠSh ould
Ġbox ing
Ġport s
Ġport ray
Un like
Ġcompl aining
Me et
Ġinf antry
ortun ately
anc ock
ĠKen ya
ĠRichard s
Ġregard less
ĠPet ty
Ġimm une
Ġsle eve
Mic hel
Ġroll s
ĠPak hangba
Ġremem bers
Ġaltern ate
Ġdisplay ed
Ġconcept s
Ġaband on
ĠIsrael i
Ġtow ers
Ġstir red
Pre viously
Ġdecor ated
Ġdiscipl ines
Ġimplement ed
ĠArk ansas
Ġteen ager
ĠShah rak
Ġdepos its
stan bul
Ġprosec ution
Ġhesit ated
ĠSerb ia
ĠIndepend ence
parent s
Ġturt le
Ġhypot hesis
Ġdisgu ise
Ġmush rooms
Ġcater pill
ĠAntar ctica
ĠBulgar ia
Ġumb rella
Ġtrib ute
- ...
B ay
B ern
D ist
D ep
E xt
F at
L I
L ar
M D
P RO
U ES
W ood
e ye
f ers
f ix
j oseph
r us
r ans
r ina
s weet
Î ¹
in u
it ics
or ic
ed e
Ġd ances
Ġd aring
Ġp ine
Ġy ummy
Ġl ugg
Ġg ymn
Ġe cc
ut tered
ĠS ie
ĠS aw
ri ot
ro e
ro ve
ro be
ĠC P
ĠC ale
Ġk at
ĠM ine
ĠM uch
ĠM umbai
ĠH ood
ĠH are
ĠB ond
ĠT ink
ĠT end
rom atic
Ġr ites
Ġr apper
ĠD ock
ĠG DP
Ġall ies
Ġab ilities
ĠR ace
ĠR iley
Ġsh rew
Ġsh ifted
ĠF E
ĠF ac
ĠF ig
ĠF arm
ĠN ad
ĠN ina
qu i
Ġbut cher
Ġv ow
pe es
ind ers
ĠO d
ĠO VER
ous in
ick le
ĠU m
ang ar
Ġdis abled
In side
Ġunder lying
Ġfl own
Ġres umed
Ġco ke
ull ivan
Ġcar ved
Ġrec alled
Ġsha m
Ġdes ires
Ġch orus
Ġlea k
Ã© r
ĠDe al
Ġgl ue
Ġsw inging
ĠAs soci
part y
Ġinc omp
Ġ6 1
Ġinter vals
Ġlive ly
Ġid ol
Ġrep ay
Ġhum ble
Ġgener ate
20 13
Ġexpl oring
Ġexpl icit
ĠCar n
AR A
pr ints
Ġwond ers
Ġoper ator
Ġinform al
ĠTr inity
Ġdem ons
Ġspecial ist
Ġdi abetes
ĠGu inea
ilar ly
Ġcourt esy
Ġtechn ologies
Ġpubl ish
Ġprin ter
Ġrespect ive
Ġproduct ive
ĠSy mphony
Ġjud ged
ĠGood bye
Ġfem inist
ae k
ĠJim mie
cell or
200 7
ĠProv in
rer s
iction ary
ateg ory
Ġaffect ing
asc ar
New s
Ġload ing
ann i
ĠDemocr at
Ġsen ator
ELL ING
Ġpil ots
Ġcalcul ations
Ġdeliver ing
Col onel
ĠTre asure
Ġsimpl er
hot ra
ĠEs sex
Ġspr ings
achel or
Ġillust rated
ĠNob ody
Ġprote ins
Ġimplement ation
ĠWhe at
ĠAmb assador
Girl s
Ġprompt ly
Ġflav or
ĠAlexand ria
Ġconvent ional
ĠOrgan ization
ĠPLAY ING
Ġtatt oo
ĠBuff alo
ĠTreat y
Ġtwe et
ĠBald win
6 1
B ook
C art
H aw
L R
M USIC
P ot
P ope
P ete
S G
S everal
T ill
b ling
e at
h oney
j ar
k at
l it
m art
m ns
p ay
re ens
ha e
nd y
it on
Ġb reeze
Ġc oo
Ġf ung
ow ards
al most
et an
us c
Ġbe et
id an
ut a
Ġwe eping
ad le
ad ise
Ġst ag
ĠA P
ĠA ub
Ġme nd
all e
ĠM USIC
ur ora
ch y
ĠH om
il ers
Ġnot hin
ĠB ears
ĠB ros
ĠP and
ĠP ul
ĠP oor
Ġr ays
ĠG and
ĠG ates
Ġsh o
Ġsh rie
ĠL ogan
Ġthere by
qu er
Ġsu nd
Ġpl at
Ġpro pri
Ġv odka
Ġno isy
ĠK yle
Ġright ly
Ġtr ams
Ġwhen ce
Ġsp okes
ĠSt ars
act ed
ass ic
Ġro ast
Ġro ss
Ġun con
ach ment
Ġday time
Ġgu ided
ĠY ears
au c
Ġsc out
Ġsm oked
Ġlot tery
ĠAr d
Ġsl ut
Ġel ite
ĠAl bum
Ġmet als
Be en
Ġcha ll
Ġinter cept
Ġ10 5
Ġfore cast
Ġfight ers
Ġfell as
Ġpar ade
Ġleg ally
Ġpresent ing
OR T
Ġrece ives
Ġblack mail
Ġguess ing
ĠLe ipzig
Ġconf ig
unk er
Ġrev ival
Ġrev olt
ĠSha ll
Ġsn ack
Ġsn ub
ĠPh D
ĠSw an
Ġport ions
Ġgen et
Ġphot ography
Ġpen is
Bl ood
ĠPhil harmon
Ġglad ly
ĠLou ise
Ġdecl aration
Ġsal mon
Pl ot
ĠMart ha
Ġhun ters
Ġmic row
Ġacqu ire
Ġ188 0
ĠHaw kins
rid or
Ġlic ensed
ordin ate
Ġcrack ed
bu ilding
ĠFer r
Ġrent ed
ĠUnder ground
Ġax e
Ã´ m
ĠRevolution ary
Ġtort ured
Whe never
Ġbon us
ĠGreg ory
Ġdemonstr ated
ĠNi gel
ĠEv ans
Ġreb els
Ġpup il
Ġdode cahedron
Us ually
Ġoppon ents
Ġgrocer y
ĠLim ited
Ġcongress ional
ĠBou levard
haus en
Ġbisc uits
ĠBright on
Ġpredecess or
ĠCelt ic
ĠNep al
ĠRug by
% ,
: --
= "
B rian
C amb
E mma
F amily
H C
H ouse
L ay
M lD
R yan
S ign
U LL
b led
d ark
d ict
e ous
f ind
k aid
m ain
p m
p osition
r ition
s ign
w omen
Ġt v
Ġt ut
re ro
Ġw aved
it ol
Ġm aker
or ax
Ġd ame
Ġd ots
Ġn ar
ic ating
ow een
Ġha ul
us hi
Ġe rect
ĠS outheast
Ġst ell
ĠA VX
ĠC in
ĠC her
ĠC ord
ĠC hen
ct ing
ch in
ch oo
ĠB ent
ĠB ri
ĠB ose
ĠP ent
ĠP ain
ĠP ierce
ĠT hai
un ik
ge bra
ĠW or
ĠW ERE
ĠW OULD
ĠD EA
ĠD odge
ist le
Ġsh ipped
ĠF ro
ĠN OW
ig ers
qu ite
ink ed
Ġshe riff
ĠE U
Ġex pend
Ġex orc
Ġex quisite
ĠO st
ĠO ber
ud ding
ag i
ag hetti
ĠHe nd
ĠHe ights
ian c
ace ous
reat h
So cial
Ġbr andy
Ġun necessary
Ġun believable
oy s
Ġam mun
ach s
ĠV e
Ġad orable
In c
oc y
Ġbu ccane
Ġhand ic
ĠCh in
Ġreal istic
Ġbit es
Ġmon uments
Ġrun ner
ale x
Ġchar ter
Ġwar fare
Ġob ed
me an
me aning
Ġcha nt
ok u
Ġloc ate
ĠZ ar
Ġdra ught
Ġcountry side
app ear
ĠWe ather
Ġcur sor
Ġins ight
Ġins ign
Ġins ert
ĠCl ar
Ġcontin ents
ump ing
Ġcontro ller
cent ral
Ġval ued
Ġexc uses
cha nd
ĠTr acy
Some where
ĠPl ummer
ĠAd rian
ĠAd olf
Ġtou red
Ġspecial ized
ĠSha d
ĠCha llen
Ġmer ge
Ġdescri bing
Ġtechn ically
Ġtouch down
ĠMc G
Ġhy ster
Ġrepresent atives
sp irit
light ly
Ġviol ently
medi ate
Ġsick ness
just ice
Ġaud ition
ĠSen ior
Ġcelebr ity
Ġwarm th
Ġassist ed
Ġvac ant
Ġ186 2
Ġcy cles
ĠÃ ī
ij uana
Ġgradu ating
Ġparticip ation
ĠMom my
ĠDis covery
Ġwitness ed
Ġcomplet ion
ĠBro ck
Ġpit cher
Ġic osidodecahedron
Ġexperiment al
zer bai
Ġdiscover ies
ĠAv on
Ġnut ri
Ġinterpret ed
ĠSand ford
Ġwhist ling
ĠBudd ha
ĠBab a
ĠManip uri
Ġincor rect
Ġspons ored
Ġparliament ary
Ġpeak ed
Ġtack le
SPEAK ER
Ġcod ice
Ġelimin ate
ĠDef ense
Ġassass ination
ĠGene va
Lu cy
ĠUr ban
Ġtom ato
ĠWOR K
Ġveter an
ĠPun jab
Ġassemb led
ĠRena issance
Ġreli able
Ġamp hib
ĠSCH MlD
ĠFlore nce
ĠMeth od
Ġrespir atory
Ġportfol io
Ġdess ert
ĠBels hazzar
gom ery
Ġreferend um
ĠSCHMlD T
, &
B ang
D og
D ifferent
F unny
G otta
J am
M ult
N a
N OT
W ind
W ild
a est
b eth
c ro
c um
f ounded
g ence
h ong
h istory
l ived
n uts
p ire
p ull
Ġt ab
in ence
Ġw ander
Ġs way
on ation
it ime
Ġb out
Ġb apt
Ġd ash
Ġd usk
en os
Ġp od
as aki
Ġg aze
ĠI an
ĠI ke
Ġhe ct
us ually
im i
im o
im ination
Ġre bel
ĠS alt
se ction
ĠC od
ĠM os
ĠM ead
ĠM andalay
if teen
ĠH off
ĠB og
ĠB att
ĠT it
ĠT as
ĠT ate
ĠT rel
ĠW l
ĠW u
ers h
ĠR ing
ĠR oth
ess a
nt on
ĠL ex
ĠN aval
ig ger
Ġcom rade
ĠE va
ort ex
ĠO sw
ĠK er
Ġar ise
Ġpe b
ĠU EF
ĠIt ami
ans wered
end a
Ġam using
Ġcomp ilation
ress ive
Ġpre ca
uck land
ĠCh uckles
Ġlast ing
Ġlea ped
de ad
Ġacc us
Ġbo iled
ĠDe c
Ġsw ollen
Ġsub urbs
Ġinst ances
Ġass et
sh irt
Ġsk ipper
Ġcur ved
ĠEnglish man
Ġcor ps
go vern
Ġadv antages
Ġtest ify
ĠMiss ion
Ġdep icted
ĠLea ve
Ġang les
su per
Ġstrange ly
ĠMon k
200 5
Ġrob ots
Ġcelebr ating
nÃ© e
Ġnovel ist
ĠDep ression
AC E
ĠBer g
Ġreve als
Ġacqu ainted
Ġopt ical
Ġamb assador
ĠLu is
Ġdetect ed
ĠSant iago
bre aking
Ġhast ened
ĠBell e
ĠGar cia
run ning
ĠInt el
ĠEnter prise
Boy s
Ġdisappear ance
Ġtur f
occ up
Int erest
Ġcontem pl
Ġdiagn osis
ĠFair y
Ġrestrict ions
Ġdisag ree
Ġric hest
ĠWeb ster
Ġpanc akes
ĠIndepend ent
Ġmultipl ication
ĠMerc ury
Ġrig id
Ġrend ered
ĠNiger ia
Ġinev itable
Ġsummon ed
Ġphysic ist
ĠTamp a
stro ke
Ġrefriger ator
ĠSpani ards
Ġhorizont al
ĠPrest on
Ġgard ener
ĠUEF A
A z
J u
K evin
M C
M aking
S ol
S ex
T a
W WE
Y oon
b en
m em
p ine
p age
s le
s ens
Â ¦
Ã «
Î Ĺ
Ù Ħ
Ġt ha
Ġt ones
in ian
Ġb ord
Ġc it
Ġc ad
Ġc ens
Ġd azz
Ġd airy
Ġto ll
Ġto ken
Ġp ist
Ġp ains
as gow
ay ette
Ġon going
Ġe re
Ġe uro
im en
Ġwe ep
Ġwe ighed
am en
ĠS r
se emed
ĠC ic
ĠC lear
ĠM C
ce ans
ch ron
ĠH AD
ĠB rent
ĠB omb
ĠB ACK
ĠP owers
ĠP ierre
ĠW itness
Ġr ags
ĠD im
ĠD ear
Ġcan oe
ĠG host
Ġsh iny
os ion
ĠL iving
ĠL illy
ig ation
Ġup right
Ġup load
qu eline
Ġsu e
ĠJ upiter
ack er
Ġpl ank
ĠE yes
Ġex ams
Ġint ensity
Ġtr aces
Ġpe pper
Ġsp elling
ĠSt ri
Ġqu oted
Ġgr id
Ġbr isk
ov ic
ĠV O
ĠV ers
av in
ty ard
Ġwr ath
ip el
ult s
Ġcomm od
get s
Ġsl am
Ġsl ower
Ġacc ustomed
Ġmet er
oun cer
Ġass ert
ĠInd eed
Ġ6 9
ĠBut t
Ġid i
ĠIs les
Ġdisc ount
ball s
Ġsk illed
ĠBe et
aken ing
ĠCount ess
Ġpar able
Ġpat rol
ĠMan ager
Ġvill agers
ĠRep ort
ĠCol omb
ĠGu ide
Ġcapital ism
chan ged
bor o
ĠChurch ill
Br own
Ġkey board
Ġbur gl
udd le
Ġappl ies
200 6
200 9
ĠOF F
Ġspeed s
ĠReg ency
Ġden omin
asc al
Ġ189 5
Ġstreng the
Ġslight est
âĢİ. âĢİ.
Ġpred omin
Ġthy self
imp y
ĠSing h
Ġtarget ed
ĠOther s
ĠEvery body
Ġunivers es
ugg a
Ġentertain ing
Ġpit ched
vis or
Ġspect acular
Ġconnect ing
Ġconce aled
Ġdump ed
Ġnick named
Ġnort heastern
ĠCorn wall
Ġcooper ate
SPEAK S
ĠSocial ist
ĠRa o
isp here
Ġsynt hesis
Ġacknow ledge
Ġrele asing
Ġsentiment al
Mah on
Ġpsychiat rist
ĠNich olas
Ġsympat hetic
Aust ral
Ġeleg ant
Europe an
Ġunsuccess ful
Ġank le
Ġorient ation
fashion ed
Ġdanc ers
" !
A lf
B an
B Ã©
C hild
F R
F ig
F ound
G ro
K ids
L ead
M akes
O x
S ad
S HE
c ases
e lected
g room
h orse
l ined
m ove
p ic
r ots
t one
t aking
w ic
y x
Ð °
Ġthe ft
Ġthe ology
it ic
Ġc ran
or ian
ed ar
en ha
Ġp y
Ġp seud
Ġn ode
le gged
Ġhe ed
ad oes
Ġst amps
ĠC ock
ĠC urt
ĠC rystal
Ġan at
ĠM ORE
ch io
ĠB ark
and e
ant i
Ġgo ver
op ic
op oly
Ġkn ives
ĠT ropical
ol ition
ul er
Ġj unction
ĠD J
ĠD unkirk
ĠG ard
um sy
art ing
Ġor al
ĠL avender
ĠN ord
ig uel
ight ed
Ġv icious
He ad
Ġno ises
ud er
ag ad
fe w
Ġag ony
ĠSt re
ĠSt age
ne z
Ġback ward
ond o
Ġgr acious
Ġbr icks
Ġun w
Ġim pe
ru ct
ect ed
Ġspe ar
Ġmin imal
ĠAr ound
Ġmar vellous
Ġsl ot
Ġel igible
ph in
ĠAl pha
Ġent ries
Ġsw ap
Ġsub mar
ĠRe id
ash ir
Ġloc ally
ex ist
ĠBe ing
mor al
ik o
Ġhat ch
che on
Ġpain ters
Ġvar ieties
Ġten ure
head s
Ġve ctors
enn ifer
ĠPl at
Ġsum s
Ġtou ches
Ġce real
EN CE
Ġmer rily
Ġforg iveness
Ġclean er
ĠMic helle
ĠMe ete
Ġsupposed ly
Ar ound
Ġsex ually
ĠDr ama
sp oken
Ġworth less
Ġcast ing
ĠSy rian
Ġdoll y
Ġcompl iment
ĠRuss ians
Ġkiss es
Bl air
Ġaut onomous
ĠPaul ie
ĠMus ical
Ġlo ans
Ġcoast line
Ã¼ n
Ġimpro ving
ĠPri x
Ġpun ct
Ġestabl ishing
Ġap ron
Ġ189 1
ĠWil helm
Ġpan els
win ning
rav a
Ġ188 2
ĠSing les
ĠPrincess es
Ġcart oons
GE ORGE
ĠStud io
Ġmel anch
Ġrum ors
Jack son
Ġheav ier
ĠPa vel
Dan iel
Ġrac ist
ERS ON
ĠAdd itionally
Ġjealous y
pent er
Ġteen age
ĠTan zan
Ġsna pped
Ġintent ions
ĠContin ues
ĠElect ric
oft en
ĠPra gue
Ġnavig ation
Ġmisunder standing
ĠAx el
ovak ia
Ġlocomot ive
Bas ically
Ġcongrat ulations
angel o
ĠScient ists
ĠMec ca
GAS PS
Ġammun ition
ĠMeete i
? ,
B ea
B less
B ravo
C hi
C ross
D ou
J udge
L ine
L isbon
M Y
T Y
T ogether
c am
d ri
h man
h istor
n ope
r r
r int
r ament
v ill
in als
ou x
Ġb ind
Ġb ows
Ġb osom
Ġc ush
Ġf ri
Ġd ice
Ġd ashed
Ġd angers
Ġp est
Ġp ots
Ġin verse
ar ak
Ġl s
Ġg ases
le a
al ion
Ġth res
ion ed
ut us
ac ity
ac cept
ĠS ophie
ri l
ir r
ad am
Ġst itch
ĠM ade
ill or
if fic
ĠH amb
ĠH EA
ĠT A
ĠW AY
ĠD rew
Ġab used
Ġab ortion
ĠR ice
ĠR ee
ĠR af
ĠR hod
ĠL ai
ĠN as
ĠN AT
ig m
ĠJ ar
ure n
Ġag rees
ick ets
ov ac
ĠV iew
ho ven
ĠY ellow
ign o
Ġbu ys
Ġsm ashed
Ġcar rier
you ng
Ġend less
Ġmin istry
de ath
gr unts
Ġsl ice
Ġpop ped
ok Ã©mon
Ġext rem
sh ots
ows ki
Ġsk i
Ġ7 00
Al bert
OU S
Ġcontin ental
Ġpar as
An thony
Ġdiv ing
Ġvar ies
Ġstuff ed
Ġ12 5
ĠFl ight
ĠFl int
Ġorgan izing
Ġdem olished
ĠX V
ĠSha kur
Ġcamp ing
ĠBar n
ĠEd ge
Ġru pees
Ġsuper st
Ġprop he
Ġshoot s
Ġaccept ing
ĠWell s
ky ll
Ġeye b
Ġobject ives
Ġhost ing
Ġdiscuss ions
Ġobs essed
play ing
oid s
Ġdemand ing
Ġdeterm ination
Ġsle nder
Ġskin ny
Ġpositive ly
ij ing
Ġlack ed
ĠPak istani
Ġdrunk en
Ġtransl ate
Ġinterview ed
ĠNat alie
Ġteaching s
ĠHon our
Ġpil grim
Ġnumer ical
Ġmicro sc
Ġtun es
Ġquant ities
Ġconfess ed
Ġpregn ancy
Ġprepar ations
Ġrelax ed
Des cription
Sec ret
Ġcontest ant
Ġconce ived
ĠBangl adeshi
Ġarchitect ural
ĠOw en
Ġfulf ill
Ġkitt ens
ĠOper a
Ġalgor ithms
ĠUs ually
Sil ence
grad uate
elf th
Ġdiplom at
Ġdiplom atic
Ġpent ag
Ġobser ving
song writer
Ġturb ine
ĠThom pson
Fort y
ĠHig gins
Ġtheat rical
Ġsurround ings
Ġappet ite
Ġthri lled
Ġbew ild
ĠKham ba
ĠAlger ia
ĠHok kaid
oubted ly
Ġlugg age
A mb
G ordon
H ig
H ands
J osh
M ount
R ich
S ays
Z ero
_ )
c row
c ony
f un
h p
h meh
j ob
s ame
t om
z el
Â Ģ
á ¼
â ģ
Ġ ~
re hend
Ġb orne
Ġc yn
Ġf ried
Ġf ishes
Ġf ianc
at us
Ġl ament
as ped
Ġg ee
Ġg ains
Ġg Î¿
om o
om ical
Ġn ominations
et ition
ĠS et
st ay
ro le
Ġk itten
Ġan ne
ĠB alk
ant ha
ĠP ond
ĠP oll
ul z
ĠD ana
ĠD ora
um u
ĠThe ater
ĠF reedom
ab lo
ĠL ost
ĠL og
ĠN one
qu in
em i
ĠJ azz
ood les
Ġsa ves
Ġno bility
ĠK i
Ġtr an
Ġtr aced
Ġcl iff
ĠSt ay
we ed
Ġcomp romise
av ana
oc o
uck s
Ġco ached
Ġsc al
âĢĿ ,
Ġcount enance
Ġch imp
Ġfin als
Ġfin ishes
St ate
All ison
az ar
ER ING
ĠAnd es
ĠNew port
olog ne
ĠAn j
19 70
ĠZ ap
ĠZ imbabwe
Ġtri angular
Ġcur tain
Ġcur riculum
Ġexpl ored
Ġmoment um
pr act
con f
OR N
Ġsqu eal
umb el
ĠCan ter
eng ing
iqu ity
Ġve t
ĠSh ore
Ġcop ied
Ġcre m
ourn als
Ar mor
Ġprop osing
Ġaccept ance
Ġneg lected
Ġant id
Ġfre aking
Ġbill ions
Ġmach inery
gu er
Ġemb ry
200 8
Ġbattle field
Ġrob ber
Ġcampaign s
ij k
Le on
Ġlack ing
agon ist
ĠBu enos
Ġlock er
199 0
ĠFather s
Ġstream ing
Ġstret ching
Ġsymbol ism
Ġtong ues
ĠGO P
Ġweekend s
Ġshr ine
Ġfurn ished
Fran z
Ġlimit ations
Ġlegisl ative
Ġintegr ity
Ġancest or
ĠCharl eston
Ġperman ently
Ġcorrespond ing
Sub titles
whe el
ĠForm ula
ĠGi ants
Ġdistract ed
iors en
rep resent
Ġdrift ed
Ġrib bon
Ġassess ment
Ġdistur bing
Ġavo iding
ĠJenn ifer
Jac ob
Ġchlor ide
Ġprosper ity
Ġsurviv ors
Ġpursu ing
ĠSongs han
izar re
Ġprecip itation
ĠLt d
Ġorche str
ĠHeavy weight
ĠBened ict
Ġsout heastern
ĠDalm at
A U
A gent
B attle
D isc
M U
O SE
S ort
S aw
S ax
W anna
W olf
c in
f al
g ard
g ang
k ill
k op
o ic
p his
s ch
s erv
w ang
Ä Ł
Ġt ourn
Ġa i
Ġa le
Ġa pe
Ġs ulf
ha ven
Ġb od
Ġm ourn
Ġf ountain
Ġl oses
Ġl amps
Ġg uts
Ġn aming
ĠI stanbul
us ters
ion a
id en
id ated
st adt
se mble
Ġst atic
ĠA na
ĠA ires
ĠC rom
ĠC ool
Ġk ite
ĠM end
ĠM ey
Ġdo ve
ge ance
th ia
ĠW ol
ĠW elcome
Ġr attle
ĠD E
Ġcan e
ĠG em
ĠG iant
um m
ĠR ising
Ġsh ores
ĠF res
ĠL ah
ĠL EA
ĠL aili
ig ue
ig ator
Ġup wards
qu estion
Ġher d
ĠJ oon
Ġout break
Ġpl ac
ĠE ventually
ĠO dy
ĠO bs
ĠO UR
ĠK in
ĠK ill
Ġtw ilight
are well
ne e
ne xt
act ually
ount y
per ors
ans om
Ġbr ow
omet er
Ġam mon
ang es
ho e
Ġdis put
ign y
ip ing
land ers
Ġsm iles
Ġcar b
Ġ3 60
ran ium
Ġrec oll
Ġcr ashing
Ġend emic
up i
Ġhar bor
Ġacc idents
ener y
Ġbo ast
Ġbook ed
Ġcent res
19 80
Ġfact ories
AN K
ĠBut ter
Ġtrans it
Ġtri ump
Ġins pection
Ġ9 00
ĠBe ijing
Ġprom oting
Ġjo ins
Ġbas kets
Ġprot otype
Ġdiv iding
Ġsol ving
Ġswe ater
ĠLe ices
ĠLe eds
Ġdem o
ĠSe aton
Ġrequ ests
ĠSha olin
Ġhair s
RE AT
Ġ13 0
Ġtable ts
Ġpract icing
Ġpaper work
Ġrad ius
IS E
Ġdraw s
Ġhy mns
CH ING
Ġda isy
Ġris ky
Ġbull y
ĠGl ou
Ġaut o
ĠSm art
Ġfund ed
ĠPer formance
200 1
Ġpack et
Ġsal vation
Con f
sequ ently
Car ol
ĠCom merce
Ġparticip ants
IF E
Ġwilling ly
ĠBet ter
Ġoccup y
ĠSuper intendent
ĠWin chester
ĠNat ural
ĠMars h
Ġfra gments
ĠMel issa
Ġneighbor ing
Ġscream s
Ġinstit ute
Ġboo ze
osa hedron
Ġdisci ples
Ġachieve ment
Ġcontain er
Should n
Ġshock ing
Ġpoison ed
Ġvari ations
Ġveget ation
ĠLight ning
ĠVen us
Ste ven
Ġmole cular
Pre pare
Ġcruel ty
Ġtur key
Ġprovin cial
ĠTa ft
sen al
ĠAp ollo
Ġguarant eed
ĠMah m
Ġconclud e
LAUS E
Ġprosec utor
uji ro
Ass y
Ġregist ration
Ġrit uals
Start ing
ĠCamer oon
Ġpatri ot
ĠGriff in
offic ial
ĠMack ay
Bi ography
Ġsolic itor
hur st
ĠMiy amoto
Ger ald
Mod ern
Ġtelesc ope
Ġtheoret ical
Ġtad p
Ġchall enging
Ġexorc ism
A cc
C D
F B
F ried
G reek
H um
H istor
M T
P erson
R ather
c uit
f unction
g ae
l est
l ance
o i
p ublic
t ill
v ance
z ac
z ens
Ï ĥ
Ġt sun
Ġs erm
Ġo v
Ġc ured
an ie
Ġd ome
Ġin land
Ġl ick
Ġl akh
et o
Ġbe ep
ut ton
Ġre cip
ad itional
Ġst rap
oo ping
ĠC er
ĠC el
ĠC reat
Ġas ylum
ĠH um
ĠH ancock
il ib
ĠB orn
ĠB achelor
ea pol
ĠP ale
ĠP orts
ĠP RO
ĠT oo
ĠT able
ĠT ED
ĠT AL
ĠT Ã³t
un ge
ul ates
Ġ" ",
ĠW orth
Ġr uff
ĠD AY
ĠG ul
ĠG othic
ĠF O
ĠL ot
ĠL aughs
han ie
em ark
Ġout door
Ġpl a
Ġpro g
ĠE sp
ĠK un
ous se
Ġag g
Ġsp a
ĠU sta
Ġover board
Ġro ster
omet own
ff s
Ġam pl
Ġbl onde
ĠIn vest
av ier
Ġdis rupt
In n
Ġpo ets
ile en
Ġcour tyard
de en
de al
any a
Ġrel ocated
ĠAr ist
Ġsl im
ah l
ĠMar co
ple nd
ER AL
Ġmon ks
Ġrun way
ph il
ject ion
Ġsw amp
Ġinv iting
Ġmet ric
ĠRe in
ĠRe form
Ġinc on
ĠZ a
Ġind ifferent
Ġrep ent
Ġgener als
Ġ7 6
Ġ7 9
20 19
20 15
Ġ10 3
ĠBl oom
ĠCon cer
co x
Ġopp ose
ĠPres idency
Ġest e
oint ed
ĠPl anet
Ġsum mar
Ġsum mat
sy stem
Ch urch
Ġav iation
ĠPresident ial
Ġhusband s
Ġprotect s
ĠIndian apolis
Ġhy brid
ĠEx hibition
Ġvict ories
ĠSchool s
Ġsimilar ly
cher y
ivid ual
Ġaud itor
ĠĠĠĠĠĠ Ġ
mon th
Ġmeaning ful
ĠBy z
Ġthreat en
Ġpsych oan
Ġimm igrants
Ġintern ationally
atin um
IR L
Ġmechan ic
Ġdom est
keep ers
Ġconsum ed
Ġappreci ated
Ġsequ ences
Ġjournal ists
Ġfra gr
ALL Y
Ġcomment ed
El izabeth
Under stand
does n
Ġimpl ies
Ġdistinct ly
ĠAv iation
Ġhabit at
ĠInt elligence
Ġcommission er
Bob by
worth y
ĠDun can
ĠEve rett
Ġhousehold s
Ġindu cted
Ġdea rest
Ġcant on
Ġmonarch y
Ġpremie re
ĠLyn n
Ġconstitu ency
Carl os
Ġsab ot
Ġod or
Dun no
Ġmurm ured
à¥ į
ĠGon z
ĠSax ony
unci ation
Ġelector al
Ġapprent ice
Ġpean ut
ĠBerm uda
anth rop
Ġeyew ear
ĠCÃ´ tes
Ġinflamm ation
âģ Ħ
B uy
C hat
C HE
D ale
E li
G one
G onna
H all
K e
K ar
L ots
M organ
N ic
P T
P ublic
b n
d ry
d river
g od
m orning
n al
p ter
p rom
p ick
s ama
u en
u pt
w art
Ï Ģ
Ġt ummy
Ġa lex
Ġw i
on ian
ha st
Ġp uri
Ġp agan
ar b
Ġl am
Ġg ast
ic osidodecahedron
Ġh ive
al one
Ġha unted
Ġbe ams
Ġre cl
Ġre organ
ĠS V
ĠS tern
ĠS ung
ri gue
Ġst unt
ĠC T
ĠC ore
ĠC OULD
ĠM orton
ur ities
Ġse wing
ĠH ands
il iation
ĠB od
ĠB ak
ĠB UT
ĠB aptist
op ot
ĠP eyton
ĠT ru
ĠW R
ĠD ub
ĠD over
Ġde emed
Ġcan oes
Ġall ey
Ġab du
Ġsh ifts
ĠF ul
os se
ĠL P
ĠL ux
ĠL anguage
ry s
ĠE qu
ĠE nergy
Ġv olleyball
Ġman agers
ĠK as
Ġany time
ag les
ĠU H
Ġro ok
Ġun anim
ĠV ish
ru ctive
Ġdis respect
Ġthr ows
Ġco ats
Ġlong ing
get ting
ars ity
ss on
ham med
mber g
Ġmon keys
ĠAl most
ĠWhat ever
ins ki
ĠRe ady
ĠGod dess
Ġinc idents
AN CE
Ġbad ge
ina e
Ġdisc retion
ĠFr itz
ĠFr aser
sh ima
fl owers
Ġri bs
Ġpar an
Ġpar ables
Ġdef ines
con ne
Ġste ering
Ġvis a
erv atives
Ġve x
ĠTr aining
Ġdel ta
Ġz ones
Ġra is
ĠMin ot
Ġsn iff
ĠJo el
rit ers
Ġmer ger
ĠHer old
Ġcurrent s
Ġcal f
Ġsuper natural
col or
ĠSer pent
ĠMc Mahon
Ġang rily
Ġphot ograp
Ġhealth care
Ġsail s
Ġrain fall
arth y
Ġbull ying
Ġident ification
Ġinf inity
iny l
ĠQu aker
IT Y
igg les
200 2
Ġhistor ically
Ġbeha ved
John son
Ġfoc uses
ĠPat ty
ĠBo hem
AC T
ĠSch ol
ĠSat an
Ġ189 4
Ġ186 5
ros se
Ġemer ging
Ġdisp osition
Ġadminist ered
SE L
Ind ian
will ing
Ġpir acy
ĠBas in
Ġdetect or
ĠHam let
umn i
Ġsubs cription
ĠProt ection
ĠMax well
ĠPlay ers
Ġachieve ments
Ġune asy
Ġcas ino
Ġpoison ing
ĠBull dog
Gl ad
Ġdu o
Ġconvin cing
Ġelev ation
ĠRich ie
Ġpuzz led
uls ion
Ġelephant s
ĠGre ene
Trans port
ĠHog arth
Ġmos qu
Ġcoc aine
Ġmotiv ation
Ġisol ation
Ġperce ive
Ġtermin us
aund ers
Ġobser ver
ĠRem ember
HEN RY
Hope fully
Ġgig antic
ĠCham bers
Ġignor ant
Ġvolcan o
Ġstruct ural
ĠJen na
Ġfet ched
ĠPhill ip
ĠOt to
Ġflex ible
Ġrecru ited
Ġoverwhel ming
ĠVo ice
ĠSlo ven
Ġmathematic ian
Ġenvelop es
, âĢĻ
A li
A part
C y
C LE
E ducation
H uman
I r
I TH
K ay
R oy
S now
W rong
Y EAH
f les
g le
o irs
p ast
r ative
r ising
u ish
Ä ĥ
Ġw its
it ably
Ġb inding
Ġf ry
Ġf ury
Ġd uration
Ġp owered
at ical
as o
Ġg erm
om es
ow ard
le ave
Ġbe ak
id ad
Ġe we
im an
im ble
im portant
ly de
ĠS Ã£o
st hm
st hetic
ĠA zerbai
ĠC ave
Ġu ranium
Ġan ime
Ġse iz
ĠH ir
ĠB Y
ĠB ot
ĠB ly
ĠB ran
ĠP ig
ĠP ont
ĠT ree
ĠT ax
Ġj ournals
ĠD od
pp led
ĠG ener
ĠG ert
Ġall ocation
ĠF isher
ĠL aughing
ig ne
ĠE ye
Ġex otic
ĠO m
Ġman ga
ĠK ash
fe it
ish ly
Ġgr ants
ans k
Ġbr ace
erm ont
pl anes
iz en
Ġwhere by
ĠV i
Ġte ch
cl osure
Ġunder water
Ġfl ipping
Ġapp lying
Ġper fection
ool s
Ġcomm itting
Ġsc ope
Ġsm ash
aw ang
Ġcr umb
Ġche ering
Ġfin s
IN TER
IN CT
Ġpres ume
ĠMar ion
Ġbo iler
Ġinv ari
aj a
Ġstud ios
oun ces
ĠAn at
Ġpop ping
Ġ6 3
Ġimp osed
Ġrest less
Ġopen ings
ĠZ ack
Ġtra its
Ġdisc ontin
Ġland mark
20 20
do ing
Ġri pe
ĠCl air
Ġexpl ode
ĠCar rington
eb ook
Ġleg acy
ĠCon struction
arr ant
alth y
alth ough
Ġreason ing
Ġorgan ism
eng ine
Ġball oons
ĠAd ela
Ġtem p
Ġexpect ation
ĠOr land
ĠSe oul
Ġrock y
Ġstat ues
Î¿ r
com pl
Ġbox er
Ġpost p
hys ical
ĠMc Gee
Ġpolic emen
Ġdoub les
Ġclos ure
De ep
Ġenv y
Ġwild erness
ĠBur ton
Ġaff irm
Ġsand wic
Ġrap ed
Ġcontact s
umber land
isf ied
Ġweak ened
Ġ188 4
ĠChe ster
ĠArab ian
Ġharm ful
ĠSuper man
Ġbal cony
Ġbrave ly
Ġflo ated
Ġut tered
Ġgraph ics
Ġpill ar
Ġshr imp
Ġbride groom
Fran cis
Ġcrown ed
Ġspell s
Ġdistinct ive
ĠOl ive
ĠOl ivia
ĠTre vor
Ġexplos ive
Spe cial
Ġmerchant s
ĠCub an
Ġtorn ado
attles n
ĠEle anor
bro ken
Ġexplore r
OH N
ĠNever theless
Ġfulf il
ĠLiber al
ĠBeat rice
Ġconfident ial
Ġprivile ges
ĠWars aw
Ġec st
Ġeval uate
ĠKnight s
ĠEconom ic
ĠMP s
Ġsculpt ure
ĠAnim ation
Ġtract or
ĠProgram me
ĠEngine ering
Ġcultiv ated
REAM S
Ġcreep y
Ġparam eters
PH ONE
Ġprocl aimed
ĠChes hmeh
Ġshove l
ĠHaj ji
Fr iday
ĠLeban on
Ġhorm one
ĠHoseyn abad
ĠValent ine
Dire ctor
Ġrept iles
Ġmicrow ave
ilib rium
: )
B all
C oun
C ourt
E conom
F ifty
G I
G erm
G osh
G iven
H an
H ook
H undred
J ud
J ones
L ucky
M ir
R od
R ub
T l
V ING
c ur
c ool
d al
g us
k iss
p oor
s ie
t is
t ub
t aken
u ble
v ial
Ã ĥ
in qu
Ġw u
it one
Ġb ureau
Ġb izarre
Ġo re
Ġo ceans
Ġm oth
Ġm akers
Ġm oustache
Ġf ain
Ġf aded
or ient
Ġp ear
Ġp oop
at ha
Ġl av
Ġg ren
Ġn odes
ve red
Ġh ometown
al in
im ation
am ins
am ination
ĠS kin
ĠS AY
ad ier
ĠA ce
ĠA uckland
ĠM ang
ĠM oses
ĠM ovie
ĠM GM
ur able
Ġdo st
ĠH atch
ĠH mm
ĠH aving
ĠB rend
Ġli vel
op ol
ĠP u
ĠP ha
ĠP retty
ol an
Ġ" (
ĠW ii
Ġr ash
Ġr uth
ĠD und
Ġall ied
ĠR ange
ĠR osa
ĠF o
ĠF ifth
ĠL af
Ġup gr
Ġwor ms
Ġsa u
ĠE VERY
ĠO oh
ĠK re
ĠK angle
ĠK itty
Ġint act
ag ascar
itt ees
Ġpe nd
Ġpe ac
iv ities
ĠHe isenberg
Ġsp ared
ci le
Ġro gue
Ġro pes
Ġen abled
Ġen listed
hy la
Ġwhere in
ĠV all
ĠV iolet
Ġdis ast
Ġser oton
ull ah
Ġthought ful
de v
de ep
Ġnum bered
Ġhar ness
Ġsl opes
Ã© l
ott le
Ġform ations
ĠNew man
Ġsw ell
Ġmet aph
Be hind
Ġhard est
Ġinter course
Ġtrans cend
Ġtri ll
20 14
Ġhold er
Ġcur sed
Ġgi ants
Ġexpl oration
ush ima
oon er
An ge
Ġpresent er
ĠFor um
Ġoper ational
Ġrece ipt
Ġfire fight
Ġve ins
ĠTr ue
Ġbar on
Or der
ousand s
Î¿ w
Ġcal ories
Ġpriv ately
Ġcharacter ized
atter y
Ġlim b
alt ies
ĠTH REE
Ġmis fortune
Ġobject ion
Ġshar pen
Ġspend s
ĠGl asgow
Mar ion
rill a
ĠMed land
Ġaud it
IT E
Ġemb ed
ils haw
200 3
Ġpersonal ities
Ġrob bers
ĠAnt ony
eg iate
Ġhero in
Ġhero ic
ĠBer ke
Ġ186 0
Ġhall uc
ĠPe rez
Ġmir ac
rav iolet
Ġforeign ers
ĠCom edy
Ġ188 6
Ġguard ian
ĠSund ays
Ġdocument ed
Ġsuspect s
Ġmob il
ĠRec ord
Ġmagn et
ĠSqu irrel
Ġexchan ged
enes is
Ġwithd rawn
Ġlegisl ature
ĠConfeder ates
Ġunt o
Ġspect rum
Ġcorpor ations
ĠSH OULD
ĠNE W
Ġillust rate
Ġven ue
Ġfo am
Ġtender ness
zy me
ĠHay es
haw ks
Ġcraw ling
Ġprofession als
Ġfulf illed
Ġpump kin
Ġcoordin ate
uji i
ithm etic
Ġupd ated
Ġchoo ses
Ġcub ic
ĠMust afa
Ġnic kel
Ġpreced ing
ĠDef ence
Ġmanufacture r
Ġaston ished
Ġathlet ics
onge Bob
Ġje ans
ĠBenn ett
Ġol ive
ĠBurn s
ĠBox ing
ĠNem o
Ġstruct ured
ĠPed ro
Ġgalax y
Ġgalax ies
Ġbloom ing
Ġreserv oir
Ġimmort al
ĠLiter ature
Ġperf ume
ĠPhilharmon ic
ipel ago
Ġtourn aments
B astard
C ity
D u
E arth
F ortunately
H ill
L ost
R oad
S pring
d one
d oll
g ary
j un
o ca
p el
r iss
s burg
Â ½
Ġ 00
Ġthe or
Ġthe ta
re as
Ġs inking
ha ir
it ative
Ġb aked
Ġm i
Ġm otto
Ġf oster
or por
an za
Ġl ull
Ġl uc
Ġg arrison
le igh
Ġh ilar
Ġhe e
Ġhe ights
am ic
ĠS M
ĠS old
ĠC rist
ĠM ult
ill as
ĠH us
ĠH elp
ĠB ath
ĠB irth
ĠB uzz
Ġli king
ĠP asha
ĠT hy
ĠW an
ĠD w
ĠD res
ĠD iane
Ġde let
ĠR andy
Ġor chard
ab is
ĠL iv
ĠL ois
ĠL ITT
ĠN it
ĠN ov
ĠN urs
Ġout line
Ġout law
Ġpro l
ĠO no
ber deen
ud ing
ĠK hal
Ġbr ute
the l
hy th
Ġbl adder
ĠV or
ĠY as
be hind
Ġco arse
ock et
Ġhand ball
ĠCh ung
Ġch ir
Ġch ron
ye ong
ĠAr row
mb i
Ġel imination
ph ins
ĠAl ong
Ġem issions
ĠInd o
ific ant
Ġca ution
ĠBut ler
Ġfr amed
Ġland scap
Ġdra gging
Ġfil mm
Ġtri o
ai ge
Ġwind ing
Ġfoot steps
ik ov
reet ings
Ġ16 0
ĠFran co
Ġallow ance
Ah h
ĠAd ri
ĠMin or
Ġmag ist
yn thia
amb ique
ĠHar bour
com ed
Ġlow ly
Ġtrad emark
Ġcal culation
Ġvers es
ĠTe h
ĠTe le
Ġlab els
Ġver dict
Ġdoub led
Ġmass acre
Ne ill
Ġneg lect
Ġshut tle
Ġrespons es
ĠProv idence
Ġcommand ing
Ġmix ing
hold er
Ġsal am
Ġsand y
Ġdig it
Ġaddress ing
Ġmedic ines
Ġpsych o
ĠBo oth
ĠSal vad
Ġhall s
ĠJul ius
ĠÃ ĥ
Americ ans
Ġpred ators
Ġ188 3
ange red
ĠMont gomery
Ġhonor ary
Ġharm less
Ġbal anced
Bet ty
ĠFil ip
Ġrat ings
Ġninet eenth
Ġtransport ed
Ġqual ify
ĠRay mond
Ġ185 9
rs ula
Ġtrick y
Ġautom obile
nat haniel
Ġresist ant
ĠWall ace
ĠJeff rey
want ed
Ġcitizens hip
Ġic on
ĠThanks giving
Ġow es
Cor rect
ĠAv iv
ĠCab rera
ropol is
Rob inson
Ġstab il
Ġexpert ise
ĠCont rol
ĠCla ud
IST INCT
ĠProtest ants
Ġprofession ally
Find ing
Ġfer ment
Part y
Ġbold ly
Ġinput s
Ann ouncer
Ġconfront ed
ĠArm strong
ĠGriff ith
ĠMong ols
ĠOrigin al
Kn ock
ĠLau rie
Ġlocomot ives
Ġpi geon
ĠAud rey
ĠPeters burg
ĠMichel angelo
sse us
Ġaggreg ate
ĠEug ene
Ġintu ition
mid t
Ġplung ed
ĠPresbyter ian
ĠLives ey
Ġnutri ents
Ġthres hold
role um
ĠCanter bury
( _
A GE
B uzz
C our
C LA
C amer
D one
E ss
G or
G rey
K ent
M as
O FF
P ost
W A
W N
Z e
d ifferent
g own
g og
k un
l ene
l ength
m ovie
p aper
r ather
s i
s ol
v iv
Ġ ),
Ġt be
in v
re ement
Ġs han
Ġs acks
ha il
is han
is ive
it ations
it ational
it ives
Ġc herry
Ġm ing
Ġm im
Ġm ourning
ing thou
an cial
ar u
at abad
Ġl odge
Ġg am
le e
le ading
Ġhe ter
ut ations
ĠS ighs
ri ous
ri ving
ir ting
oo ped
ĠC ou
ĠC ulture
Ġan onymous
ĠM V
Ġdo zens
ĠH ope
Ġli vest
ĠP itt
ĠP EOPLE
th ouse
ĠW i
ĠD S
ĠG rig
Ġsh ifting
ĠN Ã´m
Ġthere after
Ġcom in
ry an
res ist
Ġpro hib
ĠE b
ĠE duc
Ġex cell
It alian
ĠO PEN
ber ger
ĠK o
ĠK arn
Ġsp at
Ġsp illed
are h
Ġro ared
erm aid
Ġam used
Ġcomp rom
ov anni
ĠV ladimir
ĠY am
Ġpre val
Ġfl ashing
Ġapp end
Ġmean ings
Ġlong ed
Ġfound ers
Ġch icks
Ġch ugga
irl ing
Ġhar mon
Ġsl ides
Ġacc la
Ġpres idents
Ġdec ay
ret a
Ġseem ingly
ier y
uff le
let te
AN ING
Ġfr own
Are a
Ġhum id
Ġexp elled
ĠQ U
Th ird
sh ort
br ates
Al ong
Ġins erted
Ġty ran
Ġes e
Er asmus
Ġpresent ations
Ġcor rel
Ġrece iver
Ġeight eenth
ĠTr ains
ĠPl aces
ĠComm unications
Ex amples
ĠSh it
EN TS
Ġdear ly
Ġcre ed
Ġdark er
Ġtable t
Ġdi arr
ĠHer bert
ĠCol onial
Ġdep ot
Ġdraw ings
stit utes
Ġstre ak
Ġcollect or
Ġport al
Ġinvest ed
ev iÄĩ
Ġimag inary
Ġtrack ing
Ġdoub ts
Ġcomb inations
bor ne
Ġcool er
ĠMon ica
Ġfund ament
ĠJim s
bour g
Ġavail ability
Ġredu nd
Ġdry ing
ĠRichard son
Ġindepend ently
Ġfort unes
Ġ189 9
ĠWil bur
Ġemer ge
Ġdisp osal
oph one
ĠArt ie
ĠArt icle
ĠMike y
Ġtele gram
rid ges
ĠDO OR
Ġ185 8
Ġinha b
ĠAng l
Ġexpress ions
Ġ187 8
Ġbat hing
Ġmax im
ĠGO ING
Ġmaintain s
Ġboo st
Ġtun nels
ĠSpe ed
ĠMore over
Ġescap ing
Ġblank ets
ĠCle ment
des ign
ĠMem phis
Col umb
Ġow ed
ĠSom me
cript ions
Ġintegr ation
Ġsed iments
LAUGH ING
ĠCab in
ĠTra il
ĠStan ford
Ġelev ated
sex ual
Ġinsult ed
ĠGib ral
Ġrestrict ed
Ġmars h
Ġgreet ing
Ġclin ical
ĠGro ve
Ġcance led
Ġsuspic ions
Ġconfirm ation
ĠYan kees
Ġaccommod ate
Cent ral
ĠLax mi
Ġvit amin
Ġhaz ard
Wonder ful
Ġamend ments
Ġbarr acks
Fant astic
Ġmead ow
ĠDig ital
Ã¼h rer
Ġarrog ant
Ġenforce ment
ĠHamm ond
ĠFried rich
Ġsaus age
Ġairl ine
Camb rian
unik off
enha gen
ĠZap atti
ĠLITT LE
A ut
C as
C ost
C rit
D I
E lect
F ood
F urther
H yo
P ANTING
R a
S in
W ha
W all
a ism
b read
c amp
c aster
c ards
f o
f il
g io
k ov
k ok
m ies
m ale
n umber
p y
s ense
s leep
w en
z adeh
Ġ âĪĴ
Ġa y
Ġa est
ou che
on te
is i
Ġb inary
or ie
en ment
Ġp us
Ġg room
Ġg azing
Ġg azed
om ic
om ination
ĠI ND
Ġh mm
Ġhe ather
gh urt
ĠS aul
ĠC ourse
ĠC hess
Ġk in
ĠM oul
ch lor
Ġwh oles
ĠH ear
ĠH ond
ĠH oney
ĠB ett
ĠP ry
ĠP ink
ĠP ors
ĠT ong
ul k
Ġj ohn
Ġj ingle
ĠD ame
Ġcan al
Ġal ibi
Ġal gae
ĠR ip
Ġby pass
ĠF ri
ĠF ate
ĠF oot
os ome
os ie
ĠL ut
ĠL ad
ĠL il
Ġcon form
Ġcon dom
ĠN ak
ĠN ile
ĠN ingthou
han i
Ġup l
ĠJ asper
ĠJ edi
âĢ Ĳ
Ġv ans
Ġv iolet
ap est
ĠK iw
Ġhas h
so ld
ĠSt ella
Ġback yard
act ic
Ġover time
pl ate
Ġun load
Ġun lock
Ġcomp osite
Ġbl iss
ĠV ick
ĠIn stitution
Ġad orn
Ġneed n
Ġdis adv
Ġpo ke
Ġco aches
Ġcomm enced
vel ength
Ġcr ude
Ġcr adle
Ġlea pt
gr own
Ġsl ain
St at
St ra
St ick
ott om
Ġreal izes
Ġgl ove
Ġret rie
Ġsw am
Ġsub stances
Ġcha per
Ġbre asts
uff ed
Where as
Ġimp ose
att a
Ġunderstand s
Ġed ible
br and
Ġeas iest
rop he
Ġcol oured
Al as
Ġair field
Ġ10 2
Ġref uses
Ġgovern ed
Ġins cription
Ġcertain ty
Ġ15 00
eter a
Ġdeal ers
Ġcomple ting
Ġaw akened
ĠPres cott
ĠLe im
Ġpast ure
Ġeng ra
ĠOr d
Ġthank ful
Ġmemb rane
Ġcir cl
Ġcho ked
Ġhair y
With in
Ġmer chand
Ġgra pe
ĠEd ie
uri an
Ġcat ches
Ġpress ures
Ġhang s
Ġ24 0
Ġarm our
iny i
Ġhospital ity
Ġdepend ed
Ġenv iron
200 4
Ġrid ers
Äģ d
Ġdoubt less
ĠMal hotra
Ġcelebr ities
inc eton
Ġbi ography
ĠBel mont
Ġess ays
Ġsuit case
Ġsle e
Ġcontact ed
ĠChan cellor
Ġgradu ates
Ġfashion able
imp se
Ġmeasure ment
Ġtele g
ĠWin ston
some body
Ġscrew s
Ġinstru ctor
ĠSl av
ĠMer le
resp ons
Ġcerem onial
WH O
ĠTown ship
Ġdram atically
Eng ine
Ġfurn ace
Ġmyst ic
Ġnom ine
Ġjoint s
ĠDor othy
Ġsuck ed
ĠJon as
Ġpool s
Ġcontest ants
ĠRh Ã¶n
Ġflood ing
Cha ir
Ã¢ t
Ġrang es
Ġprotest ed
Ġillust rations
Ġconduct ing
Å¡ e
Ġped est
Ġmart yr
ĠRepresent ative
Co V
bro ok
ĠIndones ian
ĠLiber ty
Ġextend ing
Ġtwin ned
Ġbark ing
ĠIr ving
ĠCamb rian
Ġdecre ase
mount ed
Ġparam eter
ĠQueens land
ĠLax minarayan
Ġdrown ing
Ġpropag anda
ĠBert ie
Ġrevers ed
Ġfemin ine
Ġpyram id
Ġphilosoph ical
Ġworshi pped
Hea ven
Ġreinforce ments
Ġmatt ress
Ġsacrific ed
ĠExcell ency
Ġambit ious
Ġsib lings
Ġcav ity
Ġcham bers
Ġinval id
Ġgosp el
umbel ina
ĠVish nu
ĠBly the
Ġsandwic hes
Ġdisast rous
Ange la
? -
A ub
C re
D eal
F all
F riend
J ill
J udy
K a
L l
L ot
M M
M OND
P D
R ober
S hame
T ex
X inyi
b ies
c ue
c ars
e ither
g iven
h ig
i rie
l at
m ile
r ab
t oday
t rees
w ave
w agen
Â £
Î »
Ð ¾
Ġt utor
ou lt
er i
er ting
Ġp ushes
Ġl n
ot hing
Ġre hab
ac ies
ac hers
ĠS age
ĠS pect
ĠS hoot
ĠS ullivan
st ation
ri que
Ġst ability
ĠA by
ĠC HE
ĠC IA
ĠC yrus
all ic
Ġan ore
ce ls
ĠH D
ĠB ac
ain ty
ĠP H
ĠP ast
ĠP erson
ol ph
Ġr idge
Ġj aws
ĠD R
ĠD ee
Ġde ities
ĠG ha
ĠG ur
ĠG ap
ĠG hana
Ġal as
ĠR uth
ĠR ule
ie nd
ĠF ab
ĠL ess
ĠL ONG
red it
ĠJ oh
Ġout ward
Ġpl under
Ġpro stitute
ĠE C
Ġex terior
Ġv arsity
And y
ud ed
ĠK end
ĠK ens
ag in
Ġright eous
Ġar ithmetic
so cial
ci pl
Ġro aring
Ġwork shop
Ġen closed
ub ble
hy a
ru ff
Ġact ively
In spector
Ġpre fect
ĠUn ity
Ġcomm end
Ġsc oot
Ġeven ings
ĠâĢ Ļ
Ġrem ix
Ġrem orse
Ġhand les
ave ment
Ġsha ken
Ġch ronic
Ġmin ers
de c
Ġche wing
ĠBr un
Ã© n
ott ie
und ay
Ġcons ume
Is lam
aj amas
Ġinte ger
omm el
Ġind ication
ĠKing ston
Ġsk irts
Ġimportant ly
ex cuse
Ġgame play
Ġref res
ĠSc ar
Ġins ol
Ġorder ly
AR CH
Ġdevelop s
ĠBl u
ĠBl ood
Ġmark ers
ode on
Ġspec imens
ĠSouth west
Ġprogram mes
Ġdesign ers
ĠTr in
ĠPl ains
Ġtrain er
ĠSe ung
Ġsil ently
Ġdest ructive
Ġsn atched
ĠJo anna
amb ig
Ġtreat s
uk es
Ġstar ve
ĠGu ang
ĠEd wards
Ġcompet itors
Ġsuper market
Ġdraw ers
Ġdev ils
Ġcos m
15 0
Ġda res
Ġbene f
LE Y
Ġpot ty
Ġvol at
Ġident ifying
Ġgar ment
Ġlength s
Ġwel comed
Ġap ost
Ġwa velength
Ġcab bage
Ġble ed
Ġlog o
Ġreve aling
otten ham
Ġrepe ating
ĠPe ck
ĠMag ic
ĠMont ene
199 7
ĠBro oks
ĠHaw k
Christ opher
Com plete
Ġclock s
Ġuniform s
Ġlibr aries
Ġgrave ly
quar ium
Ġentertain ed
Ġcomment ary
rain ts
Ġmel ted
Ġmuseum s
RA B
Ġfold ing
Ġnom i
ĠConfeder ation
ĠDra ke
Ġstir ring
ĠHu ang
ĠGuard ian
Ġing en
ĠCho i
Ġphen omena
Ġdistingu ish
Ġcorrespond ence
char acter
Ġpreced ed
oland e
tit le
ĠMoz illa
Ġvel vet
ĠChile an
ĠLO VE
Ġtempt ed
ĠHug o
Att ention
ĠCour ts
former ly
Ġimprison ment
Ġprev ents
ĠProp het
Ġtid y
Ġther mal
Ġsymmet ry
ĠWes ley
Ġprejud ice
ĠBret agne
abul ary
Ġhier archy
Ġtribut ary
Ġshat tered
ĠWiz kid
oct ahedron
ĠGU Y
ĠTas man
govern ment
ĠBeet hoven
ĠHokkaid o
ĠOrland o
Ġmetaph or
. âĢİ.âĢİ.
? --
B al
B oston
C ole
C otton
E LE
G yp
H op
H ung
I ke
K aren
L ive
M B
R u
S ant
S ally
S IR
T ay
T old
b ows
c our
c reat
c atch
c ats
d raw
m ese
n ant
r ude
v ian
w y
y re
Ø §
Ġ ounce
Ġ ÏĦ
Ġt its
Ġa ux
in ia
Ġw oe
an z
ll a
Ġl ing
om ac
Ġh ose
Ġh over
ay e
Ġbe held
im at
Ġre write
ver b
ĠS ul
ĠS ex
ĠS hana
ri ots
ro c
ad m
ĠC arson
Ġk ins
ĠM ail
ĠM iguel
Ġdo ses
ill ation
ĠH AND
Ġnot ation
ĠB ib
ĠB eautiful
and ar
Ġat tain
ea p
ĠT u
ol ith
ol ism
ĠW ing
ĠW his
Ġcan on
Ġcan vas
Ġal gebra
ĠL Ã©
em ption
Ġshe pherd
Ġpro long
Ġex cluded
Ġv ir
Ġjust ified
Ġsee ks
Ġar se
Ġsp anish
Ġsp aghetti
ĠU tt
Ġcl aw
ass ing
ov ah
Ġad vers
har f
Ġbet ting
ang les
av irus
Ġcont ing
Ġgu er
ren ched
ens on
Ġfl ap
Ġfl ush
Ġbefore hand
li ked
Ġ18 50
Ġrel ates
ĠBr ain
Ġac he
IN SON
ph ur
Ġwar mer
Ġcha k
ĠZ el
uc lear
Ġtrans plant
Ġart if
Ġsk et
ĠPr ussia
Ġref lex
Ġequ ilibrium
ĠCar lo
Ġpar cel
ik iped
Ġmark er
Ġpur ity
ĠThat cher
arr as
Ġcor ridor
Ġopp osing
Ġ12 8
bo ats
Ġdel ic
ĠMan ila
Ġz oom
Ġrev ived
ĠFrench man
Ġmag ician
Ġprocess ed
Ġsun rise
ĠHar riet
ĠBar nes
she ll
Ar m
Ar ch
Ġauthor ized
Ġeduc ator
Ġsett ling
Ġcos mic
Ġep id
GH T
Ġple aded
Ġproduct ivity
AS H
Ġet her
Ġbene ficial
Ġide als
rug u
Cl imate
Ġsubject ed
LE T
ĠGl oria
OW ER
Ġintrodu cing
af ia
Ġconsider ably
Ġsad ness
Ġfavor able
Ġconv ict
Ġsens ors
Ġemploy ers
ĠComp an
Ġbra kes
ĠPat el
Ġir ony
Ġir rig
Ġanal og
Ġfault s
Ġdisp ers
Ġge ography
Ġ188 8
Ġscreen play
Ġreported ly
Ġcart ridge
Ġprevent ing
Ġkingdom s
Out side
Ġbrand s
pret ty
ĠLy dia
izz ard
ĠPlay er
Jack ie
Ġpoison ous
Ġconflict s
SB G
Ġrac ism
Ġevolution ary
ĠAli abad
Ġrhy me
Ġconce al
uls ive
Ġbul b
Ġsan itation
Ġpension ers
Ġearthqu akes
NO CK
mic hael
Ġment ions
Pres ently
ĠCop enhagen
Ġsacrif ices
Ġthread s
Ġpron ounce
ĠSin ak
Ġtoler ance
IG N
gas ps
Ġwreck ed
Ġnic er
Ġinteract ive
ĠBry an
adi ator
ĠChap el
Ġathlet ic
ĠCard inal
contin ental
might y
Ġpolite ly
Ġmonitor ing
Ġobst acles
Pe ace
Ġpeep ed
ĠSult ana
fr ame
Ġreun ion
Ġadvis or
ĠJenn ings
Ġrecurs ive
ĠCors ica
Ġattribut ed
Ġcomprehens ive
Wal ter
Ġplaint iffs
ĠGT P
Scot land
Ġextrater restrial
ĠPint upi
TIN UES
ĠGust av
ĠâĢİ .âĢİ.âĢİ.
Ġcrocod ile
ĠGann ibal
ĠGuer rero
Ġinnoc ence
ĠChallen ge
Ġdenomin ator
Ġmelanch oly
kop f
ĠGlou cester
ĠAdela ide
orpor ated
Ġlivest ock
Ġenviron ments
A II
C ook
D ouble
F inal
F arewell
I a
K al
L aura
N ear
P en
R ome
R ound
S ection
S lyne
U sed
V in
X indian
b od
d ue
d rawn
g ov
h n
j ing
k ir
l ob
m oney
n ation
n ob
r ar
r ained
t imes
w reck
y ellow
y amba
Ð ½
Ġ ion
Ġ à¦
Ġt rophy
he a
Ġa ver
is ans
Ġc uz
Ġm ant
Ġm antle
Ġf f
or um
ll e
Ġd it
Ġd izzy
es ian
Ġp all
at ism
Ġl os
Ġl ousy
Ġn ought
Ġh ic
Ġh ub
Ġh ike
us p
ent er
im ming
Ġre igned
ac hael
am atic
ĠS ep
ĠS EC
ĠS aunders
st antly
ĠA br
Ġme ga
ĠC ovan
ĠC ologne
all ow
Ġk ar
Ġk alie
Ġan ten
ce lyn
Ġse greg
ĠH od
ĠH IV
Ġnot ebook
ĠB A
ust ain
ĠP D
ĠT rib
th ird
th irds
ul ously
ĠD j
ĠD ion
pp el
ĠG ren
Ġso cially
est ing
Ġab bre
ist les
ĠR s
ĠF ly
ĠF ir
ĠF ounding
os l
ĠL anka
ĠN ats
qu ick
ra il
ack en
Ġjust ify
He h
ĠK ids
ĠK enneth
fe el
Ġar oused
Ġpe el
We ndy
Ġcl inging
Ġcl umsy
reat hing
na h
ass ed
Ġbr ides
ord ination
Ġpart ing
Ġun pre
oy o
Ġbl unt
ĠV ia
ĠIn s
Ġdis may
ĠY ep
oc us
oc ide
oc chio
Ġbu gger
Ġpre fecture
Ġper former
Ġer ase
Ġtalk in
Ġcar rots
Ġdes irable
ĠAmeric as
Ġrel ieve
ĠAr ms
gr ow
Ġche que
Ġsy ll
Ġbit ing
Ġwar riors
Ġstr ata
Ġlist ing
19 60
Ġev ap
Ġmed itation
Ġbro ok
Ġed it
Ġgener a
Ġtri vial
20 18
do ors
Ġexpl oded
mor r
Ġpar aly
Ġdet ention
ĠPro f
Ġpat ent
Ġpat ches
ĠCon n
Ġvo iced
la ura
Ġsat isfactory
Ġz ip
ĠSe ason
ĠWill ie
Ġtreat ments
ĠCap itol
ĠHer ald
Ġprotect ive
ĠMe ade
Ġtrad es
Ġmot el
Ġdirect ing
Ġcat ast
ĠLea f
ĠSome one
Ġjud icial
Cl ay
Ġcirc uits
igg ling
Ġwild life
ĠSte in
asion ally
Ġoccur rence
Gr ace
Ġcard board
Ġcard iac
ĠPet unikoff
Ġneck s
Ġgas ped
Ġur inary
pir ing
ĠNor a
Am anda
Ġarg ues
Ġlif ting
Ġmultip lying
._ --
Ġfunction al
Ġge ographical
Mic helle
Ġparticip ating
Ġpoll ut
ĠJud aism
Ġbless ings
Ġfright ening
Ġbutter flies
199 5
Ġappreci ation
Ġchap ters
Te chn
ĠEvery one
Ġagre ements
Ġsli pping
Ġ187 7
Ġsusp ension
ingu ished
Ġgraph ic
Ġshr ink
ĠHung arians
Ġimpl ications
196 2
Ġta vern
Ġancest ry
Comm ander
Ġrot ation
UD l
Ġho arse
ĠFe i
mom ent
Ġsimpl est
Bar b
ĠTim othy
ĠAny thing
Ġphr ases
ĠMid land
Mad ame
uv alda
kel odeon
oty pes
Ġextend s
Ġobey ed
whe ther
ĠAbb as
Ġna ive
Ġorphan age
Ġtempt ation
Ġfierce ly
ĠYan kee
Ġdestro ys
dess a
Ġfib ers
ĠOrigin ally
flu ence
Det ective
ĠPhill ips
ĠIndust rial
Ġsurviv or
Sen ator
Ġjewel ry
Hur ricane
Ġcongreg ation
Gy ver
Ġprest ige
Ġcogn itive
ĠAgric ulture
ĠGRUN TING
ĠGand hi
ĠCrom well
ĠUsta Å¡e
ĠDund ee
Ġseroton in
ĠBerke ley
ĠDres den
ĠSalvad or
ikiped ia
2 50
A k
A riel
B itch
C ard
C row
D ance
E ventually
F lor
G U
G ran
G ene
G AR
I l
I ER
J ake
O s
O ber
P age
P ress
R OM
S U
S ources
T otally
W ish
Y ES
a uthor
b ea
b ler
c hat
f elt
g ree
g old
k al
m ot
m atter
o at
s ent
s hed
t u
u ced
Î ¼
Ï ħ
he h
Ġa pt
Ġthe aters
Ġw ist
Ġw akes
Ġw ailing
is ers
Ġb illy
Ġb olt
Ġo z
Ġc ass
Ġf olly
Ġd ye
Ġto mat
Ġp enn
Ġp arson
Ġp harm
Ġp udding
Ġy um
Ġin verted
at hi
at aka
as im
as ive
Ġg rill
Ġn i
ĠI mm
Ġh ust
al is
al ow
Ġon ions
Ġwe aker
ĠS ever
ĠS ah
st ery
ith uan
ĠC ort
ĠC ALL
Ġk ung
ĠM old
if ford
Ġwh ither
Ġse gments
ĠH ence
ĠB less
ĠP O
ĠP enny
ĠT s
ul o
ĠW a
ĠW ool
Ġj a
our ing
ĠD ha
ĠG am
Ġall y
ĠR ush
art en
Ġsh rugged
ĠF ell
ĠF lem
ĠF IR
ĠL ie
Ġup ward
em aker
ĠJ oo
ĠJ em
ĠJ ung
Ġout going
Ġpl ural
Ġpro ves
Ġdon ation
ĠO ften
He art
Ġcl utch
ĠSt owe
ble ms
pt ical
we ep
Ġun common
Ġun popular
iz ard
ater al
Ġbl aming
ĠV iper
Ġte x
Ġneed les
Ġdis k
Ġpre lim
Ġunder go
Ġfl oppy
ft s
Ġapp arat
ĠUn it
Ġpo ker
Ġco aster
Ġser vers
aw i
Ġrec ession
Ġlast s
Ġend angered
ham a
Ġcare ers
Ġchild ish
gr ounds
Ġche ers
ĠBr itt
mb led
Ġele venth
Ġel oqu
ER Y
Ġrun g
ĠAl wyn
Ġgl impse
Ġadd ict
Ġloc als
Ġwait er
Ġsim ul
Ġind ifference
hm a
Ġref using
Ġcur ry
AT ER
Your s
Ġcommun ism
Ġhope ful
Re ferences
umb les
Ġhon ors
Ġconf isc
ĠCal vin
Ġdream er
Ġadv ancing
Ġcre eping
Ġview ing
ĠCap t
ĠGu ild
ĠEd mund
IS H
IS S
who le
with standing
Ġdeep est
ĠMc N
ĠMc Donald
Ġtrust ing
Ġple a
ĠPart ners
Ġmis er
Ġmouth s
ĠEl m
ĠFrank ie
udd led
ĠSar ria
Ġtro lley
Ġlo af
ĠMo hammed
Ġfeed s
Ġgas oline
Ġoffer ings
Ġcru iser
Ġchief ly
Ġchem ist
Ġ189 2
Ġ189 6
Ġlog s
iot ic
Ġdisp utes
Gu y
ĠÃ ģ
Ġphilosop hers
ĠCom ics
Ġpred icted
Ġguard ed
Ġarchite cts
Ġremind er
ardon o
Ġwhis pering
Char l
Ġfright en
Ġexperien cing
Ġmemor able
ĠBill board
ĠKar im
Ġgall ows
ĠWood y
Ġsli pp
Ġflower ing
rain ian
Ġsem ester
etch up
Under stood
198 6
Ġvalley s
Ġwhist led
Ġconsult ant
Ġtooth p
than ks
Ġped al
UM P
Ã± a
Ken nedy
mont on
Ã§ ois
ĠAg reement
bus iness
ÅŁ a
ĠKan ji
ĠArmen ia
Ġinstinct s
idel ines
Ġgreet ed
ĠMoz art
Ġmanufacture rs
Ġindic ating
Ġsar ah
Ġexcess ive
Ġsculpt ures
Ġaston ishing
Ġsurve ys
Mat thew
Ġinnov ation
ATH ER
Pop ulation
Ġrefuge es
Ġhoriz on
== ==
Gold en
ĠJam ie
ĠStat istical
Rad io
ĠNash ville
Ġturt les
Leg s
ĠFern ando
Ġvit amins
Ġrenew ed
ĠRain bow
Ġexhib ited
Govern ment
PE TER
Ġcompens ation
Ġpione er
Ġentreprene ur
Ġerr and
Jess ica
Ġpengu in
Daw son
ĠAch sa
Ġexca v
Ġembr aced
Ġcommod ity
ĠKarn ataka
Ġinhab ited
- .
B ased
C ab
D or
G ET
H ence
I ce
J en
J ump
K ate
K NOCK
L iving
M ARY
N ad
P sych
P ierre
S is
T ha
V o
V iv
Y an
b out
b uck
b reed
d oo
d ress
e u
f red
l k
r ub
s itting
v ier
v iol
w ed
w au
z h
z io
Ġ à¤
Ġa irlines
re x
Ġs ire
it ially
Ġb ait
Ġf iance
en ch
en ary
es ame
Ġp ies
Ġin hibit
Ġin justice
Ġl aps
om ing
Ġn urt
ic on
ot ive
im eter
Ġwe aving
ver ts
ĠS R
ĠS ob
ĠS ounds
ĠS isters
st own
se ver
Ġst yl
Ġst umbled
ĠA er
ĠC ov
ĠC umbria
ĠC ardono
ur ich
ill ion
Ġkn e
Ġkn ights
ĠP erm
ĠT yp
ĠT hings
ge e
ore m
ĠW B
ĠD oor
ĠD ED
ĠG le
ĠG ad
um ing
est a
ist ent
ĠR ut
ĠF Y
ĠF en
Ġcon ve
ĠN ur
ĠJ ur
Ġ( $
âĢ ¢
od or
ĠE ls
ud s
hi k
Ġsp ur
ĠSt yle
act or
Ġgr unting
ord e
we ek
Ġun sc
Ġneed ing
Ġdis abilities
cl othes
be it
au ld
Ġres on
ath olic
ise ase
ident ly
ĠBr utus
ib ia
und i
Ġgl oss
Ġdec omp
Ġsub mission
Ġchar ging
Ġstr ained
Ġem perors
Ġrest oration
Ġside ways
Ġimport ed
ĠZ ag
uc har
ĠIs is
Ġext inction
ĠTh ought
Ġed iting
sh ops
Ġsk ies
20 16
Al pes
ĠSo ccer
velop ed
Ġmod es
Ġair s
Ġcur led
Ġwind y
Ġ... "
ik in
ĠPro sec
ĠPro fessional
Ġsqu ash
Ġhon ours
Ġoper as
Ġorgan iz
Ġve al
Ġtre acher
Ġadm in
Ġgold smith
ĠMin isters
ĠCha ld
Ġpost card
ĠAfter wards
IC H
col oured
Ġdev ote
Ġcook s
Ġcat alog
see ing
ĠMc Queen
ĠEx amples
ĠEm am
su le
Ġstri pped
Ġmatch ing
Ġsus hi
Ġviol ation
ĠRic an
rel igious
Ġplant ing
Ġbur row
Ġban ner
ND ER
hold ers
Ġye ast
Ġsal on
ĠMor occo
Ġdoubt ful
ĠCong o
ĠKen ny
Ġmeaning less
ĠBur k
Ġbra ke
Ġhonest y
ĠPat ricia
Ġcomfort ably
wr ote
Ġund o
Se vent
Ġ189 3
Ġmir rors
Ġvan illa
Ġ188 1
Ġcrowd s
Ġox ide
onel iness
ĠBu on
Other s
Ġlock s
Ġtarget ing
ĠHi ro
ĠÂ ¹
ĠSant os
Ġcuri ously
Ġ185 7
Sm ackDown
Ġagre eable
Ġwheel chair
Ġ187 9
Ġanx iously
Ġult raviolet
198 9
ĠInter state
ĠBE EN
Ġsport ing
Ġterror ists
Try ing
Ġgang ster
Ġbang ing
ĠKong yamba
ĠEll iott
Comm unes
ĠBrad ley
ĠRam on
oz oic
lar gest
ĠOffic ers
Ġtear ing
Ġreflect s
Ġreward ed
Ġassign ments
vo ice
BO TH
Ġbom bed
Ġfab ulous
ĠCir cuit
Ġpant ing
Ġindu ced
Ġvul gar
spe ed
Ġtoler ate
Ġric hes
ĠOri ent
Quick ly
Ġsynt hetic
ĠSn ake
Chan ge
onom ic
sub ject
Ġvary ing
AF TA
ĠSuz ujiro
isha ble
Ġtrun ks
ĠThom son
Ġdialect s
acha ble
Ġpier ced
Ġalleg ations
Ġunemploy ed
Ġsuburb an
ĠDug gan
Wr ite
Ġrevel ation
Ġenhan ce
abl ished
Offic er
Ġtrump et
ĠSic ily
Ġvag ina
Ġscrat ched
Ġfug itive
ĠÄĢ b
Ġtal ents
ĠPhi ppen
ĠSud an
Ġabrupt ly
Ġmorn ings
ĠRis ca
ĠâĤ ¬
angar oo
ĠProvin cial
Ġsubmar ine
rament o
Ġeyeb rows
Ġtran qu
ĠEduc ational
ĠPors che
Ġtomat oes
Ġapparat us
B ODY
D ig
D ue
J ason
K id
L ab
M is
P ed
R ain
S ire
U G
b id
c ake
f av
f alls
k W
l iving
m our
p oss
r amm
Ġ iv
Ġt ags
in j
in os
re ason
re leased
it he
Ġb our
Ġb ible
Ġb rill
Ġb ounded
Ġb usted
Ġb ishops
Ġc ables
Ġc reek
Ġm u
Ġp ajamas
Ġin clusion
Ġg ifted
Ġh Ã¦
Ġhe aled
Ġbe eps
id as
id dy
am ount
ĠS le
ĠS ame
ĠS ire
st art
st ained
ri ved
ad ic
ke red
Ġst ain
Ġst ance
ĠA riel
ĠC it
ĠC lyde
Ġk im
Ġan them
ĠM am
ĠM Ã©
ĠM atter
ĠM asters
ce ived
ĠH A
ĠH T
ĠB h
ĠB LA
ĠT ino
ĠT ouch
ul ent
ul ars
ĠD ifferent
um atic
ist o
ist ically
ĠR ES
ĠF ra
ĠF ellow
ĠL ate
ĠL ET
ĠN av
Ġup coming
em ia
Ġher bs
ĠJ as
ra pe
ack ed
Ġsa kes
Ġpl ed
Ġpl ough
ĠE u
Ġdon ations
ĠK ap
ĠK ane
ĠK uz
ĠK nox
ure mberg
ĠU rugu
-- âĢľ
ĠSt rat
per fect
Ġgr ind
Ġen ables
Ġen lar
Ġen zyme
og ical
oy a
Ġcomp aring
Ġim part
Ġlet hal
ip ak
Ġapp s
les ide
Ġsc enery
ĠCh opin
Ġhome land
man uel
Ġreg ained
Ġacc using
Ġac oust
St ud
Ġpres cribed
Ġsy rup
az or
Ġsur ge
ters on
Ġdr ought
Ġgl ob
Ġgl owing
Ġmet h
Ġcent ered
ĠRe formation
ĠAn imal
Ġpass ages
Ġbre ach
ier o
Ġinc ap
Ġfr ames
Ġind istinct
Ġrep airs
br is
Ġ10 8
Ġmill er
Ġ9 11
Ġmiss iles
ush man
ĠChrist church
Ġcontin uously
Ġpar ach
An gel
Ġpolit ically
Ġsqu irrel
co ffs
Ġste amer
Re ception
Ġpick le
Ġswe eping
Ġspec ified
Ġfire works
Ġstation ed
Ġten ants
Ġpast or
Ġcost ly
ĠSe o
amb led
Ġfav ored
ĠBar ack
Ġcry stall
ĠGerman ic
ĠEd monton
Ġill ustration
Ġexcept ional
Ġpen insula
Ġsocial ism
Ġviol a
Tr inity
Ġris ked
Mar riage
ĠCor p
Ġaccount ing
AM P
Ġemb ark
Ġgar lic
Ġmid field
ĠJe kyll
play er
que z
ĠMad agascar
ĠComp uter
hand s
Ġreview ed
ĠNor folk
Ġimm igration
Ġimm unity
Ġpet e
Ġpet ty
Ġdisp osed
Ġopt imal
Ġmir acles
ĠMat hem
Ġ188 5
iber kopf
Ġheaven ly
Ġcontent ed
Ġwhis ky
AD E
Ġmission ary
199 9
ĠBrown s
aren ce
Te am
Ġfra g
Ġfra gment
ĠAng ola
ĠMer cy
Ġsli ppers
Ġut most
ĠVer a
Ġmel od
Ġescap es
Ġflag s
Ġeth ical
Ġded ication
Ġkil og
Ġcheer fully
ĠBull s
Ġunus ually
riz ation
ĠNic ole
Ġintegr al
Ġancest ral
Ġfolk lore
ĠTra vel
Ġexplos ives
Ġrecommend ations
Ġven geance
Ġconsult ation
Ġ/ &
Ġlaunch ing
ĠMcC arthy
Ġteen agers
Ġforb id
Trans l
Ken zie
Ġtiss ues
ĠLuther an
ĠAbb Ã©
idel ity
Ġterrif ying
ĠBud dy
ĠMoz ambique
Ġwithdraw al
ĠPict ure
Ġscratch ing
ww w
Ġtherap ist
Ġenthus i
Ġvig il
Ġinnov ative
Ġsolemn ly
ĠAgain st
ĠUnivers al
hol m
Ġgloom y
Ġfortun ately
APP LAUSE
ĠWat son
Cla ire
Ġrecept ors
Ġhedge hog
Ġanticip ated
amil iar
ĠChem istry
ĠFurther more
Ġorn amental
Bru ce
ĠSpart an
Ġsod ium
Ġauthent ic
Frances co
avil off
ĠCrit ics
ĠCHAR LES
odont s
Oper ation
Ġconcl usions
ĠBain bridge
Ġcaterpill ar
ersh win
Ġidi ots
Ġpilgrim age
Ġammon ia
SEL F
ĠAzerbai jan
ansk rit
wau kee
A p
B it
B ELL
C ond
E qu
E va
G row
H z
I AM
L ax
L uke
M it
M ex
N l
N onsense
S ound
S uz
T ar
T ook
U C
W his
b as
b ay
b ang
b ull
c ry
d ream
f ill
i ating
l ain
l oe
n ap
n ature
r t
s aw
t ang
v ie
v ag
v ana
w ire
Ã ¯
Ð ¸
Ġt ier
in as
on omy
it as
it tering
Ġb ounds
Ġb ids
Ġb idding
Ġc er
Ġc ob
Ġc rib
Ġm aze
Ġm onsieur
Ġf ade
or ical
en burg
Ġp ow
Ġp ard
Ġp int
Ġp ensions
ar us
Ġl enses
Ġl ounge
Ġn ana
Ġn Î¿
le one
Ġh og
id i
id ea
Ġe rected
ac a
Ġwe ighs
ĠS uk
st at
st ore
ri als
ĠA j
ĠA IDS
ĠA RAB
ĠC ul
ĠC otton
ĠC SBG
ĠM U
ĠM TV
ĠH ak
ĠH ass
ĠH omer
ĠB le
ĠB oul
ĠB ET
ĠB ella
ea ux
ĠT es
un ks
th ology
ul ative
ĠW S
ĠG ore
Ġso ck
Ġab normal
ĠR ig
ĠR iga
ĠF iorsen
nt y
ĠL ama
ĠL enny
Ġcon ferences
ĠN ame
qu art
ĠJ ared
Ġpl ains
od erm
ĠE g
ĠE un
pe z
ĠO il
ak is
ĠK ais
ĠK ahn
Ġint est
fe et
iv ated
iv ores
ĠIt se
Ġcl a
Ġcl iffs
na u
ĠSt rait
other s
Ġwork shops
pl an
oll ah
Ġam az
Ġpr isons
Ġbl uff
ĠV ernon
Ġad s
ang s
Ġdis band
ren ches
ob ject
Ġapp eals
Ġper ipher
Ġres isted
Ġ3 50
Ġrec urring
Ġhel m
what ever
Ġcr imson
Ġi OS
de h
Ġsupp orter
ĠAr onson
gr unting
Ġche es
ĠBr uno
Ġsl ate
ah u
ĠMar vel
Ġkeep er
ĠAnd rÃ©
Ġent ity
Ġmat ched
Ġcons iders
Ġmen u
Ġseem a
ĠRe ich
ĠGod s
Ġsim ulation
Ġinter f
Ġinter pre
Ġhear th
uc ci
ĠIs ab
Ġdri p
Ġdisc o
ĠQ ual
Ġbuild s
ĠPr ison
OU SE
Ġref resh
Ġcur ves
Ġround ed
ĠCar m
Ġline up
AR K
Ġcommun ists
Ġvar iant
Ġoper ators
Ġreason ably
Ġfront ier
Ġconf er
Ġball ot
Ġdesign ing
ĠTr ain
go at
unt arily
ĠPar ish
Ch inese
uk as
ĠCol ony
Ġcompet ent
Ġfail ures
with in
Ġeduc ate
reg ard
Ġinvest ments
Ġcapital ist
Ġimag ery
Ġobject ions
Ġeconom ist
Ġtax ation
gu y
ĠCo hen
ĠMon roe
ĠLou vain
cell a
ĠMor rison
ĠMad onna
ĠMo ir
ĠAct ress
Ġbright ly
aps ack
Ġcrew s
Am azing
Ġ186 3
Ġ186 6
Ġ186 8
Ġinvestig ated
Ġsch ooner
ĠÃ ¢
Ġproud ly
ili ary
ĠSuper ior
199 8
Ġmechan isms
Ġquarter back
Ġamb ush
comm un
Ġshout s
Ġjournal ism
Ġencour agement
Ġreven ues
Tw elve
Ġmagn itude
ĠHans on
ĠWood row
Ġ187 6
EC T
Ġtun ed
ION S
Norm an
Ġmel ting
Ġflag ship
Ġappeal ed
Ġeth ics
ĠBon nie
ĠNic kelodeon
Ġmort gage
cont rol
miss ions
Ġrang ing
Ġsimpl icity
ĠDun bar
ĠArch bishop
Ġcert ification
Ġconsult ing
Jo han
Ġcraw led
Ġdepos ited
ifer ous
Ġvacc ines
Ġabsor b
Ġconven ience
Ġextensive ly
ĠSav oy
Ġfee ble
Ġkidna pping
Ġsole ly
Ġvig or
Ġgrocer ies
athe rization
Ġreci pro
Imp ossible
ĠMong ol
Ġber ries
ĠBrig ade
ĠPant hoibi
ĠDug ald
ĠBron x
atern ity
Aud ience
Ġacknowled ged
Ġly ric
ĠSac ramento
ĠRoche ster
ĠYor ga
ĠLegisl ative
Ġamphib ians
Ġbrisk ly
ĠCurt is
Ġanne x
ĠLeices ter
ĠPorts mouth
Ġparan oid
attlesn ake
Ġhilar ious
ĠTeh ran
ĠPry or
Ġmerchand ise
ĠDED MOND
, ,
. *
C ro
C ube
D EF
H ans
H ail
J esse
L ie
L oose
M id
N on
O m
P ac
S i
S ea
S kin
S ophie
W orks
b elt
c z
f ied
f air
h usband
k ick
l ily
m ons
p owered
s had
t ight
w olf
he le
in f
in ck
on al
ha ired
nd el
Ġo sc
Ġc ube
Ġm ound
Ġm apping
en ough
Ġl ain
Ġl ep
Ġl ance
as ping
Ġg aming
Ġn un
Ġn ull
ic ans
et ry
us al
Ġth ine
Ġre wards
am ong
ly a
ĠS pl
se at
Ġst am
Ġst ink
ĠA qu
ĠC ret
ĠC ousin
ĠM ol
ĠM ino
her son
ce lled
ĠH our
il ated
ĠB one
ĠB RE
ĠB CE
and ers
ant ically
ĠP on
ĠT ottenham
ol ate
rom eda
ĠW A
ĠW ord
Ġr oused
Ġj ug
our ned
ĠD amn
ĠD LR
ĠR ivers
ĠF OUR
ĠL one
ĠL IFE
el ope
ĠN est
Ġthere in
qu iet
Ġcom et
ĠJ ong
ĠJ anet
ĠJ agu
Ġout ra
ra le
Ġpl aster
ink i
ink ling
Ġpro se
ĠE SP
Ġman uela
ĠK rist
ĠK umar
ag ged
ide red
ian ces
Ġsp un
Ġsp ies
ove re
Ġcl ung
Ġcl apped
erm ined
Ġun bear
iz on
Ġcomp ly
ĠV illa
ĠIn side
Ġad ul
Ġplay wright
In cluding
Ġafter ward
ĠY aman
cl aimed
oc ha
oc ate
Ġper plex
Ġcomm ittees
Ġsc am
Ġsc reens
port ed
Ġsm arter
Ġrem ake
Ġrec ess
Ġfind ings
ĠAr ul
ĠAr bor
ĠBr ady
ubl ished
Ġmar riages
Ġsl iding
led on
ĠDe cl
Ġcons ort
Ġret ros
ret urned
cess ion
Ġmus cular
Ġpass ive
Ġpop ulated
Ġinc ons
Just ice
ĠZ urich
Ġrep aired
Ġhum ming
Ġtrans parent
Ġtrans actions
ĠQ ing
Ġgener ating
app ropriate
ats y
Al ready
ĠPr inceton
Ġgovern ors
ĠGr ad
eb ra
how ever
Ġspec ulation
Ġve to
Ġeng aging
ĠAd ama
ĠComm odore
Ġbar ge
Ġbar ren
Ġgrow led
Ġmess y
RE T
Ġfav ors
Ġmer it
ĠMe g
Ġsca res
Ġbirth place
Ġsuper b
IC AL
Ġprop het
ĠWell ington
Ġport able
Ġcast les
Ġdoll s
Ġphys i
Ġide ology
Ġrain y
Ġhoney comb
ĠEl ena
ett led
ĠPol icy
ĠQu est
het ically
Ġaut ism
ĠPhil osophy
bl ast
van ced
isc opal
Sp ace
Ġredu ces
Ġbeha ving
ĠBur ma
ĠBur mese
tr ain
Ġsight s
ĠRed dy
ĠPal estine
Ġdig its
Ġpsych ologist
Ġmor ph
Ġstorm y
ĠSch midt
Ġspl ash
ĠPrin ci
ĠGold fin
ĠÃ ł
Ġaccording ly
ĠMag n
ĠCom ing
Mic key
Ġhide ous
Ġtransl ations
Ġvot er
ĠCast ro
will iam
199 2
Ġstock s
Ġstrugg les
ĠHaw ks
bu ilt
Ġchat ting
Ġterrit orial
rib ly
Ġ185 3
Ġ185 4
Sm art
Ġreform ed
ĠConstitution al
Ġcalcul ator
Ġconsist ently
Ġconsist ency
Ġapolog ise
Ġpill ows
Ġappeal ing
Ġtor ch
ĠBal four
ĠTol edo
ĠKe ane
ser vice
ĠRom ney
Ant on
ĠRoss i
ĠGrey water
ĠHol mes
Ġastron omy
NE Y
ĠAk an
Ġbreast stroke
Ġmamm al
Ġaccur acy
Par is
Ġbuff er
Ġshield s
ĠCook ie
Ġhesit ate
Ġaston ishment
ĠKurd istan
Ġathlet es
ĠSupp orting
ĠStand ard
Ġaccommod ation
Sat urday
ĠVik ings
Ġsob bing
ĠEN G
ĠFuk ushima
Ġrecru iting
Ġexhib its
Ver ilog
Ġpadd le
ĠSout hampton
ĠLAUGH ING
Jon athan
Ġdeter ior
ĠHob bes
acea e
Sel ena
ĠFac ulty
ĠClar ke
Ġhect ares
ĠColomb ia
Sax on
ĠOdy sseus
ĠMahm ud
plend id
Ġpsychoan alysis
Ġfragr ance
Ġembed ded
ĠAngl ican
ĠGibral tar
ĠBett ina
ĠARAB IC
A v
A wards
B or
C offee
F S
F ace
G asps
H en
J K
K O
L o
M US
M olly
P ers
R achel
S ab
S ummer
S cript
T an
T win
U P
U sing
V IE
a gh
b right
b irth
c rew
c hamber
d iffic
e lect
f ty
f ires
g ical
h ic
h undred
h ours
j m
k g
l ical
l uck
l ady
m ach
m ath
m akers
p rop
p ron
s ac
t ube
t elling
u cc
w al
x ia
Ã Ĥ
Ġ @
Ġ âĻ¬
Ġ ounces
Ġt apped
in ating
re ference
Ġw ield
ou dy
er b
is ition
Ġb ir
Ġc m
Ġp m
Ġp ope
Ġy onder
ar ming
at em
Ġl em
Ġg ul
Ġg oof
ĠI R
Ġh oo
Ġhe red
al ore
Ġbe ck
id ation
ent ry
am y
ĠS anskrit
ri p
Ġst ap
Ġst ems
ĠA ye
ĠA urora
ĠC AR
Ġk etchup
ĠM oor
ĠM AC
ur ai
Ġdo pe
her self
Ġwh im
ĠH uss
ĠH umph
Ġnot ices
Ġnot icing
ĠB ates
ĠB erry
and ra
Ġli able
op ath
ĠP okÃ©mon
ĠT ian
un ct
ge nder
ol ini
ol utions
th us
th inking
ell amar
Ġj un
Ġj osie
ĠD IN
ĠD uchess
ĠR ance
ĠR acing
Ġsh rill
ĠF uture
ĠL al
ĠL ithuan
el on
ĠN urse
ig rant
ra its
Ġsa x
Ġpro c
ĠE c
ĠE h
ĠE gg
Ġget tin
Ġv a
ich ita
ĠO wn
ak ov
Ġman ages
ĠK ell
reat he
So ft
ite cture
ass is
ass ium
Ġqu ot
ble y
end e
oll ett
the llo
ĠV ent
Ġad ject
Ġbet a
Ġte ase
Ġdis m
Ġdis asters
ĠY un
ĠY um
int egr
Ġtell y
Ġunder graduate
Ġfl aming
Ġper cept
Ġser pent
Ġsc ant
ks hire
Ġrec y
Ġgreat ness
li hood
form s
Ġ18 12
Ġpol es
Ġpol ish
Ġhead lines
Ġche ered
Ġacc use
Ġpres cription
ib us
und ered
Ġgl ac
Ġsub ordinate
ĠRe yn
ĠNo k
Ġadd iction
Ġlight houses
Ġwait s
ank ing
ĠJohn ston
Ġrep orters
Ġdri pping
ĠSp ock
Ġdead line
Ġpower less
ex actly
Ġair ing
Can ada
ĠCar r
Ġstory line
pend icular
iam u
Ġdef ic
Ġsqu ir
Ġdiv inity
co al
Re lease
Ġswe ating
Ġvar iance
Ġnews letter
ĠFl oyd
Ġnorth western
Ġtre mbled
ĠPl um
Ġresp iration
Ġlay s
ma res
Ch ina
Ġrock ing
Ġrev ised
yn n
rit ic
ĠHar i
ĠMe iji
rog ate
Ġgrand parents
LA S
Ġtechn ological
bur st
ĠLea ves
Ġstri ps
aff les
Ġmater nal
ĠGl enn
Ġrail ways
Ġbroad ly
ĠMed ina
ĠPaul a
Ġcolor ing
play ed
ki ri
Man ia
Ġcontract or
ograph ics
Ã¡ s
ĠWith in
Sc reaming
ĠSat urn
Ġ186 7
Ġhom icide
Ġ188 9
Ã¶ r
Ġcritic ised
Ind ia
Ġremark ably
Ġroof s
199 1
mar ried
Ġcontribut ing
ĠGet ty
Ġrat ified
Sha kespeare
Ġaltern atives
Tw ilight
leg raph
ĠParliament ary
ĠAng lia
Ġtim id
ĠCamp aign
them selves
197 6
Ġprec ision
ĠBra hman
Ġembarrass ment
found land
ĠPa ÅŁa
ĠFort une
ĠAdd ison
Ġiniti atives
Ġyo ghurt
Ġprofit able
ĠAsh ley
Ġsustain ability
ĠIraq i
Ġemotion ally
ĠMot ors
Ġcub es
Mur der
sk irts
ĠContin ental
Ġfox es
ĠLind say
Ġrebu ild
vet te
Ġhelicop ters
Ġabund ance
Ġaer op
Cle an
Ġimmense ly
ĠSW P
Ter rible
Ġcann abis
ĠAntar ctic
Ġaspir ations
ĠKis umu
ĠSquad ron
iche ver
Ġconj unction
Ġvap or
ĠLud wig
Ġinterrog ation
Ġfrust rated
ĠHaut es
Ġarbit rary
_). --
Ġfu els
ĠShan non
ĠFight ing
ĠRaid ers
Ġreleg ated
ĠTend u
Ġconfig uration
ĠAvon lea
Interest ing
ĠHamb urg
Ġbod ily
Ġtriump hant
Ġtsun ami
Ġdiscontin ued
Ġruth less
ĠKangle ipak
Ġmirac ulous
Ġfundament ally
Stra ight
ambig uation
ĠMoir ang
ellamar is
" _
1 10
C hang
F el
F ast
F ifteen
G ary
H S
H olly
H AL
J IM
L S
L iter
L arry
N it
N an
N ich
P rior
R iley
S her
S av
T reat
T imes
Y u
Y ay
f ine
f illed
h it
l augh
l eness
m ut
n st
p osed
r ush
s har
u ating
w ah
w ald
w ana
Ġ ).
Ġt t
Ġt il
Ġa venue
Ġa quarium
in cess
ou pe
on er
it ious
Ġb ree
Ġo st
Ġm oo
Ġm old
Ġm oss
Ġf ax
Ġf uzz
or ange
an ity
ll an
Ġd ang
Ġd ainty
Ġto ads
Ġp ines
om bo
ĠI l
ic her
al an
id ate
Ġe ve
Ġfor s
ĠS ou
ĠS leep
se arch
Ġst ained
Ġst itches
ĠA G
ĠA ra
ĠC razy
ĠC herry
ĠM ob
ĠM obile
ill ings
if a
ch ir
Ġse aman
ĠH P
ĠH es
ĠH id
ĠH ast
ĠH ait
ĠH ole
il o
ĠB ag
ĠB end
ĠB ever
ol ving
ul us
Ġr ud
Ġr ained
ĠD uck
ĠG ay
ĠG ob
ĠG inger
ĠG RO
ĠR ams
ĠR EP
ĠF erry
os ph
ĠL akes
ĠL ucky
Ġcon vex
ĠN ate
ĠN iss
ĠN ote
ig aku
Ġup s
Ġsa ge
Ġpl acement
ink les
ĠE D
ĠE do
Ġex ting
ound er
ind le
ĠK aw
ĠK ung
ĠK ilshaw
ĠK uvalda
Ġar d
ĠU g
Ġcl ing
ne ck
act ing
Ġover throw
og ly
ub is
ff ie
Ġyear ly
ĠV it
Ġdis ability
Ġdis orders
ĠY uri
Ġpre ach
Ġunder cover
Ġpo etic
Ġper for
Ġres ume
Ġcar p
ee red
Ġ18 40
Ġsupp ress
ĠBr ing
ĠBr as
ts hire
Ġreg ulate
Ġsl ay
St rong
ib bs
az ara
Ġbit tern
Ġbo il
Ġcons ensus
Ġcons ented
âĢĻ ,
âĢĻ .
ton a
of ty
ĠRe z
ĠAn k
Ġcap sule
ling er
me ow
Ġinc entive
Ġimp osing
ĠZ en
Ġcoll ision
Ġdri lling
ĠFr is
app lause
Ġheart y
Ġ10 7
ĠSc reen
ĠCl oud
Ġpar l
Ġ17 18
Ġdef ining
Ġmark ing
ator ies
Ġvis ions
Ġconst raints
ĠFl ash
ped ition
Ġvo id
cient ific
ĠCal gary
ĠTr is
Ġexpect s
ĠPar ade
ĠTHE M
Ġra ises
ĠMin n
ĠJo anne
urs ed
ĠCha d
ĠHar mon
TH ERE
Ġdam ages
Ġgra vel
ĠGu atem
Ġtrad ers
Ġcold er
yr ac
Ġgrand children
Ġprop osition
Ġdoctor ate
Ġsett ings
Ġlim estone
Ġnorm s
ĠEx per
Ġbear ings
Ġstraight en
ĠUS B
Un iversity
Ġpot ent
Ġpot tery
Ġris otto
ĠEl iza
oe uv
Ġinf initely
Ġhospital ized
ĠSm ollett
Ab by
Ġenc omp
Sp anish
Ġsens it
Ġtour s
Ġspeed ing
Ġcapt ive
Ġcapt uring
Ġappoint ments
Ġfat igue
inc orporated
Ġfit ness
Ġdeb ates
Ġden ominations
ĠGrand e
Ġund erest
Ġund oubtedly
iar ies
Ġwit ches
wh om
vere nd
Ġempt ied
Ġsymb olic
Ġbrief case
ĠLaw s
Ġ188 7
ĠGreen land
Ġrub bing
ĠBu ild
lim ited
ĠLin ux
Ġeld ers
agn etic
ĠKar achi
Ġcrack er
Ġcrack ing
Ġpin ned
Ġgall eries
Ġbat ting
Ġhast y
Ġprem ium
Ġinvent or
ĠWind s
ĠFre eman
Ġrum or
dis ambiguation
197 7
Ġlit ers
198 7
Ġdiss olve
Ġreck oned
Ġspect ators
Ġwha ck
Ġflood s
ĠHal f
ĠHind i
unte er
comp an
comp uter
Ġpuzz les
Ġcris p
ĠBalt ic
ĠSystem s
Ġtomb s
Co ach
ĠGre ens
sl ow
ĠWhe el
Ġmurderer s
fa ith
Ġdece ive
Ġinteract ions
rec ogn
Jul ia
Ġdwell ing
ĠWrest le
ĠChap ter
Ġprompt ed
Ġcultiv ation
Ġobst acle
Kat ia
Ġdict ators
Ġdischar ged
Ġcul pr
Ġsurf aces
Ġvolcan ic
ĠAlb any
Ġecho ed
ĠDob u
Ġincom plete
Mem bers
aland har
Ġpyram ids
Ġsubdiv ided
Slow ly
Ġvine gar
ĠFact ory
Ġdys lex
ĠSaf ety
Ġdisagre eable
ĠCob ra
Ġcontamin ated
Ġinherit ance
ĠNAS A
Ġenchant ed
Ġdisput ed
Ġlakh s
ĠByz antine
ĠKens ington
ĠMontene gro
Ġprelim inary
Ġslipp ery
ĠCret aceous
' !
1 20
A H
A x
A men
B ush
B ox
C P
C op
C ell
C over
C opy
F T
F un
G al
H orn
I AL
K h
K an
K ey
L iber
M ass
M anu
M umbai
S unday
W an
W ER
Y up
b augh
f ed
f ox
f ifty
g entle
l ots
n om
p i
p ants
p ared
s ound
s ided
t z
u ations
w ives
y ang
y ss
à ¨
Ġ â
Ġ il
Ġt asty
Ġt umbling
he althy
in us
in ished
Ġthe orem
er ner
Ġb ash
Ġc uc
Ġc iting
Ġm ash
Ġd re
Ġd ile
es ha
es an
Ġin herent
at che
Ġn oses
Ġn oodles
le ast
le ader
Ġh iring
Ġit er
im ar
Ġre dd
ac qu
ĠS ak
ĠS ask
ro vers
Ġst ark
Ġst akes
ĠA bsolutely
Ġme g
Ġme ek
ĠC E
ĠC omb
ĠC avalry
ĠM ul
ĠM ouse
Ġwh it
ĠH OW
ĠH EL
ĠH ymn
ĠB rom
ĠB ian
and ro
Ġat tained
Ġkn apsack
ĠP el
ĠP ine
ĠP ah
ĠT ory
ĠT rophy
un ya
Ġ" ...
Ġr het
Ġr hin
ĠD isc
Ġde w
ĠG aut
Ġall ocated
Ġab bey
ers hot
ĠR ou
ĠR id
ĠR otten
Ġor b
nt z
ĠL ance
ĠL und
ĠL ola
ĠN ear
ĠN OR
ack ers
Ġpl um
Ġpl atinum
ong atha
Ġv ase
ĠO g
ĠO kin
He alth
Ġman ly
ĠK om
ag ging
ag ara
Ġar mor
Ġtw elfth
Ġsp erm
ĠU lt
Ġle ase
Ġcl ans
Ġcl usters
Ġro be
Ġro oted
erm o
orn o
ub en
Ġun willing
orm an
Ġte lev
av ans
Ġdis l
Ġgu ides
Ġgu idelines
cl ub
oc ar
be ard
be gan
ens is
ip sy
Ġunder take
Ġper c
Ġper pendicular
les iast
Ġsm ith
igh bour
Ġsha w
Ġsha ved
Ġsha kes
Ġch rom
Ġch unk
Ġcr us
Ġcour te
Ġatt itudes
Ġi Phone
Ġhead phones
Ġkill ers
Ġsl apped
ĠMar c
Ġsecond ly
Ġret orted
Ġsub stit
aj i
Ġmet ab
but t
me ans
cer n
Ġlist ens
Ġem ails
ĠJohn nie
Ġland fall
ĠTh ou
Ġed itors
br ought
Ġsk ys
ĠWe bb
Ġref ined
Ġfore most
cle an
ump ed
Ġtop ological
pr us
Ġes p
ract ion
Ġshort ened
ĠCon way
che m
ĠOn assis
Ġhor rid
Ġspec imen
Ġter restrial
Ġbreak through
ys us
ĠLe ongatha
Ġinde f
ĠCal der
ĠTr ude
enn el
Ġcommon place
Ġbar rels
ĠSh op
ĠMan ny
Ġstat istical
ĠX ian
Ġdi pped
Ġla ure
Ġfif teenth
hys ics
ĠDan ube
Ġsuper hero
Ġpriv at
LA DY
hard t
ĠSw ord
Ġcollect ive
Ġple as
Ġphot on
AS S
ĠUS SR
Ġver ify
Ġtrack ed
Ġfear ing
Ġfear ful
Ġhost ages
Ġactiv ists
ĠCo al
Ġenc ry
ĠFrank furt
Ġconv oy
Pro f
Ġbow ling
Ġbow els
Ġbank er
ĠBur man
Ġcoast s
Ġoccur ring
ĠMal ay
ĠAnt i
Ġsuff ers
ĠBel grade
Ġbright er
ĠRob bie
Ġund e
ST E
Ġ189 7
ĠWil tshire
Ġge ese
Le o
ĠEmp ress
Ġjudge ment
ĠArab s
ĠCast ile
ĠAss ata
Ġattend ant
199 3
Ġstock ings
Ġamb ig
comm ittee
comm unes
war z
Christ mas
Ġchat tering
Ġinstru cted
Ġscr ut
La ure
Ġminor ities
ĠLy on
Ġboo bs
ĠJac ques
197 8
ĠShar pe
Ġic os
Ġreck less
ĠEll ie
ĠFour th
ĠTy pe
cont rolled
Ġdisappear ing
Ġvent ured
Ġeditor ial
Ġsan ctuary
Ġinterrupt ing
Ġadministr ator
ĠAp ost
Ġrefe ree
Ġment or
bb at
Ġwire less
Int o
Ġexplore rs
ĠShah r
Ġaccur ately
Ġpant ies
ĠCole man
gro ve
Ġbend ing
ĠLat vian
Ġthunder storm
log y
ĠZe us
Ġey el
Ġsumm ers
ĠBaby lon
Ġstamp ed
Ġgran ite
ĠJohan n
Ġexceed ingly
contin ent
Hit ler
Ġinstall ation
Ġga ily
Ġfract ure
OUGH T
Ġdisturb ance
Ġdecre ased
dig it
ĠFle et
ĠFle ming
Ġward robe
Ġrecurs ion
ĠCur ly
ĠHIS PAN
Ġundert aken
Ġprosper ous
ĠIng leside
Ġcam el
Ġunc overed
Ġsubsid iary
Ġobsc ure
Ġstimul us
IO LA
Ġunl ucky
Ġascend ed
mag Ã¼l
Ġhumili ated
Ġadvertis ement
Ġadvertis ements
ĠKir by
GRO ANS
cycl oped
ĠROB INSON
Ġshiver ing
Ġexpon ent
Ġskate board
ĠSoft ware
ĠShad ow
Ġpeb bles
ĠWitness es
pic uous
ousse au
Ġincon ven
Ġrook ie
ĠGert rude
ĠLaf ayette
Ġsharpen ing
Ġming led
ĠGrig nard
Ġslee ves
Ġfrag ile
Ġamaz ement
Ġrecy cle
ĠReyn olds
ĠHISPAN IOLA
. ).
A BC
A USE
B ri
C hand
G a
G all
G host
K on
K elly
L os
L ew
L uck
L ib
M i
N Y
N TER
O cc
P ack
R o
R oss
R alph
S ara
T our
T een
V II
V ladimir
a ah
b red
c old
d ings
f inal
f eller
g man
j ia
k ong
m atic
n in
o que
p ark
r ide
r iment
s kin
u ber
Ã ĵ
Ġt art
Ġt iles
Ġt umbled
he ar
he ng
in clude
Ġthe sis
Ġw al
Ġs id
is che
it imate
Ġb red
Ġb unk
Ġb oughs
Ġc aves
Ġm ute
Ġm uc
Ġm igration
Ġf ret
Ġd ime
Ġd oth
Ġto ot
Ġp ens
Ġp its
Ġp eter
Ġp avement
Ġl ass
Ġl apt
om atic
om orph
ic eless
le z
Ġhe s
Ġth ro
Ġth igh
Ġth icket
Ġbe eping
Ġe e
ld on
Ġre ag
ac ao
Ġwe atherization
ĠS D
ad illo
ĠA way
ĠA uto
ĠA berdeen
ĠC ay
ĠC ategory
Ġk icks
ĠM ick
ĠM amma
her ic
ill on
ĠH ank
ĠH unt
ĠH utch
ĠH erman
Ġnot orious
ĠB it
ĠB ren
ĠB iberkopf
Ġgo ons
ĠP or
ĠP ure
ĠP ick
ĠP ush
ĠT SG
th ren
ĠW HEN
ĠW ikipedia
Ġr aging
Ġj ur
ĠD ul
ĠD ash
ĠD ixon
ĠD ylan
Ġde hyd
ĠG ear
ĠF em
ĠF ast
ĠF aso
ĠL M
el ed
ĠN ets
ĠN uremberg
ig nty
Ġcom ics
Ġout skirts
Ġpro hibition
ĠE ston
Ġv iral
ind y
itt ered
Ġtr ot
Ġtr icked
ca red
Ġar ising
Ġtw itch
ĠHe in
Ġlook out
Ġcl ut
ĠSt acey
ne ed
end ers
Ġen qu
oll ie
hed ra
Ġun ite
ov o
Ġbl ond
Ġbl inking
Ġbl izzard
Ġwhere abouts
ĠIn ver
Ġplay offs
Ġdis in
In s
ĠY ar
cl ip
ren al
Ġfl ipped
Ġfl owed
ail able
Ġsha ck
Ġsha mp
tern oon
Ġend orse
Ġ18 34
Ġpol ished
ĠAr lington
ĠAr senal
Ġreg iments
Ġac ids
St ory
St uart
St udent
ĠMar ianne
Ġbit ches
ĠDe uts
ric hes
Ġsw ine
cy l
Ġstr at
ok i
Ġroom mate
ger ald
Ġside walk
Ġinter mediate
ane y
Ġsign atures
ĠJohn s
ina i
Ġbro ker
Ġgener osity
Ġheart ily
ĠSo lem
Ġins uff
Ġmiss es
Ġdet ained
ĠCon c
che l
arr ick
eter ia
Ġste er
Ġste als
Re v
Re becca
ĠFl ag
Ġval ves
ĠTr acey
Ġsuccess es
Ġcou pled
ĠPl ate
ffect ive
LL Y
ĠGo ing
EN G
itch ie
Ġdest ined
ĠBar ney
Ġforg iven
ĠMe h
uri ously
Ġmot ives
ĠSer bs
ĠEx eter
Ġcrit ically
ĠTH ING
Ġvict orious
ĠNot able
Ġener get
Ġpal aest
ĠGl over
Mar garet
ĠTO O
Ġaccount ed
ĠNe ed
Ġdepend ency
Ġblock ing
Ġdeg ener
igg s
Ġfac ial
Ġwild ly
isc al
Pro v
Ġtour ing
Ġindivid ually
Pl ace
Ġcontract ed
ĠSam oa
Ġsand stones
Ġden omination
ĠAct ing
ĠScot ch
ĠScot ia
cad odecahedron
ĠCr ime
ĠFin ancial
asc us
Ġmor als
ĠWil f
Ġpet roleum
Ġinvestig ations
ĠJul io
Ġcommer cially
Ġpossess ions
ĠMil waukee
Ġhonor able
Ġcomplex ity
Ġmaid s
pre fecture
Ġcrack s
ĠKh v
ĠKh or
Ġpoly mer
Ġmo aning
ĠJac queline
Ġprem ature
ĠStep hanie
Ġlit re
198 5
SC C
SC REAMING
Ġterror ism
Ġunf inished
Ġdish on
point s
ĠDaw kins
Ġpa wn
ni ak
ĠOut standing
Ġdefin itions
Ġreflect ing
ĠCD s
ĠDav ies
Sw ed
Talk ing
William s
Ġsmooth ly
Ġsuperior ity
ACK IE
Ġric her
** **
Ġintense ly
ĠLat via
ĠPot omac
Ġcoc on
Ġdode cadodecahedron
Ġassass inated
ĠLeg ion
Ġrecon cil
Ġresear cher
Ġrecover ing
num bered
Coll ege
Ġadjust ed
Ġreprodu ction
Ġrecycl ed
ĠHindu ism
ĠChap man
Work ing
Ġaffili ated
Ġsack ed
Ġweigh ing
ĠGun n
Ġgle am
Ġdeliber ate
Ġske leton
Ġfert ile
Ġmock ing
ĠThrough out
Id iot
ĠAthlet ics
ĠÎ¿ n
Ġlod ging
ĠSey yed
Ġtheat res
Ġunre ason
ĠBed ford
Ġalleged ly
Ġhipp o
ĠWr iting
Ġincom ing
Ġsubdiv isions
ĠThor nton
Ġrestr aining
Ent ry
hay ne
Ġliz ard
Ġspont aneous
Bus iness
ĠLanc aster
ĠAdvent ure
pie ces
Ġbung alow
ĠWen hu
Ġalumin um
Ġinsign ificant
ĠMethod ist
Ġspa wn
Ġpear ls
Ġexcell ence
Ġvir uses
morr hage
Ġenlar ged
B ert
C u
D ark
D ec
F reeze
F riends
F emale
K u
L as
L ily
M W
M ot
M OR
M ENT
N ap
N AMES
O ops
P in
P le
P ants
P ray
P herson
R en
R at
R om
R ING
R ussian
a q
c all
c ence
c overed
d rop
e astern
f ur
h tt
i hood
i antly
r usted
t les
w it
z uka
á ¸
Ġ ions
Ġ á¼
Ġa ha
in p
er be
Ġb ould
Ġm ould
Ġf ern
Ġf idd
Ġf umes
Ġto pped
Ġp iles
Ġin ability
Ġl ining
Ġl anes
as her
Ġn ay
ow ls
et or
Ġha ird
Ġbe friend
ac s
Ġfor wards
ĠS end
ĠS oul
st alk
Ġst ressed
Ġst aged
ĠC AM
ĠC ultural
ĠC rane
Ġk al
Ġan ew
ĠM ond
ĠM ath
ĠM ouna
ur ger
Ġdo l
ch uck
ĠH ull
ĠH itch
il us
ĠB in
ĠB ast
ĠB har
ĠB AR
ant al
ĠP P
ĠP aige
ĠT at
ĠT ut
ĠT ry
ĠT onight
ĠT NA
ĠT ELL
ĠT aber
un y
th r
ul ing
ul as
ĠW ichita
ell ers
Ġr ascal
Ġj og
ĠD ish
ĠD irk
Ġde gr
ĠG h
ĠG ershwin
ĠThe odore
ist on
ist ance
ĠR AM
ĠR NA
Ġor th
ĠL or
Ġcon e
ĠN GO
qu ist
em ics
ĠJ or
ĠJ es
ĠJ ub
ĠJ ee
ĠE lder
ĠO S
ĠO pp
ĠK os
Ġint ra
ag awa
ag ua
Ġsp inal
Ġsp onge
na ima
So ld
ĠSt y
hy ll
Ġbl ades
ho b
Ġdis qual
." [
." ÂĿ
ĠY E
ĠY olande
oc he
ign ant
Ġhapp iest
Ġpre ference
te chn
Ġcar penter
ran o
Ġmust ache
Ġatt ribute
ident ified
Ġ18 38
Ġreg isters
Ġset up
Ġmar athon
Ġmar itime
vent ure
All ah
Ġhouse keeper
ug i
Ġbo oth
ĠAnd rea
Ġsub family
Ġob li
Ġseem ing
ĠAn ubis
Ġpop corn
Ġhigh ways
part s
Ġinc ur
Ġtra it
Ġtra ps
ĠIs n
sh h
app ro
Ġair planes
Ġsystem atic
ron es
Ġmiss ile
fess ion
ĠGr ade
Ġsound ing
Ġdef ences
Ġdef icit
ract ed
OR D
Ġprot esters
Ġsol itude
co in
Ġbreak down
osp heric
la very
Ġve in
Ġdesign ation
Ġeng lish
Ġtre asury
Ġadm irable
Ġadv ances
Ġcho ke
Ġ11 2
ĠAugust us
RE AD
ĠCap itan
Ġfif ties
ĠTe resa
Ġnational ist
Ġnational ism
Ġmot ors
col ate
CH O
ĠTH RO
ĠEm ir
ĠSome body
Ġcomb ining
ander b
ĠColl ection
ett es
pha lia
Ġshut ting
Mar io
Bl ow
Ġmarket ed
Ġboard ed
ĠPaul ine
Ġpeace fully
Ġfund ra
field s
Ġban quet
ĠPer iod
Ġextra vag
Ġrid ic
hold ing
Ġdestroy er
Ġmurder ing
Ġdry er
nes ium
ĠBur ney
Qu it
Ã¡ nd
ET NAMES
Ġexam ining
ĠSam antha
min ated
Ġcomfort ed
Ġtext ure
Ġbright ness
Ġphil anthrop
ĠNor se
ĠHall oween
Ġstreng then
Ġaccident al
ĠMark s
Ġcustom ary
Ġpound ing
Ġassoci ates
Ġcommer cials
Ġetc etera
Ġconsum ing
Christ ine
Ġren owned
Ġbother s
ĠChief s
Ġaltern ating
ĠSaturday s
Ġassum ptions
ĠDou bs
ĠIre ne
Ġlin er
nat ured
Ġapolog ies
ĠWall enda
197 2
Ġic y
ĠLong street
ĠTri ple
Ġsuck ing
ser ies
ĠNic ol
Ġflood ed
Ġdread ed
Ġexped itions
Ant ique
Ġtur bo
ĠSel f
Ġdecor ative
every body
Ġtooth brush
ĠPhilipp ine
à¦ ¾
Ġburst ing
Ġuns ub
ĠAk bar
Ġestim ates
Ġoblig ations
Ġbrid le
ĠWork ing
Ġdece ived
Ġnegoti ate
Ġthrill ing
ĠAld ershot
Ġbot an
ĠGi ovanni
Ġmotiv ated
ĠMA KE
Ġdistract ion
ĠBos nia
Ġrejo iced
Ġreprodu ce
ĠBuck ley
ĠVI ETNAMES
ĠSher man
Ġtact ics
ĠCzech osl
ĠUk rainian
gi ene
Ġfract ions
Ġuna ware
Ġconvent ions
ĠSA ID
Ġelectron ics
Ġvocal ist
Ye o
Ġdeleg ates
ĠShort ly
ĠAx is
Äį eviÄĩ
ĠProdu ctions
ĠRap ids
ĠIndust ry
ĠFuk ui
Ġpenet rate
Ġbail iff
Ġreef s
ĠLar ge
amil ies
ĠWick es
Ġhither to
Grab feld
ĠMik hail
ĠKit chen
Ġliz ards
ĠLore ntz
Ġlil ies
ĠManu el
Ġciv ic
ĠMap le
Pant hoibi
Ġdepri ved
Ġaccus ations
Ġpredomin antly
Ġgover ning
ÂĢ ÂĻ
Ġorchestr as
Ġsulf ur
Eli as
Ġlivel ihood
Ġtrill ion
oca ust
Ġdelet ed
ĠHond uras
Ġteleg raph
Ġnomine e
ĠUtt ar
ĠEmam zadeh
ĠHiro shima
Ġincap able
Ġmidfield er
Ġunbear able
lesiast ical
ĠVIETNAMES E
A W
A LE
A hem
B L
B ed
B ray
C B
C OME
D iet
E t
E ar
E rik
F IRE
F ujii
G on
J ai
K IR
K arl
L ow
L ess
L iz
M ess
M ON
M ummy
N ik
O ly
R y
S D
T ouch
U nt
V is
V ic
b am
b eautiful
c ab
c ise
c oun
d ressed
e ur
f iction
h om
j ong
l ink
l ower
l ON
m is
m ur
m ens
r ines
s ort
t un
t ruck
w at
z ero
Ġa ce
Ġa venge
Ġa romatic
in ctions
Ġw rigg
Ġs ine
Ġs cept
er ic
Ġb art
Ġb itten
Ġb ounty
Ġo ats
Ġm op
Ġm oor
Ġd andy
Ġd ummy
Ġp ious
Ġp sy
Ġp earl
Ġy ork
Ġl oneliness
ĠI X
ve ment
Ġh oof
Ġh oused
al ready
et r
Ġha n
ut an
Ġre inc
ac ters
ĠS uddenly
ĠS lightly
st ral
ri o
Ġst roll
ĠC ure
ĠC oke
ĠC ause
[...]
