{"<s>":0,"<pad>":1,"</s>":2,"<unk>":3,"<mask>":4,"!":5,"\"":6,"#":7,"$":8,"%":9,"&":10,"'":11,"(":12,")":13,"*":14,"+":15,",":16,"-":17,".":18,"/":19,"0":20,"1":21,"2":22,"3":23,"4":24,"5":25,"6":26,"7":27,"8":28,"9":29,":":30,";":31,"<":32,"=":33,">":34,"?":35,"@":36,"A":37,"B":38,"C":39,"D":40,"E":41,"F":42,"G":43,"H":44,"I":45,"J":46,"K":47,"L":48,"M":49,"N":50,"O":51,"P":52,"Q":53,"R":54,"S":55,"T":56,"U":57,"V":58,"W":59,"X":60,"Y":61,"Z":62,"[":63,"\\":64,"]":65,"^":66,"_":67,"`":68,"a":69,"b":70,"c":71,"d":72,"e":73,"f":74,"g":75,"h":76,"i":77,"j":78,"k":79,"l":80,"m":81,"n":82,"o":83,"p":84,"q":85,"r":86,"s":87,"t":88,"u":89,"v":90,"w":91,"x":92,"y":93,"z":94,"{":95,"|":96,"}":97,"~":98,"¡":99,"¢":100,"£":101,"¤":102,"¥":103,"¦":104,"§":105,"¨":106,"©":107,"ª":108,"«":109,"¬":110,"®":111,"¯":112,"°":113,"±":114,"²":115,"³":116,"´":117,"µ":118,"¶":119,"·":120,"¸":121,"¹":122,"º":123,"»":124,"¼":125,"½":126,"¾":127,"¿":128,"Â":129,"Ã":130,"Ä":131,"Å":132,"Æ":133,"Ç":134,"È":135,"É":136,"Ê":137,"Ë":138,"Ì":139,"Î":140,"Ï":141,"Ð":142,"Ñ":143,"Ò":144,"Ó":145,"Ô":146,"Õ":147,"Ö":148,"×":149,"Ø":150,"Ù":151,"Ú":152,"Û":153,"à":154,"á":155,"â":156,"ã":157,"ä":158,"å":159,"æ":160,"ç":161,"è":162,"é":163,"ê":164,"ë":165,"ì":166,"í":167,"ï":168,"ð":169,"ĉ":170,"Ġ":171,"ġ":172,"Ģ":173,"ģ":174,"Ĥ":175,"ĥ":176,"Ħ":177,"ħ":178,"Ĩ":179,"ĩ":180,"Ī":181,"ī":182,"Ĭ":183,"ĭ":184,"Į":185,"į":186,"İ":187,"ı":188,"Ĳ":189,"ĳ":190,"Ĵ":191,"ĵ":192,"Ķ":193,"ķ":194,"ĸ":195,"Ĺ":196,"ĺ":197,"Ļ":198,"ļ":199,"Ľ":200,"ľ":201,"Ŀ":202,"ŀ":203,"Ł":204,"ł":205,"Ń":206,"Ġt":207,"he":208,"Ġa":209,"in":210,"Ġthe":211,"re":212,"Ġw":213,"ou":214,"Ġs":215,"on":216,"er":217,"ha":218,"nd":219,"is":220,"it":221,"Ġb":222,"Ġo":223,"Ġc":224,"Ġm":225,"Ġf":226,"ing":227,"or":228,"an":229,"ed":230,"ll":231,"Ġd":232,"en":233,"Ġto":234,"es":235,"Ġp":236,"Ġof":237,"Ġy":238,"Ġin":239,"ar":240,"at":241,"Ġand":242,"Ġl":243,"hat":244,"Ġyou":245,"as":246,"Ġg":247,"om":248,"Ġn":249,"ĠI":250,"ic":251,"ow":252,"le":253,"ve":254,"ot":255,"Ġh":256,"Ġhe":257,"al":258,"et":259,"Ġha":260,"'s":261,"us":262,"Ġth":263,"ay":264,"Ġit":265,"Ġis":266,"Ġbe":267,"Ġthat":268,"Ġon":269,"ion":270,"id":271,"Ġe":272,"gh":273,"ut":274,"ld":275,"ent":276,"im":277,"Ġre":278,"Ġwas":279,"ac":280,"Ġwe":281,"ver":282,"am":283,"The":284,"..":285,"Ġfor":286,"ly":287,"ĠS":288,"st":289,"ri":290,"ro":291,"ir":292,"ad":293,"se":294,"ke":295,"Ġ.":296,"Ġst":297,"ght":298,"oo":299,"'t":300,"ĠA":301,"out":302,"ith":303,"Ġme":304,"ĠC":305,"all":306,"Ġk":307,"Ġu":308,"Ġan":309,"ĠM":310,"Ġwith":311,"ur":312,"Ġas":313,"Ġdo":314,"ct":315,"her":316,"ce":317,"ill":318,"ter":319,"if":320,"ch":321,"Ġwh":322,"Ġse":323,"ome":324,"Ġare":325,"ĠH":326,"il":327,"Ġnot":328,"Ġhave":329,"ĠB":330,"Ġ1":331,"and":332,"Ġat":333,"Ġthis":334,"ould":335,"ant":336,"Ġgo":337,"ust":338,"ation":339,"Ġli":340,"op":341,"ain":342,"Ġkn":343,"You":344,"ea":345,"ĠP":346,"ĠT":347,"Ġ,":348,"un":349,"ge":350,"ol":351,"th":352,"Ġhis":353,"ul":354,"Ġ\"":355,"rom":356,"...":357,"ore":358,"ĠW":359,"ell":360,"Ġne":361,"Ġr":362,"Ġknow":363,"Ġj":364,"our":365,"ĠD":366,"Ġde":367,"pp":368,"Ġcan":369,"ĠG":370,"Ġthey":371,"um":372,"ĠThe":373,"Ġso":374,"est":375,"Ġ?":376,"Ġal":377,"Ġall":378,"Ġab":379,"Ġmy":380,"ist":381,"ers":382,"ĠR":383,"ie":384,"Ġyour":385,"art":386,"Ġby":387,"Ġfrom":388,"ess":389,"Ġsh":390,"Ġor":391,"Ġ2":392,"ĠF":393,"Ġwhat":394,"nt":395,"ab":396,"os":397,"ĠL":398,"el":399,"Ġone":400,"Ġcon":401,"ĠN":402,"Ġwhe":403,"Ġthere":404,"ig":405,"ight":406,"han":407,"ally":408,"Ġup":409,"qu":410,"em":411,"Ġcom":412,"one":413,"Ġhad":414,"Ġbut":415,"Ġher":416,"Ġsu":417,"red":418,"ry":419,"ĠJ":420,"'re":421,"Ġhim":422,"Ġout":423,"ra":424,"ack":425,"ate":426,"ood":427,"very":428,"ook":429,"Ġlike":430,"Ġwor":431,"Ġsa":432,"res":433,"ame":434,"ive":435,"Ġpl":436,"Ġus":437,"Ġ(":438,"ong":439,"'m":440,"Ġwere":441,"âĢ":442,"ake":443,"od":444,"ink":445,"ck":446,"Ġshe":447,"Ġpro":448,"Ġabout":449,"ĠE":450,"ast":451,"Ġget":452,"Ġex":453,"Ġv":454,"pe":455,"It":456,"ort":457,"ound":458,"ind":459,"ard":460,"ity":461,"Ġdon":462,"And":463,"ich":464,"right":465,"ĠO":466,"Ġjust":467,"Ġ19":468,"ies":469,"He":470,"Ġwho":471,"ear":472,"eah":473,"Ġdid":474,"ak":475,"Ġhere":476,"ber":477,"Ġthem":478,"Ġno":479,"ime":480,"ine":481,"Ġman":482,"Ġwant":483,"Ġwould":484,"Ġ20":485,"Ġif":486,"Ġ'":487,"Ġwill":488,"ud":489,"ap":490,"ĠK":491,"Ġthink":492,"ous":493,"'ll":494,"ven":495,"Ġsome":496,"ost":497,"What":498,"ep":499,"hing":500,"Ġint":501,"Ġany":502,"own":503,"ice":504,"ag":505,"Ġright":506,"ment":507,"ide":508,"Ġgot":509,"Ġhas":510,"ther":511,"use":512,"itt":513,"Ġwhich":514,"ough":515,"Ġtr":516,"fe":517,"hi":518,"ca":519,"Ġsee":520,"Ġwhen":521,"Ġsaid":522,"ure":523,"Ġar":524,"Ġag":525,"Ġpe":526,"Ġsay":527,"way":528,"ia":529,"Ġtime":530,"Ġtw":531,"iv":532,"ĠHe":533,"so":534,"Ġbeen":535,"ian":536,"Ġsp":537,"are":538,"ace":539,"Ġnow":540,"ove":541,"ick":542,"ople":543,"ci":544,"ĠU":545,"We":546,"ĠIt":547,"'ve":548,"Ġtheir":549,"ose":550,"Yeah":551,"Ġle":552,"Ġlook":553,"--":554,"Ġcl":555,"ish":556,"lf":557,"reat":558,"na":559,"Ġmore":560,"Ġthen":561,"Ġgoing":562,"age":563,"So":564,"ite":565,"ree":566,"Ġother":567,"Ġpeople":568,"ary":569,"Ġcould":570,"Ġ=":571,"ĠSt":572,"No":573,"other":574,"ne":575,"Ġoff":576,"ue":577,"Ġback":578,"his":579,"act":580,"But":581,"Ġover":582,"irst":583,"Oh":584,"ass":585,"Ġqu":586,"ount":587,"ond":588,"Ġvery":589,"ings":590,"cause":591,"Ġro":592,"ble":593,"per":594,"Ġgr":595,"Ġaf":596,"pt":597,"Ġfe":598,"ans":599,"Ġwork":600,"Ġtwo":601,"Ġgood":602,"That":603,"Ġtoo":604,"Ġbr":605,"end":606,"omet":607,"Ġen":608,"erm":609,"og":610,"pl":611,"ated":612,"oll":613,"ĠĠ":614,"the":615,"Ġfirst":616,"ions":617,"ord":618,"Ġinto":619,"hed":620,"ase":621,"Ġpart":622,"kay":623,"00":624,"Ġhow":625,"Ġdown":626,"orn":627,"alk":628,"ub":629,"we":630,"Ġun":631,"Ġway":632,"ade":633,"Ġthan":634,"ire":635,"Ġalso":636,"oy":637,"ff":638,"ittle":639,"Ġcall":640,"iz":641,"mer":642,"Ġam":643,"ought":644,"Ġyear":645,"hy":646,"ater":647,"Ġpr":648,"Ġcomp":649,"ov":650,"Ġcome":651,"Well":652,"Ġbl":653,"Ġour":654,"ance":655,"Ġwhere":656,"nder":657,"ach":658,"ife":659,"Ġagain":660,"Ġim":661,"ng":662,"Ġonly":663,"ĠV":664,"Ġevery":665,"ĠIn":666,"Ġlittle":667,"Ġad":668,"cc":669,"urn":670,"har":671,"oh":672,"Ġsomet":673,"ru":674,"Ġday":675,"wn":676,"Ġbet":677,"ang":678,"Ġplay":679,"ho":680,"Ġwell":681,"amp":682,"here":683,"orm":684,"Ġte":685,"Ġact":686,"Ġneed":687,"ence":688,"ress":689,"uch":690,"av":691,"Ġcont":692,"Ġbecause":693,"Ġdis":694,"Ġgu":695,"ty":696,".\"":697,"self":698,"Ġmake":699,"In":700,"Ġtake":701,"Ġafter":702,"ĠY":703,"able":704,"cl":705,"ren":706,"oc":707,"ory":708,"fore":709,"int":710,"be":711,"ign":712,"Ġbu":713,"Ġshould":714,"Ġreally":715,"Ġlet":716,"ew":717,"ark":718,"thing":719,"Ġwr":720,"iss":721,"ical":722,"ens":723,"ip":724,"Ġthese":725,"ict":726,"Ġhapp":727,"ather":728,"Ġtell":729,"Ġpre":730,"ob":731,"ult":732,"Ġ201":733,"au":734,"Ġthr":735,"Ġunder":736,"onna":737,"Ġmuch":738,"Ġdoes":739,"Ġfl":740,"Ġput":741,"ft":742,"uck":743,"Ġapp":744,"ĠUn":745,"Ġmean":746,"This":747,"Ġpo":748,"land":749,"ates":750,"Ġnew":751,"Ġsomething":752,"Ġper":753,"ied":754,"ool":755,"ons":756,"hen":757,"les":758,"Ġgonna":759,"ile":760,"ect":761,"Ġres":762,"Ġmade":763,"Ġco":764,"ving":765,"Ġser":766,"They":767,"ved":768,"ail":769,"Ġlong":770,"Ġcomm":771,"Ġmay":772,"Ġsc":773,"ations":774,"'d":775,"ull":776,"ody":777,"Ġ''":778,"``":779,"Ġer":780,"Ġeven":781,"ĠâĢ":782,"Ġtalk":783,"te":784,"ited":785,"Ġits":786,"Ġnever":787,"Ġbefore":788,"du":789,"ady":790,"vers":791,"port":792,"Ġdidn":793,"Ġsm":794,"Ġcar":795,"ily":796,"ually":797,"ps":798,"ks":799,"ath":800,"aw":801,"ors":802,"ouse":803,"Ġrem":804,"ious":805,"ition":806,"She":807,"ock":808,"ting":809,"There":810,"Yes":811,"ried":812,"Ġ3":813,"vel":814,"Ġke":815,"ran":816,"Ġmany":817,"Ġhand":818,"Ġrec":819,"tain":820,"ĠCh":821,"Ġdif":822,"Ġyears":823,"Ġgreat":824,"ward":825,"Ġlife":826,"âĢĿ":827,"Ġmost":828,"ix":829,"you":830,"Ġthrough":831,"ise":832,"If":833,"ave":834,"ful":835,"Ġhel":836,"Ġchan":837,"rent":838,"get":839,"igh":840,"Ġ200":841,"ction":842,"Ġsha":843,"Ġstill":844,"Ġthing":845,"day":846,"Ġthought":847,"ces":848,"Ġthings":849,"Ġsec":850,"Ġbel":851,"ince":852,"gin":853,"old":854,"Ġbec":855,"Ġold":856,"Ġthose":857,"ial":858,"what":859,"Ġspe":860,"Ġwent":861,"ever":862,"Ġthree":863,"Ġstart":864,"Ġaway":865,"hes":866,"ves":867,"Ġcame":868,"Ġused":869,"oss":870,"oney":871,"Ġcalled":872,"Ġcount":873,"Ġfound":874,"Ġlove":875,"ents":876,"Ġlast":877,"Ġmust":878,"Ġdes":879,"Ġdoing":880,"How":881,"tern":882,"Ġask":883,"Ġfind":884,"Ġch":885,"Ġshow":886,"Ġhome":887,"Ġ!":888,"riend":889,"imes":890,"Ġcr":891,"oth":892,"li":893,"xt":894,"\".":895,"Ġend":896,"Ġcour":897,"Ġhelp":898,"up":899,"Ġbeing":900,"gan":901,"ced":902,"lease":903,"ened":904,"Ġatt":905,"Ġown":906,"Ġgive":907,"Ġi":908,"meric":909,"form":910,"my":911,"atch":912,"Ġmin":913,"Ġsuch":914,"als":915,"ĠYou":916,"ars":917,"Ġname":918,"Ġlea":919,"hild":920,"Ġfam":921,"irl":922,"Ġsame":923,"oot":924,"ont":925,"ways":926,"Do":927,"Ġnight":928,"Ġkind":929,"ye":930,"Ġdiffe":931,"man":932,"ĠMr":933,"Ġlot":934,"chool":935,"ss":936,"ait":937,"Now":938,"ident":939,"Ġmov":940,"Ġtry":941,"rest":942,"Ġwon":943,"aking":944,"ning":945,"Why":946,"Ġbig":947,"ny":948,"ham":949,"de":950,"outh":951,"Ġcare":952,"any":953,"ild":954,"Ġwhy":955,"Ġear":956,"ĠAmeric":957,"ee":958,"Ġ18":959,"body":960,"Ġchild":961,"Ġworld":962,"Ġop":963,"erson":964,"Ġwom":965,"Ġfeel":966,"Ġrel":967,"Ġsupp":968,"Ġmight":969,"ased":970,"Ġpol":971,"Ġplace":972,"gg":973,"Ġhead":974,"Ġnum":975,"ĠShe":976,"side":977,"der":978,"ember":979,"Ġkill":980,"ower":981,"ational":982,"ating":983,"ute":984,"Ġuse":985,"ĠAr":986,"uring":987,").":988,"Ġaround":989,"air":990,"Ġfriend":991,"gr":992,"Ġ4":993,"Ġturn":994,"\",":995,"Ġche":996,"ĠBr":997,"Ġfin":998,"ts":999,"Ġhar":1000,"Ġreg":1001,"Ġset":1002,"ubl":1003,"that":1004,"Ġmar":1005,"Ġanother":1006,"pect":1007,"Ġalways":1008,"Ġsl":1009,"),":1010,"Ġguy":1011,"ĠThey":1012,"Ġacc":1013,"Ġac":1014,"mb":1015,"ween":1016,"âĻ":1017,"St":1018,"vent":1019,"Let":1020,"All":1021,"ics":1022,"ah":1023,"Don":1024,"clud":1025,"Ġsure":1026,"Ġhouse":1027,"Ġleft":1028,"IN":1029,"Ġpres":1030,"ĠMar":1031,"Ġmoney":1032,"Ġsy":1033,"aught":1034,"ib":1035,"ener":1036,"ĠâĢľ":1037,"ular":1038,"Ġbetter":1039,"Ã©":1040,"Ġanything":1041,"led":1042,"az":1043,"ĠUnited":1044,"ĠĠĠĠ":1045,"orry":1046,"ible":1047,"ott":1048,"Come":1049,"ollow":1050,"ness":1051,"mber":1052,"Ġfour":1053,"Ġform":1054,"und":1055,"Ġkeep":1056,"ug":1057,"Ġsur":1058,"Ġbelie":1059,"ple":1060,"Ġreal":1061,"Ġdifferent":1062,"âĻª":1063,"Ġele":1064,"Ġbit":1065,"ters":1066,"Ġdone":1067,"Ġtold":1068,"fect":1069,"Ġ5":1070,"Ġdr":1071,"Ġel":1072,"Ġmom":1073,"Ġboy":1074,"ER":1075,"ird":1076,"Ġbetween":1077,"Ġmon":1078,"Ġ|":1079,"Ġrun":1080,"Ġword":1081,"ual":1082,"Ġbo":1083,"ĠAnd":1084,"ph":1085,",\"":1086,"cial":1087,"Ġcity":1088,"Ġgirl":1089,"uh":1090,"Ġsecond":1091,"ĠDe":1092,"Ġknown":1093,"ale":1094,"ĠAl":1095,"orth":1096,"Ġent":1097,"Ġpoint":1098,"ished":1099,"yes":1100,"Ġschool":1101,"Ġwhile":1102,"Okay":1103,"Ġever":1104,"ason":1105,"ric":1106,"My":1107,"ject":1108,"Ġperson":1109,"ames":1110,"Ġtook":1111,"Ġgl":1112,"row":1113,"ĠThis":1114,"Ġmat":1115,"Ġcons":1116,"Is":1117,"Ġret":1118,"akes":1119,"ork":1120,"Ġ199":1121,"io":1122,"ĠStates":1123,"ĠNew":1124,"Ġ;":1125,"Ġinclud":1126,"Ġdec":1127,"Ġerm":1128,"Ġsw":1129,"ntil":1130,"âĢĻ":1131,"Ġsub":1132,"ret":1133,"Ġinv":1134,"Ġcle":1135,"aj":1136,"Ġmen":1137,"Ġstud":1138,"rew":1139,"Ġchar":1140,"ities":1141,"Ġwar":1142,"Ġmet":1143,"Hey":1144,"cept":1145,"Ġbook":1146,"Ġwater":1147,"ative":1148,"olog":1149,"its":1150,"hip":1151,"Ġokay":1152,"ohn":1153,"Ġstop":1154,"cess":1155,"Ġmus":1156,"no":1157,"Ġnext":1158,"but":1159,"Than":1160,"When":1161,"Ġbus":1162,"Be":1163,"ner":1164,"Ġdist":1165,"Ġfollow":1166,"Ġuh":1167,"oun":1168,"Ġcourse":1169,"Ġinst":1170,"ope":1171,"Ġass":1172,"Ġob":1173,"Ġboth":1174,"Ġfar":1175,"cy":1176,"ivers":1177,"Ġstr":1178,"ctor":1179,"ĠWhat":1180,"ton":1181,"ĠEng":1182,"ins":1183,"of":1184,"Ġcent":1185,"Ġnothing":1186,"une":1187,"Ġseem":1188,"ĠRe":1189,"ĠAn":1190,"Ġbest":1191,"Ġpass":1192,"eak":1193,"Ġsaw":1194,"Ġprodu":1195,"ross":1196,"Not":1197,"Ġeach":1198,"Ġ-":1199,"where":1200,"Ġuntil":1201,"Ġcap":1202,"ling":1203,"Ġwee":1204,"stand":1205,"to":1206,"me":1207,"ision":1208,"Ġsing":1209,"vern":1210,"ures":1211,"Ġph":1212,"ĠAs":1213,"Ġyeah":1214,"Ġactually":1215,"Ġnumber":1216,"Ġsmall":1217,"ax":1218,"ung":1219,"ĠGod":1220,"cer":1221,"Ġfather":1222,"Ġlater":1223,"Ġpop":1224,"ĠNo":1225,"ote":1226,"osed":1227,"Ġdoesn":1228,"Ġcha":1229,"ash":1230,"Ġbre":1231,"ms":1232,"Ġlar":1233,"ream":1234,"Ġhigh":1235,"Ġmother":1236,"Ġadd":1237,"ired":1238,"ok":1239,"Ġlist":1240,"Ġem":1241,"ier":1242,"Ġlight":1243,"ĠInd":1244,"less":1245,"iet":1246,"Ġonce":1247,"Ġfun":1248,"19":1249,"Ġwanted":1250,"uff":1251,"part":1252,"Ġelse":1253,"On":1254,"ged":1255,"Ġagainst":1256,"ĠAmerican":1257,"aid":1258,"Ġfamily":1259,"rist":1260,"uth":1261,"Ġinc":1262,"Ġ6":1263,"let":1264,"ific":1265,"ublic":1266,"Ġca":1267,"Ġroom":1268,"Ġproble":1269,"Ġenough":1270,"Ġ--":1271,"Where":1272,"Ġbecame":1273,"Ġloc":1274,"Ġseen":1275,"ably":1276,"ten":1277,"Ġwait":1278,"ger":1279,"Who":1280,"Ġfact":1281,"gether":1282,"Ġtogether":1283,"ned":1284,"ines":1285,"Just":1286,"Ġstand":1287,"Ġfew":1288,"AN":1289,"Ġeverything":1290,"Ġhard":1291,"Ġinte":1292,"Ġimp":1293,"Ġyoung":1294,"ister":1295,"Ġsays":1296,"ĠBut":1297,"ury":1298,"Ġsince":1299,"iness":1300,"Ġsim":1301,"ries":1302,"Ġyes":1303,"Ġrest":1304,"Ġquite":1305,"Ġfr":1306,"Ġwithout":1307,"Look":1308,"Ġside":1309,"Ġstay":1310,"Ġimport":1311,"Ġinter":1312,"Ġopen":1313,"ane":1314,"Ġdied":1315,"fter":1316,"Ġmind":1317,"omm":1318,"ĠZ":1319,"Ġsorry":1320,"Ġmeet":1321,"Ġbad":1322,"Ġsign":1323,"Ġ198":1324,"ene":1325,"Ġread":1326,"Ġhear":1327,"att":1328,"Ġtra":1329,"orning":1330,"dd":1331,"Ġlive":1332,"Ġind":1333,"Ġid":1334,"uc":1335,"Ġcoll":1336,"ised":1337,"okay":1338,"ike":1339,"ank":1340,"ense":1341,"ral":1342,"Then":1343,"ĠJohn":1344,"Ġcoming":1345,"ism":1346,"Ġduring":1347,"ĠIs":1348,"ution":1349,"Ġlooking":1350,"Ġunderstand":1351,"Ġsix":1352,"iew":1353,"Ġrep":1354,"Ġhappened":1355,"Ġfive":1356,"ina":1357,"Ġleave":1358,"Are":1359,"son":1360,"Ġbelieve":1361,"Ġev":1362,"ertain":1363,"Ġpret":1364,"Ġmain":1365,"Ġdri":1366,"Ġdire":1367,"Ġquest":1368,"Ġteam":1369,"Ġthough":1370,"Ġhum":1371,"Ġtoday":1372,"Ġwhole":1373,"Ġdisc":1374,"ither":1375,"ready":1376,"sel":1377,"Ġkid":1378,"Ġchildren":1379,"ING":1380,"Ġexp":1381,"ital":1382,"Ġland":1383,"stem":1384,"Ġsit":1385,"Ġdays":1386,"Ġson":1387,"Ġext":1388,"Ġtown":1389,"anna":1390,"ball":1391,"leep":1392,"Ġtimes":1393,"hm":1394,"Ġmove":1395,"Ġsir":1396,"by":1397,"Ġmed":1398,"Ġgetting":1399,"ec":1400,"ĠTh":1401,"Ġisn":1402,"aster":1403,"000":1404,"ield":1405,"Ġtrans":1406,"ists":1407,"Ġnice":1408,"Ġface":1409,"Ġmusic":1410,"ets":1411,"Ġbro":1412,"Ġheard":1413,"iversity":1414,"ĠFr":1415,"HE":1416,"Ġinterest":1417,"cted":1418,"ĠQ":1419,"Ġbuild":1420,"oup":1421,"Ġdra":1422,"Ġed":1423,"Ġjob":1424,"ants":1425,"Ġplease":1426,"Ġposs":1427,"Ġnear":1428,"Ġsort":1429,"Ġcountry":1430,"Ġart":1431,"Th":1432,"ments":1433,"sh":1434,"At":1435,"ized":1436,"Ġ197":1437,"Ġgener":1438,"Ġhimself":1439,"Ġwoman":1440,"ĠSp":1441,"ows":1442,"ĠKing":1443,"br":1444,"Ġgave":1445,"Ġsk":1446,"Ġwalk":1447,"Ġeyes":1448,"Ġmorning":1449,"Ġeas":1450,"For":1451,"Ġyet":1452,"Mm":1453,"app":1454,"rop":1455,"Ġdeath":1456,"ined":1457,"ĠWe":1458,"Ġcol":1459,"Ġfil":1460,"Ġhaving":1461,"Ġimportant":1462,"Uh":1463,"uss":1464,"Ġ7":1465,"ery":1466,"dy":1467,"Ġlead":1468,"ize":1469,"yeah":1470,"lish":1471,"Ġheart":1472,"Ġmil":1473,"ats":1474,"Ġtri":1475,"Ġdead":1476,"Ġalready":1477,"Ġstate":1478,"Ġ8":1479,"Ġpower":1480,"As":1481,"ex":1482,"Ġasked":1483,"Ġknew":1484,"?\"":1485,"ives":1486,"Did":1487,"Thank":1488,"Ġans":1489,"ĠAt":1490,"Ġhalf":1491,"20":1492,"Ġhour":1493,"ta":1494,"Al":1495,"aughter":1496,"Ġhold":1497,"most":1498,"Ġgame":1499,"Ġwrong":1500,"ĠPr":1501,"Ġcase":1502,"OU":1503,"ues":1504,"Ġplan":1505,"Right":1506,"Ġsaying":1507,"gt":1508,"Ġpay":1509,"Good":1510,"ĠSo":1511,"velop":1512,"ison":1513,"aut":1514,"wards":1515,"ted":1516,".âĢĿ":1517,"fl":1518,"Ġmod":1519,"Ġair":1520,"ĠGerm":1521,"ched":1522,"Ġ10":1523,"aby":1524,"Ġupon":1525,"Ġref":1526,"Ġeat":1527,"Ġremember":1528,"ober":1529,"Ġtalking":1530,"do":1531,"Ġmeans":1532,"ĠHow":1533,"Ġprob":1534,"Ġborn":1535,"Ġcur":1536,"Ġbegan":1537,"Ġsoon":1538,"not":1539,"Ġsong":1540,"ying":1541,"âĢĵ":1542,"Ġfore":1543,"ically":1544,"ĠSc":1545,"Ġsystem":1546,"Ġshall":1547,"Ġ_":1548,"ony":1549,"Ġstarted":1550,"Ġfull":1551,"ains":1552,"Ġmonth":1553,"Ġtrying":1554,"ural":1555,"Ġrecord":1556,"Ġreturn":1557,"Ġpri":1558,"ages":1559,"reen":1560,"Ġri":1561,"Ġgovern":1562,"Ġgi":1563,"Ġmill":1564,"ron":1565,"Ġlaw":1566,"ided":1567,"Ġins":1568,"ered":1569,"now":1570,"Ġ9":1571,"Ġhist":1572,"Ġoffic":1573,"ĠBe":1574,"Ġmiss":1575,"leased":1576,"Ġalong":1577,"Ġdoor":1578,"Ġoften":1579,"Ġequ":1580,"Ġbring":1581,"Go":1582,"ney":1583,"ature":1584,"ai":1585,"ility":1586,"ering":1587,"ĠCl":1588,"Ġidea":1589,"Ġround":1590,"Ġgone":1591,"Ġwife":1592,"Ġexpl":1593,"Ġhur":1594,"Ġfight":1595,"ĠThere":1596,"Can":1597,"Ġbrother":1598,"Ġwind":1599,"Ġcertain":1600,"Ġprom":1601,"fess":1602,"med":1603,"rict":1604,"ĠAll":1605,"Ġ196":1606,"ately":1607,"ON":1608,"Ġprov":1609,"vice":1610,"Ġwin":1611,"Ġhappen":1612,"cle":1613,"Ġchange":1614,"ern":1615,"Ġfoot":1616,"pped":1617,"ush":1618,"Ġjo":1619,"ĠCar":1620,"amed":1621,"ured":1622,"Get":1623,"Ġhands":1624,"Ġline":1625,"Ġplayed":1626,"ĠChrist":1627,"Ġfell":1628,"Ġsent":1629,"Ġbas":1630,"âĢľ":1631,"ional":1632,"Ġ15":1633,"AT":1634,"ĠGr":1635,"Ġlear":1636,"Ġfuck":1637,"Ġpretty":1638,"Ġsound":1639,"aken":1640,"Ġty":1641,"ides":1642,"Ġcontin":1643,"ges":1644,"eb":1645,"idd":1646,"ĠMay":1647,"Ġmatter":1648,"Ġgoes":1649,"One":1650,"Ġless":1651,"Ġable":1652,"uro":1653,"iter":1654,"Ġstory":1655,"ump":1656,"Ġcreat":1657,"Ġorder":1658,"Ġ[":1659,"ĠCount":1660,"mor":1661,"Ġspeak":1662,"Ġpar":1663,"Ġ17":1664,"Ġbed":1665,"pend":1666,"Ġtop":1667,"AR":1668,"Ġmoment":1669,"pr":1670,"Ġproblem":1671,"Ġ...":1672,"Ġdevelop":1673,"Ġwomen":1674,"Ġarea":1675,"anu":1676,"Ġdet":1677,"ared":1678,"ik":1679,"ices":1680,"Ġsleep":1681,"Your":1682,"rigin":1683,"rence":1684,"Ġwanna":1685,"Ġsomeone":1686,"Ġclass":1687,"iam":1688,"Ġes":1689,"Ġlost":1690,"ey":1691,"apan":1692,"ĠPro":1693,"Ġdef":1694,"arch":1695,"oon":1696,"Ġwasn":1697,"ilt":1698,"Er":1699,"Ġfall":1700,"Ġwatch":1701,"Ġleg":1702,"Ġpartic":1703,"ained":1704,"Ġmaking":1705,"ead":1706,"Ġbusiness":1707,"ract":1708,"Here":1709,"ler":1710,"An":1711,"Ġpolit":1712,"Ġterm":1713,"Ġlarge":1714,"Ġshort":1715,"con":1716,"aces":1717,"!\"":1718,"ĠBl":1719,"Ġfriends":1720,"Ġcomes":1721,"Ġpat":1722,"ĠCon":1723,"Ġyourself":1724,"ians":1725,"well":1726,"Ġprobably":1727,"ement":1728,"ole":1729,"how":1730,"Ġhat":1731,"Ġguys":1732,"ample":1733,"Ġpresent":1734,"aper":1735,"Ġexper":1736,"Ġbeaut":1737,"Ġdrink":1738,"ĠOh":1739,"che":1740,"Ġlooked":1741,"ches":1742,"Ġtrue":1743,"ĠEnglish":1744,"Ġpain":1745,"ama":1746,"cri":1747,"Ġmark":1748,"ulation":1749,"Ġcontro":1750,"Ġbecome":1751,"iver":1752,"ention":1753,"lt":1754,"OR":1755,"Ġwond":1756,"Ġworking":1757,"angu":1758,"Ġbody":1759,"Ġprot":1760,"Ġweek":1761,"ator":1762,"gy":1763,"Ġdad":1764,"reet":1765,"Ġsqu":1766,"Ġpur":1767,"ĠBrit":1768,"Ġfine":1769,"used":1770,"wer":1771,"ley":1772,"ĠOn":1773,"Ġago":1774,"Ġanim":1775,"Ġdiv":1776,"Ġblood":1777,"ient":1778,"ĠThat":1779,"Ġsol":1780,"Ġalmost":1781,"ĠJapan":1782,"Ġpie":1783,"Ġship":1784,"ello":1785,"arr":1786,"Ġwouldn":1787,"Ġcor":1788,"Ġage":1789,"Ġcommun":1790,"gram":1791,"ĠUniversity":1792,"May":1793,"ĠHis":1794,"ĠâĢĵ":1795,"eth":1796,"arent":1797,"Ġhope":1798,"mp":1799,"co":1800,"eter":1801,"Ġ194":1802,"Ġgroup":1803,"Ġorigin":1804,"Ġbaby":1805,"Ġste":1806,"Ġearly":1807,"Ġcut":1808,"Ġpos":1809,"ĠFrance":1810,"Ġfree":1811,"enty":1812,"ouble":1813,"Because":1814,"Re":1815,"hind":1816,"anuary":1817,"Ġmovie":1818,"Ġdeal":1819,"ards":1820,"Ġvis":1821,"Ġgiven":1822,"Ġhaven":1823,"To":1824,"umb":1825,"orld":1826,"Ġconst":1827,"rap":1828,"Ġoh":1829,"ief":1830,"urch":1831,"ode":1832,"Ġready":1833,"ajor":1834,"Ġpick":1835,"ĠYes":1836,"uly":1837,"Ġocc":1838,"ze":1839,"ept":1840,"ety":1841,"Ġhor":1842,"Ġswe":1843,"Ġopp":1844,"ĠFor":1845,"Ġcomple":1846,"Ġspec":1847,"come":1848,"Ġreleased":1849,"Ġquestion":1850,"Ġlate":1851,"Ġhon":1852,"Ġmyself":1853,"Ġvar":1854,"Ġter":1855,"Ġoper":1856,"ccess":1857,"Âł":1858,"Ġbreak":1859,"oman":1860,"Ġclear":1861,"Ġbegin":1862,"Ġaw":1863,"Ġbrought":1864,"Ġnews":1865,"Ġstuff":1866,"ster":1867,"ĠWar":1868,"ys":1869,"Ġrece":1870,"Ġ16":1871,"Ġclose":1872,"Ġleast":1873,"ese":1874,"Ġkilled":1875,"Ġfood":1876,"Ġfire":1877,"ĠCan":1878,"haps":1879,"iful":1880,"Ġ``":1881,"Ġblack":1882,"ĠJanuary":1883,"ĠCounty":1884,"Ġdaughter":1885,"ived":1886,"Ġ12":1887,"elt":1888,"selves":1889,"ino":1890,"ĠPres":1891,"els":1892,"alth":1893,"Ġstation":1894,"Ġwords":1895,"Ġtaken":1896,"Ġeight":1897,"Ġmaybe":1898,"eor":1899,"mm":1900,"Ġreason":1901,"Ġgovernment":1902,"Ġking":1903,"Ġexample":1904,"ĠWhen":1905,"ĠFran":1906,"Ġten":1907,"Ġran":1908,"ĠYeah":1909,"Ġguess":1910,"ĠLe":1911,"iting":1912,"Ġpast":1913,"Ġsever":1914,"oke":1915,"Ġ195":1916,"Ġcompany":1917,"Ġpublic":1918,"ĠFl":1919,"bo":1920,"cent":1921,"born":1922,"ĠYork":1923,"ES":1924,"Ġbehind":1925,"ology":1926,"Every":1927,"ped":1928,"Mr":1929,"ĠSouth":1930,"Please":1931,"Ġfront":1932,"Ġconf":1933,"Ġlangu":1934,"ert":1935,"hich":1936,"lev":1937,"fic":1938,"Ġorgan":1939,"Ġhappy":1940,"ality":1941,"Ġmarried":1942,"Ġmillion":1943,"ude":1944,"vious":1945,"for":1946,"eng":1947,"Ġball":1948,"utes":1949,"Ġdog":1950,"head":1951,"ones":1952,"Ġseveral":1953,"omp":1954,"Ġallow":1955,"Ġwhite":1956,"iqu":1957,"Ġinde":1958,"osp":1959,"men":1960,"Ġmakes":1961,"Ġnorth":1962,"Ġrather":1963,"Ġtaking":1964,"aced":1965,"gue":1966,"undred":1967,"oud":1968,"bum":1969,"urope":1970,"Ġsold":1971,"Ġvo":1972,"Ġcharac":1973,",âĢĿ":1974,"ĠAust":1975,"bs":1976,"can":1977,"Ġpict":1978,"la":1979,"erv":1980,"Ġalone":1981,"Ġval":1982,"Ġprogram":1983,"bed":1984,"ĠâĻª":1985,"Ġinform":1986,"Ġeither":1987,"Ġest":1988,"itten":1989,"Ġve":1990,"rench":1991,"Ġdesign":1992,"Ġhuman":1993,"pri":1994,"ium":1995,"Ġreport":1996,"Ġeng":1997,"ience":1998,"ament":1999,"cient":2000,"Ah":2001,"Ġhot":2002,"Ġexc":2003,"there":2004,"Ġ&":2005,"Ġseries":2006,"Ġturned":2007,"Ġtre":2008,"ently":2009,"ully":2010,"ĠCal":2011,"ency":2012,"Ġhell":2013,"Ġstrong":2014,"Ġattack":2015,"atic":2016,"cha":2017,"oint":2018,"oor":2019,"ĠTr":2020,"Ġsat":2021,"ĠWorld":2022,"huh":2023,"Ġliving":2024,"Ġsupport":2025,"band":2026,"enn":2027,"Ġann":2028,"Ġparty":2029,"ford":2030,"Ġquick":2031,"Ġsuccess":2032,"Ġthinking":2033,"hamp":2034,"ots":2035,"Ġcommon":2036,"Ġcou":2037,"Some":2038,"Ġ0":2039,"Ġothers":2040,"ĠPl":2041,"Ġcouldn":2042,"Ġresp":2043,"Sh":2044,"Ġlay":2045,"Ġred":2046,"Ġtrain":2047,"ĠMarch":2048,"ĠAd":2049,"Ġdem":2050,"Ġfig":2051,"Ġhundred":2052,"Ġfilm":2053,"ĠEurope":2054,"ring":2055,"unk":2056,"Ġadm":2057,"idge":2058,"ĠComm":2059,"Ġbar":2060,"bit":2061,"ffect":2062,"over":2063,"actly":2064,"Ġdel":2065,"Ġalbum":2066,"hern":2067,"Ġdream":2068,"Ġgrow":2069,"oub":2070,"Ġsum":2071,"Ġnamed":2072,"Ex":2073,"ĠMrs":2074,"go":2075,"ĠSh":2076,"itting":2077,"ior":2078,"Ġband":2079,"eptember":2080,"range":2081,"sy":2082,"Ġlooks":2083,"Ġsometimes":2084,"LL":2085,"ĠMan":2086,"Ġtou":2087,"Ġstru":2088,"Ġheld":2089,"Ġ$":2090,"ĠBritish":2091,"Ġcheck":2092,"raz":2093,"Ġwithin":2094,"ĠThen":2095,"iving":2096,"wo":2097,"Ġhistory":2098,"par":2099,"Ġcost":2100,"Ġmess":2101,"Ġtem":2102,"Ġwants":2103,"Ġlisten":2104,"unt":2105,"Ġbeautiful":2106,"Ġthird":2107,"ĠNorth":2108,"Ġadv":2109,"Ġsouth":2110,"Ġexpect":2111,"Ġhit":2112,"Ġvill":2113,"Ġbuilt":2114,"aim":2115,"Ġce":2116,"Ġminute":2117,"rie":2118,"ĠPar":2119,"ĠAb":2120,"augh":2121,"ma":2122,"Ġperform":2123,"Ġz":2124,"Ġusually":2125,"Ġroad":2126,"Ġresult":2127,"ĠOr":2128,"estern":2129,"fully":2130,"Ġinside":2131,"ĠTHE":2132,"ugust":2133,"ĠGo":2134,"Ġspecial":2135,"ĠSe":2136,"Or":2137,"ider":2138,"EN":2139,"ondon":2140,"Ġthank":2141,"Ch":2142,"Ġrock":2143,"Ġappro":2144,"Ġrequ":2145,"Ġgold":2146,"Ġsingle":2147,"ege":2148,"Ġpoor":2149,"dom":2150,"Ġra":2151,"Ġmemb":2152,"ille":2153,"Ġacross":2154,"oad":2155,"ination":2156,"ls":2157,"Ġav":2158,"Ġrev":2159,"Ġmonths":2160,"Ġseason":2161,"ĠJuly":2162,"ffic":2163,"Ġminutes":2164,"Ġdear":2165,"look":2166,"ĠSeptember":2167,"ming":2168,"ounds":2169,"Hello":2170,"Ġplaying":2171,"Ġpossible":2172,"Ġcir":2173,"Ġstat":2174,"ald":2175,"Ġoutside":2176,"Have":2177,"ĠWill":2178,"Ġgotta":2179,"ousand":2180,"ana":2181,"Ġteac":2182,"ĠPresident":2183,"resent":2184,"Ġusing":2185,"Ġbuy":2186,"pril":2187,"Ġrepl":2188,"Ġincluding":2189,"Ġ193":2190,"ask":2191,"Ġtot":2192,"Ġbuilding":2193,"read":2194,"chn":2195,"Ġeffect":2196,"ĠFrench":2197,"ued":2198,"Any":2199,"Ġelect":2200,"Ġwonder":2201,"ĠChar":2202,"Ġappear":2203,"Ġsend":2204,"Ġ*":2205,"ĠX":2206,"Ġtried":2207,"usband":2208,"anger":2209,"Ġdepart":2210,"hile":2211,"fort":2212,"Ġsil":2213,"Ġcop":2214,"overed":2215,"Ġamong":2216,"ĠMin":2217,"ctober":2218,"ales":2219,"Ġcho":2220,"Ġ11":2221,"morrow":2222,"ached":2223,"Ġconcer":2224,"Ġlocal":2225,"itch":2226,"ĠSha":2227,"irth":2228,"Ġcamp":2229,"Ġmembers":2230,"II":2231,"ases":2232,"Ġhair":2233,"Ġlived":2234,"ressed":2235,"Ġpopulation":2236,"like":2237,"Ġmajor":2238,"Ġcre":2239,"ĠJune":2240,"||":2241,"Ġmag":2242,"Ġdest":2243,"Ġdark":2244,"though":2245,"ĠDo":2246,"Ġprofess":2247,"Ġoffice":2248,"ĠGeor":2249,"Ġfollowing":2250,"attle":2251,"Ġmur":2252,"cember":2253,"uthor":2254,"Ġtest":2255,"een":2256,"Ġsweet":2257,"Ġsn":2258,"yn":2259,"Ġvide":2260,"Ġlevel":2261,"Ġdie":2262,"After":2263,"ories":2264,"unch":2265,"gest":2266,"Ġwritten":2267,"aul":2268,"ĠLondon":2269,"Ġcond":2270,"Ġfelt":2271,"Ġanyone":2272,"ĠNational":2273,"cing":2274,"ĠAf":2275,"ovember":2276,"Ġworry":2277,"more":2278,"ĠJo":2279,"iddle":2280,"ĠAugust":2281,"eared":2282,"ified":2283,"Ġabs":2284,"key":2285,"Ġprocess":2286,"bers":2287,"Ġgun":2288,"amb":2289,"Ġgets":2290,"ĠMiss":2291,"Ġsea":2292,"Ġhusband":2293,"Ġiss":2294,"Maybe":2295,"oved":2296,"ĠEngland":2297,"Ġanswer":2298,"rit":2299,"RE":2300,"soci":2301,"Ġthousand":2302,"Ġbird":2303,"urs":2304,"Ġ13":2305,"levision":2306,"iod":2307,"ĠApril":2308,"Ġview":2309,"With":2310,"Ġtreat":2311,"Ġformer":2312,"Ġworked":2313,"Î¿":2314,"Ġmember":2315,"ĠCha":2316,"Ġtill":2317,"ruary":2318,"ebruary":2319,"Ġparticular":2320,"Ġvoice":2321,"itions":2322,"work":2323,"Ġseven":2324,"Ġ14":2325,"aint":2326,"ĠRep":2327,"ox":2328,"Ġcomplete":2329,"Ġsun":2330,"ĠHar":2331,"Ġlanguage":2332,"Ġfav":2333,"iron":2334,"uk":2335,"Ġdefe":2336,"Ġworks":2337,"Ġnat":2338,"Ġbased":2339,"Ġones":2340,"ĠOctober":2341,"Ġfa":2342,"raid":2343,"Ġtable":2344,"Ġeveryone":2345,"ĠCent":2346,"Ġcannot":2347,"Ġstra":2348,"Ġchance":2349,"....":2350,"10":2351,"Ġproper":2352,"Ġcentury":2353,"reed":2354,"ĠDecember":2355,"Ġwrote":2356,"ĠCity":2357,"ĠItal":2358,"fer":2359,"airs":2360,"Ġpull":2361,"Of":2362,"ĠCap":2363,"Ġinvol":2364,"Ġcross":2365,"Ġwhether":2366,"ĠBar":2367,"ored":2368,"Ġpolice":2369,"Ġhours":2370,"Ġcry":2371,"asure":2372,"Ġwear":2373,"Ġmer":2374,"rodu":2375,"aged":2376,"ays":2377,"Ġdi":2378,"ĠWest":2379,"Ġwish":2380,"ĠHer":2381,"ĠNovember":2382,"Ġcouple":2383,"Ġforg":2384,"TH":2385,"Ġwrite":2386,"Ġeasy":2387,"Ġdam":2388,"Ġpract":2389,"Ġtomorrow":2390,"ĠIf":2391,"Ġseems":2392,"Ġinformation":2393,"com":2394,"Ġbox":2395,"Ġgra":2396,"Ġdiffic":2397,"Ġclean":2398,"por":2399,"onight":2400,"Ġstar":2401,"Ġ30":2402,"ĠJack":2403,"Ġboys":2404,"room":2405,"Ġlow":2406,"Ġknows":2407,"Ġprotect":2408,"ĠMic":2409,"Ġfur":2410,"ĠCol":2411,"Ġpaper":2412,"Ġla":2413,"ternational":2414,"Ġlives":2415,"Ġ2013":2416,"Ġevent":2417,"ĠMe":2418,"Ġsense":2419,"ĠGu":2420,"ien":2421,"Ġwall":2422,"iding":2423,"Ġcurrent":2424,"Ġtrad":2425,"Ġground":2426,"ĠGerman":2427,"Ġservice":2428,"ĠPh":2429,"Ġhowever":2430,"Ġchanged":2431,"Ġpost":2432,"ĠAm":2433,"Ġfif":2434,"hys":2435,"Ġcold":2436,"Ġcal":2437,"Ġfeet":2438,"yr":2439,"Ġdep":2440,"ĠEd":2441,"ĠDan":2442,"cially":2443,"idence":2444,"ĠAfter":2445,"ĠFebruary":2446,"ourn":2447,"Ġmoved":2448,"Ġmine":2449,"Ġfast":2450,"ĠAmerica":2451,"Take":2452,"Ġru":2453,"Ġrad":2454,"ising":2455,"cil":2456,"Ġlad":2457,"rog":2458,"ogn":2459,"avy":2460,"oose":2461,"this":2462,"Ġgrand":2463,"Ġcompet":2464,"she":2465,"Ġisland":2466,"itive":2467,"Ġfield":2468,"Ġlonger":2469,"ata":2470,"Ġparent":2471,"ration":2472,"Ġsca":2473,"Ġphone":2474,"irty":2475,"uri":2476,"Ġbirth":2477,"ances":2478,"Ġsupposed":2479,"Ġfail":2480,"Ġstep":2481,"Ġexactly":2482,"Ġtwenty":2483,"Ġcommune":2484,"Ġsuper":2485,"Ġ202":2486,"IS":2487,"ivil":2488,"Ġcontrol":2489,"Ġdraw":2490,"Ġdro":2491,"Ġhig":2492,"ĠIndian":2493,"kes":2494,"Ġill":2495,"ida":2496,"ument":2497,"Ġcareer":2498,"Ġ2010":2499,"18":2500,"Ar":2501,"Ġvers":2502,"Ġlady":2503,"Ġperiod":2504,"irgin":2505,"Ġfair":2506,"Ġafraid":2507,"ift":2508,"Ġregion":2509,"Ġpriv":2510,"Ġthemselves":2511,"ization":2512,"who":2513,"IC":2514,"ording":2515,"Ġshot":2516,"Ġcharacter":2517,"stit":2518,"His":2519,"ula":2520,"Ġhurt":2521,"hael":2522,"cience":2523,"Ġtruth":2524,"See":2525,"emy":2526,"Ġincre":2527,"Ġtit":2528,"Ġbott":2529,"ĠOne":2530,"rem":2531,"Ġgeneral":2532,"ended":2533,"LA":2534,"Like":2535,"Ġsister":2536,"ĠTe":2537,"uation":2538,"Ġnational":2539,"irt":2540,"Ġrelig":2541,"Ġmot":2542,"Ġprop":2543,"hard":2544,"entle":2545,"Ġdin":2546,"Ġkept":2547,"col":2548,"with":2549,"Ġsex":2550,"Ġneeds":2551,"ission":2552,"Ġtelevision":2553,"ption":2554,"Ġdirect":2555,"Ġtrouble":2556,"Ġreceived":2557,"Ġkids":2558,"Ġauthor":2559,"Ġperhaps":2560,"Wait":2561,"ada":2562,"Ġrunning":2563,"Ġshoot":2564,"eal":2565,"ĠSw":2566,"Ġletter":2567,"Ġdescri":2568,"ipp":2569,"Ġpicture":2570,"ilar":2571,"Ġvideo":2572,"eople":2573,"Ġdeep":2574,"ĠAfric":2575,"ffe":2576,"owers":2577,"inal":2578,"Ġpopular":2579,"conom":2580,"lex":2581,"ĠDist":2582,"lant":2583,"Ġcourt":2584,"Ġfootball":2585,"Ġdev":2586,"Ġtechn":2587,"Ġtonight":2588,"ops":2589,"ED":2590,"atter":2591,"Ġ25":2592,"ray":2593,"Ġaccept":2594,"Ġpubl":2595,"Ġdoctor":2596,"ĠRoman":2597,"Ġarri":2598,"Ġspace":2599,"Ġeduc":2600,"ĠSer":2601,"Ġconne":2602,"Ġcook":2603,"Ġinfl":2604,"Ġforget":2605,"Ġentire":2606,"they":2607,"Ġtree":2608,"joy":2609,"Ġabove":2610,"val":2611,"Ġcat":2612,"Ġtype":2613,"ding":2614,"Ġvillage":2615,"eder":2616,"illy":2617,"Ġserious":2618,"Ġinstead":2619,"Ġseemed":2620,"ills":2621,"ggest":2622,"Ġmount":2623,"Ġclot":2624,"Ġinclude":2625,"Ġprin":2626,"bur":2627,"uz":2628,"Ġsett":2629,"iol":2630,"Ġhuh":2631,"ĠDr":2632,"Ġcos":2633,"ĠDon":2634,"Ġlim":2635,"hel":2636,"cture":2637,"Ġfly":2638,"see":2639,"Ġclub":2640,"ging":2641,"Ġtouch":2642,"Ġwaiting":2643,"Ġwhatever":2644,"Ġstre":2645,"Ġcollect":2646,"Ġcreated":2647,"Ġpress":2648,"alt":2649,"Ġperfect":2650,"ĠWell":2651,"Ġfut":2652,"ĠMc":2653,"ror":2654,"Ġnorm":2655,"Ġcountries":2656,"lect":2657,"olute":2658,"Ġrespect":2659,"Ġwood":2660,"oul":2661,"Ġlab":2662,"Ġdepartment":2663,"Ġcult":2664,"Ġport":2665,"Ġluck":2666,"Ġhy":2667,"Ġplayer":2668,"Erm":2669,"Ġposition":2670,"Ġitself":2671,"reg":2672,"Ġpiece":2673,"ĠHowever":2674,"ĠYOU":2675,"Ġep":2676,"GH":2677,"hampions":2678,"Thanks":2679,"ky":2680,"ken":2681,"ference":2682,"Ġhorse":2683,"ospital":2684,"acy":2685,"Ġrul":2686,"Ġexcept":2687,"avid":2688,"ially":2689,"Ġfucking":2690,"CH":2691,"Ġgod":2692,"olution":2693,"ĠIll":2694,"Ġsuggest":2695,"ĠĠĠĠĠĠĠĠ":2696,"dden":2697,"Ġtrust":2698,"Ġdue":2699,"Ġinvest":2700,"Ġrepresent":2701,"ribut":2702,"Ġaren":2703,"Ġproject":2704,"Ġtakes":2705,"Ġsomebody":2706,"Ġamount":2707,"ĠLea":2708,"Ġeverybody":2709,"Ġple":2710,"omin":2711,"Ġmist":2712,"Ġfamous":2713,"Ġgirls":2714,"Ġdifficult":2715,"Ġgen":2716,"sp":2717,"ĠEx":2718,"Ġcomput":2719,"Ġled":2720,"Ġbear":2721,"ĠMy":2722,"ĠTom":2723,"rian":2724,"Ġang":2725,"king":2726,"ĠVirgin":2727,"Ġcrit":2728,"Ġweeks":2729,"ĠDistrict":2730,"ev":2731,"Ġsudden":2732,"ĠTH":2733,"Ġdecided":2734,"light":2735,"rey":2736,"Ġrecogn":2737,"Ġcapital":2738,"Ġstraight":2739,"ĠHouse":2740,"ĠState":2741,"ara":2742,"Ġworth":2743,"sc":2744,"Ġ]":2745,"pecially":2746,"Sorry":2747,"ĠEm":2748,"Ġsurpr":2749,"Ġcoun":2750,"Ġrole":2751,"Ġproduct":2752,"off":2753,"Ġmult":2754,"ades":2755,"Ġphot":2756,"ĠPart":2757,"ĠWh":2758,"Ġserved":2759,"Ġlearn":2760,"ĠAustral":2761,"Ġblue":2762,"razy":2763,"Ġhang":2764,"ĠThese":2765,"Tell":2766,"Ġfeeling":2767,"ashing":2768,"Ġstood":2769,"Ġsell":2770,"Ġ24":2771,"ival":2772,"eneral":2773,"Ġshit":2774,"Ġsafe":2775,"AS":2776,"Ġpen":2777,"Ġfuture":2778,"Ġcast":2779,"Ġgames":2780,"ĠGeorge":2781,"aur":2782,"itary":2783,"amer":2784,"Ġfunny":2785,"15":2786,"Ġda":2787,"ĠUS":2788,"time":2789,"su":2790,"Ġhealth":2791,"Ġtelling":2792,"Ġvict":2793,"ĠSome":2794,"Ġcarry":2795,"Ġevening":2796,"Ġpassed":2797,"riage":2798,"Ġslow":2799,"omb":2800,"Ġmeant":2801,"Ġexist":2802,"Ġeye":2803,"Un":2804,"Stop":2805,"oes":2806,"ĠSy":2807,"ĠPeter":2808,"ĠLord":2809,"Ġbooks":2810,"Ġproblems":2811,"Ġcried":2812,"Ġnine":2813,"Ġsecret":2814,"Ġdoll":2815,"Ġstri":2816,"empt":2817,"Ġcover":2818,"Ġearth":2819,"Ġver":2820,"Ġfill":2821,"Ġfurther":2822,"was":2823,"Ġimag":2824,"ression":2825,"hank":2826,"Ġtrack":2827,"Ġet":2828,"ication":2829,"Ġjud":2830,"Ġcounty":2831,"Ġpolic":2832,"Ġahead":2833,"ceed":2834,"ĠNot":2835,"reme":2836,"Ġmatch":2837,"Ġ192":2838,"ciety":2839,"Ġengine":2840,"Ġbene":2841,"teen":2842,"Ġdoub":2843,"These":2844,"Ġfix":2845,"Ġgreen":2846,"iment":2847,"Ġsocial":2848,"Ġain":2849,"Ġgentle":2850,"Ġspir":2851,"Ġserv":2852,"Ġmeeting":2853,"Ġfigure":2854,"Ġphys":2855,"Ġcomb":2856,"Ġanyway":2857,"ocr":2858,"Ġrelations":2859,"inois":2860,"viously":2861,"Ġide":2862,"Ġpresident":2863,"Ġdrive":2864,"US":2865,"lled":2866,"ander":2867,"Ġterri":2868,"rug":2869,"Cl":2870,"Ġmis":2871,"Ġparents":2872,"ping":2873,"Ġsus":2874,"Ġfamil":2875,"TER":2876,"Ġsubject":2877,"17":2878,"chan":2879,"ica":2880,"ĠIndia":2881,"Ġreturned":2882,"yle":2883,"Ġcompl":2884,"âĢĶ":2885,"Ġfollowed":2886,"Hi":2887,"Ġherself":2888,"Ġsail":2889,"ploy":2890,"Ġopened":2891,"ĠQue":2892,"bor":2893,"Ġhappens":2894,"Ġcatch":2895,"Ġnon":2896,"ĠGermany":2897,"Ġcirc":2898,"Ġmouth":2899,"Ġrain":2900,"Ġ2011":2901,"Ġfear":2902,"ician":2903,"ager":2904,"Ġchair":2905,"Ġanimals":2906,"LE":2907,"pes":2908,"isten":2909,"Ġprison":2910,"Ġdistrict":2911,"Ġcool":2912,"Ġcrazy":2913,"Ġrese":2914,"Ġsave":2915,"Ġspecies":2916,"Ġdanger":2917,"arth":2918,"Ġobject":2919,"Ġviol":2920,"ĠJapanese":2921,"Ġpot":2922,"Ġ2006":2923,"Will":2924,"Ġmass":2925,"Ġhoney":2926,"ĠColl":2927,"Ġteacher":2928,"oly":2929,"hem":2930,"enry":2931,"Me":2932,"aff":2933,"ĠGood":2934,"Ġenjoy":2935,"ĠRepublic":2936,"12":2937,"14":2938,"Ne":2939,"medi":2940,"Tr":2941,"Ġris":2942,"ĠJames":2943,"ĠSchool":2944,"Ġring":2945,"ĠIsland":2946,"ĠPark":2947,"ĠEl":2948,"Ġparts":2949,"Ġhost":2950,"ĠRuss":2951,"Ġ2012":2952,"Ġmoving":2953,"Ġhop":2954,"Ġener":2955,"Ġbull":2956,"Ġneg":2957,"Ġbecom":2958,"Ġant":2959,"wered":2960,"Ġsick":2961,"raph":2962,"Ġarm":2963,"ked":2964,"Ġpal":2965,"Ġsimilar":2966,"Ġbag":2967,"roy":2968,"Ġwhom":2969,"Ġ100":2970,"cher":2971,"Ġeconom":2972,"Ġforce":2973,"Ġlie":2974,"Ġcause":2975,"night":2976,"inite":2977,"erry":2978,"Ġfish":2979,"Ġbeginning":2980,"Ġestab":2981,"itted":2982,"Ġcertainly":2983,"oe":2984,"Ġburn":2985,"Ġsepar":2986,"ĠWilliam":2987,"ĠVirginia":2988,"ishing":2989,"Ġmiddle":2990,"ĠHigh":2991,"aven":2992,"Ġstick":2993,"OM":2994,"Ġquickly":2995,"Ġshar":2996,"ĠEast":2997,"ĠIllinois":2998,"ett":2999,"Ġplaces":3000,"Ġwhose":3001,"cast":3002,"Ġclos":3003,"Ġspend":3004,"Ġchurch":3005,"Ġpaid":3006,"Ġbeat":3007,"ples":3008,"Ġsoft":3009,"Ġthrow":3010,"Ġsitting":3011,"Ġfinal":3012,"Ġfinished":3013,"Ġinteresting":3014,"ires":3015,"itor":3016,"Ġmad":3017,"Ġfeat":3018,"Ġfloor":3019,"aha":3020,"nel":3021,"Ġtowards":3022,"imate":3023,"ume":3024,"pha":3025,"Ġmater":3026,"Ġkiss":3027,"Give":3028,"ply":3029,"Ġquestions":3030,"iforn":3031,"iers":3032,"uge":3033,"uty":3034,"Ġvol":3035,"_,":3036,"ĠGl":3037,"Ġoriginal":3038,"âĢİ":3039,"Ġannoun":3040,"Ġnecess":3041,"Ġident":3042,"Ġinf":3043,"Ġactiv":3044,"Ġgiving":3045,"Ġshut":3046,"Ġstreet":3047,"ograp":3048,"Ġdisapp":3049,"Ġleaving":3050,"Ġfre":3051,"hips":3052,"ifornia":3053,"line":3054,"iny":3055,"Ġmention":3056,"Mar":3057,"Ġself":3058,"ĠRic":3059,".,":3060,"Ġalright":3061,"Ġquiet":3062,"EA":3063,"Ġbreat":3064,"Ġpark":3065,"ĠMary":3066,"Ġstudents":3067,"ville":3068,"Ġtotal":3069,"Ġlose":3070,"Ġ(\"":3071,"itional":3072,"Ġcorn":3073,"ĠPol":3074,"Ġpolitical":3075,"OK":3076,"rel":3077,"abad":3078,"Ġcommunity":3079,"Ġrail":3080,"ivid":3081,"By":3082,"Even":3083,"Bl":3084,"Ġreached":3085,"ĠWhy":3086,"ourt":3087,"Ġsuppose":3088,"Ġterms":3089,"Ġbill":3090,"De":3091,"rill":3092,"Ġgrad":3093,"Ġbelong":3094,"Ġmodern":3095,"ĠFlor":3096,"Somet":3097,"ĠCor":3098,"ka":3099,"icated":3100,"ĠSu":3101,"ĠTO":3102,"inger":3103,"irm":3104,"ctions":3105,"Ġways":3106,"Ġ#":3107,"Ġforward":3108,"Ġforest":3109,"Ġthou":3110,"road":3111,"Ġum":3112,"orts":3113,"oyal":3114,"Ġaccount":3115,"ĠQu":3116,"Ġhospital":3117,"From":3118,"Ġexperience":3119,"Ġinflu":3120,"lin":3121,"aining":3122,"Ġanswered":3123,"Ġriver":3124,"Ġvarious":3125,"ensive":3126,"Ġglass":3127,"put":3128,"Ġneigh":3129,"ĠNe":3130,"Ġnumbers":3131,"Ġpublished":3132,"Ġmach":3133,"ĠRiver":3134,"Ġord":3135,"het":3136,"OW":3137,"ĠSec":3138,"inist":3139,"Ġsearch":3140,"ĠTo":3141,"ĠCalifornia":3142,"God":3143,"cious":3144,"ensus":3145,"Ġindust":3146,"face":3147,"Ġtax":3148,"Ġaut":3149,"Ġhung":3150,"ĠPhil":3151,"gar":3152,"ena":3153,"Ġnin":3154,"Ġrespons":3155,"Ġegg":3156,"Ġanymore":3157,"AM":3158,"ams":3159,"Ġmarket":3160,"Ġcivil":3161,"Ġallowed":3162,"bye":3163,"gu":3164,"Ġglad":3165,"ĠSan":3166,"Ġdepend":3167,"Ġ23":3168,"Ġintrodu":3169,"Ġclaim":3170,"Ġequal":3171,"house":3172,"ns":3173,"Ġdress":3174,"olutely":3175,"cape":3176,"which":3177,"ĠSm":3178,"af":3179,"wood":3180,"Ġlaugh":3181,"ites":3182,"Ġdiscuss":3183,"Ġbroad":3184,"Ġwindow":3185,"ĠII":3186,"Ġshows":3187,"Ġinvolved":3188,"ris":3189,"ĠLeague":3190,"ĠNow":3191,"Ġstudy":3192,"just":3193,"Ġcaught":3194,"Ġ50":3195,"13":3196,"Ġinn":3197,"Ġblock":3198,"ius":3199,"itz":3200,"action":3201,"Ġconsider":3202,"Ġnatural":3203,"Ġobs":3204,"?âĢĿ":3205,"Ġfem":3206,"Ġlocated":3207,"ruction":3208,"Ġmiles":3209,"AP":3210,"bon":3211,"hood":3212,"inary":3213,"Ġenv":3214,"Ġstore":3215,"ĠMed":3216,"olic":3217,"Ġsomewhere":3218,"Ġmommy":3219,"ĠCaptain":3220,"Ġstage":3221,"Ġstrange":3222,"Ġtravel":3223,"ortun":3224,"Ġboard":3225,"\")":3226,"Ab":3227,"Ġaud":3228,"ĠCo":3229,"olly":3230,"Ġ01":3231,"Ġmaterial":3232,"fit":3233,"had":3234,"ĠSir":3235,"Ġsad":3236,"ago":3237,"Ġ2014":3238,"ĠChurch":3239,"ength":3240,"erve":3241,"Ġsimple":3242,"ero":3243,"Ġnet":3244,"ĠTV":3245,"Ġneeded":3246,"ĠGovern":3247,"Ġclothes":3248,"IT":3249,"view":3250,"Ġalive":3251,"Ġenc":3252,"Ġgives":3253,"ĠFlorida":3254,"Ġdinner":3255,"Ġsize":3256,"Ġseat":3257,"Ġanybody":3258,"upid":3259,"ae":3260,"ĠPaul":3261,"unic":3262,"iel":3263,"amm":3264,"Ġemb":3265,"ape":3266,"Ġfinally":3267,"Ġboat":3268,"Ġvalue":3269,"Ġyours":3270,"Which":3271,"Ġvisit":3272,"ences":3273,"Ġdeg":3274,"Ġshop":3275,"ĠJust":3276,"Nothing":3277,"cuse":3278,"bl":3279,"Ġpeace":3280,"obert":3281,"Ġespecially":3282,"Ġenergy":3283,"Br":3284,"Ġapart":3285,"ils":3286,"Ġsurv":3287,"ĠMon":3288,"ĠMus":3289,"ĠĠĠĠĠĠ":3290,"ining":3291,"Ġfund":3292,"ounded":3293,"Ġx":3294,"Ġsituation":3295,"Ġfavor":3296,"Ġspent":3297,"Ġkey":3298,"Ġprivate":3299,"Ġ)":3300,"uses":3301,"ĠJim":3302,"Ġtitle":3303,"Ġconside":3304,"igg":3305,"Ġconsidered":3306,"Ġfac":3307,"Ġperm":3308,"asons":3309,"Ġnature":3310,"Ġappeared":3311,"ĠUnion":3312,"ĠLou":3313,"Ġdise":3314,"Ġplant":3315,"Ġcolor":3316,"illa":3317,"Ġjump":3318,"Ġ21":3319,"Ġarmy":3320,"iday":3321,"Ġ2007":3322,"ĠFrank":3323,"Ġadded":3324,"field":3325,"Ġgar":3326,"Ġ2016":3327,"Ġprofessional":3328,"ĠMichael":3329,"Ġwild":3330,"oups":3331,"iff":3332,"ĠEn":3333,"ears":3334,"bour":3335,"Ġbur":3336,"Ġdance":3337,"Ġgrew":3338,"udd":3339,"Ġstopped":3340,"Ġsour":3341,"Ġbought":3342,"Ġaction":3343,"Really":3344,"ria":3345,"ĠAre":3346,"cell":3347,"Ġmid":3348,"omas":3349,"ĠHey":3350,"Ġimmedi":3351,"Ġproduced":3352,"raft":3353,"Ġban":3354,"Ġdrug":3355,"Ġ190":3356,"mhm":3357,"ĠJe":3358,"ails":3359,"mon":3360,"under":3361,"Ġquar":3362,"Ġappl":3363,"van":3364,"ĠPer":3365,"Ġwriting":3366,"cul":3367,"Ġconv":3368,"Ġindeed":3369,"uel":3370,"outhern":3371,"ĠWho":3372,"Ġ26":3373,"rief":3374,"isc":3375,"Ġtea":3376,"ests":3377,"Ġpurp":3378,"Ġsummer":3379,"don":3380,"play":3381,"200":3382,"ĠDavid":3383,"tered":3384,"Ġearli":3385,"Ġextra":3386,"ĠProv":3387,"Ġbroke":3388,"50":3389,"orthern":3390,"ground":3391,"ĠChristian":3392,"ĠParty":3393,"ners":3394,"Ġfle":3395,"ators":3396,"elp":3397,"AL":3398,"ĠGree":3399,"Ġ22":3400,"iques":3401,"inct":3402,"ĠLa":3403,"ĠSen":3404,"Ġseeing":3405,"Ġattempt":3406,"Listen":3407,"hall":3408,"Ġdate":3409,"Ġstanding":3410,"rer":3411,"ellow":3412,"Ġthanks":3413,"ique":3414,"Would":3415,"Ġrout":3416,"ĠGeneral":3417,"Ġprim":3418,"Ġavail":3419,"Ġcommand":3420,"ibility":3421,"Ġdevelopment":3422,"OT":3423,"Ġrid":3424,"ĠGreat":3425,"Ġcompan":3426,"VE":3427,"ause":3428,"oid":3429,"esus":3430,"Ġliter":3431,"ĠSar":3432,"Sp":3433,"ously":3434,"Ġsimply":3435,"Ġmix":3436,"ĠDem":3437,"Pro":3438,"did":3439,"Ġcell":3440,"Ġpers":3441,"osing":3442,"apers":3443,"ises":3444,"ironment":3445,"gon":3446,"Ġnames":3447,"Ġattention":3448,"ify":3449,"Ġcollege":3450,"sych":3451,"uke":3452,"Ġredu":3453,"ĠScott":3454,"Ġhistor":3455,"Ġofficial":3456,"wise":3457,"Ġpack":3458,"str":3459,"istic":3460,"Ġwide":3461,"Ġcand":3462,"anc":3463,"gel":3464,"ively":3465,"Ġgroups":3466,"ND":3467,"yl":3468,"Ġscience":3469,"lebr":3470,"hold":3471,"Ġdaddy":3472,"Ġtend":3473,"ĠDad":3474,"Ġye":3475,"Ġdecl":3476,"board":3477,"Ġincluded":3478,"Ġsal":3479,"Ġbattle":3480,"raw":3481,"ĠOF":3482,"Ġasking":3483,"Ġlargest":3484,"Ġice":3485,"16":3486,"urity":3487,"dered":3488,"Ġopportun":3489,"ya":3490,"ability":3491,"ocked":3492,"Ġmilitary":3493,"Ġhate":3494,"Ġarms":3495,"Ġpoints":3496,"ological":3497,"Ġspirit":3498,"Ġwest":3499,"Ġsens":3500,"ĠMor":3501,"Ġdifference":3502,"Ġtour":3503,"Ġblow":3504,"hod":3505,"rect":3506,"istory":3507,"ĠOly":3508,"Ġepis":3509,"kn":3510,"Äģ":3511,"Ġbeha":3512,"Ġ2009":3513,"Ġindivid":3514,"Ġdestroy":3515,"Ġcompletely":3516,"Ġalthough":3517,"que":3518,"Ġcarried":3519,"Ġdoubt":3520,"Sure":3521,"Ġloved":3522,"Ġspeed":3523,"Ġmurder":3524,"ĠCong":3525,"Does":3526,"Ġversion":3527,"ashington":3528,"ki":3529,"Ġbow":3530,"ĠSte":3531,"Ġeducation":3532,"ĠMad":3533,"Ġpersonal":3534,"Ġcomputer":3535,"astic":3536,"Man":3537,"Ġdry":3538,"ĠKen":3539,"sociation":3540,"ĠRichard":3541,"Pl":3542,"gl":3543,"Ġtro":3544,"Ġmarriage":3545,"Ġcaptain":3546,"Ġbroken":3547,"Ġ`":3548,"alley":3549,"ĠTur":3550,"Ġcontract":3551,"Ġofficer":3552,"Ġjoined":3553,"pro":3554,"Ġ2008":3555,"Our":3556,"chie":3557,"ĠLet":3558,"Ġrefer":3559,"Ġmaster":3560,"Ġemploy":3561,"ĠComp":3562,"pper":3563,"Ġshouldn":3564,"Ġ2015":3565,"back":3566,"nes":3567,"Ġlength":3568,"Her":3569,"mas":3570,"itude":3571,"ancy":3572,"Ġpath":3573,"Ġreach":3574,"Ġplays":3575,"Ġwatching":3576,"Ġbank":3577,"Ġmeaning":3578,"terday":3579,"Ġheavy":3580,"ĠBur":3581,"ords":3582,"ĠHenry":3583,"Ġ28":3584,"ension":3585,"arden":3586,"Two":3587,"west":3588,"Ġlying":3589,"Ġbelow":3590,"ĠQueen":3591,"tr":3592,"Ġlo":3593,"antly":3594,"ĠReg":3595,"Um":3596,"ux":3597,"hest":3598,"Ġbase":3599,"Ġrich":3600,"Ġtalked":3601,"ĠPort":3602,"ĠStreet":3603,"ograph":3604,"Ġcoast":3605,"Was":3606,"Ġsight":3607,"ari":3608,"ĠRed":3609,"Ġarch":3610,"ledge":3611,"asion":3612,"Ġcapt":3613,"Ã¼":3614,"llen":3615,"ID":3616,"John":3617,"Ġeff":3618,"Ġrob":3619,"Ġshare":3620,"Ġindepend":3621,"gress":3622,"Ġfool":3623,"Ġanimal":3624,"Per":3625,"Ġplus":3626,"bert":3627,"Ġprep":3628,"Ġ2022":3629,"Ġoccur":3630,"Qu":3631,"icle":3632,"Ġfort":3633,"Ġareas":3634,"Ġ2000":3635,"Ġhappening":3636,"Ã¡":3637,"Ġbra":3638,"Ġpage":3639,"Ġnearly":3640,"Ġwat":3641,"ĠMal":3642,"orrow":3643,"ico":3644,"Ġappoint":3645,"Ġcaused":3646,"Ġimpro":3647,"ET":3648,"anish":3649,"hire":3650,"Ġaccess":3651,"Ġbud":3652,"Ġstates":3653,"rank":3654,"ĠBlack":3655,"Ġhonest":3656,"Very":3657,"Ġcensus":3658,"Ġinit":3659,"iced":3660,"iction":3661,"Ġwel":3662,"Ġsite":3663,"ĠPal":3664,"Ġaff":3665,"hampionship":3666,"ims":3667,"Dad":3668,"sec":3669,"ĠCourt":3670,"Ġfellow":3671,"Ġcelebr":3672,"Ġeast":3673,"Ġexam":3674,"Ġmanage":3675,"eep":3676,"Ġscient":3677,"ustom":3678,"Ġhigher":3679,"unicip":3680,"Gr":3681,"ĠMo":3682,"Ġ27":3683,"Ġevidence":3684,"Ġfat":3685,"iles":3686,"ĠWhere":3687,"omen":3688,"ether":3689,"Ġregard":3690,"Ġpromise":3691,"Ġnormal":3692,"Ġfamilies":3693,"ids":3694,"ĠSam":3695,"ĠBy":3696,"ĠPri":3697,"ĠOkay":3698,"Ġradio":3699,"amn":3700,"Ġwarm":3701,"Ġsuddenly":3702,"iled":3703,"30":3704,"arily":3705,"Ġstupid":3706,"ĠCome":3707,"ouses":3708,"Ġsand":3709,"icks":3710,"Ġsongs":3711,"inc":3712,"ĠAir":3713,"Ġrace":3714,"Ġmarry":3715,"Ġinterested":3716,"Ġinj":3717,"Ġdoc":3718,"Ġcoffe":3719,"Ġ40":3720,"Ġfit":3721,"Ġfoc":3722,"ĠMart":3723,"resh":3724,"za":3725,"Ġhol":3726,"Ġ2005":3727,"Ġcases":3728,"Ġscene":3729,"Ġtrees":3730,"ĠBen":3731,"osop":3732,"Ġshowed":3733,"Ġformed":3734,"Ġnor":3735,"gged":3736,"Ġdeveloped":3737,"bing":3738,"ĠIN":3739,"Ġactor":3740,"Ġcard":3741,"ĠWith":3742,"Ġmovies":3743,"11":3744,"Ġpun":3745,"Ġpray":3746,"Ġhuge":3747,"aker":3748,"Ġcontinued":3749,"Ġbottom":3750,"Ġavailable":3751,"Ġtrade":3752,"ibly":3753,"ĠAnt":3754,"icket":3755,"Ġspeaking":3756,"Ġcoffee":3757,"Ġbi":3758,"Ġdeb":3759,"hib":3760,"Ġregular":3761,"Ġbirthday":3762,"Ġannounced":3763,"Ġbath":3764,"Ġfeed":3765,"Ġpercent":3766,"nÃ©":3767,"Ġdig":3768,"usion":3769,"ables":3770,"Ġsquare":3771,"eg":3772,"Ġden":3773,"Ġthreat":3774,"ĠPat":3775,"ĠPet":3776,"olk":3777,"initely":3778,"hal":3779,"Ġneck":3780,"Ġhelped":3781,"Ġmilk":3782,"Ġsnow":3783,"ĠBoy":3784,"aine":3785,"ĠEarth":3786,"Ġmovement":3787,"ĠAfrica":3788,"set":3789,"Ġdata":3790,"pping":3791,"Ġfounded":3792,"ĠEuropean":3793,"ĠAustralia":3794,"Ġbes":3795,"Ġlines":3796,"Ġestabl":3797,"Ġ29":3798,"lling":3799,"ĠAct":3800,"Ġweren":3801,"oom":3802,"ĠScot":3803,"ĠWhite":3804,"Con":3805,"year":3806,"hand":3807,"nie":3808,"aste":3809,"ĠOK":3810,"Ġspoke":3811,"Ġended":3812,"Ġtemper":3813,"Ġscared":3814,"ĠCollege":3815,"Ġeating":3816,"ĠMex":3817,"Ġpieces":3818,"Ġwonderful":3819,"ste":3820,"Ġenvironment":3821,"Ġgas":3822,"ĠCup":3823,"ĠChina":3824,"UN":3825,"da":3826,"Ġtired":3827,"Ġsuff":3828,"useum":3829,"Dr":3830,"iation":3831,"Ġwed":3832,"Ġoil":3833,"cean":3834,"ummer":3835,"Ġsociety":3836,"ĠWashington":3837,"Ġoffer":3838,"Ġsevent":3839,"Ġrights":3840,"ĠGrand":3841,"min":3842,"Ġstories":3843,"Ġraised":3844,"chen":3845,"atform":3846,"Ġaward":3847,"ĠAward":3848,"ĠBel":3849,"Ġnovel":3850,"Ġstarting":3851,"Only":3852,"yer":3853,"Ġoffe":3854,"elve":3855,"Ġchanges":3856,"ĠIran":3857,"Ġur":3858,"Ġexec":3859,"Ġclosed":3860,"Sir":3861,"pen":3862,"Ġ:":3863,"ential":3864,"Excuse":3865,"Ġresearch":3866,"Ġmethod":3867,"Ġhero":3868,"Ġcomfort":3869,"ĠEr":3870,"Ġpolitician":3871,"ental":3872,"roat":3873,"ĠDick":3874,"Ġtext":3875,"Ġdecision":3876,"Ġwalked":3877,"Ġtraining":3878,"Ġreview":3879,"yond":3880,"Ġworse":3881,"Ġarrest":3882,"oves":3883,"Ġcenter":3884,"Ġlearned":3885,"ography":3886,"aign":3887,"ji":3888,"arm":3889,"Ġaddress":3890,"Ġbirds":3891,"Ġbright":3892,"Ġdeli":3893,"Ġsounds":3894,"Ġap":3895,"oted":3896,"ushed":3897,"verage":3898,"Ġassist":3899,"fact":3900,"Ġlower":3901,"Ġchoice":3902,"ĠOlymp":3903,"ston":3904,"using":3905,"iling":3906,"ittee":3907,"Ġputting":3908,"Ġcro":3909,"Ġlikely":3910,"Ġwa":3911,"ĠDar":3912,"ĠRob":3913,"ube":3914,"Ġdemand":3915,"cad":3916,"ship":3917,"wr":3918,"ĠParis":3919,"Ġmem":3920,"ĠCr":3921,"ateg":3922,"oday":3923,"Ġbrain":3924,"Ġyesterday":3925,"Ġmedic":3926,"Ġdeterm":3927,"Ġund":3928,"Ġphil":3929,"Ġcalling":3930,"Ġexplain":3931,"iar":3932,"ĠFin":3933,"aps":3934,"ruit":3935,"Ġafterno":3936,"Ġmodel":3937,"Ġprinci":3938,"pir":3939,"Ġir":3940,"Ġride":3941,"Ġletters":3942,"Ġcharge":3943,"ĠNor":3944,"liament":3945,"First":3946,"Ġpsych":3947,"Ġnobody":3948,"Ġuniversity":3949,"Ġschools":3950,"lam":3951,"Ġought":3952,"Ġcow":3953,"ĠDep":3954,"Ġbelieved":3955,"Ġcreate":3956,"ĠItalian":3957,"Ġess":3958,"Ġwit":3959,"erved":3960,"oring":3961,"Ġmostly":3962,"Ġfinish":3963,"Ġevents":3964,"Ġjoin":3965,"Ġspecific":3966,"Ġissue":3967,"People":3968,"ilities":3969,"Ġsuit":3970,"ĠMinister":3971,"gent":3972,"ani":3973,"Ġbell":3974,"Ġfourth":3975,"Ġdouble":3976,"urt":3977,"Ġaffect":3978,"Ġtall":3979,"Ġcrew":3980,"ols":3981,"Ġsmell":3982,"Ġleader":3983,".'":3984,"western":3985,"asc":3986,"ĠBo":3987,"Ġdistance":3988,"Atlant":3989,"Ġangry":3990,"BC":3991,"Ġmor":3992,"Ġvac":3993,"Ġideas":3994,"Ġtheory":3995,"Ġcru":3996,"ĠSal":3997,"ĠPyr":3998,"berg":3999,"Ġagree":4000,"Ġspread":4001,"Ġchief":4002,"AC":4003,"ores":4004,"fast":4005,"ket":4006,"isions":4007,"Ġcab":4008,"Ġthirty":4009,"ashion":4010,"Ġmessage":4011,"burg":4012,"ini":4013,"uten":4014,"Ġstars":4015,"Ġemot":4016,"Ġdirector":4017,"Ġdisease":4018,"Ġimmediately":4019,"Ġstorm":4020,"ĠCath":4021,"Ġbusy":4022,"Ġafternoon":4023,"ĠSch":4024,"ĠAlan":4025,"Ġfaith":4026,"Se":4027,"Ġtail":4028,"atives":4029,"sequ":4030,"ĠCoun":4031,"Ġancient":4032,"Am":4033,"Ġrule":4034,"Ġble":4035,"uts":4036,"Ġstyle":4037,"Ġanal":4038,"ĠHall":4039,"ĠBob":4040,"Ġchem":4041,"Ġfarm":4042,"Ġproduction":4043,"ights":4044,"Ġspl":4045,"Ġbridge":4046,"Ġlovely":4047,"ĠArmy":4048,"ĠProvince":4049,"Ġsac":4050,"Ġenemy":4051,"Ġ2004":4052,"Ġcup":4053,"oseph":4054,"Ġbloody":4055,"Ġdan":4056,"esty":4057,"Ġarrived":4058,"Ġearlier":4059,"Sc":4060,"Ġsoul":4061,"ĠMaj":4062,"ucky":4063,"Ġcontinue":4064,"ĠSat":4065,"ĠAlex":4066,"ĠMac":4067,"ccording":4068,"Ġfault":4069,"Ġcovered":4070,"Ġimm":4071,"ST":4072,"ees":4073,"Ġsle":4074,"Ġhun":4075,"Ġelection":4076,"ĠCentral":4077,"Ġnecessary":4078,"vert":4079,"ĠJew":4080,"Ġtruck":4081,"Ġweap":4082,"Ġarg":4083,"Ġ189":4084,"Ġterrible":4085,"ĠSim":4086,"uments":4087,"Ġkick":4088,"ĠKore":4089,"rupt":4090,"Ġstreng":4091,"azing":4092,"why":4093,"sey":4094,"Ġbran":4095,"New":4096,"kin":4097,"ĠBer":4098,"ĠWil":4099,"Ġtherefore":4100,"Ġ()":4101,"Ġaccident":4102,"Ã©nÃ©":4103,"known":4104,"Ġestablished":4105,"Car":4106,"ients":4107,"Ġlog":4108,"Ġrap":4109,"ĠRobert":4110,"Ġcoach":4111,"Ġcareful":4112,"Ġsignific":4113,"Ġsuccessful":4114,"ĠItaly":4115,"Ġrelationship":4116,"eh":4117,"Ġhey":4118,"aled":4119,"Ġcondu":4120,"Ġopin":4121,"ĠCharles":4122,"ĠCongress":4123,"osition":4124,"Ġ186":4125,"Ġfighting":4126,"ech":4127,"wh":4128,"Ġcities":4129,"asant":4130,"ĠMark":4131,"Ġcontact":4132,"Ġslight":4133,"iverse":4134,"Ġpolicy":4135,"Ġcred":4136,"Ġfrog":4137,"ros":4138,"Wh":4139,"lor":4140,"ĠIts":4141,"aves":4142,"would":4143,"atory":4144,"Ġforces":4145,"rig":4146,"Ġskin":4147,"eds":4148,"Ġpet":4149,"Ġlif":4150,"Ġhall":4151,"stairs":4152,"Ġstone":4153,"order":4154,"ossible":4155,"Ġsettle":4156,"Ġpurpose":4157,"Ġreve":4158,"Ġliked":4159,"Ġ2020":4160,"Ġprice":4161,"Ġprint":4162,"Ġ2001":4163,"Ġcampaign":4164,"Ġmultip":4165,"ek":4166,"Ġcy":4167,"Ġmic":4168,"aries":4169,"Ġload":4170,"ĠInternational":4171,"Ġattract":4172,"otten":4173,"iety":4174,"iot":4175,"Ġnone":4176,"âĢİ.":4177,"Could":4178,"Ġtar":4179,"Ġinternational":4180,"Ġforth":4181,"Ġshown":4182,"inese":4183,"Alright":4184,"ĠCanada":4185,"Ã©nÃ©es":4186,"Ġforced":4187,"izing":4188,"Ġtells":4189,"Ġholding":4190,"ĠPyrÃ©nÃ©es":4191,"RO":4192,"lo":4193,"Ġcamer":4194,"aug":4195,"Ġ..":4196,"ann":4197,"Ġdrop":4198,"Ġlink":4199,"Ġspot":4200,"Ġminus":4201,"Ġescape":4202,"Ġwelcome":4203,"aching":4204,"anda":4205,"Atlantiques":4206,"Ġloss":4207,"Ġ2018":4208,"ses":4209,"rial":4210,"ĠPrin":4211,"Ġinvestig":4212,"Ġrate":4213,"RI":4214,"zen":4215,"itation":4216,"ĠChan":4217,"Ġcrow":4218,"Ġkinds":4219,"Ġwalking":4220,"Ġpractice":4221,"Ġmunicip":4222,"Ġdirected":4223,"Ġintern":4224,"enth":4225,"Ġkit":4226,"Ġcomed":4227,"cks":4228,"hedron":4229,"tt":4230,"ĠThank":4231,"ĠGold":4232,"Ġabsolutely":4233,"ournal":4234,"Ġcorner":4235,"Ġmachine":4236,"Ġcode":4237,"Ġrepe":4238,"Ġextreme":4239,"Ġmountain":4240,"good":4241,"Ġemer":4242,"ictor":4243,"Ġchick":4244,"Ġmedia":4245,"ĠSpanish":4246,"ĠKingdom":4247,"Ġpan":4248,"ura":4249,"Ġsigned":4250,"Ġservices":4251,"Ġsch":4252,"asing":4253,"Ġweight":4254,"cket":4255,"Ġleaves":4256,"Ġthee":4257,"Ġmum":4258,"Ġthus":4259,"ems":4260,"ĠJul":4261,"Ġknowledge":4262,"Ġsinger":4263,"Ġreading":4264,"umber":4265,"Got":4266,"ba":4267,"Ġpounds":4268,"Ġtwice":4269,"Ġpatient":4270,"gain":4271,"isf":4272,"Ġhom":4273,"isted":4274,"bell":4275,"Ġbeyond":4276,"Ġrelease":4277,"Ġweak":4278,"Ġhasn":4279,"Ġimagine":4280,"Ġaverage":4281,"ĠDuring":4282,"ification":4283,"Ġlegs":4284,"ederal":4285,"Ġopening":4286,"cap":4287,"win":4288,"ĠMet":4289,"Ġcalls":4290,"Ġbiggest":4291,"Ġdropped":4292,"Ġpush":4293,"vere":4294,"ulations":4295,"iant":4296,"Ġmoon":4297,"Ġdisp":4298,"Ġopportunity":4299,".--":4300,"Ġachie":4301,"atin":4302,"ĠHill":4303,"ĠPeople":4304,"ĠKent":4305,"Ġnewsp":4306,"Ġdollars":4307,"Gu":4308,"ÃŃ":4309,"etic":4310,"Ġintell":4311,"ĠYour":4312,"Ġdriving":4313,"Ġsystems":4314,"ware":4315,"Ġsides":4316,"Ġrose":4317,"Ġunless":4318,"Ġdiscovered":4319,"Ġempt":4320,"isters":4321,"ĠFrom":4322,"Ġconvers":4323,"ĠAnge":4324,"yan":4325,"phone":4326,"ĠScotland":4327,"mus":4328,"Ġyellow":4329,"ĠRoyal":4330,"eless":4331,"Ġacqu":4332,"Ġelected":4333,"Ġ1980":4334,"Put":4335,"ĠÃ":4336,"orks":4337,"Ġsymb":4338,"Ġsoldiers":4339,"Ġdefend":4340,"Ġphilosop":4341,"ĠIT":4342,"utter":4343,"oop":4344,"ĠDay":4345,"ĠRes":4346,"Ġnose":4347,"Ġfemale":4348,"den":4349,"Ġcustom":4350,"Ġaccording":4351,"Ġsurface":4352,"ĠCarol":4353,"Ġhighest":4354,"Ooh":4355,"ule":4356,"ĠMost":4357,"ĠPe":4358,"ours":4359,"Ġproud":4360,"Ġ2017":4361,"Ġteams":4362,"Everything":4363,"kins":4364,"Ã³":4365,"utch":4366,"istan":4367,"oses":4368,"Ġmistake":4369,"._":4370,"host":4371,"Ġbrief":4372,"Ġfirm":4373,"icious":4374,"Ġlots":4375,",--":4376,"Ġanywhere":4377,"orses":4378,"Ġentered":4379,"Ġdangerous":4380,"!âĢĿ":4381,"Wow":4382,"Ġfresh":4383,"Ġ1990":4384,"Ġsmaller":4385,"Ġcharacters":4386,"ĠMount":4387,"Ġflowers":4388,"Ġremain":4389,"Ġcurrently":4390,"Ġmemory":4391,"Fuck":4392,"THE":4393,"Ġboss":4394,"ĠMag":4395,"Ġgrowing":4396,"ĠCouncil":4397,"lear":4398,"alled":4399,"olf":4400,"lands":4401,"Ġepisode":4402,"Ġteach":4403,"Ġresour":4404,"Ġthroughout":4405,"Ġreligious":4406,"UT":4407,"Ġdogs":4408,"ĠBay":4409,"Ġsky":4410,"Ġeasily":4411,"ĠWestern":4412,"Ġopt":4413,"Ġmir":4414,"Ġgarden":4415,"rav":4416,"Ġplayers":4417,"Ġincludes":4418,"Ġfifty":4419,"Ġrisk":4420,"AY":4421,"acing":4422,"oph":4423,"Ġuses":4424,"Ġpictures":4425,"ĠMany":4426,"Ġclim":4427,"Ġswim":4428,"Ġwearing":4429,"Ġrules":4430,"ĠDemocr":4431,"History":4432,"Ġpound":4433,"icago":4434,"ĠMat":4435,"ulf":4436,"estival":4437,"Ġolder":4438,"Ġforeign":4439,"erc":4440,"ĠCom":4441,"Ġfunction":4442,"zz":4443,"andy":4444,"ĠTex":4445,"Ġplants":4446,"Ġvan":4447,"Ġtwelve":4448,"Ġwinter":4449,"Ġpositive":4450,"Ġexpected":4451,"Americ":4452,"cies":4453,"Ġpig":4454,"ĠLaw":4455,"Ġmissing":4456,"Ġoriginally":4457,"Ġindustry":4458,"Ġgrown":4459,"ĠAssociation":4460,"Those":4461,"En":4462,"Keep":4463,"sm":4464,"itiz":4465,"Ġge":4466,"Ġreligion":4467,"Since":4468,"Ġpred":4469,"lected":4470,"Ġassoci":4471,"Ġnegative":4472,"bes":4473,"astern":4474,"Ġ188":4475,"Ġwine":4476,"Ġlaid":4477,"cis":4478,"iber":4479,"Ġthinks":4480,"Ġremained":4481,"Ġcrime":4482,"AND":4483,"Ġbasket":4484,"Ġparticularly":4485,"stitution":4486,"itar":4487,"ĠDel":4488,"Ġcars":4489,"Che":4490,"Ġsurr":4491,"ram":4492,"urb":4493,"Ġnote":4494,"Ġspring":4495,"Ġtrip":4496,"utenant":4497,"Mic":4498,"dÃ©":4499,"ij":4500,"mark":4501,"Ġhide":4502,"Ġcommer":4503,"peror":4504,"ĠChinese":4505,"Ġdesp":4506,"Ġformula":4507,"Ġpossess":4508,"Ġadminist":4509,"rol":4510,"istry":4511,"Ġforty":4512,"Ġdirection":4513,"Ad":4514,"down":4515,"ima":4516,"ĠGreen":4517,"ĠThomas":4518,"Ġcondition":4519,"Ġstaff":4520,"ĠChe":4521,"Le":4522,"NA":4523,"Ã¶":4524,"cend":4525,"Ġrub":4526,"Ġflat":4527,"Ġfinan":4528,"ga":4529,"Ġduty":4530,"ĠRad":4531,"Ġroll":4532,"Ġchoose":4533,"ange":4534,"Ġvote":4535,"Ġprovide":4536,"Ġgradu":4537,"Rem":4538,"Ġbread":4539,"Ġdefinitely":4540,"Ġparticip":4541,"ĠCatholic":4542,"upp":4543,"reci":4544,"Ġworried":4545,"ĠEmp":4546,"Ġculture":4547,"from":4548,"arrow":4549,"ĠAcad":4550,"ĠPac":4551,"Ġcorrect":4552,"Ġcritic":4553,"ĠLouis":4554,"oms":4555,"bered":4556,"tained":4557,"ĠArt":4558,"ĠAtlant":4559,"Ġsouthwestern":4560,"Ġeggs":4561,"Ġdegree":4562,"gen":4563,"ĠLee":4564,"Ġslowly":4565,"SE":4566,"friend":4567,"sing":4568,"oned":4569,"ita":4570,"Ġyouth":4571,"Ġplaced":4572,"Ġ2003":4573,"Ġsecurity":4574,"Ġissues":4575,"coh":4576,"rat":4577,"rough":4578,"when":4579,"Ġpoll":4580,"Ġheat":4581,"ola":4582,"Ġagreed":4583,"because":4584,"Act":4585,"Ġlack":4586,"ĠApp":4587,"ĠHere":4588,"Ġstudent":4589,"Ġlarger":4590,"Ġfrequ":4591,"Ġrom":4592,"ĠDes":4593,"Ġmentioned":4594,"Ġhill":4595,"Ġlawyer":4596,"Ġstrength":4597,"IF":4598,"Ġfashion":4599,"Ġheaven":4600,"Ġthy":4601,"Ġaddition":4602,"Ġorders":4603,"icles":4604,"Ġrough":4605,"aging":4606,"Ġacting":4607,"Ġelectric":4608,"ĠMa":4609,"ĠPak":4610,"igned":4611,"ception":4612,"Ġdesigned":4613,"Ġjudge":4614,"ona":4615,"ching":4616,"Ġnotice":4617,"apt":4618,"Ġbrothers":4619,"Ġdamn":4620,"Ġlucky":4621,"Ind":4622,"LD":4623,"Ġiron":4624,"owa":4625,"ĠMont":4626,"ĠRail":4627,"ĠJer":4628,"Ġbigger":4629,"Ġrelated":4630,"ĠDev":4631,"Ġchallen":4632,"gypt":4633,"Ġtotally":4634,"Ġtroops":4635,"rees":4636,"ourney":4637,"Ġ(,":4638,"Ġguard":4639,"yeh":4640,"ĠArab":4641,"ĠAnne":4642,"Ġrecords":4643,"Ġbecomes":4644,"Ġcompanies":4645,"Hold":4646,"Ġsection":4647,"istics":4648,"Great":4649,"Ġtape":4650,"icate":4651,"Ġhouses":4652,"ĠMil":4653,"ootball":4654,";/":4655,"Ġtaught":4656,"...?":4657,"Ġcontent":4658,"Ġflight":4659,"Ġpicked":4660,"Ġaware":4661,"Ġreplaced":4662,"Ġbeg":4663,"agon":4664,"Ġscreen":4665,"ĠSpain":4666,"Ġperformance":4667,"Ġsource":4668,"arn":4669,"ashed":4670,"ĠGirl":4671,"asty":4672,"Ġdreams":4673,"Ġbreath":4674,"Ġwedding":4675,"cons":4676,"Ġ2002":4677,"Ġforms":4678,"Ġdrunk":4679,"Ġmainly":4680,"Ġmedical":4681,"Ġpressure":4682,"Never":4683,"Ã¨":4684,"have":4685,"ĠMike":4686,"Ġremark":4687,"Ġbasically":4688,"Ġtypes":4689,"Ġreported":4690,"Tom":4691,"Ġserve":4692,"Ġgenerally":4693,"stitute":4694,"uzz":4695,"Ġcrowd":4696,"Ġweather":4697,"ĠMom":4698,"ili":4699,"osh":4700,"Ġwriter":4701,"ĠChicago":4702,"Ġhonor":4703,"Ġrange":4704,"Ġ2021":4705,"Something":4706,"Cos":4707,"lN":4708,"Ġpair":4709,"Ġya":4710,"lem":4711,"ulous":4712,"ĠRock":4713,"Ġplans":4714,"Ġsmart":4715,"Ġplanet":4716,"ĠSus":4717,"Ġplatform":4718,"Ġwilling":4719,"Ġrecorded":4720,"idden":4721,"Ġcomplex":4722,"fficient":4723,"Ġindividual":4724,"ali":4725,"abor":4726,"ĠON":4727,"Ġtransl":4728,"Ġpowerful":4729,"Ġperformed":4730,"rang":4731,"vey":4732,"aked":4733,"Ġuncle":4734,"Ġleading":4735,"Ġcompetition":4736,"Ġfilled":4737,"Ġarchite":4738,"Ġox":4739,"Ġweird":4740,"Ġteeth":4741,"Ġ1970":4742,"IR":4743,"ĠChampionship":4744,"Ġvot":4745,"Ġconditions":4746,"mit":4747,"onel":4748,"imp":4749,"Ġwaste":4750,"Ġspeech":4751,"Ġlegal":4752,"Ġinfluence":4753,"Ġnetwork":4754,"Ġkitchen":4755,"ĠTexas":4756,"Ġbound":4757,"ĠCast":4758,"then":4759,"Ġobviously":4760,"Ġeventually":4761,"Ġfeatures":4762,"your":4763,"Ġforgot":4764,"Ġmedicine":4765,"craft":4766,"uries":4767,"will":4768,"hered":4769,"ĠMass":4770,"Ġbrown":4771,"ĠPrince":4772,"Ġmaid":4773,"stood":4774,"ĠTor":4775,"vention":4776,"Three":4777,"Ġetc":4778,"ishes":4779,"Ġpir":4780,"Ġhole":4781,"ontin":4782,"Ġenter":4783,"Ġsinging":4784,"partement":4785,"Mom":4786,"aded":4787,"Ġstuck":4788,"Ġactress":4789,"Ġsmile":4790,"Ġremind":4791,"Ġfailed":4792,"ĠAfrican":4793,"Ġoffered":4794,"Ġloud":4795,"ĠBu":4796,"ĠJud":4797,"Ġsake":4798,"ardon":4799,"Ġcentral":4800,"Ġclearly":4801,"dÃ©partement":4802,"sed":4803,"Ġfinger":4804,"ĠBet":4805,"Ġships":4806,"Ġhotel":4807,"ĠJackson":4808,"ournament":4809,"ĠSmith":4810,"About":4811,"Bye":4812,"Other":4813,"aring":4814,"odes":4815,"Ġinstr":4816,"Ġdescribed":4817,"Ġempty":4818,"gency":4819,"ipe":4820,"Ġtight":4821,"Ġnative":4822,"Ġhorses":4823,"ĠSing":4824,"Ġmeasure":4825,"Ġwhis":4826,"ĠDiv":4827,"odies":4828,"Ġaged":4829,"Ġpleasure":4830,"Perhaps":4831,"40":4832,"Help":4833,"Ġwet":4834,"Ġnorthern":4835,"ĠDis":4836,"ĠFred":4837,"ĠOf":4838,"iano":4839,"Ġreplied":4840,"Ġlock":4841,"ĠSund":4842,"Ġkilling":4843,"Once":4844,"Ġproperty":4845,"Ġbecoming":4846,"Char":4847,"law":4848,"ĠAND":4849,"Ġlies":4850,"Ġhandle":4851,"Ġedge":4852,"ĠPrincess":4853,"rish":4854,"Ġrare":4855,"Ġbless":4856,"Ġmissed":4857,"ais":4858,"car":4859,"lim":4860,"aches":4861,"Ġharm":4862,"Ġinterview":4863,"Ġpaint":4864,"Ġdivided":4865,"Ġresults":4866,"Ġconcerned":4867,"ĠAcademy":4868,"Ha":4869,"Ġfright":4870,"ĠAss":4871,"ĠRoad":4872,"Ġstudio":4873,"Ġproduce":4874,"bel":4875,"Ġsaved":4876,"Ġmanager":4877,"Ġattend":4878,"Ġoccup":4879,"ĠJoe":4880,"Ġcalm":4881,"Ġtarget":4882,"During":4883,"Ġcitiz":4884,"Ġnation":4885,"rif":4886,"Ġgoal":4887,"Ġstudied":4888,";&":4889,"UR":4890,"gn":4891,"Ġpartner":4892,"ips":4893,"Ġgreatest":4894,"ĠChristmas":4895,"ĠMajesty":4896,"Ġopinion":4897,"arly":4898,"ato":4899,"ĠRussian":4900,"AD":4901,"IGH":4902,"ault":4903,"Ġfaces":4904,"anced":4905,"ĠVictor":4906,"Ġrealize":4907,"Ġbitch":4908,"Ġofficers":4909,"70":4910,"Ġreasons":4911,"ami":4912,"osite":4913,"iance":4914,"Ġtele":4915,"oken":4916,"Ġstructure":4917,"lie":4918,"ora":4919,"Ġpapers":4920,"ĠMur":4921,"ĠMaster":4922,"Ġordered":4923,"Ġburied":4924,"Ġ2019":4925,"Ġstarts":4926,"Ġmission":4927,"Ġdirectly":4928,"azine":4929,"Ġeasier":4930,"Ġtechnology":4931,"ĠSuper":4932,"Ġwitness":4933,"IM":4934,"ĠIowa":4935,"imin":4936,"ĠSov":4937,"ĠWin":4938,"Ġneither":4939,"rences":4940,"ĠâĢĶ":4941,"Ġjack":4942,"Ġbutter":4943,"Ġroof":4944,"Ġheads":4945,"199":4946,"book":4947,"Ġbal":4948,"imately":4949,"Ġmeat":4950,"Ġmechan":4951,"ĠLin":4952,"ĠLos":4953,"ĠNat":4954,"Ġcomplet":4955,"Ġshape":4956,"Ġartist":4957,"Ġbreakfast":4958,"Ġsatisf":4959,"Ġquarter":4960,"Ġstock":4961,"ĠPan":4962,"Ġgreater":4963,"Ġdecide":4964,"fessor":4965,"Ġexperien":4966,"ĠSoviet":4967,"eral":4968,"Ġmere":4969,"ĠBas":4970,"Ġcancer":4971,"ĠFirst":4972,"iger":4973,"Ġruns":4974,"arently":4975,"Ok":4976,"Ġdom":4977,"ĠMars":4978,"ulty":4979,"Ġalt":4980,"ĠRome":4981,"Ġworst":4982,"Ġleaders":4983,"Ġstrugg":4984,"semb":4985,"ĠHi":4986,"ĠBro":4987,"Ġadult":4988,"Ġsurprised":4989,"'.":4990,"may":4991,"Ġbomb":4992,"Ġder":4993,"Ġlunch":4994,"Ġzero":4995,"Ġcrying":4996,"Ġincrease":4997,"Ġpalace":4998,"60":4999,"him":5000,"va":5001,"Ġcart":5002,"keep":5003,"urday":5004,"ĠFather":5005,"Ġamb":5006,"Ġseconds":5007,"Ġ1999":5008,"Ġtyp":5009,"Ġteaching":5010,"Ġflying":5011,"ĠEmpire":5012,"ym":5013,"Ġsen":5014,"ette":5015,"ighs":5016,"Ġevil":5017,"Ġtraditional":5018,"Ġgentlemen":5019,"ĠGreek":5020,"Ġprepared":5021,"comm":5022,"Ġmm":5023,"ening":5024,"asy":5025,"Ġmemor":5026,"Ġasleep":5027,"Ġlikes":5028,"Ġalcoh":5029,"Ġourselves":5030,"Ġhurry":5031,"fortun":5032,"Ġcircum":5033,".]":5034,"25":5035,"Ph":5036,"ĠHaw":5037,"Ġju":5038,"Ġshoes":5039,"Ġkeeping":5040,"elling":5041,"ĠLu":5042,"icked":5043,"Ġrecently":5044,"Ġbuildings":5045,"Ġdetect":5046,"Ġsurprise":5047,"MAN":5048,"mad":5049,"rate":5050,"Ġtaste":5051,"Ġsilly":5052,"iring":5053,"Ġrank":5054,"Ġjourney":5055,"ĠLake":5056,"ĠEgypt":5057,"Ġstandard":5058,"ios":5059,"rid":5060,"Ġign":5061,"Ġonto":5062,"Ġmetal":5063,"Ġdistribut":5064,"TS":5065,"war":5066,"ĠSa":5067,"Ġblind":5068,"Ġprovince":5069,"mar":5070,"Ġbab":5071,"lection":5072,"...\"":5073,"Ġshout":5074,"Ġconsum":5075,"Ġdrinking":5076,"ELL":5077,"wan":5078,"ingers":5079,"Ġlic":5080,"osen":5081,"Ġimpossible":5082,"Ġsleeping":5083,"Ġrequest":5084,"Ġcouncil":5085,"Pr":5086,"onds":5087,"ansas":5088,"Ġimage":5089,"Ġappreci":5090,"Ġlearning":5091,"Bet":5092,"Ġthick":5093,"Ġeld":5094,"ishop":5095,"Ġcamera":5096,"rated":5097,"ĠSun":5098,"iform":5099,"ĠBill":5100,"Ġforever":5101,"pre":5102,"ĠÂ":5103,"Ġjoy":5104,"igan":5105,"Ġsuc":5106,"ĠBrown":5107,"ĠMexico":5108,"bet":5109,"bles":5110,"Ġcash":5111,"ĠTai":5112,"ĠFil":5113,"azz":5114,"Ġcosts":5115,"ications":5116,"Ġsequ":5117,"Ġprove":5118,"Ġ31":5119,"Ġladies":5120,"Ġseparate":5121,"Ġhungry":5122,"Ġsucceed":5123,"Most":5124,"orough":5125,"Ġsaf":5126,"Ġprevent":5127,"Christ":5128,"Lea":5129,"rier":5130,"aret":5131,"Ġamazing":5132,"aval":5133,"Ġpromised":5134,"Ġdocument":5135,"Ġmultiple":5136,"Ġmunicipality":5137,"App":5138,"ĠOther":5139,"Ġgrant":5140,"Ġcontribut":5141,"Ġpocket":5142,"Ġkingdom":5143,"some":5144,"Ġduck":5145,"Ġactual":5146,"Ġemp":5147,"Ġstayed":5148,"Ġprograms":5149,"lig":5150,"urance":5151,"ctors":5152,"Ġknock":5153,"ĠJesus":5154,"Ġremem":5155,"Ġplanning":5156,"Ġ1960":5157,"utions":5158,"ĠST":5159,"ĠSant":5160,"Ġexcl":5161,"agn":5162,"Ġbelief":5163,"Ġchap":5164,"Mrs":5165,"Ġlanguages":5166,"Ġsoldier":5167,"Ġturns":5168,"Ġpattern":5169,"Ġconstit":5170,"Ġfavorite":5171,"Ġmut":5172,"ĠSea":5173,"ĠTony":5174,"Ġlistening":5175,"Ġsuspect":5176,"Ġast":5177,"Ġmate":5178,"ĠHon":5179,"ĠTwo":5180,"ĠGet":5181,"Ġcentre":5182,"Ġ--&":5183,"GE":5184,"Ġthrew":5185,"ĠSecret":5186,"oured":5187,"Ġpure":5188,"Ġears":5189,"Ġjournal":5190,"Ġplain":5191,"Ġcontr":5192,"Ġorganization":5193,"Ġbroadcast":5194,"Ġencour":5195,"ĠAngeles":5196,"Fine":5197,"Miss":5198,"ban":5199,"utive":5200,"Ġprevious":5201,"ĠGovernment":5202,"While":5203,"bar":5204,"ipped":5205,"antic":5206,"Ġrat":5207,"place":5208,"clock":5209,"Ġswear":5210,"Ġrequired":5211,"isl":5212,"isher":5213,"Ġmob":5214,"Ġfreed":5215,"Ġdrew":5216,"Ġren":5217,"Ġreven":5218,"Ġreact":5219,"Ġgodd":5220,"Ġscar":5221,"Ġpretend":5222,"Ġcastle":5223,"ĠCompany":5224,"80":5225,"water":5226,"oma":5227,"ĠBang":5228,"Ġappointed":5229,"Add":5230,"Ġma":5231,"stra":5232,"ira":5233,"Ġmanaged":5234,"ĠKar":5235,"ordin":5236,"Ġactive":5237,"23":5238,"Say":5239,"Ġbother":5240,"Ġloves":5241,"ĠHam":5242,"Ġsports":5243,"aren":5244,"Ġunit":5245,"Ġcrack":5246,"Ġsplit":5247,"Ġsignificant":5248,"Huh":5249,"umn":5250,"Ġunits":5251,"nedy":5252,"Ġninet":5253,"Ġschol":5254,"bu":5255,"arling":5256,"adian":5257,"Ġdebut":5258,"ivity":5259,"Ġscrew":5260,"Ġdelight":5261,"Ġcopy":5262,"Te":5263,"Ġsouthern":5264,"Ġpil":5265,"about":5266,"Ġgrass":5267,"awa":5268,"Ġreality":5269,"Ġchocol":5270,"Sha":5271,"jo":5272,"ache":5273,"ĠLine":5274,"Ġplane":5275,"Ġtransport":5276,"Ġdemon":5277,"ean":5278,"ota":5279,"ĠAh":5280,"ĠFer":5281,"Ġlights":5282,"Ġlocation":5283,"Ġstruck":5284,"hey":5285,"ican":5286,"Ġqual":5287,"Ġfavour":5288,"Ġmotor":5289,"RB":5290,"itan":5291,"ado":5292,"urry":5293,"ĠTheir":5294,"ĠRay":5295,"ogether":5296,"aving":5297,"Ġsilver":5298,"ĠIndiana":5299,"CK":5300,"bre":5301,"ker":5302,"Ġchat":5303,"Ġfra":5304,"Ġstream":5305,"Ġuniverse":5306,"Ġtransfer":5307,"Ġbeauty":5308,"Ġterrit":5309,"Ġappears":5310,"Ġroute":5311,"Ġdestroyed":5312,"Out":5313,"ĠDid":5314,"artment":5315,"ĠOld":5316,"Ġ1996":5317,"Before":5318,"Ġhumans":5319,"Ġconstruction":5320,"Ġphysical":5321,"Next":5322,"boy":5323,"aling":5324,"ooper":5325,"Ġpoet":5326,"chant":5327,"Ġstreets":5328,"Ġintroduced":5329,"Ġindependent":5330,"Com":5331,"Ġmale":5332,"Ġlosing":5333,"ushing":5334,"bey":5335,"ĠChief":5336,"Ġrelative":5337,"ĠIslam":5338,"ĠFrancis":5339,"Ġeconomic":5340,"24":5341,"Ġbast":5342,"ĠMel":5343,"Ġsmoke":5344,"iously":5345,"Ġfeels":5346,"Ġturning":5347,"Ġpossibly":5348,",'":5349,"Ġfought":5350,"Ġpin":5351,"ĠMu":5352,"gend":5353,"Ġaltern":5354,"Ġprogress":5355,"Ġrequire":5356,"Sometimes":5357,"Over":5358,"orter":5359,"owed":5360,"uted":5361,"Ġroy":5362,"Ġfinding":5363,"Another":5364,"Ġoperation":5365,"Actually":5366,"Tw":5367,"Ġcuri":5368,"ĠLady":5369,"ĠEvery":5370,"Ġtrial":5371,"Ġtreatment":5372,"leg":5373,"Ġstret":5374,"Ġunivers":5375,"Ġsword":5376,"Ġinstru":5377,"Ġhardly":5378,"Ġlaws":5379,"Anyway":5380,"Ġaccepted":5381,"och":5382,"sha":5383,"Ġah":5384,"Ġwake":5385,"ella":5386,"ĠDO":5387,"Ġshowing":5388,"Ġ1998":5389,"ĠRec":5390,"Ġneighbor":5391,"Ġresponsible":5392,"aughed":5393,"Ġfinancial":5394,"ALL":5395,"SP":5396,"Ġdare":5397,"riff":5398,"ĠPenn":5399,"geant":5400,"Ġscream":5401,"Ġmagn":5402,"ĠGovernor":5403,"Ġcandid":5404,"Cap":5405,"Cause":5406,"Ġfruit":5407,"Ġdirty":5408,"Ġwash":5409,"hia":5410,"achus":5411,"Ġ1997":5412,"Ġ60":5413,"hetic":5414,"CE":5415,"Make":5416,"Many":5417,"nam":5418,"Ġgall":5419,"Ġrent":5420,"ĠSil":5421,"ĠSqu":5422,"Ġhadn":5423,"iana":5424,"Ġquality":5425,"ĠAmericans":5426,"ERE":5427,"Ġretired":5428,"Ġsymbol":5429,"Today":5430,"Ġdressed":5431,"Ġtoward":5432,"rib":5433,"oston":5434,"Ġdrugs":5435,"\"?":5436,"EL":5437,"ties":5438,"uous":5439,"ufact":5440,"Ġtick":5441,"ala":5442,"lying":5443,"kend":5444,"antage":5445,"elcome":5446,"Ġrecent":5447,"Ġhelping":5448,"Ġ185":5449,"Ġdivision":5450,"Ġrocks":5451,"American":5452,"say":5453,"heast":5454,"Ġgro":5455,"ĠBest":5456,"ĠRog":5457,"ĠKh":5458,"Ġstatement":5459,"Ġfixed":5460,"Ġbrave":5461,"two":5462,"thank":5463,"while":5464,"Ġtong":5465,"Ġinha":5466,"uman":5467,"Ġscr":5468,"Isn":5469,"ANT":5470,"Ġlands":5471,"Remember":5472,"La":5473,"Sm":5474,"iral":5475,"elled":5476,"Ġbrand":5477,"Ġscore":5478,"Ġnumer":5479,"Ġfalling":5480,"Ġexchan":5481,"Ġcomedy":5482,"Ġfro":5483,"Ġpra":5484,"icide":5485,"imum":5486,"aming":5487,"Ġjail":5488,"ĠFootball":5489,"ĠUK":5490,"Ġjobs":5491,"ĠBecause":5492,"Shut":5493,"ĠParliament":5494,"ĠSaturday":5495,"ĠSunday":5496,"UGH":5497,"father":5498,"hell":5499,"Ġodd":5500,"Ġghost":5501,"Ġmeas":5502,"alls":5503,"oles":5504,"Ġprince":5505,"Ġyounger":5506,"Ġgiant":5507,"Ġrailway":5508,"Ġsafety":5509,"yo":5510,"Ġpleased":5511,"ĠMajor":5512,"ĠBa":5513,"Ġflo":5514,"Ġcoat":5515,"Ġminor":5516,"Ġapproach":5517,"Ġproducts":5518,"Ġaudience":5519,"Nice":5520,"ĠHans":5521,"Ġends":5522,"Ġinstit":5523,"Ġbottle":5524,"aning":5525,"Ġdiam":5526,"atre":5527,"Ġlord":5528,"ĠAng":5529,"Ġrise":5530,"Ser":5531,"bow":5532,"pret":5533,"rance":5534,"Ġtournament":5535,"ĠSl":5536,"ĠWal":5537,"elly":5538,"Ġmanufact":5539,"ĠPrime":5540,"Ġveh":5541,"ĠCenter":5542,"Ġmanagement":5543,"vi":5544,"wing":5545,"Ġtim":5546,"heart":5547,"Ġlaughed":5548,"Ġgay":5549,"cts":5550,"Ġafterwards":5551,"cles":5552,"ocent":5553,"Ġpoly":5554,"Ġpulled":5555,"Ġtemperature":5556,"Ġmicro":5557,"uyeh":5558,"Ġdying":5559,"ĠCamp":5560,"ilty":5561,"ĠThan":5562,"ĠWood":5563,"ĠValley":5564,"Ġadop":5565,"ĠAdm":5566,"Ġdefeated":5567,"21":5568,"Ġthroat":5569,"Ġreform":5570,"Ġnoticed":5571,"fection":5572,"Ġagre":5573,"Ġclock":5574,"oving":5575,"Ġexcuse":5576,"Ġwalls":5577,"Ġbac":5578,"enced":5579,"idents":5580,"amin":5581,"ĠMer":5582,"ĠMill":5583,"ĠLy":5584,"Ġuniform":5585,"Ġprefer":5586,"Ġcards":5587,"essel":5588,"irk":5589,"Ġbye":5590,"atherine":5591,"Ġshad":5592,"Ġmatters":5593,"Everybody":5594,"ĠScottish":5595,"Ġimprove":5596,"ĠDivision":5597,"Ġtiny":5598,"onse":5599,"ĠIS":5600,"hio":5601,"Ġremains":5602,"ĠAsia":5603,"ysis":5604,"ĠCanadian":5605,"ominated":5606,"cellent":5607,"stein":5608,"Ġfingers":5609,"arian":5610,"Ġnuc":5611,"Ġdisplay":5612,"Ġexpress":5613,"Ġconstant":5614,"Ġhonour":5615,"Ġthousands":5616,"Ġsteps":5617,"bi":5618,"ugg":5619,"yp":5620,"Ġbub":5621,"Ġwheel":5622,"Didn":5623,"Ġoccasion":5624,"said":5625,"Ġsli":5626,"etts":5627,"Ġlibr":5628,"ĠTw":5629,"Ġagent":5630,"--\"":5631,"flict":5632,"Ġbasic":5633,"roll":5634,"resp":5635,"ĠStud":5636,"hammad":5637,"Ġ187":5638,"Ġmusical":5639,"Ġgrave":5640,"Ġgentleman":5641,"Ġeffort":5642,"Ġsin":5643,"enny":5644,"Ġbeach":5645,"ĠPope":5646,"Ġremoved":5647,"Ġpolitics":5648,"hampion":5649,"Ġraise":5650,"Ġavoid":5651,"Ġsilence":5652,"Ġsusp":5653,"Ġbodies":5654,"quar":5655,"Ġarrange":5656,"Ġsubs":5657,"Ġopposite":5658,"Ġreceive":5659,"Ġfifth":5660,"ĠRussia":5661,"vad":5662,"Ġbat":5663,"Ġfaster":5664,"ctic":5665,"Ġliber":5666,"Ġusual":5667,"Ġentertain":5668,"Ġdetails":5669,"ĠBritain":5670,"Ġcerem":5671,"Ġsweetie":5672,"Ġguns":5673,"uals":5674,"ockey":5675,"Ġmatches":5676,"Ġassum":5677,"Ġsolution":5678,"Ġmax":5679,"Ġpit":5680,"alright":5681,"ĠDou":5682,"ĠGO":5683,"Ġafford":5684,"ĠRev":5685,"More":5686,"Ġcomment":5687,"ĠKoh":5688,"Whatever":5689,"ĠâĢĺ":5690,"Ġ1994":5691,"Ġjoke":5692,"Ġattacked":5693,"gil":5694,"stances":5695,"add":5696,"Ġawful":5697,"Ġentirely":5698,"achusetts":5699,"ua":5700,"uit":5701,"vest":5702,"Ġbare":5703,"Ġknowing":5704,"ĠLook":5705,"ĠOff":5706,"Ġcompos":5707,"Ġprovided":5708,"Ġconnected":5709,"Ġsettled":5710,"Ġmo":5711,"ĠIre":5712,"Ġhast":5713,"stead":5714,"Ġsees":5715,"Ġknife":5716,"Ġgoods":5717,"izz":5718,"Ġrecomm":5719,"Stay":5720,"Ġ1995":5721,"Ġmaintain":5722,"Ġauthority":5723,"Ġcloser":5724,"ĠKennedy":5725,"Ġbudget":5726,"Ġcredit":5727,"Ġcompleted":5728,"EC":5729,"happ":5730,"Ġboo":5731,"Ġfired":5732,"owing":5733,"ĠDire":5734,"Ġconcept":5735,"emic":5736,"Ġeverywhere":5737,"Ġcauses":5738,"Ġcolour":5739,"ĠConstitution":5740,"Ġfocus":5741,"Ġchocolate":5742,"Ġroyal":5743,"Ġcous":5744,"ĠSol":5745,"oops":5746,"ĠLatin":5747,"ĠJac":5748,"Ġqueen":5749,"Ġhighly":5750,"WH":5751,"ja":5752,"Ġtun":5753,"Ġwestern":5754,"alent":5755,"ĠSaint":5756,"urd":5757,"ĠPre":5758,"Ġshore":5759,"ĠFore":5760,"Ġexpensive":5761,"Ġcircle":5762,"Ġcounter":5763,"vania":5764,"Ġslightly":5765,"fits":5766,"onia":5767,"ĠSid":5768,"ĠMich":5769,"Ġproceed":5770,"Ġcontains":5771,"Ġforgotten":5772,"Ġnewspaper":5773,"pal":5774,"Ġut":5775,"ĠIm":5776,"ĠSpe":5777,"ĠCat":5778,"Ġability":5779,"Ġspoken":5780,"Ġflu":5781,"eaking":5782,"Ġweekend":5783,"Ġtrave":5784,"Ġmajority":5785,"Ġshooting":5786,"ĠĠĠĠĠĠĠĠĠĠĠĠĠĠĠĠ":5787,"Ġchicken":5788,"29":5789,"pa":5790,"Ġmap":5791,"ĠMore":5792,"eman":5793,"Ġuseful":5794,"Still":5795,"Ġswitch":5796,"ĠSwed":5797,"Ġactivity":5798,"rick":5799,"ĠRight":5800,"Ġsomewhat":5801,"Ġstudies":5802,"Ġrestaur":5803,"Ġvictory":5804,"Ġchemical":5805,"ila":5806,"Ġlips":5807,"intend":5808,"Ġfeelings":5809,"Ġwinning":5810,"Ġstatus":5811,"Ġcalcul":5812,"Ġalcohol":5813,"Damn":5814,"OD":5815,"Ġocean":5816,"ingu":5817,"ĠHel":5818,"olved":5819,"thur":5820,"Ġbringing":5821,"ĠRepublican":5822,"Ġconversation":5823,"ION":5824,"Ġfal":5825,"ĠHot":5826,"ĠDutch":5827,"ĠOx":5828,"ĠVer":5829,"Ġprem":5830,"uckles":5831,"ĠFriday":5832,"Everyone":5833,"ĠCommun":5834,"Ġgraph":5835,"Ġprincess":5836,"Ġextremely":5837,"iven":5838,"uan":5839,"Ġwrest":5840,"ĠHarr":5841,"eare":5842,"ĠJane":5843,"weet":5844,"Ġflower":5845,"ĠBlue":5846,"Ġrapid":5847,"LY":5848,"overy":5849,"rs":5850,"vis":5851,"Ġtough":5852,"verse":5853,"Ġanx":5854,"Ġgrab":5855,"were":5856,"Ġguilty":5857,"ĠProt":5858,"Ġprior":5859,"ĠDoctor":5860,"ĠMassachusetts":5861,"enger":5862,"ĠWH":5863,"Ġsugar":5864,"izes":5865,"Ġadvent":5866,"Ġadvice":5867,"ports":5868,"Ġdrama":5869,"à¤":5870,"Ġinvent":5871,"ĠSummer":5872,"ĠMax":5873,"Ġnoise":5874,"Ġmanner":5875,"Ġprime":5876,"Ġowned":5877,"Ġelement":5878,"oking":5879,"ĠCarl":5880,"Ġconstru":5881,"ĠAustralian":5882,"Ġbenefit":5883,"VER":5884,"eed":5885,"arry":5886,"Ġtrick":5887,"Ġ35":5888,"Back":5889,"James":5890,"rain":5891,"enes":5892,"ĠWhile":5893,"ĠWomen":5894,"Ġvessel":5895,"Nobody":5896,"However":5897,"Ġearn":5898,"Ġconsist":5899,"Ġdamage":5900,"Ġautom":5901,"Ġflew":5902,"Ġawarded":5903,"Ġlin":5904,"alm":5905,"unched":5906,"Ġplanned":5907,"Ġgolden":5908,"Ġtradition":5909,"Ġsuggested":5910,"Ġresources":5911,"Ġnineteen":5912,"27":5913,"nat":5914,"Ġeh":5915,"acle":5916,"ĠGe":5917,"Ġshirt":5918,"Ġpresence":5919,"Ġfully":5920,"porary":5921,"ĠSenate":5922,"EE":5923,"Norm":5924,"ĠShi":5925,"ĠWind":5926,"ĠGames":5927,"osa":5928,"Ġupset":5929,"Ġcoal":5930,"hamber":5931,"Ġcollection":5932,"Ġcommercial":5933,"Watch":5934,"Äĩ":5935,"Ġmel":5936,"cel":5937,"ulate":5938,"abeth":5939,"Ġresc":5940,"Ġhelps":5941,"ĠYoung":5942,"Ġchest":5943,"Ġ1992":5944,"Ġpassing":5945,"ĠOlympics":5946,"Leave":5947,"ĠSecretary":5948,"28":5949,"iest":5950,"Ġfederal":5951,"Ġgain":5952,"Ġult":5953,"Ġsem":5954,"ĠBig":5955,"Ġliqu":5956,"ĠWay":5957,"abbit":5958,"erman":5959,"Ġparties":5960,"Ġkeeps":5961,"Ġexpand":5962,"Ġescap":5963,"ĠPlay":5964,"gment":5965,"isa":5966,"ĠSince":5967,"ĠSouthern":5968,"angle":5969,"Ġresist":5970,"ricane":5971,"ĠConf":5972,"itzer":5973,"ĠMichigan":5974,"Mhm":5975,"irlf":5976,"ĠBell":5977,"ĠLittle":5978,"Someone":5979,"syl":5980,"razil":5981,"Ġsexual":5982,"irlfriend":5983,"Love":5984,"OS":5985,"gal":5986,"Ġnerv":5987,"rible":5988,"Ġconc":5989,"ocal":5990,"Ġunderstood":5991,"Ġcarbon":5992,"Ġdesire":5993,"Ġtraffic":5994,"ĠGroup":5995,"ĠPrize":5996,".)":5997,"PS":5998,"peare":5999,"ras":6000,"Ġnotes":6001,"Ġupstairs":6002,"Ġproof":6003,"onder":6004,"Ġflag":6005,"Ġscale":6006,"Ġhanging":6007,"AA":6008,"Ġgift":6009,"ourse":6010,"ĠDen":6011,"ĠInstitute":6012,"Ġkiller":6013,"Ġ1991":6014,"ĠSociety":6015,"ĠClub":6016,"Ġnorthwest":6017,"Shit":6018,"kespeare":6019,"ĠCarolina":6020,"El":6021,"ef":6022,"Ġthin":6023,"ĠTown":6024,"Ġchain":6025,"ĠJimmy":6026,"Ġoccurred":6027,"Ġwatched":6028,"ĠKohgil":6029,"ĠKohgiluyeh":6030,"load":6031,"Ġwebs":6032,"Ġdoors":6033,"Ġate":6034,"ĠFre":6035,"Ġchosen":6036,"Ġsignal":6037,"ropri":6038,"Ġdetail":6039,"Ġadmit":6040,"Ġdrawing":6041,"Ġlimited":6042,"YOU":6043,"sit":6044,"spect":6045,"urse":6046,"inda":6047,"ĠStep":6048,"Ġ1993":6049,"Ġpresented":6050,"Ġrepresented":6051,"Su":6052,"WE":6053,"fall":6054,"ias":6055,"Ġrum":6056,"Ġconcent":6057,"them":6058,"Ġdram":6059,"Ġunderstanding":6060,"Ġeffects":6061,"Ġperfectly":6062,"Ġapolog":6063,"Ġdancing":6064,"Jack":6065,"km":6066,"Ġtears":6067,"Ġwings":6068,"Ġpill":6069,"Ġhook":6070,"ĠShow":6071,"Ġstations":6072,"Ġdisci":6073,"Ġexpression":6074,"ĠCarter":6075,"ĠColumb":6076,"ĠTHAT":6077,"Ġintellig":6078,"Ġcateg":6079,"etch":6080,"Ġstated":6081,"ĠCH":6082,"Ġcarefully":6083,"Think":6084,"ervation":6085,"Ġmountains":6086,"Ġcabin":6087,"mo":6088,"Ã¦":6089,"amily":6090,"ounding":6091,"ĠStar":6092,"Ġunique":6093,"Ġmagazine":6094,"Ġconnection":6095,"Ġpunish":6096,"ko":6097,"vin":6098,"has":6099,"Ġcream":6100,"otion":6101,"ĠHa":6102,"ums":6103,"ĠUnder":6104,"Ġgrowth":6105,"Ġappearance":6106,"Ġincreased":6107,"Ġreaction":6108,"ĠHello":6109,"olks":6110,"Ġtroub":6111,"Ġcloud":6112,"Ġappeal":6113,"Ġbreaking":6114,"Ġhearing":6115,"Ġteachers":6116,"EAK":6117,"dis":6118,"erves":6119,"illed":6120,"ĠGar":6121,"ĠOhio":6122,"ĠKansas":6123,"Ġquit":6124,"Ġshoulder":6125,"icted":6126,"Ġsigns":6127,"Ġkidding":6128,"ĠProfessor":6129,"Ġdivor":6130,"Ġforgive":6131,"Ġdrove":6132,"ĠDepartment":6133,"Ġachieve":6134,"vy":6135,"Ġloose":6136,"stone":6137,"ĠWall":6138,"acks":6139,"angers":6140,"Ġansw":6141,"Ġballs":6142,"Ġmagic":6143,"Ġlabor":6144,"Ġneighbour":6145,"sylvania":6146,"\").":6147,"ulated":6148,"Ġmyth":6149,"ĠNaz":6150,"Ġclimate":6151,"reek":6152,"Ġcontain":6153,"Ġinstance":6154,"197":6155,"Ġbasis":6156,"ĠGeorg":6157,"Ġdaily":6158,"Ġbullet":6159,"Ġninety":6160,"Ġbeside":6161,"Ġbranch":6162,"Addons":6163,"EO":6164,"Open":6165,"_.":6166,"Ġmuseum":6167,"Ġlit":6168,"Ġhiding":6169,"ĠAwards":6170,"Ġspin":6171,"Ġotherwise":6172,"Ġexcited":6173,"Ġhello":6174,"Should":6175,"Ġdeclared":6176,"RA":6177,"Ġdyn":6178,"Ġnarrow":6179,"Ġshr":6180,"Ġowner":6181,"Ġ45":6182,"standing":6183,"Ġresponse":6184,"Ġadvantage":6185,"Ġfailure":6186,"Ġnormally":6187,"Ġremembered":6188,"Call":6189,"Under":6190,"Ġfold":6191,"eding":6192,"Ġune":6193,"Ġsevere":6194,"Ġbutton":6195,"Ġcommittee":6196,"Ġshared":6197,"Ġleague":6198,"198":6199,"Ġstaying":6200,"Ġfigures":6201,"aughs":6202,"Eng":6203,"bably":6204,"Ġfan":6205,"ĠCons":6206,"ĠMaz":6207,"ĠLater":6208,"Ġworkers":6209,"Ġdriver":6210,"ropical":6211,"ĠDaniel":6212,"Ġlaughing":6213,"Paul":6214,"ois":6215,"Ġdim":6216,"Ġmyster":6217,"Ġshock":6218,"Ġexerc":6219,"Ġblame":6220,"Ġblank":6221,"Ġeastern":6222,"Ġbillion":6223,"ĠJeff":6224,"Ġmixed":6225,"ĠDemocratic":6226,"Sit":6227,"dad":6228,"ups":6229,"Ġpowers":6230,"ads":6231,"ustration":6232,"ieutenant":6233,"Ġguitar":6234,"obal":6235,"Ġmathem":6236,"ĠAsian":6237,"Ġimpact":6238,"Ġ70":6239,"Ġcarrying":6240,"ĠPacific":6241,"ĠIreland":6242,"Ġeth":6243,"Ġfant":6244,"ĠShar":6245,"ĠMother":6246,"ĠMuseum":6247,"Ġplenty":6248,"aki":6249,"Ġpassion":6250,"arrass":6251,"Ġviolence":6252,"Ġcomfortable":6253,"gly":6254,"wide":6255,"iminal":6256,"ĠLove":6257,"ĠJoseph":6258,"Ġvariety":6259,"Ġslept":6260,"ĠTime":6261,"estic":6262,"rael":6263,"Ġquant":6264,"Ġinvited":6265,"Ġcolon":6266,"Ġapprox":6267,"22":6268,"35":6269,"want":6270,"Å«":6271,"Ġnurs":6272,"Ġcitizens":6273,"ĠPennsylvania":6274,"According":6275,"Jesus":6276,"gor":6277,"Ġcas":6278,"Ġfurn":6279,"Ġded":6280,"Ġnea":6281,"Ġstro":6282,"ĠBat":6283,"ĠLike":6284,"Ġpoison":6285,"ĠThree":6286,"Although":6287,"Ġclasses":6288,"chestra":6289,"Ġoperations":6290,"Ġprotection":6291,"Ġproposed":6292,"ĠKentucky":6293,"Ġtask":6294,"inity":6295,"entially":6296,"Ġaspect":6297,"ummy":6298,"Ġsheep":6299,"ĠMaria":6300,"Ġfollows":6301,"Ġdragon":6302,"Ġpurcha":6303,"Ġ1950":6304,"Ġsharp":6305,"Ġdeliver":6306,"lNG":6307,"Ġtongue":6308,"34":6309,"Father":6310,"nic":6311,"Ä«":6312,"Ġtied":6313,"Ġwid":6314,"Ġmail":6315,"ĠCle":6316,"ĠBrazil":6317,"ĠTay":6318,"Ġunion":6319,"Ġchanging":6320,"Ġprize":6321,"Ġwindows":6322,"Ġsquared":6323,"sembly":6324,"mpt":6325,"orse":6326,"Ġgirlfriend":6327,"omach":6328,"ĠBroad":6329,"Ġsomehow":6330,"agement":6331,"Ġroles":6332,"ĠInter":6333,"Ġprec":6334,"Ġtowns":6335,"Ġartists":6336,"Ġ90":6337,"Early":6338,"iy":6339,"Ġic":6340,"oog":6341,"ctures":6342,"ĠHung":6343,"Ġconference":6344,"Ġsuffe":6345,"Ġapple":6346,"should":6347,"Ġfallen":6348,"Ġsilent":6349,"Ġselling":6350,"ĠMartin":6351,"Ġsettlement":6352,"bury":6353,"aman":6354,"Ġvirt":6355,"new":6356,"Ġthoughts":6357,"Ġeaten":6358,"Ġsupported":6359,"Ġadvance":6360,"Ġhistorical":6361,"Ġcaptured":6362,"BE":6363,"sure":6364,"real":6365,"reck":6366,"Ġconflict":6367,"Ġshell":6368,"apa":6369,"ĠKhan":6370,"amps":6371,"duc":6372,"Ġshame":6373,"Ġpaying":6374,"Ġvictim":6375,"Ġinhabit":6376,"ext":6377,"rant":6378,"Ġtap":6379,"Ġwave":6380,"ano":6381,"Ġlatter":6382,"aly":6383,"ĠSee":6384,"endment":6385,"Ġunknown":6386,"izabeth":6387,"ulture":6388,"Ġoldest":6389,"Ġchose":6390,"Ġsetting":6391,"Exactly":6392,"burgh":6393,"Ġmulti":6394,"Ġholiday":6395,"Ġarrested":6396,"Sid":6397,"des":6398,"Ġtor":6399,"Ġbeer":6400,"Ġseasons":6401,"unny":6402,"formation":6403,"Ġproducer":6404,"Ġdrawn":6405,"Ġgods":6406,"Ġstrike":6407,"Ġfeatured":6408,"Ġmaterials":6409,"ĠSusan":6410,"Ġbastard":6411,"Fl":6412,"ront":6413,"Ġax":6414,"Ġcig":6415,"ĠBE":6416,"ĠBoston":6417,"Ġmyst":6418,"does":6419,"Ġinsurance":6420,"Ġrespond":6421,"Ġprimary":6422,"Ġnervous":6423,"Sl":6424,"ez":6425,"iÄĩ":6426,"Ġboot":6427,"Ġpiano":6428,"Ġham":6429,"adium":6430,"aka":6431,"Ġserving":6432,"Ġboyfriend":6433,"Ġdisappeared":6434,"pet":6435,"Ġsalt":6436,"Ġcake":6437,"ĠMod":6438,"iece":6439,"onday":6440,"Ġwrit":6441,"Ġsteel":6442,"Ġfifteen":6443,"Ġfields":6444,"ĠKorea":6445,"Ġassociated":6446,"Ġfreedom":6447,"long":6448,"rical":6449,"Ġfile":6450,"esides":6451,"Ġbride":6452,"Ġpartners":6453,"Ġadvert":6454,"Ġdiss":6455,"Ġdesper":6456,"Ġcheese":6457,"Ġfairly":6458,"Ġmotion":6459,"Has":6460,"Hmm":6461,"SC":6462,"rend":6463,"Ġsust":6464,"Ġlat":6465,"ĠBal":6466,"istor":6467,"Ġseek":6468,"Ġsport":6469,"ĠYear":6470,"ĠAnn":6471,"ĠZeal":6472,"Ġvari":6473,"Ġterror":6474,"Ġtreated":6475,"Ġhyp":6476,"Captain":6477,"SB":6478,"Try":6479,"Welcome":6480,"heim":6481,"erk":6482,"ito":6483,"Ġgate":6484,"Ġnom":6485,"ĠIII":6486,"ading":6487,"Ġkil":6488,"ĠLong":6489,"pered":6490,"Ġpreviously":6491,"Ġminister":6492,"Ġpatients":6493,"Ġexperiment":6494,"Ġhundreds":6495,"Ġargument":6496,"Ġsuffered":6497,"cest":6498,"wa":6499,"Ġdiet":6500,"Ġgang":6501,"Ġwealth":6502,"ĠMem":6503,"urally":6504,"ĠBra":6505,"ands":6506,"ĠTol":6507,"Ġrow":6508,"Ġaband":6509,"ĠRose":6510,"Ġbackground":6511,"Ġcheer":6512,"Whoa":6513,"apping":6514,"Ġjoint":6515,"Ġlabel":6516,"Ġhyd":6517,"Ġeconomy":6518,"OME":6519,"Ġembarrass":6520,"ĠThanks":6521,"after":6522,"Ġtie":6523,"Ġpha":6524,"Ġheav":6525,"Ġstomach":6526,"ĠCivil":6527,"ĠBull":6528,"ĠDa":6529,"ements":6530,"ĠKe":6531,"Ġunf":6532,"hole":6533,"Ġguest":6534,"Ġ1989":6535,"Ġbegins":6536,"osphere":6537,"Ġweapons":6538,"Ġbasketball":6539,"found":6540,"isation":6541,"ĠWales":6542,"odd":6543,"Ġimpl":6544,"Ġchannel":6545,"Ġsupply":6546,"Ġpriest":6547,"Ġveget":6548,"Ġfamiliar":6549,"ĠMusic":6550,"Ġweapon":6551,"90":6552,"IV":6553,"Ġbunch":6554,"inging":6555,"Ġlone":6556,"Ġconfess":6557,"Ġsched":6558,"Looks":6559,"Ġsixty":6560,"Ġsolid":6561,"Ġhoping":6562,"Ġactivities":6563,"Ġappreciate":6564,"Col":6565,"FL":6566,"Hurry":6567,"Mother":6568,"OL":6569,"run":6570,"Ġonline":6571,"ĠHy":6572,"ession":6573,"Ġpregn":6574,"otton":6575,"Ġrealized":6576,"Ġ1988":6577,"Ġfilms":6578,"ĠTrans":6579,"Ġinnocent":6580,"TV":6581,"Ġbang":6582,"Ġpink":6583,"otic":6584,"lyn":6585,"ĠCa":6586,"tering":6587,"Ġsoil":6588,"emies":6589,"ardens":6590,"Ġbrings":6591,"196":6592,"Ġengaged":6593,"looking":6594,"ĠShakespeare":6595,"Ġprofessor":6596,"Ġburned":6597,"Ġapartment":6598,"iggler":6599,"Gl":6600,"also":6601,"ĠBon":6602,"ĠDor":6603,"Ġlegend":6604,"bridge":6605,"Ġ80":6606,"Anything":6607,"ĠEmperor":6608,"Ġdetermined":6609,"Ġhomes":6610,"100":6611,"Up":6612,"Ġbite":6613,"ĠTri":6614,"ĠRaj":6615,"ĠFar":6616,"Ġsuck":6617,"Ġ(;":6618,"ĠKong":6619,"Ġmayor":6620,"Ġarticle":6621,"Ġwondering":6622,"Ġcrossed":6623,"Ġordinary":6624,"Ġjuice":6625,"Fran":6626,"Ġow":6627,"Ġdish":6628,"Ġdarling":6629,"Ġreck":6630,"ĠLight":6631,"ĠJon":6632,"ĠEll":6633,"Ġcock":6634,"Ġclever":6635,"coln":6636,"Ġlimit":6637,"Ġscientific":6638,"ĠPakistan":6639,"ĠZealand":6640,"Cor":6641,"sur":6642,"Ġborder":6643,"Ġfeature":6644,"Ġgoodness":6645,"Ġconscious":6646,"Ġrooms":6647,"box":6648,"ĠCalvad":6649,"Ġlaunched":6650,"Ġseriously":6651,"ĠCalvados":6652,"Big":6653,"Ġfancy":6654,"esh":6655,"owder":6656,"uther":6657,"stant":6658,"ĠME":6659,"three":6660,"ĠOk":6661,"Ġunus":6662,"Ġcheap":6663,"Ġ1979":6664,"Ġsolve":6665,"ENT":6666,"fortunately":6667,"UL":6668,"jan":6669,"rd":6670,"rich":6671,"Ġwise":6672,"Ġsales":6673,"Ġbatter":6674,"riz":6675,"Ġupper":6676,"Ġwithd":6677,"iffe":6678,"ĠBru":6679,"andom":6680,"ĠFour":6681,"Ġroot":6682,"hess":6683,"Ġcrown":6684,"Ġincred":6685,"ĠIsrael":6686,"Ġcontinues":6687,"Ġincreasing":6688,"Ġresponsibility":6689,"Ġphilosophy":6690,"Ġinstrument":6691,"Last":6692,"Mart":6693,"Ġtone":6694,"iments":6695,"Ġnoted":6696,"ĠFestival":6697,"hang":6698,"Ġfinds":6699,"Ġadditional":6700,"Ġ1982":6701,"Ġislands":6702,"ĠTommy":6703,"ĠWilliams":6704,"Ġcircumstances":6705,"500":6706,"Again":6707,"mother":6708,"ser":6709,"zer":6710,"ript":6711,"ĠAccording":6712,"ĠPa":6713,"ĠTed":6714,"ĠFOR":6715,"their":6716,"ection":6717,"Ġcourage":6718,"Ġstands":6719,"Ġlevels":6720,"Ġdisappoint":6721,"ĠPortug":6722,"IGHT":6723,"five":6724,"sw":6725,"ti":6726,"Ġgather":6727,"ĠSom":6728,"Ġugly":6729,"ĠHan":6730,"olt":6731,"izations":6732,"ranch":6733,"Ġsuffering":6734,"ĠAtlantic":6735,"Ġlibrary":6736,"Care":6737,"rad":6738,"Ġwitch":6739,"ĠFort":6740,"Ġprepar":6741,"Ġrelax":6742,"ologist":6743,"Ġframe":6744,"Ġ1984":6745,"ĠJohnson":6746,"Ġhandsome":6747,"Ġcommonly":6748,"Ġconcern":6749,"Ġanti":6750,"Ġsurvive":6751,"Ġchallenge":6752,"Ġfalse":6753,"Des":6754,"Sec":6755,"ares":6756,"inter":6757,"ĠWend":6758,"ĠLife":6759,"Ġconqu":6760,"Ġplate":6761,"Ġgotten":6762,"Ġclient":6763,"ĠBrother":6764,"ĠZiggler":6765,"Ġgovernor":6766,"Ġfalls":6767,"ĠCommission":6768,"Ġconcert":6769,"Ġrecognized":6770,"conscious":6771,"Ġexchange":6772,"45":6773,"Ã¤":6774,"Ġaim":6775,"Ġwished":6776,"ĠRural":6777,"Ġconsequ":6778,"Ġexact":6779,"Ġcompon":6780,"Ġattended":6781,"Ġstring":6782,"Ġdiscover":6783,"Ġpainting":6784,"rilliant":6785,"ĠJersey":6786,"36":6787,"Dan":6788,"David":6789,"turn":6790,"Ġdust":6791,"Ġpool":6792,"ĠCam":6793,"Ġatm":6794,"ĠRoll":6795,"ĠNavy":6796,"Ġspell":6797,"ĠVen":6798,"Ġdescend":6799,"Ġdistinct":6800,"okes":6801,"Ġsentence":6802,"Ġlegisl":6803,"cript":6804,"force":6805,"lause":6806,"Ġefforts":6807,"Ġwaited":6808,"ĠJewish":6809,"Ġsenior":6810,"ĠConfeder":6811,"KE":6812,"life":6813,"uce":6814,"Åį":6815,"Ġdies":6816,"Ġlake":6817,"asp":6818,"Ġhi":6819,"ĠAv":6820,"ĠCO":6821,"Ġunt":6822,"ĠBern":6823,"Ġrac":6824,"ĠNic":6825,"Ġearned":6826,"Ġcapac":6827,"Ġtrail":6828,"Ġexistence":6829,"Ġagreement":6830,"hu":6831,"point":6832,"Ġsons":6833,"iculous":6834,"ĠSup":6835,"rose":6836,"Ġriding":6837,"ĠNick":6838,"ĠNorthern":6839,"ivered":6840,"----":6841,"Ġapparently":6842,"ĠUncle":6843,"Ġeleven":6844,"Ġelements":6845,"Ġintegr":6846,"Ġ1987":6847,"ĠFrances":6848,"38":6849,"Too":6850,"uart":6851,"works":6852,"Ġta":6853,"Ġhabit":6854,"Ġancest":6855,"ĠDaw":6856,"Ġvia":6857,"akh":6858,"Ġintended":6859,"Ġcritical":6860,"Ġrecognize":6861,"Jim":6862,"Life":6863,"only":6864,"Ġtow":6865,"oto":6866,"ĠMiddle":6867,"ĠTy":6868,"ĠTam":6869,"ĠOl":6870,"ague":6871,"Ġspect":6872,"inson":6873,"Ġrefused":6874,"ĠHarry":6875,"Ġestablish":6876,"Ġcousin":6877,"ĠOxford":6878,"Comm":6879,"Frank":6880,"bly":6881,"wow":6882,"Ġwounded":6883,"Ġowe":6884,"Ġdu":6885,"ĠOcean":6886,"Ġcontest":6887,"Ġdecisions":6888,"ARR":6889,"ĠOrder":6890,"ĠFilm":6891,"Ed":6892,"TING":6893,"four":6894,"eaks":6895,"Ġrot":6896,"Ġallows":6897,"ĠRick":6898,"ĠEastern":6899,"hmm":6900,"Ġgarage":6901,"Ġassistant":6902,"26":6903,"Down":6904,"fish":6905,"mond":6906,"ê¯":6907,"Ġwha":6908,"Ġwore":6909,"Ġdun":6910,"Ġtower":6911,"Their":6912,"ĠHea":6913,"Ġorange":6914,"perial":6915,"avar":6916,"Ġacad":6917,"phant":6918,"Eh":6919,"OY":6920,"UD":6921,"Ġille":6922,"onic":6923,"ĠInt":6924,"ĠIrish":6925,"Ġhidden":6926,"ĠHave":6927,"usted":6928,"ĠTre":6929,"ĠTimes":6930,"ĠDra":6931,"ĠJones":6932,"raham":6933,"Ġvalley":6934,"ierce":6935,"Ġsorts":6936,"hibition":6937,"Ġhunting":6938,"Four":6939,"got":6940,"gues":6941,"Ã´":6942,"Ġsed":6943,"Ġfolk":6944,"Ġinqu":6945,"ĠRh":6946,"ĠEven":6947,"Ġjustice":6948,"eps":6949,"Ġspare":6950,"bec":6951,"Ġhappiness":6952,"Ġflood":6953,"Ġcommission":6954,"Ġ1971":6955,"Ġcorpor":6956,"Ġphoto":6957,".[":6958,"Em":6959,"Im":6960,"cos":6961,"Ġmort":6962,"Ġdread":6963,"Ġho":6964,"Ġweb":6965,"ĠFe":6966,"Ġthrown":6967,"Ġfriendly":6968,"ĠBrad":6969,"Ġsympt":6970,"Ġpointed":6971,"Ġ64":6972,"Ġdevil":6973,"ĠService":6974,"Ġconnect":6975,"Ġcombination":6976,"ĠCastle":6977,"Ġterritory":6978,"rell":6979,"era":6980,"Ġpa":6981,"Ġheight":6982,"andal":6983,"aints":6984,"elle":6985,"ĠNorm":6986,"inking":6987,"asts":6988,"ometimes":6989,"alem":6990,"ĠRomanized":6991,"Ġrepeated":6992,"Geor":6993,"mat":6994,"tle":6995,"ouri":6996,"ĠHal":6997,"Ġsav":6998,"Ġproced":6999,"Ġobvious":7000,"Ġofficially":7001,"Ġcreating":7002,"ĠPete":7003,"Shall":7004,"cont":7005,"erest":7006,"gian":7007,"hew":7008,"Ġmood":7009,"Ġnut":7010,"icy":7011,"imal":7012,"Ġselected":7013,"Ġshook":7014,"Ġagric":7015,"ordon":7016,"ĠViet":7017,"ultural":7018,"Ġcommitted":7019,"Ġaccomp":7020,"ĠAndrew":7021,"Ġidiot":7022,"Ġexped":7023,"going":7024,"LAUGH":7025,"ĠSecond":7026,"Ġdegrees":7027,"itzerland":7028,"IE":7029,"miss":7030,"asmus":7031,"Ġhired":7032,"ĠSur":7033,"chief":7034,"ĠPlease":7035,"ĠRom":7036,"Ġworship":7037,"ĠEach":7038,"Ġshake":7039,"Ġcriminal":7040,"Ġacid":7041,"gery":7042,"Ġnearby":7043,"Ġestate":7044,"ĠCommittee":7045,"Ġcomplicated":7046,"Ġliterature":7047,"Ġscientists":7048,"Bob":7049,"OB":7050,"based":7051,"nce":7052,"Ġcute":7053,"Ġpages":7054,"arant":7055,"ĠAN":7056,"ĠCab":7057,"ĠHind":7058,"ĠBoth":7059,"ĠDave":7060,"Ġplot":7061,"Ġflow":7062,"Ġmoves":7063,"Ġimportance":7064,"Ġ1981":7065,"ronic":7066,"Ġsteal":7067,"ĠForce":7068,"Ġvalues":7069,"aimed":7070,"Ġeffective":7071,"ealous":7072,"Move":7073,"Ste":7074,"].":7075,"ooth":7076,"ĠÎ":7077,"Ġfishing":7078,"Ġlocked":7079,"Ġstir":7080,"Ġaside":7081,"ĠPic":7082,"ĠTra":7083,"ieve":7084,"Ġevolution":7085,"Ġmedal":7086,"asked":7087,"Ġreferred":7088,"Ġseventy":7089,"happy":7090,"Cha":7091,"Turn":7092,"mom":7093,"pers":7094,"rets":7095,"lend":7096,"ĠMir":7097,"those":7098,"ĠDet":7099,"Ġdeck":7100,"ĠGal":7101,"ĠRam":7102,"ĠFox":7103,"Ġproved":7104,"cahedron":7105,"ERS":7106,"Ġexplained":7107,"cription":7108,"Ġreports":7109,"ĠEnter":7110,"\"),":7111,"Ant":7112,"lav":7113,"Ã¢":7114,"ingly":7115,"umes":7116,"ĠJr":7117,"ĠStan":7118,"Ġque":7119,"Ġsurely":7120,"Ġgeneration":7121,"Ġmillions":7122,"Ġcommunities":7123,"Ġconvin":7124,"writer":7125,"IFA":7126,"ĠMazra":7127,"',":7128,"called":7129,"iat":7130,"oz":7131,"Ġaunt":7132,"Ġmole":7133,"Ġdozen":7134,"olen":7135,"Ġarmed":7136,"Ġfeather":7137,"Ġenemies":7138,"Ġelev":7139,"Ġexplos":7140,"Ġdealing":7141,"Ġsoftware":7142,"APTER":7143,"ĠBerlin":7144,"ĠWendy":7145,"san":7146,"Ġsisters":7147,"ario":7148,"athy":7149,"celer":7150,"ĠLab":7151,"Ġsale":7152,"Ġtruly":7153,"Ġcompared":7154,"Ġbuying":7155,"Ġ180":7156,"Ġharder":7157,"Ġretire":7158,"Ġinterpret":7159,"Also":7160,"ĠOnly":7161,"Ġvector":7162,"ĠCharl":7163,"Ġhealthy":7164,"Ġempire":7165,"ĠRevolution":7166,"ĠMazraeh":7167,"Spe":7168,"iser":7169,"ĠAli":7170,"Ġtheme":7171,"iley":7172,"liver":7173,"Ġattitude":7174,"Ġsymp":7175,"hmad":7176,"Ġ1976":7177,"Ġbeneath":7178,"Brother":7179,"Boy":7180,"Pol":7181,"eau":7182,"Ġrhy":7183,"Ġrandom":7184,"ĠNap":7185,"Ġsuicide":7186,"eping":7187,"Ġarrang":7188,"cip":7189,"Ġ32":7190,"ĠBefore":7191,"Ġequals":7192,"ervative":7193,"Ġtouched":7194,"Ġdarkness":7195,"........":7196,"ĠEdward":7197,"Ġbelongs":7198,"Ġglasses":7199,"Ġdepends":7200,"Pre":7201,"RUN":7202,"pired":7203,"worth":7204,"itors":7205,"Ġlion":7206,"Ġlift":7207,"Ġrang":7208,"ĠUp":7209,"ĠArthur":7210,"appy":7211,"Ġproperly":7212,"ĠIslands":7213,"Ġemergency":7214,"ĠLincoln":7215,"Ġscarce":7216,"ropriate":7217,"Master":7218,"foot":7219,"met":7220,"ĠCross":7221,"unte":7222,"ĠWI":7223,"ender":7224,"hildren":7225,"certain":7226,"Ġsimpl":7227,"Ġcolors":7228,"Ġspending":7229,"Ġbathroom":7230,"Ġanalysis":7231,"Michael":7232,"32":7233,"NOW":7234,"Ġwound":7235,"ington":7236,"Ġdude":7237,"uties":7238,"unction":7239,"ĠGil":7240,"Ġunable":7241,"Ġhighway":7242,"Ġfuneral":7243,"195":7244,"Ġ1986":7245,"Ġsixth":7246,"Ġcreature":7247,"Ġdelay":7248,"adesh":7249,"39":7250,"BS":7251,"MA":7252,"TA":7253,"cr":7254,"comp":7255,"greg":7256,"lar":7257,"lock":7258,"ni":7259,"Ġfate":7260,"orney":7261,"Ġnest":7262,"ĠSH":7263,"ĠAis":7264,"ĠAunt":7265,"ĠMen":7266,"ĠHu":7267,"ĠDun":7268,"Ġshel":7269,"ĠOut":7270,"ĠKim":7271,"care":7272,"Ġwhenever":7273,"aze":7274,"Ġrevolution":7275,"Ġdescribe":7276,"CHAPTER":7277,"Ġdisappear":7278,"Ġreviews":7279,"Ġnumerous":7280,"ĠSupreme":7281,"iri":7282,"Ġtort":7283,"isms":7284,"Ġmental":7285,"Ġtoile":7286,"Ġhm":7287,"ĠSand":7288,"Ġplastic":7289,"ags":7290,"ogue":7291,"ipment":7292,"Ġscript":7293,"Ġwinner":7294,"Ġhorrible":7295,"Ġcruel":7296,"Ġinvestigation":7297,"Bar":7298,"Ġtur":7299,"Ġhorn":7300,"ĠSel":7301,"Ġwhist":7302,"ĠDuke":7303,"ĠEst":7304,"Ġlecture":7305,"ĠClass":7306,"Ġsteam":7307,"Ġenjoyed":7308,"ĠRecords":7309,"give":7310,"hot":7311,"ĠSong":7312,"sex":7313,"hers":7314,"ĠHome":7315,"ĠHoly":7316,"ĠGall":7317,"ĠGame":7318,"osal":7319,"ela":7320,"ĠUh":7321,"ava":7322,"Ġera":7323,"Ġnights":7324,"Ġ1985":7325,"ĠBeach":7326,"Ġmarked":7327,"Ġprotest":7328,"ĠBoard":7329,"AVE":7330,"LES":7331,"sar":7332,"Ġborrow":7333,"Ġpity":7334,"Ġnominated":7335,"Ġconce":7336,"ĠNE":7337,"Ġexcellent":7338,"Ġdraft":7339,"Ġairport":7340,"Ġ1964":7341,"Ġeighty":7342,"mma":7343,"ĠCoast":7344,"garet":7345,"Ġtools":7346,"Ġstole":7347,"ĠAT":7348,"ĠTim":7349,"ĠWater":7350,"Ġvent":7351,"enses":7352,"Ġtalks":7353,"ddie":7354,"Ġmerchant":7355,"rogen":7356,"Ġwoods":7357,"Ġpleasant":7358,"Ġpotential":7359,"Ġinjury":7360,"Ġrecommend":7361,"99":7362,"wich":7363,"orial":7364,"ĠAny":7365,"ĠRich":7366,"ĠNether":7367,"ĠEs":7368,"ĠVice":7369,"ĠIntern":7370,"aws":7371,"Ġcollea":7372,"ĠAtt":7373,"Ġrecording":7374,"Ġclosely":7375,"Ġstronger":7376,"ĠSwitzerland":7377,"Ġapplication":7378,"Ġindependence":7379,"Ġswimming":7380,"Ġinstructions":7381,"Ġwebsite":7382,"mes":7383,"occ":7384,"rot":7385,"Ġticket":7386,"Ġyard":7387,"unior":7388,"Ġ\"\"":7389,"ĠOffic":7390,"Ġcomposed":7391,"Ġeditor":7392,"Ġ1978":7393,"ĠGermans":7394,"Ġpainted":7395,"Ġcommunication":7396,"Ġbuddy":7397,"Sim":7398,"note":7399,"Â°":7400,"onne":7401,"Ġchampion":7402,"Ġfolks":7403,"ĠAdd":7404,"ĠCub":7405,"Ġtrains":7406,"Ġphr":7407,"Ġbadly":7408,"apped":7409,"door":7410,"Ġopera":7411,"Ġoperating":7412,"Ġexciting":7413,"Ġadvanced":7414,"Ġstatistics":7415,"ĠTurk":7416,"Je":7417,"Run":7418,"Whe":7419,"hai":7420,"Ġtoys":7421,"ĠIda":7422,"alo":7423,"Ġrear":7424,"ĠMonday":7425,"ĠFIFA":7426,"venue":7427,"gging":7428,"ĠArch":7429,"Ġdrag":7430,"ipping":7431,"Ġcooking":7432,"Ġperman":7433,"Ġlonely":7434,"Ġatmosphere":7435,"37":7436,"mouth":7437,"Ġtear":7438,"Ġok":7439,"Ġpale":7440,"arl":7441,"irus":7442,"ĠMid":7443,"ĠDam":7444,"Ġspr":7445,"thew":7446,"Ġcommit":7447,"ĠChris":7448,"onto":7449,"Ġ500":7450,"Ġ1983":7451,"ropol":7452,"Ġexplan":7453,"Ġdefin":7454,"ĠMissouri":7455,"Ġruled":7456,"Ġphotograph":7457,"Ġidentity":7458,"Ġobserved":7459,"ĠTurkey":7460,"Ġenvironmental":7461,"ĠAssy":7462,"BA":7463,"Ill":7464,"pass":7465,"encies":7466,"allel":7467,"ĠHas":7468,"class":7469,"into":7470,"Ġsyn":7471,"ĠAlthough":7472,"Ġdecor":7473,"chester":7474,"Ġburning":7475,"glas":7476,"ĠFrancisco":7477,"quarters":7478,"bage":7479,"iac":7480,"Ġmile":7481,"Ġdumb":7482,"asters":7483,"achel":7484,"ĠRoss":7485,"ĠNight":7486,"Ġapply":7487,"Ġregret":7488,"Ġcenturies":7489,"bsolutely":7490,"Ġillust":7491,"Ġtracks":7492,"ĠJean":7493,"Ġadopted":7494,"Fin":7495,"Ġcert":7496,"otte":7497,"oof":7498,"ĠAy":7499,"haniel":7500,"Ġbutt":7501,"Ġvision":7502,"weight":7503,"ova":7504,"Ġcrash":7505,"ilding":7506,"Ġedition":7507,"ĠSteve":7508,"Ġsucceeded":7509,"ĠJacob":7510,"Ġrestaurant":7511,"Rob":7512,"Yep":7513,"bits":7514,"Ġtub":7515,"Ġpuzz":7516,"omy":7517,"Ġmeal":7518,"geon":7519,"itty":7520,"Ġ36":7521,"Ġ184":7522,"Ġfactory":7523,"Ġ1973":7524,"Ġreflect":7525,"Ġequipment":7526,"Ġengineering":7527,"Ġapplied":7528,"Ġmethods":7529,"Ġcycle":7530,"Ġfrightened":7531,"ĠSidney":7532,"uy":7533,"wait":7534,"Ġfans":7535,"Ġreference":7536,"Ġstab":7537,"Ġanger":7538,"ĠBattle":7539,"ĠBudd":7540,"Ġath":7541,"uls":7542,"Ġdevice":7543,"osis":7544,"ĠLuc":7545,"Ġkeys":7546,"Ġdesert":7547,"Ġending":7548,"Ġincome":7549,"Ġ1975":7550,"Ġ1930":7551,"Î¿u":7552,"Ġridiculous":7553,"Ġromantic":7554,"ĠGeorgia":7555,"Both":7556,"cut":7557,"Ġbon":7558,"Ġdump":7559,"Ġnick":7560,"Ġbeating":7561,"ĠBank":7562,"ĠGrey":7563,"Ġprovin":7564,"ĠGuard":7565,"Ġvolume":7566,"Ġexamples":7567,"Ġmoral":7568,"Ġconduct":7569,"Ġbabies":7570,"Henry":7571,"every":7572,"Ġfart":7573,"organ":7574,"verted":7575,"irs":7576,"ĠHolly":7577,"ĠBab":7578,"ĠTest":7579,"Ġsufficient":7580,"Ġven":7581,"agger":7582,"Ġtrained":7583,"Ġspo":7584,"ensions":7585,"Ġcovers":7586,"Ġcris":7587,"Ġacceler":7588,"Ġvisited":7589,"Ġconfused":7590,"Ġannual":7591,"Ġvictims":7592,"ĠBangl":7593,"Ġdiscipl":7594,"ĠAisne":7595,"great":7596,"lers":7597,"obe":7598,"Ġtorn":7599,"rete":7600,"Ġwo":7601,"Ġbul":7602,"ĠAD":7603,"ĠBush":7604,"ĠTang":7605,"Ġjealous":7606,"never":7607,"Ġoverall":7608,"Ġflash":7609,"Ġputs":7610,"ĠAlso":7611,"Ġ1974":7612,"Ġ1969":7613,"Ġsending":7614,"ĠElizabeth":7615,"Ġclaimed":7616,"Ġinitial":7617,"Ġunusual":7618,"Ma":7619,"inent":7620,"lets":7621,"Ġreject":7622,"ifying":7623,"ĠTa":7624,"unting":7625,"Ġconsult":7626,"oked":7627,"Ġincident":7628,"Ġfactor":7629,"Ġskills":7630,"Ġexpert":7631,"ĠManip":7632,"ursday":7633,"ĠSergeant":7634,"Ġindustrial":7635,"Ġshopping":7636,"Ġfleet":7637,"Ġrevealed":7638,"Ġscholars":7639,"Ġsymptoms":7640,"Foot":7641,"Ġtooth":7642,"athered":7643,"Ġlung":7644,"Ġreward":7645,"Ġgoals":7646,"ĠOver":7647,"Ġincor":7648,"Ġ1940":7649,"Ġcreation":7650,"Ġdefeat":7651,"Ġseparated":7652,"Ġmathemat":7653,"Ge":7654,"Mad":7655,"bal":7656,"gie":7657,"non":7658,"sen":7659,"than":7660,"uing":7661,"uable":7662,"Ġwand":7663,"Ġsan":7664,"Ġpushed":7665,"ĠTer":7666,"ĠLieutenant":7667,"ĠKat":7668,"ĠVal":7669,"Ġremaining":7670,"Ġimpress":7671,"attles":7672,"Ġinterests":7673,"Ġholds":7674,"Ġaircraft":7675,"coming":7676,"Ġauthorities":7677,"Ġmassive":7678,"Ġpermission":7679,"Ġregarded":7680,"hin":7681,"ycl":7682,"Ġ/":7683,"athan":7684,"ĠSub":7685,"ĠBow":7686,"ĠPers":7687,"ĠTem":7688,"ĠLand":7689,"Ġwanting":7690,"Ġsecure":7691,"Ġcricket":7692,"hamed":7693,"Ġregions":7694,"Ġentrance":7695,"Ġassume":7696,"ĠAnother":7697,"Ġmilit":7698,"Ġopposed":7699,"ĠAdam":7700,"Ġdifficulty":7701,"Ġdepth":7702,"Ġdawn":7703,"ĠPhilipp":7704,"Ġsurrounded":7705,"ĠDisney":7706,"Ġmobile":7707,"Ġcurious":7708,"respond":7709,"Ġapproximately":7710,"31":7711,"IL":7712,"Mon":7713,"kh":7714,"Å¡":7715,"Ġpension":7716,"aro":7717,"Ġnort":7718,"stal":7719,"ĠBBC":7720,"ĠLib":7721,"ĠNob":7722,"ĠVan":7723,"ĠInc":7724,"Ġcharged":7725,"Ġinterrupt":7726,"Ġdriven":7727,"Ġ1972":7728,"Ġprovides":7729,"Ġcontrovers":7730,"ĠAbout":7731,"maybe":7732,"ĠOffice":7733,"intendo":7734,"à¦":7735,"Ġtalent":7736,"ouch":7737,"Ġcore":7738,"Ġgained":7739,"utation":7740,"ĠCont":7741,"ĠHol":7742,"ieur":7743,"Ġshift":7744,"oster":7745,"Ġgrade":7746,"Ġdesk":7747,"fecture":7748,"ounce":7749,"ONE":7750,"Ġclothing":7751,"Ġfortune":7752,"ĠKorean":7753,"Ġbalance":7754,"oogle":7755,"Five":7756,"Ġfo":7757,"Ġped":7758,"Ġdoctors":7759,"ĠGreg":7760,"Ġsoci":7761,"akers":7762,"Ġspite":7763,"Ġrode":7764,"Ġdeserve":7765,"ibi":7766,"ĠNews":7767,"Ġsubsequ":7768,"Ġimpression":7769,"ĠCla":7770,"engers":7771,"Ġmurdered":7772,"Ġlaunch":7773,"ĠMcC":7774,"evin":7775,"Ġjumped":7776,"Ġsources":7777,"ĠGreece":7778,"Ġvehicle":7779,"UM":7780,"fly":7781,"fire":7782,"lies":7783,"Ġing":7784,"Ġwaves":7785,"orage":7786,"Ġgor":7787,"ented":7788,"sters":7789,"stance":7790,"ador":7791,"ĠCro":7792,"Ġseed":7793,"eline":7794,"ateful":7795,"owned":7796,"Ġacts":7797,"Ġmargin":7798,"Ġboom":7799,"Ġinstant":7800,"Ġsitu":7801,"Ġmusician":7802,"Ġladder":7803,"Ġburst":7804,"Ġaffected":7805,"Ġadministr":7806,"Ġpregnant":7807,"Ġgrey":7808,"apore":7809,"hings":7810,"Ġacted":7811,"onsense":7812,"Ġrelation":7813,"plement":7814,"Ġbits":7815,"ĠIndians":7816,"Ġ1968":7817,"Ġdemocr":7818,"rayed":7819,"Ġobjects":7820,"Ġmirror":7821,"Saint":7822,"iture":7823,"Ġreign":7824,"ĠAp":7825,"Ġactions":7826,"avan":7827,"clusion":7828,"Ġstudying":7829,"Ġassign":7830,"Ġcapable":7831,"Ġpossibility":7832,"Ġoccas":7833,"Ġchecked":7834,"ĠDanny":7835,"Ġiniti":7836,"Ġgoddess":7837,"ĠDirector":7838,"ĠStephen":7839,"ifferent":7840,"FC":7841,"case":7842,"Ġbrilliant":7843,"Ġcats":7844,"Ġyo":7845,"Ġrein":7846,"ĠHong":7847,"ĠBalt":7848,"andie":7849,"ĠDi":7850,"hoot":7851,"upon":7852,"azed":7853,"Ġlisted":7854,"Ġleads":7855,"Ġhorror":7856,"ennes":7857,"Ġviews":7858,"Ġgrav":7859,"chers":7860,"Ġliterally":7861,"Ġwidely":7862,"Ġrevenge":7863,"ducation":7864,"Show":7865,"Ten":7866,"take":7867,"Ġbones":7868,"etime":7869,"Ġrefe":7870,"ĠCD":7871,"ĠBook":7872,"Ġrings":7873,"ĠEric":7874,"Ġboats":7875,"ĠAlice":7876,"Ġdrinks":7877,"Ġ1945":7878,"Ġvideos":7879,"ĠSystem":7880,"Ġearthqu":7881,"Ġbenefits":7882,"Ġdistricts":7883,"elphia":7884,"Ġsacred":7885,"Ġceremony":7886,"Ġescaped":7887,"Cong":7888,"NO":7889,"first":7890,"vo":7891,"Ġwra":7892,"Ġstress":7893,"Ġknocked":7894,"ĠRyan":7895,"ĠNan":7896,"emet":7897,"ĠJill":7898,"Ġguarant":7899,"Ġelephant":7900,"Ġconsists":7901,"Ġstranger":7902,"Ġissued":7903,"Ġpractical":7904,"IST":7905,"Ġcultural":7906,"Ġreduced":7907,"Ġwaters":7908,"Grand":7909,"Ġsuffer":7910,"Ġinhabitants":7911,"little":7912,"mic":7913,"Ġben":7914,"Ġment":7915,"Ġfuel":7916,"ete":7917,"ĠSon":7918,"ĠSab":7919,"adelphia":7920,"Ġstolen":7921,"earch":7922,"Ġuns":7923,"aughters":7924,"Ġprogramme":7925,"aska":7926,"Ġcops":7927,"Ġinvestment":7928,"Ġindividuals":7929,"Ġcapture":7930,"Ġdebt":7931,"Ġgraduated":7932,"Ġtypical":7933,"Ġpilot":7934,"bb":7935,"uv":7936,"Ġtip":7937,"eable":7938,"ĠTop":7939,"ulse":7940,"Ġneut":7941,"umble":7942,"ĠNintendo":7943,"Ġprofit":7944,"ĠEle":7945,"aks":7946,"Ġmonster":7947,"Ġ150":7948,"Ġdelivered":7949,"Ġroads":7950,"hampionships":7951,"Ġnecessarily":7952,"Ġblocks":7953,"ĠTaiwan":7954,"Ġastron":7955,"Normandie":7956,"NE":7957,"Robert":7958,"Time":7959,"bach":7960,"Ġwire":7961,"Ġcrap":7962,"ĠIra":7963,"Ġeager":7964,"abs":7965,"Ġarts":7966,"ATOR":7967,"Ġtemple":7968,"Ġcopies":7969,"Ġvert":7970,"Ġcombined":7971,"Ġhoped":7972,"Ġadministration":7973,"ĠVictoria":7974,"Ġneighborhood":7975,"Mus":7976,"kind":7977,"name":7978,"vior":7979,"Ġtale":7980,"Ġsought":7981,"Ġfasc":7982,"Ġfestival":7983,"enly":7984,"esome":7985,"ompl":7986,"rix":7987,"ĠAk":7988,"ĠMah":7989,"urg":7990,"una":7991,"Ġrush":7992,"ĠDav":7993,"ĠOliver":7994,"ousing":7995,"orders":7996,"Ġowners":7997,"Ġregional":7998,"Ġswall":7999,"ounced":8000,"Ġpassage":8001,"ĠAsh":8002,"Ġequation":8003,"Ġshortly":8004,"arring":8005,"Ġvoices":8006,"III":8007,"ĠColonel":8008,"Ġmachines":8009,"Ġtender":8010,"ĠBasse":8011,"ĠNetherlands":8012,"Little":8013,"Peter":8014,"Sw":8015,"could":8016,"dog":8017,"gust":8018,"pol":8019,"uer":8020,"zy":8021,"Ġmart":8022,"Ġfed":8023,"Ġtomb":8024,"Ġpants":8025,"Ġloyal":8026,"oti":8027,"Ġitems":8028,"irmed":8029,"ilton":8030,"ĠWalk":8031,"iami":8032,"Ġconfidence":8033,"Ġtrem":8034,"Ġversions":8035,"ĠJustice":8036,"Ġprincipal":8037,"ĠRadio":8038,"ĠColumbia":8039,"Ġtoilet":8040,"33":8041,"BO":8042,"HL":8043,"fin":8044,"ygen":8045,"Ġbom":8046,"Ġmama":8047,"esse":8048,"ati":8049,"Ġsplend":8050,"Ġguests":8051,"Ġremove":8052,"Doctor":8053,"Ġaccompl":8054,"Ġmoments":8055,"Ġbreast":8056,"Ġ1963":8057,"Ġestim":8058,"Ġsnake":8059,"ĠRepresent":8060,"Ġfairy":8061,"Ġdevices":8062,"Ġverte":8063,"Ġprisoners":8064,"Ġpersons":8065,"ĠWilson":8066,"Ã³n":8067,"Ġstruggle":8068,"emetery":8069,"Co":8070,"Int":8071,"RY":8072,"Ġpupp":8073,"kel":8074,"ĠBus":8075,"Ġconclud":8076,"Ġexha":8077,"Ġours":8078,"derer":8079,"Step":8080,"Ġpersonally":8081,"rows":8082,"Somebody":8083,"Ġfigured":8084,"Ġbowl":8085,"nesday":8086,"ĠChannel":8087,"ĠSingapore":8088,"Ġsatisfied":8089,"ĠAdmiral":8090,"Ġshadow":8091,"bra":8092,"cus":8093,"iency":8094,"net":8095,"tell":8096,"Ġmud":8097,"Ġmamm":8098,"Ġinfect":8099,"Ġnaked":8100,"ĠSC":8101,"ĠTok":8102,"unts":8103,"Ġrising":8104,"Ġjew":8105,"ĠRon":8106,"Ġrope":8107,"Ġprote":8108,"Ġimplement":8109,"Ġscenes":8110,"Ġpersonality":8111,"Ġdiscovery":8112,"Ġparish":8113,"Ġmarks":8114,"Ġbesides":8115,"ĠRailway":8116,"Ġmaiden":8117,"Ġgranted":8118,"ĠSweden":8119,"Jo":8120,"made":8121,"oard":8122,"Â´":8123,"ãĥ":8124,"ĠCho":8125,"ĠBrian":8126,"Ġvast":8127,"ĠOs":8128,"Ġcontext":8129,"Ġslide":8130,"Ġsurgery":8131,"Ġstrate":8132,"Ġinsult":8133,"Ġcontrolled":8134,"Ġ1947":8135,"Ġorganized":8136,"Ġdiscussion":8137,"Ġbranches":8138,"ĠMetro":8139,"Ġpollution":8140,"Ġnuclear":8141,"Pres":8142,"bro":8143,"Ġaid":8144,"itched":8145,"Ġbike":8146,"asha":8147,"ĠSP":8148,"ĠScience":8149,"ooh":8150,"ctive":8151,"Ġknees":8152,"Ġrice":8153,"ĠGre":8154,"Were":8155,"ĠArts":8156,"Ġextended":8157,"Ġhearts":8158,"uesday":8159,"Ġexplore":8160,"Ġbedroom":8161,"ĠSenator":8162,"ĠAlexander":8163,"Ġbegun":8164,"Ġdemonstr":8165,"ĠWalter":8166,"Ġliquid":8167,"Ġanswers":8168,"Ġarranged":8169,"Aye":8170,"Alex":8171,"Bel":8172,"CT":8173,"bird":8174,"ui":8175,"vor":8176,"itter":8177,"Ġchampionship":8178,"eness":8179,"Ġtoast":8180,"Ġnurse":8181,"ĠCop":8182,"ĠCape":8183,"Ġjury":8184,"uda":8185,"inton":8186,"Ġshoulders":8187,"Ġsmiled":8188,"Ġ300":8189,"Ġchildhood":8190,"ĠArk":8191,"ĠArgent":8192,"Stand":8193,"Ġbitter":8194,"Ġphotos":8195,"Ġideal":8196,"Ġemotions":8197,"Ġintellect":8198,"Ġalternative":8199,"Ġstrategy":8200,"Ben":8201,"EM":8202,"OH":8203,"pent":8204,"pop":8205,"sl":8206,"erted":8207,"Ġpiss":8208,"ombe":8209,"usive":8210,"ĠSure":8211,"uled":8212,"ĠWhe":8213,"Ġ1920":8214,"Ġunlike":8215,"Ġteen":8216,"Ġglobal":8217,"Ġmeters":8218,"ĠConference":8219,"Ġelections":8220,"ĠChair":8221,"Ġkissed":8222,"Ġreduce":8223,"Ġanaly":8224,"Ġcomposer":8225,"ĠPicard":8226,"wind":8227,"Ġtries":8228,"Ġsoup":8229,"Ġfond":8230,"atures":8231,"Ġlately":8232,"Ġhockey":8233,"urches":8234,"ĠHay":8235,"thony":8236,"ĠNi":8237,"Ġnoble":8238,"Ġerror":8239,"ĠBridge":8240,"Ġinspired":8241,"Ġalongside":8242,"Ġ1944":8243,"ĠYOUR":8244,"aura":8245,"Ġmaximum":8246,"ĠDouglas":8247,"Ġabandoned":8248,"Talk":8249,"mail":8250,"erable":8251,"Ġpour":8252,"ĠCorn":8253,"ĠPen":8254,"olves":8255,"ĠWE":8256,"ĠDie":8257,"ĠGer":8258,"ĠLl":8259,"rak":8260,"Its":8261,"udge":8262,"Ġspons":8263,"ĠStuart":8264,"Ġcontem":8265,"ĠBrand":8266,"Ġdrives":8267,"Ġtransform":8268,"Ġreturning":8269,"ĠShah":8270,"Ġillness":8271,"suit":8272,"Ġexecutive":8273,"ĠErasmus":8274,"Ġemotional":8275,"Ġdespite":8276,"Ġarchitect":8277,"Ġmerely":8278,"Ġdomestic":8279,"Ġcandidate":8280,"95":8281,"BI":8282,"Besides":8283,"PP":8284,"Ã±":8285,"Ġwars":8286,"haw":8287,"Ġchamber":8288,"Ġgathered":8289,"Ġforb":8290,"ĠChi":8291,"ĠMD":8292,"ĠMaine":8293,"ĠRod":8294,"ĠNever":8295,"ĠOtt":8296,"ĠStation":8297,"Ġletting":8298,"Ġ37":8299,"Ġlistened":8300,"Ġminds":8301,"Ġpromoted":8302,"Ġ1967":8303,"Ġparliament":8304,"ĠAustria":8305,"Ġannoy":8306,"Probably":8307,"Ġelder":8308,"Until":8309,"Yo":8310,"po":8311,"rons":8312,"Ġcraw":8313,"aned":8314,"anks":8315,"Ġpeak":8316,"Ġlt":8317,"imb":8318,"ifts":8319,"ĠBad":8320,"through":8321,"ĠEve":8322,"ersonal":8323,"Ġaccur":8324,"Ġ1977":8325,"Ġ1965":8326,"Ġdiagn":8327,"Ġarchitecture":8328,"ĠMuhammad":8329,"ĠProtest":8330,"Ġpunishment":8331,"Bring":8332,"Follow":8333,"pite":8334,"Ġtack":8335,"Ġmal":8336,"Ġfab":8337,"Ġtoy":8338,"Ġyards":8339,"Ġnuts":8340,"ĠFire":8341,"aph":8342,"omething":8343,"Ġimages":8344,"Ġunderground":8345,"onsieur":8346,"Ġscored":8347,"Ġpositions":8348,"Ġoperated":8349,"Ġattacks":8350,"Ġvillages":8351,"Ġdepos":8352,"Ġclubs":8353,"Trans":8354,"Ġquietly":8355,"Ġsacrif":8356,"ĠBetty":8357,"ĠIdaho":8358,"Har":8359,"King":8360,"Six":8361,"anes":8362,"Ġgri":8363,"Ġrug":8364,"arts":8365,"ĠNet":8366,"iao":8367,"Ġhousehold":8368,"otted":8369,"Ġchart":8370,"Ġassault":8371,"Ġstrateg":8372,"ĠHoward":8373,"Ġparallel":8374,"Ġprofession":8375,"ratulations":8376,"Ġjacket":8377,"47":8378,"gers":8379,"woman":8380,"Ġfoss":8381,"atically":8382,"Ġhills":8383,"Ġthread":8384,"stan":8385,"ĠCroat":8386,"ifer":8387,"ĠHE":8388,"Ġatom":8389,"ules":8390,"ĠFord":8391,"ĠOw":8392,"Ġagents":8393,"oyd":8394,"Ġappropriate":8395,"ĠAssembly":8396,"Ġstepped":8397,"Ġcutting":8398,"ĠAbd":8399,"Ġcritics":8400,"phas":8401,"ĠPalace":8402,"Ġelectricity":8403,"Ġvotes":8404,"Super":8405,"Dear":8406,"General":8407,"lad":8408,"nor":8409,"oni":8410,"Ġfulf":8411,"ĠGa":8412,"igs":8413,"Ġthrone":8414,"Ġcommander":8415,"Ġsmiling":8416,"Ġwarning":8417,"Ġmeetings":8418,"Goodbye":8419,"amental":8420,"uki":8421,"Ġexisting":8422,"Ġsailed":8423,"Ġchairman":8424,"Ġintroduce":8425,"Ġspiritual":8426,"Ġheavily":8427,"Ġexplanation":8428,"Bill":8429,"cia":8430,"tan":8431,"Ġoption":8432,"Ġcooper":8433,"ednesday":8434,"icia":8435,"Ġhunt":8436,"Ġwashed":8437,"roid":8438,"irts":8439,"ordinary":8440,"velope":8441,"Ġrelief":8442,"ĠAnna":8443,"prise":8444,"Ġpurs":8445,"Ġreplace":8446,"Ġdollar":8447,"Ġphysics":8448,"ĠSarah":8449,"Ġpersu":8450,"Ġepisodes":8451,"Ġbehavior":8452,"Ġconstitution":8453,"ĠRoger":8454,"Ġcapacity":8455,"Absolutely":8456,"tes":8457,"uate":8458,"itled":8459,"Ġphen":8460,"Ġpump":8461,"Ġstim":8462,"Ġstairs":8463,"illing":8464,"Ġselect":8465,"osc":8466,"odge":8467,"people":8468,"icking":8469,"Ġheaded":8470,"pective":8471,"Ġdefense":8472,"Ġ1941":8473,"ĠCommander":8474,"Ġexpecting":8475,"Ġengineer":8476,"Ġvolunte":8477,"ĠMexican":8478,"ĠToronto":8479,"SPEAK":8480,"Ġdramatic":8481,"\"...":8482,"Hang":8483,"None":8484,"NARR":8485,"cried":8486,"Ġwashing":8487,"ĠCir":8488,"Ġkitt":8489,"Ġashamed":8490,"ĠBC":8491,"Ġalpha":8492,"ĠJay":8493,"asted":8494,"ciences":8495,"hedral":8496,"Ġcompar":8497,"Ġsets":8498,"ĠMargaret":8499,"ĠReally":8500,"OULD":8501,"ĠSocial":8502,"Ġalbums":8503,"Ġcrossing":8504,"ĠEmily":8505,"ĠNothing":8506,"Ġviolent":8507,"Daddy":8508,"Ġfrequently":8509,"Ġoxygen":8510,"ĠHonor":8511,"Ġexpedition":8512,"Find":8513,"Mary":8514,"Par":8515,"know":8516,"Ġdaughters":8517,"Ġinse":8518,"Ġefficient":8519,"lyne":8520,"ĠHAVE":8521,"ĠTan":8522,"Ġadding":8523,"Ġtreasure":8524,"Ġmessages":8525,"Ġdescription":8526,"Ġprojects":8527,"Ġpresidential":8528,"Ġsubjects":8529,"ĠPhiladelphia":8530,"Ġexperiences":8531,"George":8532,"NARRATOR":8533,"BY":8534,"Ken":8535,"mont":8536,"yard":8537,"Ġdow":8538,"eters":8539,"stru":8540,"Ġseats":8541,"ĠHit":8542,"ĠTake":8543,"agers":8544,"Ġcoordin":8545,"INE":8546,"ĠThus":8547,"Ġcolumn":8548,"ĠCentre":8549,"LAUS":8550,"Ġidentified":8551,"Black":8552,"Ġbaseball":8553,"Ġpirate":8554,"hello":8555,"Ġconvinced":8556,"48":8557,"Ow":8558,"gs":8559,"gic":8560,"Ġcod":8561,"Ġtool":8562,"usa":8563,"unes":8564,"Ġgrateful":8565,"Ġpartly":8566,"issa":8567,"Ġprecious":8568,"Ġdistingu":8569,"ĠIndones":8570,"Ġlesson":8571,"odecahedron":8572,"Without":8573,"Ġservant":8574,"William":8575,"Twenty":8576,"Footnote":8577,"ĠPicardie":8578,".&":8579,"Es":8580,"Hon":8581,"SH":8582,"Sy":8583,"oons":8584,"rin":8585,"Ġsam":8586,"onies":8587,"Ġdating":8588,"acher":8589,"ĠBible":8590,"uns":8591,"ĠWel":8592,"Ġneat":8593,"ĠDNA":8594,"abel":8595,"Ġgray":8596,"Ġpron":8597,"Ġcontained":8598,"ĠThursday":8599,"Ġsooner":8600,"Ġhated":8601,"Ġcorrespond":8602,"Ġdelicious":8603,"aughing":8604,"Ġmurderer":8605,"Ġproperties":8606,"Ġrailroad":8607,"ĠCorpor":8608,"Ġprepare":8609,"Ġaffair":8610,"Ġdocuments":8611,"Ġvacc":8612,"Ġillegal":8613,"Each":8614,"even":8615,"hus":8616,"rim":8617,"Ġcattle":8618,"lly":8619,"omed":8620,"oty":8621,"ĠBha":8622,"Ġworn":8623,"been":8624,"Ġdifferences":8625,"Ġformat":8626,"Ġcollabor":8627,"ĠJohnny":8628,"Ġreputation":8629,"Ġsites":8630,"Ġpicking":8631,"ĠLeon":8632,"Ġallowing":8633,"Ġabsor":8634,"Ġabsolute":8635,"ĠAirport":8636,"smith":8637,"Ġtelephone":8638,"Ġadults":8639,"Ġmystery":8640,"ĠDawson":8641,"dney":8642,"rison":8643,"Ġfaced":8644,"acc":8645,"Ġnotable":8646,"ĠBand":8647,"Ġrabbit":8648,"ĠLiber":8649,"iga":8650,"ema":8651,"Ġnowhere":8652,"hens":8653,"Ġsmooth":8654,"Ġlanded":8655,"ĠAllen":8656,"Ġadvoc":8657,"Ġapproved":8658,"Ġtesting":8659,"Ġessentially":8660,"Ġexperienced":8661,"Phil":8662,"Rel":8663,"pur":8664,"Ġwicked":8665,"ori":8666,"Ġpant":8667,"Ġthir":8668,"Ġash":8669,"Ġasks":8670,"cho":8671,"ĠFair":8672,"Ġprosec":8673,"agne":8674,"Ġenorm":8675,"ixon":8676,"fulness":8677,"Ġ48":8678,"Ġcausing":8679,"Ġextend":8680,"ARD":8681,"Ġfriendship":8682,"Ġnaturally":8683,"ĠTeam":8684,"Ġcollected":8685,"bourne":8686,"Ġinitially":8687,"ĠHawai":8688,"ĠSanta":8689,"Ġlatest":8690,"Want":8691,"rum":8692,"uji":8693,"Ġtheatre":8694,"Ġfer":8695,"Ġhits":8696,"Ġbeings":8697,"riel":8698,"Ġstable":8699,"Ġstones":8700,"ĠBilly":8701,"ĠPower":8702,"oli":8703,"ĠWas":8704,"ĠWAS":8705,"rying":8706,"pei":8707,"Ġtwin":8708,"Ġinvasion":8709,"Ġstops":8710,"Ġoblig":8711,"Ġprobability":8712,"Ġpurple":8713,"Ġadmitted":8714,"Ġdipl":8715,"Ġstarred":8716,"Ġprinciple":8717,"Ġpossession":8718,"Ġprecise":8719,"LRB":8720,"Yet":8721,"div":8722,"fa":8723,"lims":8724,"pack":8725,"pool":8726,"heme":8727,"isk":8728,"orious":8729,"enote":8730,"attered":8731,"ĠSin":8732,"outs":8733,"outheast":8734,"alling":8735,"ĠHard":8736,"opher":8737,"eaut":8738,"ĠPublic":8739,"ĠGib":8740,"istol":8741,"udes":8742,"Ġages":8743,"Ġspoon":8744,"Ġbrid":8745,"gines":8746,"Ġcourts":8747,"Ġpasses":8748,"Ġlargely":8749,"Ġpulling":8750,"Ġbreathing":8751,"Ġpurposes":8752,"ĠSimon":8753,"Ġsustain":8754,"RRB":8755,"die":8756,"Ġtank":8757,"Ġooh":8758,"Ġpipe":8759,"sea":8760,"...!":8761,"Ġchrist":8762,"Ġcharges":8763,"Ġsingles":8764,"Ġextent":8765,"Ġequival":8766,"Ġdefined":8767,"chae":8768,"Ġappointment":8769,"ĠCampbell":8770,"Sidenote":8771,"ĠBruce":8772,"Brit":8773,"laughter":8774,"Ġtropical":8775,"Ġbone":8776,"oration":8777,"Ġlover":8778,"Ġnit":8779,"icians":8780,"Ġthorough":8781,"ĠCy":8782,"ĠHospital":8783,"ĠPop":8784,"ĠFC":8785,"Ġnewly":8786,"Ġformal":8787,"ĠDeath":8788,"Ġmodels":8789,"ĠBeat":8790,"Ġamongst":8791,"ĠDaddy":8792,"Doesn":8793,"Ġdedicated":8794,"ennessee":8795,"Lou":8796,"Long":8797,"Mc":8798,"Part":8799,"zing":8800,"Ã£":8801,"Ã§":8802,"Ġwow":8803,"orig":8804,"aser":8805,"ĠSk":8806,"rive":8807,"ĠAS":8808,"ĠMY":8809,"Ġsheet":8810,"ĠOper":8811,"ĠUP":8812,"arks":8813,"Ġattached":8814,"Ġheadquarters":8815,"ibilities":8816,"Ġvaluable":8817,"Ġbeaten":8818,"Ġclaims":8819,"Ġbanks":8820,"Ġthreatened":8821,"ĠOlympic":8822,"Ġinternal":8823,"keeper":8824,"Ġlicense":8825,"Ġrenamed":8826,"ĠMiller":8827,"75":8828,"Aren":8829,"Ass":8830,"ture":8831,"walk":8832,"anne":8833,"Ġindu":8834,"icit":8835,"acles":8836,"ĠAg":8837,"ĠPost":8838,"ĠWork":8839,"Ġdece":8840,"ĠRa":8841,"Ġuser":8842,"ĠHealth":8843,"neath":8844,"Ġdownstairs":8845,"ĠVol":8846,"Ġadj":8847,"teenth":8848,"ocks":8849,"Ġentry":8850,"ologists":8851,"Ġrestrict":8852,"Ġhurts":8853,"Ġportion":8854,"UST":8855,"Ġstores":8856,"ĠGolden":8857,"Ġrepeat":8858,"ĠBrook":8859,"Ġslipped":8860,"Ġexercise":8861,"ĠIraq":8862,"42":8863,"Mum":8864,"Mike":8865,"Pardon":8866,"bus":8867,"ĠÄ":8868,"iner":8869,"Ġwing":8870,"Ġsink":8871,"isen":8872,"Ġfir":8873,"Ġthief":8874,"ammy":8875,"ithm":8876,"ĠMiami":8877,"ĠHart":8878,"ĠGoogle":8879,"ĠFederal":8880,"Ġuseless":8881,"ĠEv":8882,"aga":8883,"Ġagency":8884,"ĠĠĠ":8885,"Ġpride":8886,"Ġwherever":8887,"Ġyoungest":8888,"shit":8889,"Ġdeveloping":8890,"Ġclassic":8891,"Ġawake":8892,"Ġstrongly":8893,"idae":8894,"Ġgenus":8895,"change":8896,"Ġtaxes":8897,"ĠRobin":8898,"43":8899,"49":8900,"Ġdomin":8901,"state":8902,"urrent":8903,"emon":8904,"Ġvul":8905,"Ġgrace":8906,"ĠYug":8907,"retty":8908,"Ġstandards":8909,"Ġ1954":8910,"ĠMinistry":8911,"Ġcleaning":8912,"Ġtechnical":8913,"Ġspirits":8914,"Ġjournalist":8915,"Ġrelatively":8916,"ĠHarrison":8917,"Ġrescue":8918,"ĠFreud":8919,"ĠInternet":8920,"Must":8921,"cular":8922,"ders":8923,"iro":8924,"phan":8925,"anet":8926,"Ġdates":8927,"Ġnap":8928,"child":8929,"ĠBah":8930,"ĠToday":8931,"umps":8932,"ĠNa":8933,"Ġargue":8934,"Ġpeasant":8935,"ĠStone":8936,"Ġunhappy":8937,"Ġparad":8938,"ĠConne":8939,"Ġorganizations":8940,"Ġsuperior":8941,"Ġnegoti":8942,"Ġregarding":8943,"Ġblew":8944,"Ġaltogether":8945,"Ġmysterious":8946,"86":8947,"Comp":8948,"MS":8949,"Sub":8950,"equ":8951,"fle":8952,"ridge":8953,"uct":8954,"Ġwishes":8955,"nde":8956,"Ġfaint":8957,"Ġdea":8958,"Ġgal":8959,"Ġgross":8960,"Ġthrill":8961,"sell":8962,"ĠCole":8963,"Ġangel":8964,"Ġassociation":8965,"Ġseized":8966,"ĠPrem":8967,"ĠWait":8968,"uma":8969,"ĠRober":8970,"ensity":8971,"ucker":8972,"ternal":8973,"Ġleaf":8974,"Star":8975,"Ġ1966":8976,"Ġwondered":8977,"Ġsolo":8978,"Ready":8979,"Ġ1956":8980,"Ġconfident":8981,"Ġruined":8982,"Art":8983,"ĠRomania":8984,"Ġpolicies":8985,"Ġinjured":8986,"Ġprinted":8987,"Ġacquired":8988,"Ġlinear":8989,"Laughter":8990,"Pat":8991,"away":8992,"oa":8993,"ÅŁ":8994,"á½":8995,"Ġtheater":8996,"Ġfisher":8997,"Ġyield":8998,"Ġinch":8999,"Ġanch":9000,"estion":9001,"oslav":9002,"ĠNar":9003,"hibit":9004,"plane":9005,"Ġunconscious":9006,"Ġcarriage":9007,"rane":9008,"Station":9009,"Ġruin":9010,"Uncle":9011,"ĠPolish":9012,"ĠMuslim":9013,"Ġopportunities":9014,"Ġnewspapers":9015,"Ġresource":9016,"Ġpirates":9017,"Ġvessels":9018,"Ġfantastic":9019,"Ġdesperate":9020,"Ġphrase":9021,"ropolitan":9022,"Aw":9023,"Ahmad":9024,"CL":9025,"spe":9026,"inn":9027,"hah":9028,"iders":9029,"imore":9030,"ĠAld":9031,"Ġknight":9032,"eagan":9033,"ĠTuesday":9034,"Ġsoap":9035,"Ġupd":9036,"udi":9037,"Ġdisag":9038,"tainment":9039,"Ġgreatly":9040,"Ġchoo":9041,"Ġelimin":9042,"Ġrivers":9043,"Ġesc":9044,"Ġinvolve":9045,"Ġforests":9046,"Ġcells":9047,"Ġdebate":9048,"Better":9049,"Ġwrestling":9050,"Ġinvented":9051,"DO":9052,"VID":9053,"gro":9054,"such":9055,"wanna":9056,"Ġtube":9057,"Ġcotton":9058,"icing":9059,"irit":9060,"oore":9061,"herry":9062,"Ġselection":9063,"Ġgosh":9064,"ĠGordon":9065,"ĠRu":9066,"ĠFound":9067,"Ġprof":9068,"berry":9069,"ĠHead":9070,"Ġengines":9071,"Ġlasted":9072,"Ġopens":9073,"Ġmighty":9074,"Ġformation":9075,"Ġstrict":9076,"lessly":9077,"velopment":9078,"Ġfellows":9079,"Ġcompete":9080,"Ġcomputers":9081,"Ġangle":9082,"Ġsecretary":9083,"Ġdistribution":9084,"Ġadventure":9085,"Cr":9086,"rary":9087,"Ġcant":9088,"Ġlap":9089,"Ġnarr":9090,"ĠID":9091,"Ġbegged":9092,"ĠSuff":9093,"ĠPut":9094,"ĠTennessee":9095,"theless":9096,"ailed":9097,"Ġshower":9098,"Ġcrimes":9099,"Ġworldwide":9100,"Ġslip":9101,"Ġaccused":9102,"Ġemperor":9103,"Ġ1948":9104,"Ġconfirmed":9105,"Ġconcerns":9106,"Ġgrandfather":9107,"Ġgenius":9108,"Ġvacation":9109,"ACK":9110,"Ġemotion":9111,"Check":9112,"Ġplatforms":9113,"Ġoccupied":9114,"Ġtickets":9115,"Ġprovinces":9116,"41":9117,"Poor":9118,"char":9119,"epend":9120,"hum":9121,"press":9122,"race":9123,"Ġtiss":9124,"inations":9125,"inction":9126,"Ġfake":9127,"Ġduties":9128,"Ġbend":9129,"Ġreaching":9130,"oos":9131,"ĠAvenue":9132,"ĠMot":9133,"tery":9134,"ĠPoint":9135,"umph":9136,"Ġaboard":9137,"ĠLuther":9138,"ĠKan":9139,"ĠKings":9140,"Ġoffers":9141,"Ġoffering":9142,"Ġguide":9143,"Ġinches":9144,"Ġarticles":9145,"Ġhurricane":9146,"Ġ1961":9147,"Ġsquad":9148,"Ġ1942":9149,"Ġeighteen":9150,"Ġmerged":9151,"Ġarrive":9152,"Ġsurvived":9153,"ĠTolombe":9154,"Ġdefinition":9155,"ĠTolombeh":9156,"97":9157,"EF":9158,"NER":9159,"iper":9160,"ught":9161,"ãĤ":9162,"isp":9163,"Ġbot":9164,"Ġcub":9165,"orf":9166,"orous":9167,"adies":9168,"ĠMust":9169,"ĠBase":9170,"ĠFamily":9171,"Ġslave":9172,"ĠAlbert":9173,"iolet":9174,"sels":9175,"Forget":9176,"Ask":9177,"Ġ1952":9178,"ĠCharlie":9179,"Ġcompeted":9180,"Ġprivile":9181,"Ġservants":9182,"Ġhosted":9183,"Ġlieutenant":9184,"Ġthrowing":9185,"Ġseventh":9186,"ĠJews":9187,"Ġlifted":9188,"Ġapologize":9189,"Ġethnic":9190,"Ġincredible":9191,"Ġpermanent":9192,"ĠTokyo":9193,"eautiful":9194,"44":9195,"Red":9196,"master":9197,"Ġsample":9198,"Ġbold":9199,"Ġmath":9200,"Ġtoler":9201,"lete":9202,"ader":9203,"ĠAmb":9204,"ĠBishop":9205,"Ġric":9206,"Ġalgor":9207,"elson":9208,"Ġsaving":9209,"ĠOri":9210,"avig":9211,"Ġfounder":9212,"Ġheading":9213,"Ġregist":9214,"pected":9215,"Ġretreat":9216,"gedy":9217,"Ġmovements":9218,"Ġconstantly":9219,"Ġprimarily":9220,"Ġcelebrated":9221,"Ġbacter":9222,"Ġconstructed":9223,"Ġconcrete":9224,"Ġnearer":9225,"Ġphase":9226,"ĠHollywood":9227,"**":9228,"IG":9229,"din":9230,"gas":9231,"Ġawards":9232,"Ġwreck":9233,"Ġsou":9234,"isy":9235,"Ġobey":9236,"Ġlob":9237,"ĠHo":9238,"ĠTell":9239,"ulating":9240,"Ġjam":9241,"ĠGen":9242,"ĠRo":9243,"Ġshoe":9244,"Ġconven":9245,"ĠNations":9246,"Ġvain":9247,"ĠOur":9248,"ĠKal":9249,"Ġintense":9250,"Ġwrites":9251,"iped":9252,"Ġlongest":9253,"Ġ33":9254,"Ġexpressed":9255,"Mmm":9256,"Ġ1962":9257,"Ġclassical":9258,"Ġdivide":9259,"ĠAusten":9260,"Ġbags":9261,"Ġidentify":9262,"Ġholes":9263,"ĠMountain":9264,"Ġmemories":9265,"ĠÂ£":9266,"Ġrapidly":9267,"Honey":9268,"Res":9269,"whe":9270,"isbon":9271,"itals":9272,"Ġbent":9273,"Ġbars":9274,"Ġfrank":9275,"Ġfiction":9276,"Ġdoo":9277,"omer":9278,"Ġnic":9279,"Ġreb":9280,"uration":9281,"ĠPLA":9282,"ĠWars":9283,"ĠLes":9284,"igen":9285,"agle":9286,"Ġtrunk":9287,"urname":9288,"Ġscheme":9289,"alend":9290,"Ġswift":9291,"Ġemphas":9292,"Ġ75":9293,"uese":9294,"Ġrival":9295,"Ġreasonable":9296,"ĠAbb":9297,"Ġloan":9298,"ĠRegion":9299,"Ġintelligence":9300,"Ġearthquake":9301,"Mark":9302,"eenth":9303,"instein":9304,"Ġmars":9305,"Ġna":9306,"icop":9307,"uter":9308,"ĠCost":9309,"ĠWednesday":9310,"ĠLat":9311,"ĠKNOW":9312,"soft":9313,"pton":9314,"ruits":9315,"Ġfled":9316,"ĠArmen":9317,"Ġdistant":9318,"Ġinstinct":9319,"Ġpassengers":9320,"ESS":9321,"asket":9322,"Ġtests":9323,"Ġwooden":9324,"Ġearliest":9325,"Ġprinciples":9326,"Ġachieved":9327,"ĠMatthew":9328,"Ġinstruments":9329,"Ġpaintings":9330,"Ġsemi":9331,"Ġcategory":9332,"Ġkilomet":9333,"mommy":9334,"Ob":9335,"South":9336,"West":9337,"cers":9338,"gate":9339,"world":9340,"Ġutter":9341,"itable":9342,"esar":9343,"ĠHad":9344,"ĠHur":9345,"ĠHog":9346,"opp":9347,"ĠPress":9348,"ĠTar":9349,"ĠGardens":9350,"ĠFa":9351,"ĠForm":9352,"ĠField":9353,"resents":9354,"Ġproport":9355,"ĠEddie":9356,"Ġintention":9357,"ĠUs":9358,"Ġrolled":9359,"Ġ38":9360,"otto":9361,"Ġfourteen":9362,"Ġobtained":9363,"Ġinteract":9364,"Ġmedium":9365,"Ġdeaths":9366,"Ġawesome":9367,"Ġ1958":9368,"ĠBarb":9369,"Ġliterary":9370,"Ġhonestly":9371,"ĠMountains":9372,"ĠOfficer":9373,"Ġcrisis":9374,"Ġsplendid":9375,"rors":9376,"Ġsang":9377,"Ġpushing":9378,"asia":9379,"Ġgrief":9380,"Ġthunder":9381,"ĠChildren":9382,"umin":9383,"ĠLew":9384,"ĠJoy":9385,"oody":9386,"Ġvice":9387,"Ġwhoa":9388,"ĠUt":9389,"ermans":9390,"ordan":9391,"ĠVeg":9392,"Ġremote":9393,"Ġ400":9394,"Ġglance":9395,"Ġpassenger":9396,"Ġreply":9397,"Ġmode":9398,"Ġ1946":9399,"Ġarrival":9400,"Ġexception":9401,"Ġrecognition":9402,"Ġsailing":9403,"ettle":9404,"ĠMaryland":9405,"Ġdiseases":9406,"Ġaffairs":9407,"Ġprayer":9408,"Ġroughly":9409,"Tomorrow":9410,"Son":9411,"ds":9412,"six":9413,"tw":9414,"wick":9415,"Ġwoke":9416,"Ġwounds":9417,"Ġsna":9418,"itement":9419,"Ġmos":9420,"Ġmouse":9421,"anwhile":9422,"Ġec":9423,"ĠTha":9424,"olve":9425,"Ġshining":9426,"Ġwheels":9427,"Ġvon":9428,"ĠOb":9429,"again":9430,"Ġdisgust":9431,"Ġpreced":9432,"ĠDef":9433,"Ġassigned":9434,"Ġcreatures":9435,"Ġanimated":9436,"Ġindex":9437,"Ġmerry":9438,"Unless":9439,"Death":9440,"uddenly":9441,"ĠBoyer":9442,"Ġclimb":9443,"Mur":9444,"mate":9445,"mates":9446,"sk":9447,"Ġsorrow":9448,"Ġdign":9449,"Ġinher":9450,"aton":9451,"otes":9452,"idency":9453,"Ġstarring":9454,"ĠPot":9455,"Ġrit":9456,"ĠGive":9457,"ĠRel":9458,"ĠFive":9459,"ntown":9460,"ighed":9461,"Ġplates":9462,"ĠEducation":9463,"orted":9464,"Ġintent":9465,"asses":9466,"Ġbrush":9467,"Start":9468,"Ġproducing":9469,"Ġ1943":9470,"EST":9471,"ĠSydney":9472,"Ġrelationships":9473,"Ġimmediate":9474,"Quick":9475,"ĠSilver":9476,"cticut":9477,"daddy":9478,"ĠHeaven":9479,"aa":9480,"dr":9481,"je":9482,"jud":9483,"log":9484,"Ġbrig":9485,"Ġcoc":9486,"Ġdull":9487,"Ġpowder":9488,"leans":9489,"idel":9490,"ĠContin":9491,"urther":9492,"ĠBor":9493,"antry":9494,"ĠPo":9495,"ĠGi":9496,"ĠGot":9497,"Ġalien":9498,"ĠReagan":9499,"ĠFace":9500,"abi":9501,"ĠJerry":9502,"rave":9503,"ĠElect":9504,"itts":9505,"aved":9506,"Ġcounting":9507,"Ġchurches":9508,"Ġfactors":9509,"Ġlessons":9510,"Ġstraw":9511,"Ġmotiv":9512,"Ġdeeply":9513,"Ġamounts":9514,"Ġterrif":9515,"Ġannounce":9516,"aisy":9517,"Ġdistributed":9518,"Girl":9519,"Mor":9520,"Things":9521,"mission":9522,"âĤ":9523,"Ġpup":9524,"ĠIV":9525,"ĠAM":9526,"ĠMA":9527,"Ġlied":9528,"Ġknee":9529,"oland":9530,"ĠLA":9531,"ĠLion":9532,"emed":9533,"ĠJess":9534,"Ġusers":9535,"Ġpee":9536,"Ġcloth":9537,"ĠViv":9538,"Ġunderneath":9539,"Ġpoem":9540,"ective":9541,"Ġserves":9542,"Ġbelt":9543,"ĠDean":9544,"Ġeval":9545,"Ġextensive":9546,"ĠSpeak":9547,"Ġstructures":9548,"Ġ1938":9549,"Ġgrandma":9550,"ĠUSA":9551,"ĠChristianity":9552,"Ġhistoric":9553,"piration":9554,"Ġcustomers":9555,"Ġwhispered":9556,"Ġpoetry":9557,"Ġtroubles":9558,"Ġrhyth":9559,"IVE":9560,"Old":9561,"wall":9562,"Ġboring":9563,"Ġpond":9564,"Ġloving":9565,"alph":9566,"ĠAmy":9567,"ĠCreek":9568,"ulpt":9569,"ĠDyn":9570,"ĠTheatre":9571,"Ġroots":9572,"pert":9573,"ints":9574,"Ġmonarch":9575,"ĠZe":9576,"Ġpresentation":9577,"Ġdivine":9578,"Ġtemporary":9579,"ĠTechn":9580,"Ġmistakes":9581,"Ġfacilities":9582,"Ġextraordinary":9583,"Ġgoddamn":9584,"Ġreckon":9585,"ĠBangladesh":9586,"Ã£o":9587,"83":9588,"IA":9589,"laughs":9590,"nis":9591,"Ġtag":9592,"Ġbark":9593,"Ġitem":9594,"ĠSof":9595,"Ġstorage":9596,"ĠAlf":9597,"ĠMm":9598,"ĠHistor":9599,"ĠBall":9600,"think":9601,"rait":9602,"these":9603,"Ġ46":9604,"Ġdecent":9605,"Ġtrap":9606,"shine":9607,"Ġ1959":9608,"Ġprotected":9609,"Ġprisoner":9610,"ĠSteven":9611,"Ġessential":9612,"Ġspecifically":9613,"Ġrarely":9614,"ĠManipur":9615,"Such":9616,"ii":9617,"pat":9618,"rine":9619,"sa":9620,"zed":9621,"Ġaye":9622,"Ġfox":9623,"Ġinner":9624,"Ġgest":9625,"Ġgreet":9626,"stock":9627,"ĠAff":9628,"Ġkings":9629,"Ġrural":9630,"ĠLind":9631,"Ġ(_":9632,"Ġexists":9633,"Ġspaces":9634,"pless":9635,"Ġprices":9636,"Ġadapt":9637,"Ġsynt":9638,"Ġrepresents":9639,"Ġsounded":9640,"Ġopposition":9641,"alda":9642,"Ġsweetheart":9643,"ographer":9644,"ĠPoland":9645,"Ġconsiderable":9646,"Ġvisitors":9647,"ĠSpecial":9648,"Ġdivorced":9649,"Career":9650,"avaria":9651,"ĠVietnam":9652,"Illustration":9653,"GRUN":9654,"Kill":9655,"dist":9656,"hab":9657,"Ġtoss":9658,"Ġholy":9659,"utor":9660,"ĠSn":9661,"Ġdode":9662,"ĠHor":9663,"ĠGor":9664,"Ġintend":9665,"ĠUN":9666,"Ġfever":9667,"ĠVery":9668,"Ġguards":9669,"Ġhanded":9670,"Ġrecovered":9671,"ggie":9672,"cluding":9673,"Ġexposed":9674,"Ġoffices":9675,"Ġproviding":9676,"ĠChristians":9677,"Ġdepression":9678,"ĠSeries":9679,"Ġsearching":9680,"ĠMuslims":9681,"Ġofficials":9682,"Ġcelebrate":9683,"Ġconducted":9684,"Ġuniversities":9685,"Ġbubbles":9686,"Ġfarther":9687,"Had":9688,"Sam":9689,"Tony":9690,"cham":9691,"lE":9692,"last":9693,"tit":9694,"vation":9695,"Ġtune":9696,"erick":9697,"itage":9698,"Ġdirt":9699,"Ġpunch":9700,"ushes":9701,"Ġbeast":9702,"ĠSix":9703,"ĠCass":9704,"ĠMun":9705,"ĠHun":9706,"ĠBud":9707,"romise":9708,"Ġorphan":9709,"Ġwhoever":9710,"Ġtram":9711,"Ġscary":9712,"tains":9713,"hesis":9714,"Ġwarn":9715,"Ġ1949":9716,"Ġrequires":9717,"Ġdamaged":9718,"Ġrepresenting":9719,"Ġexisted":9720,"ĠMoz":9721,"Ġinternet":9722,"Ġgraduate":9723,"ĠForest":9724,"Ġaccompan":9725,"ĠLabour":9726,"ĠTurkish":9727,"Ġincorpor":9728,"Congratulations":9729,"ĠSuffolk":9730,"):":9731,"Bad":9732,"Fe":9733,"Sil":9734,"Us":9735,"low":9736,"ÂĿ":9737,"Ġaired":9738,"Ġnonsense":9739,"idering":9740,"Ġey":9741,"star":9742,"chi":9743,"Ġorchestra":9744,"ĠLive":9745,"ĠNed":9746,"Ġsauce":9747,"ocation":9748,"before":9749,"Ġ55":9750,"Ġdistract":9751,"Ġassass":9752,"ĠSoon":9753,"Ġwinds":9754,"ĠOnce":9755,"ĠLeg":9756,"century":9757,"ĠColor":9758,"Ġgradually":9759,"ĠPanama":9760,"ĠTaipei":9761,"Ġmanufacture":9762,"ĠPortuguese":9763,"ĠEntertainment":9764,"Ġtremend":9765,"ĠConnecticut":9766,"'?":9767,"UCK":9768,"Â¶":9769,"heastern":9770,"oust":9771,"Ġcows":9772,"Ġfare":9773,"orters":9774,"Ġdial":9775,"Ġhid":9776,"Ġisol":9777,"ĠGene":9778,"Ġshops":9779,"osity":9780,"Ġarc":9781,"Ġclin":9782,"Soon":9783,"Ġbackwards":9784,"Ġenvelope":9785,"Ġcontaining":9786,"Ġrecon":9787,"ahn":9788,"ART":9789,"Ġparticles":9790,"cribed":9791,"Ġsumm":9792,"Ġnathaniel":9793,"Ġsafely":9794,"Ġpoliceman":9795,"Ġclosing":9796,"Ġbreathe":9797,"ĠPolice":9798,"Ġdepending":9799,"Ġfunds":9800,"ĠMorgan":9801,"Ġinjuries":9802,"music":9803,"Ġsurrounding":9804,"Ġtypically":9805,"Ġbarely":9806,"English":9807,"Ġenormous":9808,"46":9809,"?'":9810,"burn":9811,"nels":9812,"piece":9813,"zes":9814,"inburgh":9815,"rec":9816,"Ġbond":9817,"ĠIr":9818,"ione":9819,"ĠSuch":9820,"stract":9821,"ĠCas":9822,"ĠCAN":9823,"ĠHoll":9824,"ilst":9825,"Ġrude":9826,"Ġracing":9827,"Ġjazz":9828,"ĠGro":9829,"ĠKnight":9830,"Ġclown":9831,"Ġbuff":9832,"IND":9833,"Ġfacts":9834,"Ġinsist":9835,"ĠGrant":9836,"ĠAustrian":9837,"fficiency":9838,"Ġ1939":9839,"ICE":9840,"Ġattempted":9841,"Ġlinked":9842,"Charles":9843,"Ġfrozen":9844,"ĠHotel":9845,"Second":9846,"Ġretirement":9847,"Ġadministrative":9848,"ĠCorporation":9849,"Hal":9850,"Mind":9851,"dale":9852,"iors":9853,"rome":9854,"really":9855,"isdom":9856,"Ġincl":9857,"Ġnations":9858,"othy":9859,"Ġbears":9860,"imm":9861,"ĠSav":9862,"ĠCru":9863,"ainted":9864,"ĠGET":9865,"osure":9866,"ĠNOT":9867,"hana":9868,"Ġcomic":9869,"weather":9870,"Ġshares":9871,"Ġkinda":9872,"def":9873,"rett":9874,"Ġindic":9875,"Ġvisible":9876,"Ġcampus":9877,"Ġlads":9878,"Ġresear":9879,"Ġhopes":9880,"Ġaccounts":9881,"Ġfrogs":9882,"ribute":9883,"Ġdunno":9884,"ĠYugoslav":9885,"Jul":9886,"mn":9887,"mitted":9888,"oft":9889,"render":9890,"acement":9891,"ĠMi":9892,"ĠBre":9893,"ĠBir":9894,"antle":9895,"ĠTurn":9896,"Ġcance":9897,"ĠFame":9898,"ĠLow":9899,"Ġhers":9900,"oused":9901,"Ġactors":9902,"arson":9903,"Ġcleared":9904,"Ġfunctions":9905,"Ġelsewhere":9906,"Ġcondens":9907,"Ġstaring":9908,"Ġlimits":9909,"Ġringing":9910,"Ġinfluenced":9911,"Ġintroduction":9912,"uela":9913,"Ġbehalf":9914,"Ġfocused":9915,"ĠAnton":9916,"Ġanxious":9917,"Ġwriters":9918,"Cal":9919,"Ġvel":9920,"inet":9921,"rep":9922,"Ġsession":9923,"Ġdwell":9924,"arse":9925,"ayan":9926,"ĠSometimes":9927,"Ġseated":9928,"ĠHou":9929,"ĠBos":9930,"ĠBaby":9931,"ĠWrest":9932,"Ġalarm":9933,"Ġshield":9934,"igr":9935,"cker":9936,"ĠEp":9937,"Ġvoted":9938,"feld":9939,"ansion":9940,"Ġrecover":9941,"Ġlanding":9942,"airies":9943,"Ġprominent":9944,"Ġcontrols":9945,"Ġoppon":9946,"ĠOrleans":9947,"Ġimagination":9948,"Ġjudgment":9949,"Ġperspective":9950,"Ġdigital":9951,"Ġdetermine":9952,"Ġdocumentary":9953,"spector":9954,"Ġstroke":9955,"Ġfeathers":9956,"Ġnortheast":9957,"Ġgravity":9958,"ĠRepresentatives":9959,"Boss":9960,"dam":9961,"num":9962,"Ġwax":9963,"Ġsar":9964,"Ġsurname":9965,"Ġfetch":9966,"ĠyÎ¿u":9967,"ĠIce":9968,"alie":9969,"Ġstamp":9970,"allas":9971,"ifted":9972,"ĠHook":9973,"ĠBul":9974,"ĠBavaria":9975,"unning":9976,"Ġexcess":9977,"bery":9978,"Ġfee":9979,"Ġperce":9980,"Ġcray":9981,"ugs":9982,"Ġsurvey":9983,"Always":9984,"Ġtermin":9985,"ĠPlatform":9986,"ĠCommon":9987,"Ġperforming":9988,"ĠTHIS":9989,"Ġpalm":9990,"Ġsensitive":9991,"Play":9992,"ĠDarling":9993,"lemn":9994,"Ġtransferred":9995,"Ġcomponents":9996,"ĠBaltimore":9997,"Ġthirteen":9998,"Ġequivalent":9999,".!":10000,"67":10001,"Chan":10002,"GO":10003,"ILL":10004,"Lu":10005,"Later":10006,"rong":10007,"round":10008,"yep":10009,"rehens":10010,"Ġbills":10011,"aters":10012,"stream":10013,"ĠChile":10014,"ĠMoon":10015,"Ġseas":10016,"Ġseeds":10017,"ĠWild":10018,"ĠRus":10019,"ĠLO":10020,"ckets":10021,"ĠEconom":10022,"ĠKevin":10023,"ideo":10024,"ureau":10025,"Ġbuzz":10026,"Ġ39":10027,"everal":10028,"gger":10029,"Ġslaves":10030,"ĠAndy":10031,"Ġentering":10032,"Ġmetro":10033,"ungle":10034,"Ġevident":10035,"Ġmusicians":10036,"Ġequally":10037,"Ġvisual":10038,"Ġexcitement":10039,"ennis":10040,"Ġtempt":10041,"Ġappearances":10042,"Ġtitles":10043,"ederation":10044,"Ġgarbage":10045,"iffs":10046,"Ġfeeding":10047,"Ġfarmers":10048,"Ġsequence":10049,"Ġsuspic":10050,"Martin":10051,"Coll":10052,"power":10053,"rings":10054,"Ä±":10055,"Ġ+":10056,"Ġbass":10057,"Ġbunny":10058,"Ġchips":10059,"Ġfierce":10060,"Ġinput":10061,"Ġgently":10062,"alia":10063,"Ġrejo":10064,"ĠSally":10065,"struction":10066,"rians":10067,"ĠBry":10068,"ĠTower":10069,"geous":10070,"ĠRan":10071,"Ġcomments":10072,"inder":10073,"itei":10074,"Ġeveryday":10075,"Ġadjust":10076,"Ġdishes":10077,"Ġattorney":10078,"Ġstopping":10079,"ĠAncient":10080,"Ġ65":10081,"Ġreprodu":10082,"Ġfiles":10083,"Ġpayment":10084,"Ġrefers":10085,"Ġspeaker":10086,"Ġbeds":10087,"ĠShut":10088,"Ġdifficulties":10089,"ĠSarhad":10090,"Ġblowing":10091,"ĠPatrick":10092,"Ġdemanded":10093,"Enough":10094,"Ġremarkable":10095,"Ġbubble":10096,"Med":10097,"Ric":10098,"Same":10099,"mal":10100,"mill":10101,"uine":10102,"onom":10103,"Ġcalend":10104,"ĠServ":10105,"stop":10106,"rific":10107,"Ġstack":10108,"ĠAB":10109,"ĠCamer":10110,"ĠMatt":10111,"quiao":10112,"cknow":10113,"ĠStop":10114,"Ġgoodbye":10115,"Ġrecycl":10116,"ilda":10117,"grad":10118,"âĻ«":10119,"Ġentitled":10120,"Ġsixteen":10121,"ĠScots":10122,"Ġsupporting":10123,"Ġsuccessfully":10124,"ĠAdams":10125,"Ġmercy":10126,"comfort":10127,"Ġattracted":10128,"Ġnucle":10129,"Ġentertainment":10130,"ĠWITH":10131,"Ġsacrifice":10132,"Aha":10133,"Rec":10134,"lon":10135,"oir":10136,"vol":10137,"Ġauth":10138,"Ġbid":10139,"Ġbore":10140,"otal":10141,"aya":10142,"Ġbeans":10143,"Ġease":10144,"ĠMoore":10145,"ĠBuck":10146,"ĠDog":10147,"ques":10148,"ĠKelly":10149,"Ġpeas":10150,"ĠUr":10151,"Ġdismiss":10152,"Ġfinishing":10153,"ifications":10154,"ĠThose":10155,"iki":10156,"Ġ1937":10157,"Ġscare":10158,"break":10159,"Ġstretched":10160,"Ġdiamond":10161,"Ġmicrophone":10162,"Ġexpanded":10163,"Ġfurniture":10164,"ĠHindu":10165,"Geography":10166,"Amy":10167,"please":10168,"phew":10169,"sub":10170,"Ġmister":10171,"Ġfranch":10172,"edy":10173,"Ġinject":10174,"ĠSlyne":10175,"rob":10176,"adi":10177,"ĠMP":10178,"Ġsector":10179,"ĠHug":10180,"Ġraid":10181,"Ġabroad":10182,"iev":10183,"eling":10184,"Ġshed":10185,"Ġvary":10186,"ĠOpen":10187,"Ġcompass":10188,"Ġwhereas":10189,"ĠVI":10190,"ĠVill":10191,"ccer":10192,"ĠChuck":10193,"Ġfoundation":10194,"Ġdecades":10195,"Thou":10196,"shot":10197,"Ġjoining":10198,"umbled":10199,"Ġ1957":10200,"Ġconfirm":10201,"Ġeffectively":10202,"Ġdestruction":10203,"Ġabsence":10204,"yrics":10205,"Ġbelonged":10206,"Ġapplications":10207,"Ġcompanion":10208,"Ġleadership":10209,"Ġlandscape":10210,"CC":10211,"Happy":10212,"OP":10213,"Sa":10214,"ghan":10215,"hh":10216,"iop":10217,"rous":10218,"sighs":10219,"too":10220,"ester":10221,"armed":10222,"Ġloop":10223,"omon":10224,"Ġrebell":10225,"Ġstadium":10226,"ĠHistory":10227,"Ġconclusion":10228,"Ġsup":10229,"Ġseeking":10230,"Ġsculpt":10231,"Ġconscience":10232,"Ġdrift":10233,"onym":10234,"Ġ170":10235,"anguage":10236,"Ġstatue":10237,"ĠMeitei":10238,"Ġtechniques":10239,"Ġeducated":10240,"ĠDeputy":10241,"Ġarrangement":10242,"Ġwithdraw":10243,"ĠRollo":10244,"57":10245,"98":10246,"Fire":10247,"Nor":10248,"Que":10249,"Sar":10250,"XX":10251,"cond":10252,"ige":10253,"Ġwins":10254,"Ġbay":10255,"Ġcraft":10256,"ingo":10257,"verty":10258,"ĠCook":10259,"Ġsear":10260,"ĠHop":10261,"ĠFR":10262,"ĠNelson":10263,"ĠJordan":10264,"Ġpros":10265,"Ġspark":10266,"Ġdisaster":10267,"Ġsecrets":10268,"Ġsupper":10269,"Ġfollowers":10270,"Ġasshole":10271,"Ġkidna":10272,"Ġskill":10273,"ĠClark":10274,"Ġdefence":10275,"Ann":10276,"zech":10277,"Ġbands":10278,"Ġzone":10279,"ĠAmendment":10280,"Ġworthy":10281,"ĠPhilip":10282,"Ġquarters":10283,"Ġemployed":10284,"ĠCrown":10285,"ĠFinn":10286,"Ġfaithful":10287,"Ġlifetime":10288,"Ġchapter":10289,"Ġaspects":10290,"Ġconsciousness":10291,"Ġbattery":10292,"ĠPhilippines":10293,"Ġestimated":10294,"!!":10295,"Baby":10296,"Off":10297,"Sounds":10298,"bors":10299,"rez":10300,"Ġfence":10301,"Ġfeared":10302,"ingle":10303,"oria":10304,"Ġpip":10305,"achi":10306,"roit":10307,"ĠHold":10308,"ĠPict":10309,"ĠRos":10310,"udy":10311,"Ġgran":10312,"obile":10313,"Ġpoverty":10314,"Ġinstantly":10315,"iversary":10316,"ĠAnim":10317,"Ġrefuse":10318,"Ġgovernments":10319,"ĠMayor":10320,"Ġcreative":10321,"ARE":10322,"Ġsteady":10323,"levant":10324,"ĠChap":10325,"Ġruler":10326,"Ġmeantime":10327,"Ġjudges":10328,"ĠMedia":10329,"culiar":10330,"ĠBelg":10331,"Ġtailor":10332,"Ġromance":10333,"Ġbeliefs":10334,"Ġpatterns":10335,"ĠBroadway":10336,"ĠTemple":10337,"ĠHawaii":10338,"ĠVegas":10339,"Gee":10340,"Min":10341,"Mal":10342,"Personal":10343,"SO":10344,"dle":10345,"shall":10346,"Ġacknow":10347,"rek":10348,"Ġcave":10349,"Ġpor":10350,"Ġlamb":10351,"Ġwelf":10352,"ĠCL":10353,"ĠCamb":10354,"iland":10355,"Ġnephew":10356,"Ġjoseph":10357,"ĠDale":10358,"aku":10359,"agan":10360,"Ġtract":10361,"Ġensure":10362,"Ġapples":10363,"Ġswing":10364,"Att":10365,"ĠSpring":10366,"pring":10367,"Ġeighth":10368,"ĠJohan":10369,"THER":10370,"Ġboxes":10371,"urious":10372,"ĠTelevision":10373,"Ġshark":10374,"Ġsoftly":10375,"Ġfoolish":10376,"Ġseventeen":10377,"Ġkicked":10378,"Ġparticipate":10379,"Ġscratch":10380,"Ġoccasionally":10381,"Ġassumed":10382,"ĠWayne":10383,"Ġdynam":10384,"Ġdynasty":10385,"ĠCOVID":10386,"Ġcolleagues":10387,"ĠProtestant":10388,"ĠFoundation":10389,"Ġwelfare":10390,"Number":10391,"Work":10392,"bie":10393,"gun":10394,"gments":10395,"Ġtiger":10396,"Ġarose":10397,"Ġbin":10398,"Ġbump":10399,"ller":10400,"lement":10401,"Ġhesit":10402,"ĠSher":10403,"term":10404,"ifest":10405,"ĠHen":10406,"Ġsole":10407,"Ġshots":10408,"elf":10409,"ĠNFL":10410,"Ġresident":10411,"ailing":10412,"Ġcourses":10413,"Ġhelpful":10414,"Ġ47":10415,"Ġregister":10416,"plete":10417,"Ġmonkey":10418,"Alan":10419,"OUR":10420,"Ġinsane":10421,"Ġ1955":10422,"Ġchecking":10423,"Ġmerc":10424,"ienna":10425,"Ġversus":10426,"ĠSerb":10427,"scar":10428,"Ġfacing":10429,"Ġoffend":10430,"Ġexecution":10431,"Ġbleeding":10432,"Ġbriefly":10433,"Ġoptions":10434,"Ġfloating":10435,"odded":10436,"Ġdisappointed":10437,"ĠNapole":10438,"Ġscarcely":10439,"Ġintellectual":10440,"Ġdiplom":10441,"Din":10442,"hr":10443,"uits":10444,"ww":10445,"Ġaston":10446,"Ġgates":10447,"ĠAz":10448,"ĠCON":10449,"ĠCooper":10450,"ĠMain":10451,"aboo":10452,"ateur":10453,"ĠOnt":10454,"ĠKurd":10455,"Ġuncertain":10456,"Ġsometime":10457,"Ġcoinc":10458,"Ġ34":10459,"Ġmarch":10460,"Ġpresents":10461,"Ġsurve":10462,"ĠAnthony":10463,"Ġcares":10464,"Ġimpressed":10465,"Ġinspect":10466,"Ġconfront":10467,"ĠEdinburgh":10468,"Ġradiation":10469,"Ġgenuine":10470,"speaking":10471,"Ġcounsel":10472,"Ġpencil":10473,"Ġmiserable":10474,"Ġmadam":10475,"Ġdiscussed":10476,"Ġmidnight":10477,"Ġroutes":10478,"Ġaffili":10479,"Ġpanel":10480,"Ġoptim":10481,"Ġexclaimed":10482,"Ġdelighted":10483,"Ġscreaming":10484,"Ġunex":10485,"BETH":10486,"ĠNetwork":10487,"ĠPremier":10488,"300":10489,"Japan":10490,"Lord":10491,"di":10492,"fight":10493,"lia":10494,"pan":10495,"watch":10496,"Ġtherap":10497,"Ġsack":10498,"onial":10499,"Ġdrank":10500,"Ġpent":10501,"Ġlamp":10502,"ussels":10503,"acent":10504,"Ġstead":10505,"Ġ120":10506,"thought":10507,"ĠDove":10508,"inks":10509,"ĠEth":10510,"ĠKermans":10511,"Ġspy":10512,"pering":10513,"ĠVin":10514,"Ġkeen":10515,"ranean":10516,"mann":10517,"Ġenthus":10518,"Ġchase":10519,"OUT":10520,"Ġprompt":10521,"umbling":10522,"Ġreceiving":10523,"engu":10524,"Ġprogramming":10525,"Ġsuggests":10526,"Ġsharks":10527,"Ġprimitive":10528,"Ġimproved":10529,"Ġchemistry":10530,"whoops":10531,"ĠResearch":10532,"ĠWinter":10533,"Ġclouds":10534,"Ġdivorce":10535,"Ġacademic":10536,"Ġathlet":10537,"ĠKermanshah":10538,"64":10539,"Cut":10540,"Know":10541,"Mat":10542,"PA":10543,"kward":10544,"names":10545,"Ġcough":10546,"Ġfame":10547,"Ġhitting":10548,"alities":10549,"idodecahedron":10550,"rior":10551,"ĠCour":10552,"Ġraw":10553,"ĠDin":10554,"ĠGran":10555,"emen":10556,"employ":10557,"ĠEmma":10558,"orton":10559,"ogan":10560,"izza":10561,"ruption":10562,"ĠArm":10563,"ĠArn":10564,"Ġ49":10565,"Ġfarmer":10566,"ĠWeb":10567,"Ġtriangle":10568,"ĠProgram":10569,"Ġbreaks":10570,"former":10571,"Except":10572,"Ġbanana":10573,"Ġbehavi":10574,"Ġparticipated":10575,"Ġmemorial":10576,"Ġencourage":10577,"Ġvehicles":10578,"Ġtravelling":10579,"Ġultimately":10580,"Ġagricultural":10581,"Ġshelter":10582,"ĠChairman":10583,"68":10584,"AF":10585,"North":10586,"Tube":10587,"UE":10588,"rected":10589,"Ġmask":10590,"anium":10591,"Ġpardon":10592,"ĠCra":10593,"ĠCard":10594,"olas":10595,"ĠFars":10596,"ĠFBI":10597,"ĠLaura":10598,"ĠNative":10599,"ĠNik":10600,"quis":10601,"ĠJae":10602,"odox":10603,"Ġexceed":10604,"Ġvig":10605,"ĠKy":10606,"--_":10607,"Ġflav":10608,"Ġrecall":10609,"Ġshaking":10610,"Ġminimum":10611,"Ġsupplies":10612,"aza":10613,"azon":10614,"Ġsurrender":10615,"Ġwarrant":10616,"Ġmetres":10617,"ĠEngine":10618,"Ġmeets":10619,"Ġdesigns":10620,"Ġresulted":10621,"ĠBaron":10622,"Ġtitled":10623,"Ġconvince":10624,"Ġurban":10625,"ĠNorway":10626,"Seriously":10627,"Ġfluid":10628,"Ġcasual":10629,"ĠTaylor":10630,"Ġboots":10631,"Ġmilitia":10632,"Music":10633,"ĠHitler":10634,"ĠRoberts":10635,"%.":10636,"Ay":10637,"Rep":10638,"Rock":10639,"TED":10640,"contin":10641,"lah":10642,"mph":10643,"wear":10644,"Ġsore":10645,"Ġcra":10646,"Ġtom":10647,"Ġinfection":10648,"Ġnodded":10649,"Ġhollow":10650,"Ġthirst":10651,"acon":10652,"ĠSuz":10653,"ĠBye":10654,"estine":10655,"Ġabuse":10656,"osaur":10657,"ĠJos":10658,"Ġvirus":10659,"Ġgrounds":10660,"ĠYe":10661,"bean":10662,"Ġlets":10663,"onsin":10664,"Ġdrum":10665,"Ġmatrix":10666,"Ġlandl":10667,"Ġpriests":10668,"Ġ1953":10669,"Ġperformances":10670,"ĠMinnes":10671,"Ġtouching":10672,"Ġcultiv":10673,"Ġtrusted":10674,"Ġattempts":10675,"Ġpackage":10676,"Ġcrops":10677,"ĠPacquiao":10678,"Ġcriticism":10679,"ĠHamilton":10680,"Ġinstitution":10681,"ĠImperial":10682,"iveness":10683,"ĠNorman":10684,"Ġvertex":10685,"Ġprotein":10686,"ĠColorado":10687,"Hel":10688,"JUL":10689,"VD":10690,"might":10691,"phy":10692,"vate":10693,"half":10694,"another":10695,"hattan":10696,"Ġnerves":10697,"Ġrebu":10698,"ĠSum":10699,"iration":10700,"kee":10701,"ĠMolly":10702,"ĠBan":10703,"ĠDak":10704,"ĠDown":10705,"abe":10706,"ĠKLAUS":10707,"ferences":10708,"ĠStew":10709,"Ġbrows":10710,"ĠYan":10711,"Ġflesh":10712,"Ġsmoking":10713,"Ġchop":10714,"Ġchee":10715,"Ġaccord":10716,"ARS":10717,"ĠShir":10718,"Ġ1936":10719,"ĠBarry":10720,"Ġcookies":10721,"Ġsurprising":10722,"ĠSupp":10723,"ographic":10724,"Ġcrook":10725,"ĠAlexand":10726,"Ġdespair":10727,"Ġeldest":10728,"liga":10729,"Ġfavourite":10730,"Ġfraud":10731,"shaped":10732,"Ġpremie":10733,"ĠShiv":10734,"Ġfascin":10735,"ĠDavis":10736,"ĠIndonesia":10737,"ĠBhaer":10738,"ĠOntario":10739,"JULlE":10740,"ĠKLAUSNER":10741,"55":10742,"Del":10743,"Ev":10744,"Nat":10745,"course":10746,"Ġtide":10747,"held":10748,"Ġwives":10749,"isible":10750,"Ġgre":10751,"veland":10752,"Ġhousing":10753,"Ġhal":10754,"Ġego":10755,"Ġweigh":10756,"ĠAriz":10757,"ĠPra":10758,"eller":10759,"Ġraces":10760,"Ġrushed":10761,"ĠDON":10762,"ĠRoc":10763,"Ġyourselves":10764,"ĠJan":10765,"ĠOak":10766,"udible":10767,"Ġtrace":10768,"icken":10769,"Ġgrain":10770,"Ġbron":10771,"Ġamendment":10772,"aund":10773,"Ġfounding":10774,"Ġpolite":10775,"ggy":10776,"ĠMarie":10777,"Ġsecondary":10778,"Ġinvite":10779,"Ġedges":10780,"Ġrib":10781,"ĠAllah":10782,"ĠMayweather":10783,"Ġbusinesses":10784,"Ġhopefully":10785,"mmet":10786,"Ġtested":10787,"Ġpractically":10788,"Ġgenetic":10789,"lights":10790,"Ġcovering":10791,"Ġinnov":10792,"Ġobser":10793,"isconsin":10794,"Ġdeny":10795,"Ġsuitable":10796,"ĠEgyptian":10797,"Ġshouted":10798,"Ġcontrast":10799,"Ġinstitutions":10800,"Ġresistance":10801,"ĠDragon":10802,"Ġdreadful":10803,");":10804,"Hit":10805,"Win":10806,"cor":10807,"fare":10808,"green":10809,"lu":10810,"song":10811,"Ġlaughter":10812,"ashes":10813,"vet":10814,"Ġbeef":10815,"rov":10816,"ĠDu":10817,"ĠRen":10818,"ĠRem":10819,"ĠFat":10820,"abilities":10821,"ĠKil":10822,"assador":10823,"Ġhelicop":10824,"Ġchances":10825,"Ġassess":10826,"insula":10827,"Ġinterse":10828,"ATH":10829,"ĠMaybe":10830,"Ġoperate":10831,"Ġ1951":10832,"Ġcopper":10833,"Ġchairs":10834,"âĢİ,":10835,"Ġparking":10836,"ĠSecurity":10837,"ĠGrandma":10838,"Ġpossessed":10839,"Ġtranslated":10840,"Ġdetective":10841,"Ġtravelled":10842,"Ġsituations":10843,"Ġguarantee":10844,"Ġdowntown":10845,"ĠSpeaker":10846,"07":10847,"Dude":10848,"EP":10849,"Ladies":10850,"Sweet":10851,"eight":10852,"iate":10853,"mind":10854,"pher":10855,"something":10856,"Ġtact":10857,"Ġtables":10858,"onge":10859,"Ġfairies":10860,"Ġpairs":10861,"Ġnaval":10862,"uru":10863,"uris":10864,"Ġgoin":10865,"ĠWould":10866,"ĠWOR":10867,"Ġsolemn":10868,"Ġabund":10869,"ĠRilla":10870,"ĠLuke":10871,"agu":10872,"Ġworker":10873,"ocated":10874,"Ġresidents":10875,"Ġrelatives":10876,"Ġsynd":10877,"Ġmonitor":10878,"Ġinstall":10879,"Ġobtain":10880,"Though":10881,"Ġairplane":10882,"Ġorganic":10883,"Ġdescribes":10884,"Ġsharing":10885,"Ġweakness":10886,"Ġgeomet":10887,"Ġtunnel":10888,"ĠWindows":10889,"Ã¦sar":10890,"oscow":10891,"British":10892,"Ġfirms":10893,"Best":10894,"SS":10895,"Ugh":10896,"ded":10897,"eyes":10898,"making":10899,"xual":10900,"Ġsits":10901,"itches":10902,"esc":10903,"Ġpanc":10904,"Ġnavig":10905,"uster":10906,"keys":10907,"Ġstages":10908,"ĠAgain":10909,"oute":10910,"ĠCzech":10911,"Ġgoat":10912,"ĠGun":10913,"ĠGary":10914,"Ġabdom":10915,"Ġabstract":10916,"Ġvital":10917,"ardo":10918,"Ġspeaks":10919,"ĠUk":10920,"Ġdisorder":10921,"Ġscattered":10922,"Ġchuck":10923,"ĠDevelopment":10924,"ĠIndepend":10925,"Ġmaintained":10926,"HEN":10927,"ebast":10928,"Ġsweat":10929,"Ġbarn":10930,"ĠOrchestra":10931,"REAM":10932,"Ġattractive":10933,"Ġcitizen":10934,"ymn":10935,"Ġprocedure":10936,"ĠCharlotte":10937,"Ġdiscipline":10938,"igenous":10939,"ĠSarhadi":10940,"Ġcalendar":10941,"lahoma":10942,"FF":10943,"Mer":10944,"Pop":10945,"Sus":10946,"gi":10947,"nest":10948,"word":10949,"Ġwolf":10950,"Ġbust":10951,"Ġmr":10952,"Ġfires":10953,"Ġgle":10954,"omot":10955,"idays":10956,"Ġsty":10957,"ĠAst":10958,"ilation":10959,"oret":10960,"Ġjunior":10961,"quet":10962,"Ġclar":10963,"reeze":10964,"Ġflows":10965,"Ġcaravan":10966,"otta":10967,"Ġaddressed":10968,"Ġlighthouse":10969,"Ġimprison":10970,"Ġinterfe":10971,"Ġtragedy":10972,"Ġrefuge":10973,"Ġreturns":10974,"Ġpatri":10975,"Ġhoriz":10976,"ĠTrust":10977,"rooms":10978,"Ġeducational":10979,"Ġetern":10980,"ĠCorps":10981,"Ġneighbors":10982,"ĠDevil":10983,"Ġtranslation":10984,"rishna":10985,"ĠMarshall":10986,"arette":10987,"Ġcandidates":10988,"ĠNazi":10989,"Jimmy":10990,"Jeff":10991,"Ġimpressive":10992,"Ġsubsequently":10993,"Ġoccasions":10994,"Ġalphabet":10995,"ĠHouston":10996,"Richard":10997,"89":10998,"Hope":10999,"Morning":11000,"XT":11001,"bound":11002,"mi":11003,"Ġ{":11004,"Ġmild":11005,"Ġlyrics":11006,"Ġga":11007,"amar":11008,"ĠSay":11009,"ĠSorry":11010,"ĠAth":11011,"ĠPR":11012,"Ġrab":11013,"abled":11014,"ods":11015,"Ġexhibition":11016,"Ġexternal":11017,"ĠKn":11018,"Ġsprang":11019,"Ġrolling":11020,"Ġadap":11021,"Ġflies":11022,"Ġresign":11023,"Ġkills":11024,"Ġbelieves":11025,"âĻªâĻª":11026,"Ġconservative":11027,"Ġdistur":11028,"Ġobst":11029,"Ġfract":11030,"Ġindicated":11031,"ertainly":11032,"Ġdragged":11033,"Ġcolours":11034,"ĠProject":11035,"Anne":11036,"Ġoccurs":11037,"Ġceased":11038,"Ġapproval":11039,"Ġelectronic":11040,"Ġinvolves":11041,"Ġtrading":11042,"Ġdeeper":11043,"Ġlabour":11044,"Ġrepresentative":11045,"success":11046,"Ġstrip":11047,"Äģn":11048,"ĠLouisiana":11049,"Ġoxid":11050,"ĠJudy":11051,"Ġrevenue":11052,"Ġgrocer":11053,"ĠCommunity":11054,"natural":11055,"Ġquantity":11056,"ĠCaesar":11057,"ĠJonathan":11058,"Ġmammals":11059,"Ġashore":11060,"ĠMinnesota":11061,"85":11062,"==":11063,"Fred":11064,"Gold":11065,"Sal":11066,"big":11067,"make":11068,"oan":11069,"produ":11070,"rÃ©":11071,"Ġbattles":11072,"Ġcage":11073,"Ġfest":11074,"Ġdia":11075,"Ġgig":11076,"Ġnaught":11077,"acious":11078,"iry":11079,"ĠFel":11080,"arded":11081,"earl":11082,"Ġpeculiar":11083,"Ġcler":11084,"Ġaffection":11085,"Ġunited":11086,"Ġunfortunately":11087,"ĠInca":11088,"ocol":11089,"forest":11090,"Ġbucks":11091,"azy":11092,"Ġdifferently":11093,"Ġsubstance":11094,"Ġlocations":11095,"Ġcontinent":11096,"Ġsolar":11097,"Ġinformed":11098,"chair":11099,"ĠPlace":11100,"Ġprocesses":11101,"Ġcircuit":11102,"Ġcloset":11103,"Ġfaculty":11104,"Ġjumping":11105,"Ġmidst":11106,"Drink":11107,"ĠSquare":11108,"ĠLynde":11109,"Ġliberty":11110,"ĠPrefecture":11111,"Ġschedule":11112,"ĠNobel":11113,"ĠWelsh":11114,"!'":11115,"800":11116,"Bu":11117,"Kat":11118,"LING":11119,"Pe":11120,"hon":11121,"lan":11122,"person":11123,"rade":11124,"uary":11125,"Ġtons":11126,"Ġaer":11127,"Ġsung":11128,"ancing":11129,"Ġdict":11130,"ĠImp":11131,"alty":11132,"Ġstiff":11133,"ĠCham":11134,"ĠHOY":11135,"Ġgolf":11136,"oper":11137,"ĠWoman":11138,"Ġrust":11139,"ĠDallas":11140,"ĠNag":11141,"Ġoutput":11142,"ĠYale":11143,"Ġprev":11144,"velt":11145,"Ġrealise":11146,"Ġconsidering":11147,"Ġstays":11148,"Ġkidney":11149,"ussy":11150,"OUGH":11151,"ATION":11152,"chell":11153,"Ġpainter":11154,"Ġlaying":11155,"Ġraising":11156,"Ġlaura":11157,"Ġmistress":11158,"Ġcandy":11159,"orkshire":11160,"Ġpigs":11161,"Ġbutterfly":11162,"Ġvulner":11163,"comfortable":11164,"ĠHOYT":11165,"Da":11166,"shi":11167,"Ġq":11168,"rels":11169,"Ġcable":11170,"Ġfict":11171,"arians":11172,"Ġnasty":11173,"utt":11174,"Ġrele":11175,"aments":11176,"ĠShip":11177,"Ġstern":11178,"Ġuna":11179,"ĠMaced":11180,"illery":11181,"ĠHuman":11182,"iler":11183,"ĠTour":11184,"ĠRoy":11185,"ĠJam":11186,"odore":11187,"Ġvoc":11188,"Ġpeep":11189,"necess":11190,"irect":11191,"oyage":11192,"Ġhelpless":11193,"Ġkindly":11194,"ĠBrussels":11195,"Ġregiment":11196,"ĠDeh":11197,"Ġglory":11198,"asht":11199,"Ġmothers":11200,"Ġlighting":11201,"Ġtrapped":11202,"Through":11203,"nothing":11204,"Ġhurried":11205,"Ġawkward":11206,"Ġfoods":11207,"Ġstatements":11208,"Ġreligions":11209,"Ġproposal":11210,"Def":11211,"Ġinnit":11212,"Ġfacility":11213,"Ġburnt":11214,"track":11215,"ĠMalays":11216,"Ġexecuted":11217,"Ġreveal":11218,"Ġloaded":11219,"ĠJulie":11220,"Ġignor":11221,"Ġanxiety":11222,"Ġmultipl":11223,"heimer":11224,"ĠDiego":11225,"Ġkittie":11226,"Queen":11227,"Cont":11228,"eges":11229,"free":11230,"hent":11231,"isn":11232,"Ġfits":11233,"Ġdat":11234,"Ġefficiency":11235,"adays":11236,"ĠALL":11237,"ĠHem":11238,"ulance":11239,"Ġrats":11240,"ĠDer":11241,"ĠLarry":11242,"Ġouter":11243,"ĠEnd":11244,"ĠKaren":11245,"ĠStand":11246,"Ġgrows":11247,"Ġdispl":11248,"Ġdisgr":11249,"Ġflour":11250,"Ġscan":11251,"gins":11252,"Ġsubt":11253,"Ġdisturb":11254,"Going":11255,"Ġfuckin":11256,"Ġlegit":11257,"Ġpresently":11258,"ORE":11259,"Ġcuts":11260,"oosevelt":11261,"Club":11262,"Ġencoun":11263,"Ġnovels":11264,"Ġdeliber":11265,"Ġassistance":11266,"Ġpraised":11267,"Ġmeasured":11268,"ĠCommunist":11269,"Ġhydro":11270,"ĠAssyrian":11271,"Ġacceleration":11272,"Ġbacteria":11273,"Ġaccompanied":11274,"Af":11275,"Far":11276,"Men":11277,"Ray":11278,"SA":11279,"Sister":11280,"bone":11281,"baby":11282,"cal":11283,"count":11284,"Ġturb":11285,"Ġtheories":11286,"Ġwipe":11287,"Ġske":11288,"Ġbum":11289,"Ġbishop":11290,"Ġcord":11291,"leton":11292,"Ġrehe":11293,"ĠSult":11294,"ĠSky":11295,"ĠHorn":11296,"ando":11297,"Young":11298,"ĠPur":11299,"ĠWisconsin":11300,"ĠDom":11301,"Ġconvent":11302,"Ġconvention":11303,"Ġgrat":11304,"Instead":11305,"Ġbug":11306,"Ġinterior":11307,"Ġexpansion":11308,"Ġtopic":11309,"Ġfreely":11310,"headed":11311,"Ġapproaching":11312,"Ġcreep":11313,"Ġdestro":11314,"Ġdropping":11315,"remember":11316,"Ġcombat":11317,"Ġinfinite":11318,"ĠPerhaps":11319,"Ġopinions":11320,"ĠGirls":11321,"Ġblessed":11322,"Ġuniversal":11323,"Ġassignment":11324,"Ġtissue":11325,"ĠLewis":11326,"600":11327,"Bre":11328,"Ever":11329,"pot":11330,"vard":11331,"Ġwagon":11332,"Ġborders":11333,"Ġoath":11334,"Ġcure":11335,"orus":11336,"Ġpitch":11337,"Ġgear":11338,"stick":11339,"Ġstove":11340,"ĠCall":11341,"olished":11342,"estly":11343,"ĠFree":11344,"ĠLast":11345,"ĠLead":11346,"Ġdont":11347,"ubs":11348,"ĠVar":11349,"anga":11350,"ĠYorkshire":11351,"Ġcoins":11352,"eek":11353,"Ġcharity":11354,"cycle":11355,"Ġbreed":11356,"annah":11357,"Ġartific":11358,"Ġgenerations":11359,"Ġtribes":11360,"Ġrounds":11361,"ĠGrace":11362,"iterranean":11363,"Ġpurse":11364,"Ġstealing":11365,"Ġvalid":11366,"aimie":11367,"ĠMicro":11368,"Ġdirections":11369,"Ġtechnique":11370,"Ġcookie":11371,"supp":11372,"ĠHighness":11373,"Quite":11374,"Ġscientist":11375,"Connor":11376,"Ġtrucks":11377,"Ġscholar":11378,"Ġrejected":11379,"ĠBowl":11380,"Ġbench":11381,"Ġtremendous":11382,"Ang":11383,"Holy":11384,"KING":11385,"Pretty":11386,"TO":11387,"fr":11388,"hop":11389,"kers":11390,"xic":11391,"ï¼":11392,"isha":11393,"Ġchess":11394,"Ġdick":11395,"Ġduke":11396,"Ġtoes":11397,"athe":11398,"Ġlux":11399,"ĠAgency":11400,"ĠWWE":11401,"ĠDaisy":11402,"ĠGriff":11403,"ĠRy":11404,"ĠLim":11405,"ĠJu":11406,"Ġtrun":11407,"Ġlend":11408,"Ġcompounds":11409,"Ġblast":11410,"being":11411,"Ġresigned":11412,"Ġmines":11413,"ĠYouTube":11414,"Ġpresum":11415,"Ġdecre":11416,"tenance":11417,"ommod":11418,"Ġdischar":11419,"Ġsentiment":11420,"ĠOrgan":11421,"Ġsilk":11422,"ĠChah":11423,"ĠChand":11424,"Ġperiods":11425,"Ġbearing":11426,"Ġ1928":11427,"Ġfreak":11428,"inistration":11429,"Ġtaxi":11430,"Ġfunding":11431,"Ġroutine":11432,"Ġemployment":11433,"Ġpanic":11434,"ĠPeace":11435,"Ġpredict":11436,"Ġsequel":11437,"avalry":11438,"Finally":11439,"ĠPLAY":11440,"Ġdisgusting":11441,"ĠArizona":11442,"69":11443,"CA":11444,"Clear":11445,"DP":11446,"bish":11447,"mount":11448,"inch":11449,"nda":11450,"Ġfert":11451,"Ġdated":11452,"oting":11453,"Ġhed":11454,"imens":11455,"Ġreci":11456,"ĠSO":11457,"ĠAR":11458,"ĠARE":11459,"ĠBeng":11460,"ĠPad":11461,"ĠPho":11462,"ĠGulf":11463,"ersen":11464,"Ġshocked":11465,"ĠNHL":11466,"Ġ1919":11467,"ĠKa":11468,"Ġarrow":11469,"Ġclients":11470,"ĠStat":11471,"ĠStadium":11472,"Ġfeud":11473,"pled":11474,"izer":11475,"ĠInstead":11476,"ĠYoon":11477,"Ġpockets":11478,"aware":11479,"Ġsla":11480,"Ġconsent":11481,"Ġparam":11482,"Ġdreaming":11483,"Ġcondem":11484,"ĠEmmy":11485,"Neither":11486,"Ġantib":11487,"ĠMedic":11488,"Ġnetworks":11489,"Ġconductor":11490,"white":11491,"Ġqualified":11492,"Ġmagnific":11493,"Ġblanket":11494,"Ġnearest":11495,"Ġconsequences":11496,"ĠNapoleon":11497,"05":11498,"August":11499,"Count":11500,"Haven":11501,"Rad":11502,"jamin":11503,"kur":11504,"later":11505,"oqu":11506,"ref":11507,"hant":11508,"itis":11509,"Ġori":11510,"Ġmast":11511,"Ġdared":11512,"Ġnigg":11513,"owell":11514,"owered":11515,"vell":11516,"Ġhay":11517,"imir":11518,"Ġstake":11519,"ĠHockey":11520,"ĠPap":11521,"thodox":11522,"ppers":11523,"ĠKon":11524,"Ġspray":11525,"hism":11526,"ĠVienna":11527,"ĠUnivers":11528,"Ġrecovery":11529,"ials":11530,"Ġ44":11531,"Ġcheek":11532,"Ġaccommod":11533,"Ġstrings":11534,"ieth":11535,"ĠThom":11536,"Thomas":11537,"Ġpublication":11538,"Ġanniversary":11539,"Ġavo":11540,"Ġsneak":11541,"THAT":11542,"ĠAmazon":11543,"USIC":11544,"Ġenjoying":11545,"ĠPola":11546,"Ġcivilization":11547,"Ġpeaceful":11548,"handed":11549,"Apparently":11550,"ĠIslamic":11551,"Ġsuspicious":11552,"Ġpurchase":11553,"ĠOklahoma":11554,"Especially":11555,"Ġauthors":11556,"Ġfranchise":11557,"Ġslavery":11558,"\";":11559,"Eight":11560,"Fort":11561,"French":11562,"IX":11563,"San":11564,"Use":11565,"War":11566,"cat":11567,"dess":11568,"hour":11569,"lines":11570,"parent":11571,"ĠÐ":11572,"Ġmac":11573,"Ġmock":11574,"Ġfib":11575,"ashi":11576,"ĠSA":11577,"rily":11578,"ĠMoscow":11579,"ante":11580,"throp":11581,"Ġje":11582,"ĠDream":11583,"ĠGOT":11584,"ĠRound":11585,"ĠRights":11586,"ĠLane":11587,"ĠJob":11588,"rah":11589,"ĠEarl":11590,"iah":11591,"Ġgrim":11592,"Ġbrut":11593,"Ġens":11594,"Ġbund":11595,"mbling":11596,"ĠĠĠĠĠ":11597,"ĠAnderson":11598,"Ġcentim":11599,"aneously":11600,"Ġwalks":11601,"Ġmoder":11602,"Ġ1934":11603,"Ġchoices":11604,"ambling":11605,"Ġgrandmother":11606,"ĠWhit":11607,"Trust":11608,"Ġselfish":11609,"ĠNext":11610,"Ġconsideration":11611,"Ġcommanded":11612,"Ġhistorian":11613,"Ġdelivery":11614,"Ġirrit":11615,"Ġbelly":11616,"Ġargued":11617,"Ã¨re":11618,"Ġstretch":11619,"ĠHarris":11620,"ĠTayeb":11621,"Whether":11622,"Ġsouls":11623,"ĠDakota":11624,"65":11625,"Cent":11626,"Imp":11627,"PH":11628,"Sch":11629,"Water":11630,"dig":11631,"ju":11632,"town":11633,"Ġwisdom":11634,"Ġcul":11635,"Ġcrop":11636,"Ġgender":11637,"level":11638,"vex":11639,"Ġreaches":11640,"river":11641,"ĠBenn":11642,"ĠProp":11643,"Ġrage":11644,"ĠDVD":11645,"ĠRidge":11646,"ĠFederation":11647,"Ġbrick":11648,"orns":11649,"iza":11650,"ĠVas":11651,"ĠYet":11652,"Ġcarries":11653,"Ġ41":11654,"irds":11655,"Ġphones":11656,"Ġevolved":11657,"Ġtransition":11658,"Ġrecorder":11659,"Ġpromotion":11660,"Ġdealt":11661,"ĠFranz":11662,"Ġconfusion":11663,"Ġlayer":11664,"Ġelectron":11665,"REE":11666,"Ġhunger":11667,"Ġfundamental":11668,"Ġburden":11669,"cules":11670,"ĠApple":11671,"Ġfrequent":11672,"rella":11673,"Ġpuzzle":11674,"ĠTayebi":11675,"77":11676,"Cle":11677,"Cons":11678,"DIC":11679,"High":11680,"Mel":11681,"PR":11682,"SR":11683,"Supp":11684,"Sighs":11685,"VI":11686,"named":11687,"offic":11688,"top":11689,"Ġtid":11690,"Ġsank":11691,"Ġol":11692,"Ġdip":11693,"Ġgap":11694,"Ġgrie":11695,"omi":11696,"icip":11697,"Ġreverse":11698,"ĠAthe":11699,"ĠBack":11700,"ĠTen":11701,"ĠRun":11702,"ieved":11703,"ĠFle":11704,"ĠLyn":11705,"ĠNash":11706,"Ġvamp":11707,"Ġtwist":11708,"Ġbrains":11709,"Ġbloke":11710,"Ġslope":11711,"Ġsleepy":11712,"Ġzoo":11713,"Ġformerly":11714,"Ġfilling":11715,"ĠQueens":11716,"Ġbelonging":11717,"guing":11718,"gressive":11719,"Ã¡n":11720,"ĠBobby":11721,"ĠAtlanta":11722,"Ġcrowded":11723,"Ġmechanism":11724,"Ġcontrary":11725,"Ġpretending":11726,"helle":11727,"Ġnursery":11728,"ĠBrothers":11729,"Ġancestors":11730,"Ġexplosion":11731,"Ġexhausted":11732,"Ġcontemporary":11733,"Ġaccurate":11734,"Ġpursue":11735,"Ġdistinguished":11736,"ebastian":11737,"Cast":11738,"Ham":11739,"Met":11740,"zi":11741,"Î±":11742,"ĠÅ":11743,"reh":11744,"Ġcin":11745,"edge":11746,"encer":11747,"usalem":11748,"Ġweary":11749,"ĠSN":11750,"ĠAuthor":11751,"ilight":11752,"ĠBaker":11753,"oples":11754,"Ġrating":11755,"istinct":11756,"ĠLisa":11757,"Ġcongress":11758,"Ġ(),":11759,"ĠEver":11760,"inding":11761,"Ġintr":11762,"Ġuncomfortable":11763,"Ġbuck":11764,"formula":11765,"Ġextension":11766,"ĠChristopher":11767,"Ġ1932":11768,"Ġelectrical":11769,"Ġconcerning":11770,"Ġwallet":11771,"entlemen":11772,"Ġmounted":11773,"Ġpenny":11774,"Ġbullshit":11775,"Ġcompanions":11776,"Ġemployees":11777,"Ġessay":11778,"Ġcameras":11779,"Ġlinks":11780,"Guys":11781,"Ġrubber":11782,"ĠMurray":11783,"Ġranked":11784,"warf":11785,"Ġshouting":11786,"ĠRogers":11787,"Ġcabinet":11788,"ĠServices":11789,"Ġdialect":11790,"Air":11791,"Bur":11792,"Dick":11793,"Mont":11794,"cod":11795,"Ġau":11796,"Ġfruits":11797,"Ġpressed":11798,"Ġbees":11799,"uto":11800,"acha":11801,"ĠSports":11802,"ĠMit":11803,"ĠMas":11804,"ĠMack":11805,"uran":11806,"Ġwhilst":11807,"Ġsections":11808,"ĠBee":11809,"open":11810,"thy":11811,"Ġalle":11812,"ĠRO":11813,"aba":11814,"oser":11815,"Ġconverted":11816,"ĠNation":11817,"igration":11818,"Ġvocal":11819,"Ġoverse":11820,"ĠInf":11821,"closed":11822,"Ġhappily":11823,"Ġdescent":11824,"Ġaccent":11825,"Ġcharming":11826,"Ġbush":11827,"Ġrestored":11828,"Ġdrill":11829,"Ġtribe":11830,"ATTER":11831,"Ġhumanity":11832,"ĠCharusa":11833,"ĠAfghan":11834,"Ġcooked":11835,"Ġprayers":11836,"Otherwise":11837,"Ġderived":11838,"Ġmeasures":11839,"ĠStudios":11840,"ĠCarlos":11841,"ĠArgentina":11842,"Ġrhythm":11843,"08":11844,"Dis":11845,"Jean":11846,"LO":11847,"hol":11848,"houses":11849,"iu":11850,"nik":11851,"Â²":11852,"ÂĻ":11853,"Ġtin":11854,"Ġbri":11855,"Ġchip":11856,"asures":11857,"lein":11858,"Ġhire":11859,"ĠCEO":11860,"ifty":11861,"chuckles":11862,"ĠHaven":11863,"ĠBou":11864,"Ġjoking":11865,"ĠRalph":11866,"ĠNC":11867,"ĠNine":11868,"ĠJose":11869,"rawn":11870,"Ġprospect":11871,"ichi":11872,"Ġ1900":11873,"high":11874,"cale":11875,"ĠYu":11876,"issipp":11877,"Ġchim":11878,"irlines":11879,"oots":11880,"Ġcheaper":11881,"Ġmonaster":11882,"Ġgloom":11883,"Ġcared":11884,"ANS":11885,"Ġcollaps":11886,"Ġextract":11887,"ĠSprings":11888,"Ġ99":11889,"Ġlearnt":11890,"Ġmembership":11891,"Ġdestination":11892,"Ġterribly":11893,"Ġsuspend":11894,"Ġarmies":11895,"ĠNeil":11896,"afa":11897,"APRI":11898,"ĠArea":11899,"Ġfortun":11900,"Ġimmense":11901,"Ġcomedian":11902,"Ġclimbed":11903,"ĠONE":11904,"Ġvoting":11905,"ĠBuilding":11906,"fortunate":11907,"Christian":11908,"WHAT":11909,"Ġintelligent":11910,"Ġcomponent":11911,"Ġmathematics":11912,"Ġwrapped":11913,"ĠBusiness":11914,"ĠBrooklyn":11915,"ĠAffairs":11916,"ĠBelgium":11917,"GUN":11918,"PER":11919,"Sat":11920,"SON":11921,"Ye":11922,"eve":11923,"girl":11924,"iable":11925,"nut":11926,"Ġton":11927,"Ġbored":11928,"Ġdot":11929,"Ġreun":11930,"ĠCold":11931,"ĠMong":11932,"ĠMerc":11933,"ĠBurn":11934,"anta":11935,"Ġgoss":11936,"unted":11937,"ĠWonder":11938,"ĠDoc":11939,"ĠDomin":11940,"ĠFollow":11941,"ĠNO":11942,"apse":11943,"agine":11944,"pson":11945,"venth":11946,"ĠAlicia":11947,"Ġwarned":11948,"enez":11949,"ĠThrough":11950,"Ġcolony":11951,"Ġrig":11952,"ika":11953,"Ġsquee":11954,"Ġdivisions":11955,"boat":11956,"Ġsatell":11957,"ĠManchester":11958,"Ġadvis":11959,"ĠAbraham":11960,"Ġdeputy":11961,"ĠExcuse":11962,"Ġsailors":11963,"ĠLaure":11964,"Speaking":11965,"Ġpacked":11966,"Ġtourist":11967,"Plus":11968,"Ġholidays":11969,"Ġpunished":11970,"Ġcoward":11971,"Whoo":11972,"Ġconstitu":11973,"ĠSolomon":11974,"ĠCleveland":11975,"ĠHungarian":11976,"Ġnomination":11977,"Ġscheduled":11978,"ĠConfederate":11979,"ĠDetroit":11980,"Species":11981,"Ġmartial":11982,"original":11983,"Ġgesture":11984,"79":11985,"Bi":11986,"Hard":11987,"Id":11988,"Woman":11989,"cross":11990,"iary":11991,"Ġwoo":11992,"Ġsoph":11993,"Ġoven":11994,"Ġdiver":11995,"Ġpace":11996,"icular":11997,"Ġbeard":11998,"ĠSOME":11999,"rik":12000,"ĠChampionships":12001,"Ġdoin":12002,"opy":12003,"opes":12004,"ĠPass":12005,"gels":12006,"Ġdeleg":12007,"Ġalert":12008,"ĠRabbit":12009,"ĠLax":12010,"ĠNice":12011,"Ġoutta":12012,"ivia":12013,"Ġquote":12014,"olla":12015,"wegian":12016,"Ġbeloved":12017,"Ġsurf":12018,"show":12019,"ĠGray":12020,"ĠGrammy":12021,"Ġsteep":12022,"ĠShort":12023,"Ġmessenger":12024,"Ġtempor":12025,"ĠSeven":12026,"Ġ1935":12027,"Ġprotecting":12028,"Ġtraditions":12029,"ĠAmanda":12030,"ĠSwiss":12031,"ipper":12032,"ĠDonald":12033,"Ġviolin":12034,"ĠRepublicans":12035,"Ġseparation":12036,"Ġvolcan":12037,"Ġreduction":12038,"Ġsalary":12039,"Ġdenied":12040,"Carl":12041,"Ġblessing":12042,"Ġambulance":12043,"Ġchatter":12044,"ĠForeign":12045,"ĠSwedish":12046,"Ġpurchased":12047,"Ġhammer":12048,"Ġembarrassing":12049,"Ġbuttons":12050,"Ġfossil":12051,"Half":12052,"Ġcheeks":12053,"62":12054,"March":12055,"PLE":12056,"Ġturt":12057,"Ġward":12058,"erg":12059,"Ġbury":12060,"anas":12061,"Ġpier":12062,"Ġpills":12063,"arms":12064,"asm":12065,"Ġgene":12066,"acter":12067,"riac":12068,"ĠCensus":12069,"ĠMs":12070,"ĠMove":12071,"ifies":12072,"Ġseal":12073,"ĠHig":12074,"ĠHicks":12075,"ĠBoss":12076,"ĠBox":12077,"olin":12078,"olics":12079,"ĠWy":12080,"Ġjungle":12081,"Ġdeals":12082,"ĠFalls":12083,"ĠNay":12084,"ĠNem":12085,"ĠJenn":12086,"Ġprocl":12087,"ĠOrigin":12088,"ako":12089,"Ġnoon":12090,"ĠKr":12091,"ivals":12092,"active":12093,"ovie":12094,"Ġblown":12095,"interest":12096,"Ġrecurs":12097,"olds":12098,"Ġdesired":12099,"grat":12100,"Ã©e":12101,"Ġswept":12102,"ologies":12103,"aneous":12104,"Ġgenerous":12105,"flu":12106,"ĠAllies":12107,"Ġcreates":12108,"cover":12109,"Ġengagement":12110,"Ġstruct":12111,"Ġapproached":12112,"ĠAmong":12113,"Ġpopularity":12114,"ĠExec":12115,"ĠSyria":12116,"Ġcoverage":12117,"strong":12118,"Ġbehave":12119,"trans":12120,"Ġloads":12121,"kerchief":12122,"Coming":12123,"Ġtroubled":12124,"Ġspinning":12125,"Ġvariable":12126,"ï¼Į":12127,"APRIO":12128,"Bro":12129,"Born":12130,"Leg":12131,"cated":12132,"sor":12133,"Ġther":12134,"hara":12135,"org":12136,"Ġpic":12137,"atar":12138,"Ġgifts":12139,"amma":12140,"steps":12141,"ĠAL":12142,"ĠCox":12143,"ieval":12144,"Ġshy":12145,"ĠFern":12146,"osidodecahedron":12147,"ĠLas":12148,"Ġconsec":12149,"Ġconception":12150,"ĠNancy":12151,"Ġupside":12152,"ĠOUT":12153,"Ġ1918":12154,"ĠKang":12155,"Ġarchae":12156,"ogy":12157,"iren":12158,"rency":12159,"Ġthrust":12160,"Ġflights":12161,"Ġscen":12162,"Ġcriter":12163,"ĠAlb":12164,"Ġconspir":12165,"Ġassure":12166,"Ġartistic":12167,"Ġdeadly":12168,"Ġpromote":12169,"Ġprovision":12170,"Ġbusinessman":12171,"iverpool":12172,"Ġtennis":12173,"Ġsuccession":12174,"Ġresulting":12175,"Ġsunshine":12176,"Ġdiag":12177,"Ġdrops":12178,"without":12179,"Ġcatching":12180,"Ġninth":12181,"ĠLawrence":12182,"Adm":12183,"Between":12184,"ĠWHAT":12185,"Ġinterpretation":12186,"Ġinsects":12187,"ittsburgh":12188,"urisd":12189,"DICAPRIO":12190,"87":12191,"?!":12192,"Kn":12193,"Mac":12194,"Might":12195,"Mah":12196,"PC":12197,"wyn":12198,"yers":12199,"Ġcries":12200,"aration":12201,"Ġloo":12202,"Ġgreed":12203,"Ġhence":12204,"ĠCur":12205,"ĠChes":12206,"iller":12207,"ĠHills":12208,"ĠBorough":12209,"Ġ1000":12210,"oped":12211,"ĠGy":12212,"ĠRoosevelt":12213,"oshi":12214,"ĠLI":12215,"respect":12216,"ortion":12217,"Ġquid":12218,"avia":12219,"Ġmakeup":12220,"Ġfinance":12221,"Ġharsh":12222,"Ġstrangers":12223,"Ġindicate":12224,"Ġtransmit":12225,"Ġnicely":12226,"rophy":12227,"ĠClare":12228,"ĠGround":12229,"ĠConvention":12230,"Ġranks":12231,"Ġveter":12232,"Shh":12233,"ĠCommand":12234,"Ġchoir":12235,"amba":12236,"Ġtreaty":12237,"Ġ1929":12238,"Ġmisunder":12239,"OMAN":12240,"Ġidentical":12241,"ĠFranklin":12242,"ographical":12243,"Ġdemands":12244,"Ġcriticized":12245,"ĠMelbourne":12246,"Ġpraise":12247,"ĠDenmark":12248,"Ġadvertising":12249,"Ġhypot":12250,"Ġvegetables":12251,"ĠPortugal":12252,"Ġsympathy":12253,"Ġwhistle":12254,"Ġingred":12255,"Ġbehaviour":12256,".-":12257,"Lee":12258,"iw":12259,"shire":12260,"ouver":12261,"Ġsoutheast":12262,"Ġber":12263,"anim":12264,"Ġdough":12265,"Ġpunk":12266,"Ġpause":12267,"amous":12268,"ĠSara":12269,"sta":12270,"ĠAx":12271,"ĠABC":12272,"Ġdoct":12273,"ĠHell":12274,"ĠBund":12275,"ĠPerry":12276,"ĠTR":12277,"things":12278,"Ġalike":12279,"Ġalleg":12280,"ĠFine":12281,"ĠFuck":12282,"ĠLau":12283,"ĠLisbon":12284,"hane":12285,"ĠJin":12286,"cked":12287,"Ġvit":12288,"ĠKu":12289,"Ġdaylight":12290,"Ġhandling":12291,"Ġowns":12292,"Ġbelieving":12293,"Ġproduces":12294,"ĠZone":12295,"Ġcurve":12296,"Ġfights":12297,"ONG":12298,"Ġfucked":12299,"Ġdefensive":12300,"Ġexperiments":12301,"ĠWarren":12302,"Ġincreases":12303,"borough":12304,"Ġfemales":12305,"ĠMediterranean":12306,"Ġpercentage":12307,"Indeed":12308,"Phone":12309,"Ġencouraged":12310,"Ġpolyhedron":12311,"Ġadventures":12312,"Ġpillow":12313,"Ġcigarette":12314,"Ġprocedures":12315,"ĠSelena":12316,"Ġdignity":12317,"ĠHolland":12318,"issippi":12319,"\"'":12320,"59":12321,"AB":12322,"BUT":12323,"East":12324,"Easy":12325,"Jac":12326,"Ol":12327,"Port":12328,"Shoot":12329,"chard":12330,"jin":12331,"lied":12332,"mun":12333,"mers":12334,"mare":12335,"pres":12336,"Äį":12337,"Ġwag":12338,"Ġferry":12339,"Ġfiring":12340,"Ġporn":12341,"Ġpatch":12342,"atoes":12343,"user":12344,"acco":12345,"Ġweld":12346,"ĠSandy":12347,"stall":12348,"ĠAle":12349,"ĠPun":12350,"ĠTun":12351,"ĠTel":12352,"Ġjerk":12353,"ĠDC":12354,"umns":12355,"Ġabe":12356,"ĠRachel":12357,"ĠEinstein":12358,"Ġvest":12359,"Ġvague":12360,"Ġ1914":12361,"Ġunemploy":12362,"Ġbetray":12363,"Ġdisgu":12364,"International":12365,"aleh":12366,"Ġsuburb":12367,"Being":12368,"Ġassets":12369,"Ġsmallest":12370,"Ġhumor":12371,"Ġhath":12372,"Ġdesigner":12373,"Ġpractices":12374,"Ġcleaned":12375,"whoa":12376,"APP":12377,"Ġregularly":12378,"ĠDarwin":12379,"Ġcycl":12380,"Ġfrequency":12381,"Ġignore":12382,"Ġchemicals":12383,"ĠJefferson":12384,"becca":12385,"Ġagriculture":12386,"Ġelevator":12387,"ĠCuba":12388,"Ġsociet":12389,"Ġvaccine":12390,"Ġdeaf":12391,"400":12392,"Hy":12393,"Having":12394,"KS":12395,"LSB":12396,"Max":12397,"Sur":12398,"URE":12399,"vals":12400,"Ãª":12401,"Ġtales":12402,"Ġtension":12403,"Ġsab":12404,"itate":12405,"itness":12406,"Ġod":12407,"Ġmales":12408,"orne":12409,"Ġyog":12410,"Ġhut":12411,"usions":12412,"Ġthumb":12413,"Ġbegg":12414,"Ġeats":12415,"ĠSW":12416,"storm":12417,"ĠAcc":12418,"ĠHIS":12419,"ĠPC":12420,"ĠWANT":12421,"ĠGra":12422,"ista":12423,"ĠREA":12424,"ĠJen":12425,"ĠEight":12426,"Ġ1917":12427,"Ġmanifest":12428,"ĠVik":12429,"Ġmuscle":12430,"Ġtragic":12431,"ĠPrice":12432,"Ġclassified":12433,"ĠProdu":12434,"Ġpainful":12435,"Anybody":12436,"Ġlocalities":12437,"Ġdestiny":12438,"ĠGuy":12439,"yram":12440,"Ġmistaken":12441,"Ġrecognised":12442,"Ġcircus":12443,"Ġobservation":12444,"Ġconvicted":12445,"Ġcandle":12446,"ĠMohammad":12447,"White":12448,"ĠDemocrats":12449,"Ġsuspected":12450,"Ġreactions":12451,"Ġdiameter":12452,"Ġpreparation":12453,"ĠLibrary":12454,"Ġconcluded":12455,"Ġfabric":12456,"Ġstrategic":12457,"Ġalgorithm":12458,"ĠAlfred":12459,"Bull":12460,"Dun":12461,"Nick":12462,"Roman":12463,"RSB":12464,"del":12465,"giving":12466,"sun":12467,"sky":12468,"xide":12469,"oro":12470,"Ġpile":12471,"eta":12472,"usk":12473,"imony":12474,"ĠAge":12475,"illes":12476,"ifully":12477,"olia":12478,"ths":12479,"Ġrates":12480,"Ġsob":12481,"Ġshone":12482,"Ġconver":12483,"ĠJuan":12484,"orting":12485,"Ġtrash":12486,"Ġspan":12487,"acey":12488,"Ġlectures":12489,"ptic":12490,"ovak":12491,"Ġcarpet":12492,"Ġchlor":12493,"Ġhomework":12494,"Ġsubstant":12495,"ĠAngel":12496,"lessness":12497,"Looking":12498,"Ġsignals":12499,"Ġexplo":12500,"Ġexplains":12501,"ĠAllied":12502,"Ġdefine":12503,"Ġpoliticians":12504,"Ġcoron":12505,"Ġcommunicate":12506,"rapes":12507,"hampagne":12508,"Ġlayout":12509,"END":12510,"Ġ1933":12511,"Ġsuggestion":12512,"Ġbullets":12513,"Ġtraveling":12514,"ĠDemi":12515,"Ã¼r":12516,"Ġpsychiat":12517,"Ġbells":12518,"Seven":12519,"Ã¶n":12520,"ĠJudge":12521,"Ġcontribution":12522,"Ġconcentration":12523,"ĠRicky":12524,"ĠEthiop":12525,"ĠAthlet":12526,"ĠMalaysia":12527,"CO":12528,"Roll":12529,"Ter":12530,"via":12531,"zheimer":12532,"ÏĦ":12533,"ĠÎ¿":12534,"Ġmol":12535,"orable":12536,"Ġnotion":12537,"ĠBi":12538,"ĠWat":12539,"ĠWag":12540,"ĠWolf":12541,"elli":12542,"ĠGyp":12543,"ĠRap":12544,"ĠRoom":12545,"ĠLeb":12546,"ĠNixon":12547,"igious":12548,"igma":12549,"Ġmans":12550,"ĠKirk":12551,"Ġspots":12552,"ĠUpper":12553,"ishment":12554,"Ġquack":12555,"Ġamateur":12556,"Ġcompare":12557,"Ġserial":12558,"Ġscores":12559,"orship":12560,"Ġmustn":12561,"ventually":12562,"Ġpreserved":12563,"ibbean":12564,"Ġdrown":12565,"Ġpointing":12566,"Ġconsol":12567,"Ġswitched":12568,"ierre":12569,"Ġlocomot":12570,"Ġmaintenance":12571,"Reg":12572,"Ġbarrel":12573,"untary":12574,"Ġrevol":12575,"mingham":12576,"Ġmurm":12577,"Ġabsurd":12578,"colm":12579,"regon":12580,"related":12581,"Ġrobot":12582,"Ġarguments":12583,"Ġchallenged":12584,"ĠPopeye":12585,"Ġliberal":12586,"Ġmysteries":12587,"ĠMemorial":12588,"Ġtrailer":12589,"Ġpaused":12590,"Police":12591,"Ġmarginal":12592,"Ġneutral":12593,"ĠLloyd":12594,"Ġthoroughly":12595,"Ġritual":12596,"Ġunexpected":12597,"88":12598,"Won":12599,"ahedron":12600,"lD":12601,"love":12602,"oj":12603,"rating":12604,"Ġware":12605,"Ġrend":12606,"Ġreception":12607,"Ġrenew":12608,"acre":12609,"ĠCare":12610,"ĠCemetery":12611,"ĠMaha":12612,"olis":12613,"ellig":12614,"Ġrh":12615,"ĠGir":12616,"ĠFu":12617,"ĠLam":12618,"ĠEN":12619,"ĠOrange":12620,"Ġ1913":12621,"ĠKl":12622,"osexual":12623,"neum":12624,"Ġbacks":12625,"olley":12626,"ĠVenez":12627,"Ġguid":12628,"Ġundert":12629,"Ġresolution":12630,"Ġcarn":12631,"Ġchin":12632,"Ġleap":12633,"grand":12634,"Ġ42":12635,"ĠMario":12636,"ottage":12637,"Ġdecides":12638,"Ġmush":12639,"Ġbuses":12640,"Ġbasement":12641,"Ġethan":12642,"Ġ1924":12643,"Ġ1927":12644,"Ġactivist":12645,"Ġcelebration":12646,"Ġfatal":12647,"Ġwaist":12648,"Guess":12649,"Ġrequirements":12650,"Ġutil":12651,"Ġaxis":12652,"ĠWalker":12653,"Ġphenomen":12654,"asketball":12655,"ĠDynasty":12656,"Ġprosper":12657,"Ġfictional":12658,"04":12659,"09":12660,"66":12661,"Det":12662,"London":12663,"Ty":12664,"ao":12665,"aus":12666,"sil":12667,"whel":12668,"Ãº":12669,"âĪ":12670,"Ġtent":12671,"Ġwages":12672,"Ġbicy":12673,"Ġcater":12674,"ĠIvan":12675,"Ġhosp":12676,"amo":12677,"ĠChampion":12678,"ĠMand":12679,"andin":12680,"ĠPir":12681,"ĠWalt":12682,"qual":12683,"ĠKay":12684,"ĠKey":12685,"Ġagencies":12686,"Ġpeoples":12687,"Ġtwisted":12688,"Ġfeast":12689,"Ġunfortunate":12690,"issions":12691,"ĠShel":12692,"Ġdistinction":12693,"Ġreader":12694,"Ġcollar":12695,"Ġrepublic":12696,"Ġskull":12697,"Ġfilmed":12698,"Ġinspiration":12699,"Ġsolic":12700,"covery":12701,"Ġorganisation":12702,"Ġtrend":12703,"Ġceiling":12704,"Ġapprove":12705,"ĠMississippi":12706,"Ġinvolving":12707,"Ġposted":12708,"Ġdepressed":12709,"Ġpropag":12710,"Ġrespectively":12711,"Ġrepresentation":12712,"True":12713,"guard":12714,"ancouver":12715,"ĠRegional":12716,"Ġdanced":12717,"Ġ1890":12718,"Ġlogic":12719,"ekaboo":12720,"Ġcustomer":12721,"ĠArabia":12722,"ĠFrederick":12723,"IGHS":12724,"ĠCatal":12725,"Ġwidow":12726,"Ġwritings":12727,"Ġcorporate":12728,"Ġtorture":12729,"ĠHunter":12730,"72":12731,"Cam":12732,"GS":12733,"July":12734,"National":12735,"Tonight":12736,"WS":12737,"dia":12738,"hist":12739,"sometimes":12740,"á»":12741,"ĠtÎ¿":12742,"Ġwolves":12743,"Ġsins":12744,"Ġbonds":12745,"Ġfet":12746,"Ġpub":12747,"arat":12748,"Ġlod":12749,"ĠIng":12750,"ĠSey":12751,"Ġstared":12752,"ĠHERE":12753,"Ġliver":12754,"thou":12755,"ĠWhich":12756,"ĠGus":12757,"ĠRet":12758,"Ġshove":12759,"ĠLang":12760,"ĠLock":12761,"ĠNich":12762,"Ġvirgin":12763,"ĠOp":12764,"Ġnobles":12765,"venge":12766,"Ġclay":12767,"hoibi":12768,"ĠYouth":12769,"Ġcounted":12770,"Ġmini":12771,"Ġregards":12772,"Ġcolumns":12773,"Ġrifle":12774,"Ġinsisted":12775,"Ġvisits":12776,"Ġadmire":12777,"ĠManhattan":12778,"ĠPhill":12779,"Ġbottles":12780,"Ġhanged":12781,"Ġsticks":12782,"OWN":12783,"Ġthreatening":12784,"ĠJerusalem":12785,"Ġoccupation":12786,"ĠLucy":12787,"Ġcategories":12788,"Ġlegislation":12789,"Ġcertific":12790,"Ġcontroversy":12791,"uerto":12792,"children":12793,"Ġbothered":12794,"Ġconvenient":12795,"92":12796,"DR":12797,"Hot":12798,"WO":12799,"bear":12800,"ku":12801,"à¥":12802,"Ġtenth":12803,"inea":12804,"isure":12805,"Ġcam":12806,"inge":12807,"Ġpoo":12808,"Ġnerve":12809,"eting":12810,"ĠSnow":12811,"ĠCors":12812,"ĠCBS":12813,"ĠCÃ¦sar":12814,"ĠMans":12815,"ĠMAN":12816,"Ġdoggie":12817,"illo":12818,"ĠBrig":12819,"ĠPole":12820,"ells":12821,"Ġjer":12822,"ĠRain":12823,"ĠRab":12824,"ĠJama":12825,"Ġexit":12826,"udson":12827,"wealth":12828,"ormal":12829,"Ġneedle":12830,"Ġcontents":12831,"Ġcontempt":12832,"Ġdiff":12833,"Ġrealised":12834,"Ġdecade":12835,"Ġwarming":12836,"insky":12837,"reaming":12838,"uffs":12839,"Ġrepair":12840,"Ġevac":12841,"Thus":12842,"Thought":12843,"Ġtriple":12844,"ĠCaribbean":12845,"ikes":12846,"Ġmarkets":12847,"Ġvisiting":12848,"umbai":12849,"ĠLords":12850,"Ġstriking":12851,"ĠMedical":12852,"Ġbanned":12853,"Professor":12854,"Ġsensation":12855,"ĠNorwegian":12856,"ĠJuliet":12857,"Ġdispute":12858,"Ġmiracle":12859,"Ġbabe":12860,"ĠFerrier":12861,"Ġmythology":12862,"Ġpartnership":12863,"Ġlungs":12864,"ĠPersian":12865,"Ġnitrogen":12866,"Ġterrified":12867,"ĠWrestling":12868,"Ġadapted":12869,"Ġnaughty":12870,"Ġgossip":12871,".;":12872,"Bas":12873,"German":12874,"Lady":12875,"ML":12876,"lace":12877,"overs":12878,"rations":12879,"var":12880,"vonne":12881,"Ġbob":12882,"Ġcents":12883,"Ġdried":12884,"ativity":12885,"asks":12886,"Ġgum":12887,"Ġgau":12888,"Ġrect":12889,"ĠMoney":12890,"ĠBart":12891,"ĠBert":12892,"ĠPed":12893,"ĠPant":12894,"ĠTall":12895,"Ġjokes":12896,"Ġcann":12897,"istical":12898,"ĠRaven":12899,"Ġconvert":12900,"early":12901,"pling":12902,"plus":12903,"Ġcompound":12904,"Ġimper":12905,"ructure":12906,"Ġperpet":12907,"Ġreserve":12908,"Ġcounties":12909,"Ġkindness":12910,"Ġsymmet":12911,"Ġassured":12912,"ĠReal":12913,"ĠIndust":12914,"Ġartillery":12915,"Ġcolonel":12916,"ĠCountry":12917,"ĠAustin":12918,"Chief":12919,"Ġsnakes":12920,"Ġkissing":12921,"ĠGlen":12922,"Surely":12923,"ĠMadrid":12924,"ĠAntar":12925,"agonal":12926,"Ġremarked":12927,"Ġanswering":12928,"Ġgorgeous":12929,"Ġdemocracy":12930,"Ġswallow":12931,"ĠStewart":12932,"Ġvulnerable":12933,"Ġrehears":12934,"SI":12935,"Women":12936,"],":12937,"hur":12938,"maid":12939,"qi":12940,"Ġtum":12941,"Ġcups":12942,"eton":12943,"Ġrelevant":12944,"ĠSweet":12945,"ĠChel":12946,"ĠMess":12947,"ĠPay":12948,"ĠTerry":12949,"oline":12950,"Ġjunk":12951,"Ġsocks":12952,"ĠRoute":12953,"Ġcongrat":12954,"ĠNev":12955,"âĢĺ":12956,"uddy":12957,"ĠKaz":12958,"ĠKatherine":12959,"Ġclick":12960,"hyd":12961,"Ġblows":12962,"ĠVis":12963,"ĠInspector":12964,"rup":12965,"aux":12966,"Ġcargo":12967,"riends":12968,"Ġdrummer":12969,"ĠAlaska":12970,"Ġinvaded":12971,"Ġinvisible":12972,"Ġfewer":12973,"Ġmainland":12974,"ĠThird":12975,"Ġ95":12976,"Ġpromises":12977,"Ġcontinuous":12978,"Ġcontrolling":12979,"Ġagenda":12980,"sterdam":12981,"Ġfilming":12982,"Ġappearing":12983,"Ġsends":12984,"Ġdiary":12985,"comb":12986,"Ġlowest":12987,"Ġpropose":12988,"ominations":12989,"Ġ1921":12990,"Ġ1926":12991,"Ġcomplain":12992,"ĠMedal":12993,"Ġsurviv":12994,"Ġflee":12995,"Ġlovers":12996,"minute":12997,"Fucking":12998,"Ġclimbing":12999,"Ġvanished":13000,"ĠDespite":13001,"Ġrequested":13002,"Ġpurely":13003,"Ġpriority":13004,"ĠGeoff":13005,"................":13006,"Ġnickname":13007,"ĠCroatian":13008,"otype":13009,"Ġsustainable":13010,"Ġgalax":13011,"ĠArmenian":13012,"ĠTechnology":13013,"ĠSofla":13014,"namese":13015,"Cla":13016,"DE":13017,"GA":13018,"Gar":13019,"June":13020,"Mil":13021,"September":13022,"TR":13023,"bul":13024,"brew":13025,"fu":13026,"front":13027,"list":13028,"lings":13029,"tra":13030,"zan":13031,"Ġtheat":13032,"oug":13033,"itudes":13034,"angel":13035,"esy":13036,"oton":13037,"Ġhint":13038,"alysis":13039,"Ġhaz":13040,"Ġretain":13041,"ĠSis":13042,"Ġsew":13043,"Ġlip":13044,"ĠPin":13045,"uno":13046,"ĠWes":13047,"eston":13048,"ĠRub":13049,"arte":13050,"Ġshorter":13051,"odia":13052,"ĠOt":13053,"Ġdownload":13054,"Ġunc":13055,"Ġunre":13056,"ĠInn":13057,"Ġcoin":13058,"formed":13059,"Ġslap":13060,"ibal":13061,"Ġgloves":13062,"Ġsworn":13063,"Ġresting":13064,"Ġindigenous":13065,"braska":13066,"apper":13067,"Almost":13068,"ĠBeck":13069,"Ġordering":13070,"Ġawait":13071,"ennon":13072,"Ġcrept":13073,"Ġ1925":13074,"Ġsailor":13075,"Ġpermit":13076,"Ġreferring":13077,"iotics":13078,"Cheers":13079,"books":13080,"Ġpreferred":13081,"Ġrestaurants":13082,"intendent":13083,"LAUGHTER":13084,"Ġsympat":13085,"Ġinterrupted":13086,"Ġvertices":13087,"President":13088,"Ġbridges":13089,"ĠJoyce":13090,"Ġsuspicion":13091,"Ġartificial":13092,"78":13093,"April":13094,"Bo":13095,"Bon":13096,"Certainly":13097,"EX":13098,"Save":13099,"Tur":13100,"Walk":13101,"hill":13102,"tar":13103,"vironment":13104,"Ãł":13105,"Ġtu":13106,"once":13107,"Ġcust":13108,"Ġcemetery":13109,"Ġmaps":13110,"Ġflex":13111,"Ġdwarf":13112,"Ġpneum":13113,"atched":13114,"Ġnan":13115,"Ġhug":13116,"Ġecho":13117,"enton":13118,"ĠMorning":13119,"Ġdock":13120,"ĠBea":13121,"ĠPittsburgh":13122,"ĠDal":13123,"ĠDug":13124,"Ġalter":13125,"ĠFuk":13126,"Ġmanip":13127,"Ġmanaging":13128,"Ġtrous":13129,"Ġtwent":13130,"ĠStill":13131,"ĠStock":13132,"Ġprey":13133,"Ġrecru":13134,"ĠBron":13135,"Ġmarching":13136,"atively":13137,"Ġproducers":13138,"Ġchasing":13139,"ĠFront":13140,"shop":13141,"ATT":13142,"Ġpathetic":13143,"Ġoperates":13144,"Ġorganised":13145,"Ġdesignated":13146,"Ġdelicate":13147,"Ġrocket":13148,"Ġsexy":13149,"Ġpublisher":13150,"Ġforgetting":13151,"regular":13152,"Unfortunately":13153,"ammar":13154,"Ġmixture":13155,"Ġsandwich":13156,"ĠBenjamin":13157,"Scott":13158,"ĠDelaware":13159,"Ġrubbish":13160,"Tommy":13161,"ĠÂ¶":13162,"ĠNazis":13163,"Ġtowel":13164,"Ġestablishment":13165,"ĠBradford":13166,"Ġcontroversial":13167,"Ġbombs":13168,"Ġregistered":13169,"ĠCosta":13170,"ĠHurricane":13171,"Ġproportion":13172,"ĠABOUT":13173,"Ġmagnificent":13174,"76":13175,"Aunt":13176,"List":13177,"Pull":13178,"det":13179,"rice":13180,"squ":13181,"tic":13182,"table":13183,"Ġtast":13184,"Ġties":13185,"Ġwret":13186,"Ġmice":13187,"Ġpi":13188,"Ġrecept":13189,"ĠScient":13190,"irable":13191,"irrel":13192,"ĠAud":13193,"ĠAges":13194,"ĠMO":13195,"ĠBed":13196,"unity":13197,"ĠDance":13198,"Ġdefect":13199,"Ġcancel":13200,"ĠGab":13201,"ĠRio":13202,"ĠFitz":13203,"ĠNiger":13204,"oded":13205,"ĠKeep":13206,"Ġtricks":13207,"hika":13208,"soever":13209,"ĠStr":13210,"Ġoffensive":13211,"Ġcoff":13212,"Ġmonument":13213,"ĠReed":13214,"Ġclassroom":13215,"Ġterminal":13216,"Ġballoon":13217,"Ġattacking":13218,"Ġsouthwest":13219,"Chuckles":13220,"Ġ1931":13221,"ĠHarvard":13222,"Ġcrystal":13223,"Ġinflation":13224,"Ġpenalty":13225,"Ġengineers":13226,"Ġphysically":13227,"Ġobserv":13228,"Ġsurvival":13229,"ĠMonte":13230,"ĠOlya":13231,"ĠSaudi":13232,"Ġconsumer":13233,"Ġconsumption":13234,"Ġsubsid":13235,"ampshire":13236,"Ġresponded":13237,"LAUGHS":13238,"ĠRomans":13239,"ĠStanley":13240,"ĠClaire":13241,"Ġpissed":13242,"Ġdiagnosed":13243,"Ġrugby":13244,"ĠUtah":13245,"Ġalleged":13246,"52":13247,"Calm":13248,"QU":13249,"Sn":13250,"Wonder":13251,"aac":13252,"must":13253,"Ġtang":13254,"repre":13255,"Ġwrap":13256,"oning":13257,"Ġpizza":13258,"Ġinfer":13259,"Ġinev":13260,"Ġlemon":13261,"Ġlazy":13262,"ĠIron":13263,"Ġhip":13264,"Ġhen":13265,"Ġheap":13266,"Ġbee":13267,"amples":13268,"ĠSem":13269,"ĠSound":13270,"ĠCond":13271,"ĠMind":13272,"terior":13273,"ĠHampshire":13274,"ĠBol":13275,"Ġneuro":13276,"Ġjim":13277,"ĠGon":13278,"abama":13279,"ĠLabor":13280,"elic":13281,"ĠEuro":13282,"Ġexhib":13283,"Ġmankind":13284,"agen":13285,"agraph":13286,"soon":13287,"ovan":13288,"Ġflame":13289,"Ġscandal":13290,"Ġ43":13291,"ĠAlber":13292,"ĠAlzheimer":13293,"Ġmuscles":13294,"offe":13295,"Ġ600":13296,"Ġcolleges":13297,"Ġfighter":13298,"OND":13299,"Ġpatience":13300,"Ġpursu":13301,"ĠLeo":13302,"Ġengage":13303,"ĠPlan":13304,"Anyone":13305,"Ġworrying":13306,"Ġruins":13307,"Ġcharacteristics":13308,"Ġ250":13309,"Ġexceptions":13310,"offs":13311,"Ġpenet":13312,"Ġrainbow":13313,"Ġfeaturing":13314,"Ġinfluential":13315,"Ġdresses":13316,"Ġsurviving":13317,"ĠMadame":13318,"Ġsmells":13319,"ĠCatholics":13320,"Ġlosses":13321,"ĠRailroad":13322,"Ã¨s":13323,"himself":13324,"Ġadopt":13325,"Ġrecommended":13326,"Ġautomatically":13327,"ĠSongs":13328,"ĠLucas":13329,"Ġfrankly":13330,"ĠAntonio":13331,"Ġrecycling":13332,"Ġoverseas":13333,"ĠAfghanistan":13334,"Ġguidance":13335,"reprene":13336,"06":13337,":\"":13338,"Aah":13339,"Ret":13340,"bin":13341,"cs":13342,"ere":13343,"far":13344,"hou":13345,"lic":13346,"rise":13347,"uously":13348,"zo":13349,"haus":13350,"itated":13351,"Ġlou":13352,"Ġlane":13353,"Ġbegging":13354,"Ġrevers":13355,"outing":13356,"ĠMaimie":13357,"ĠHose":13358,"ĠPhys":13359,"ulu":13360,"ĠWright":13361,"Ġdeer":13362,"ieves":13363,"ĠNBA":13364,"ĠJason":13365,"ĠJesse":13366,"Ġmanners":13367,"ĠKnow":13368,"sole":13369,"Ġclue":13370,"Ġclip":13371,"Ġclause":13372,"Ġbrass":13373,"oviÄĩ":13374,"ĠYi":13375,"issance":13376,"onson":13377,"Ġhandled":13378,"Ġhandkerchief":13379,"grim":13380,"grade":13381,"Ã©s":13382,"Ġsurgeon":13383,"Ġ52":13384,"Ġobsc":13385,"Ġlighter":13386,"Ġlightning":13387,"ĠSpirit":13388,"Forgive":13389,"Ġtriumph":13390,"ĠBey":13391,"Ġwinners":13392,"Ġestimate":13393,"Ġmurders":13394,"THING":13395,"ĠAmsterdam":13396,"Ġ1923":13397,"Ġcooling":13398,"Ġfemin":13399,"Wouldn":13400,"writing":13401,"ÃŃa":13402,"ophie":13403,"Ġmechanical":13404,"Ġcomposers":13405,"ĠBrahm":13406,"Ġgathering":13407,"Ġmolecules":13408,"Ġloyalty":13409,"Obviously":13410,"Ġsearched":13411,"ĠMacedonia":13412,"âĪĴ":13413,"74":13414,"Aust":13415,"DA":13416,"Joe":13417,"Major":13418,"Ron":13419,"Suddenly":13420,"gans":13421,"human":13422,"khar":13423,"Ġtel":13424,"Ġsigh":13425,"erals":13426,"Ġoct":13427,"Ġfist":13428,"aron":13429,"Ġles":13430,"lymouth":13431,"ĠSax":13432,"ĠSciences":13433,"ĠCart":13434,"ĠMiy":13435,"Ġaspir":13436,"Ġsealed":13437,"ĠHat":13438,"ĠHER":13439,"ĠBoo":13440,"ĠBranch":13441,"ĠTrent":13442,"throw":13443,"Ġrag":13444,"Ġsovere":13445,"iege":13446,"ĠFrem":13447,"ĠLiverpool":13448,"Ġleather":13449,"hyl":13450,"Ġbetrayed":13451,"ressing":13452,"Ġshalt":13453,"Ġpolar":13454,"Ġcheating":13455,"Ġregul":13456,"Donald":13457,"Ġelabor":13458,"phones":13459,"Ġmedieval":13460,"Ġdrawer":13461,"Ġrip":13462,"Govern":13463,"umbo":13464,"Ġcouch":13465,"Ġelectrons":13466,"ĠItalians":13467,"Ġgraves":13468,"Ġposter":13469,"Ġcollecting":13470,"Ġruling":13471,"Ġsecretly":13472,"Ġpotato":13473,"Meanwhile":13474,"Ġdiscussing":13475,"Ġplanted":13476,"Ġdigging":13477,"Ġspreading":13478,"Ġsymbols":13479,"Ġphilosopher":13480,"Ġsurround":13481,"market":13482,"Ġboundaries":13483,"Ġreminds":13484,"Ġloudly":13485,"Ġaltar":13486,"Ġdelightful":13487,"Ġghosts":13488,"Ġconstruct":13489,"VERY":13490,"EEP":13491,"Ġvirtue":13492,"ĠBernard":13493,"Ġaccompany":13494,"ĠHugh":13495,"ĠCroce":13496,"Ġaccomplished":13497,"Ġstimul":13498,"ĠFaith":13499,"Ġpeasants":13500,"Ġhedge":13501,"Ġbundle":13502,"94":13503,"Pad":13504,"RL":13505,"Tra":13506,"Wil":13507,"both":13508,"mel":13509,"mod":13510,"nun":13511,"nine":13512,"Î½":13513,"Ġsunk":13514,"eries":13515,"Ġmand":13516,"Ġpul":13517,"Ġpian":13518,"arin":13519,"arter":13520,"owl":13521,"Ġhipp":13522,"Ġheels":13523,"uting":13524,"ĠSi":13525,"ĠCrow":13526,"Ġassemb":13527,"ĠBR":13528,"ĠPage":13529,"unci":13530,"ĠWr":13531,"ĠDob":13532,"ĠDraft":13533,"aber":13534,"ĠJournal":13535,"Ġvoyage":13536,"ĠKw":13537,"ĠKlein":13538,"icky":13539,"ĠStory":13540,"Ġovercome":13541,"plant":13542,"plain":13543,"adeh":13544,"Ġbloom":13545,"ensed":13546,"ĠUnlike":13547,"Ġpole":13548,"itionally":13549,"lier":13550,"airy":13551,"Ġenters":13552,"Ġconsisted":13553,"ĠNewton":13554,"meal":13555,"Ġpopulations":13556,"reams":13557,"Ġimpat":13558,"Ġsitcom":13559,"Ġextinct":13560,"Ġsquire":13561,"Ġdreamed":13562,"Ġsummon":13563,"iences":13564,"Ġprivacy":13565,"Ġverse":13566,"Ġphysic":13567,"ĠHighland":13568,"Bloody":13569,"Ġ1904":13570,"Ġrobbery":13571,"ĠFinland":13572,"Ġdancer":13573,"ĠMagazine":13574,"Ġchapel":13575,"Ġminority":13576,"hearted":13577,"izzy":13578,"Ġconsistent":13579,"Ġtraditionally":13580,"Ġlaboratory":13581,"ĠBrazilian":13582,"Ġbatteries":13583,"ĠTeddy":13584,"ĠFrancesco":13585,"Ġqueer":13586,"ĠGilbert":13587,"ĠSPEAK":13588,"ĠBaseball":13589,"ĠPictures":13590,"Ġbronze":13591,"necessary":13592,"ĠPhoen":13593,"ĠBundes":13594,"71":13595,"Ber":13596,"BLE":13597,"Fre":13598,"Ly":13599,"Ms":13600,"Raw":13601,"Ver":13602,"Wr":13603,"card":13604,"disc":13605,"iens":13606,"jam":13607,"rics":13608,"Ġtatt":13609,"remy":13610,"having":13611,"Ġbail":13612,"Ġbisc":13613,"Ġfoul":13614,"Ġdent":13615,"Ġdensity":13616,"encing":13617,"Ġgardens":13618,"Ġnail":13619,"Ġheir":13620,"Ġbeam":13621,"Ġwasting":13622,"rolled":13623,"ĠCatherine":13624,"ĠPas":13625,"ĠTalk":13626,"ĠFund":13627,"abet":13628,"ĠKam":13629,"ĠItanium":13630,"nered":13631,"Ġbackpack":13632,"ĠVancouver":13633,"herent":13634,"beat":13635,"Ġburial":13636,"Ġflung":13637,"Ġappet":13638,"Ġscoring":13639,"Ġrelieved":13640,"Ġfinest":13641,"Ġregulations":13642,"âĻ¬":13643,"INK":13644,"Ġeleg":13645,"Ġelector":13646,"Ġcaps":13647,"Ġchased":13648,"Ġincom":13649,"Ġimpulse":13650,"Ġcollapse":13651,"ĠThough":13652,"ĠSpace":13653,"ussia":13654,"Ġlawyers":13655,"Ġpatron":13656,"Ġpaste":13657,"Ġtestimony":13658,"Ġprocessing":13659,"Ġpropos":13660,"Ġdining":13661,"Ġrecognise":13662,"Ġobjective":13663,"Ġobserve":13664,"rawford":13665,"Ġtourists":13666,"Ġbiological":13667,"Ġblend":13668,"Ġkicking":13669,"ĠMetropolitan":13670,"ravis":13671,"ĠDevon":13672,"believ":13673,"Ġlicence":13674,"Ġdiamonds":13675,"Ġmanufacturing":13676,"ĠHungary":13677,"Ġembarrassed":13678,"Ġgeometry":13679,"urisdiction":13680,"03":13681,"BR":13682,"Beth":13683,"Kim":13684,"Mag":13685,"Sen":13686,"__":13687,"came":13688,"cott":13689,"iji":13690,"ships":13691,"wife":13692,"{\\":13693,"isons":13694,"Ġbol":13695,"Ġbats":13696,"lley":13697,"Ġtore":13698,"atics":13699,"Ġhood":13700,"Ġthri":13701,"Ġbew":13702,"Ġreef":13703,"ĠSop":13704,"still":13705,"ĠCould":13706,"ĠMaur":13707,"ĠMonsieur":13708,"Ġwhip":13709,"unty":13710,"ĠDy":13711,"ĠDavy":13712,"ĠDennis":13713,"ppen":13714,"pple":13715,"ĠNam":13716,"Ġsuits":13717,"Ġsheets":13718,"Ġprofound":13719,"ĠOregon":13720,"ĠKis":13721,"Ġclo":13722,"Ġoverwhel":13723,"Ġgrasp":13724,"Ġblade":13725,"ocese":13726,"Ġreserv":13727,"liest":13728,"Ġharvest":13729,"azines":13730,"Ġforming":13731,"Ġdrums":13732,"Ġswore":13733,"Ġcharm":13734,"Ġ66":13735,"Ġmedication":13736,"OUND":13737,"Ġplanes":13738,"Ġcurtains":13739,"ARY":13740,"Ġhates":13741,"Ġcorp":13742,"Ġdealer":13743,"Ġpublicly":13744,"Ġtreating":13745,"ĠMickey":13746,"Ġdevoted":13747,"Ġ1922":13748,"Ġcomplaint":13749,"Ġmarketing":13750,"Ġdressing":13751,"Ġbowed":13752,"Ġaccessible":13753,"ĠBelgian":13754,"Ġacquaint":13755,"ĠDelta":13756,"ĠMarshal":13757,"Ġstruggling":13758,"Ġshadows":13759,"Ġcalculated":13760,"ĠPlayStation":13761,"ĠModern":13762,"Ġwealthy":13763,"Ġpreparing":13764,"Ġborrowed":13765,"Relax":13766,"Ġanchor":13767,"ĠOriental":13768,"Ġmosque":13769,"Ġhelicopter":13770,"Ġinterfere":13771,"Ġdatab":13772,"ĠFollowing":13773,"Ġcriteria":13774,"01":13775,"54":13776,"Eric":13777,"Ger":13778,"Green":13779,"IO":13780,"ME":13781,"Mem":13782,"MEN":13783,"Send":13784,"damn":13785,"ih":13786,"kan":13787,"lC":13788,"lay":13789,"mie":13790,"mia":13791,"rast":13792,"tree":13793,"ãģ":13794,"eros":13795,"anche":13796,"Ġtob":13797,"aland":13798,"aco":13799,"amoto":13800,"stable":13801,"Ġmeals":13802,"ĠMember":13803,"ĠMale":13804,"Ġwhore":13805,"ĠWant":13806,"ĠGraham":13807,"Ġsoccer":13808,"essed":13809,"ĠFruit":13810,"ĠLan":13811,"ĠLower":13812,"ĠNumber":13813,"ĠJunior":13814,"Ġworries":13815,"Ġthemes":13816,"ĠKrishna":13817,"Ġarguing":13818,"Ġunl":13819,"izar":13820,"atern":13821,"ĠVo":13822,"ocity":13823,"Ġprejud":13824,"Ġresidence":13825,"Ġscra":13826,"Ġshapes":13827,"Ġmarched":13828,"Ġ54":13829,"Ġdrain":13830,"Ġexpense":13831,"Ġexposure":13832,"eches":13833,"Alice":13834,"Ġparagraph":13835,"iamond":13836,"archy":13837,"Ġcamps":13838,"uka":13839,"reedom":13840,"Ġradical":13841,"Ġdependent":13842,"Ġtraveled":13843,"Ġpermitted":13844,"ĠGreater":13845,"Ġtendency":13846,"Ġsenses":13847,"Johnny":13848,"ĠSamuel":13849,"Ġheroes":13850,"Ġtexts":13851,"ĠÃĹ":13852,"Ġdefendant":13853,"Ġsatisfaction":13854,"ĠConservative":13855,"Ġinstrumental":13856,"ĠCambridge":13857,"Ġcolleague":13858,"Ġsync":13859,"Billboard":13860,"titles":13861,"ĠBulgar":13862,"ĠCraig":13863,"ĠAuthority":13864,"02":13865,"58":13866,"91":13867,"Home":13868,"MP":13869,"Mod":13870,"mil":13871,"oks":13872,"spring":13873,"Ãī":13874,"Ġmaj":13875,"Ġpap":13876,"Ġinaug":13877,"ĠChat":13878,"Ġascend":13879,"church":13880,"ĠHaj":13881,"ĠBass":13882,"ĠBasketball":13883,"anded":13884,"antine":13885,"ĠPA":13886,"gered":13887,"ĠRi":13888,"ĠFood":13889,"Ġoutfit":13890,"Ġexhibit":13891,"ĠOscar":13892,"Ġ1915":13893,"Ġ1912":13894,"neg":13895,"Ġquad":13896,"ruck":13897,"Ġprecip":13898,"Ġflip":13899,"Ġapprent":13900,"Ġserver":13901,"ixed":13902,"Ġsecured":13903,"Ġnamely":13904,"Ġharbour":13905,"Ġdrowned":13906,"ĠAlabama":13907,"Ġsubway":13908,"Ġchains":13909,"Ġlists":13910,"Ġsimult":13911,"atti":13912,"brid":13913,"ĠClinton":13914,"Ġcontinuing":13915,"ĠBlair":13916,"Ġpursuit":13917,"Ġsweep":13918,"Ġguessed":13919,"ĠTrump":13920,"ĠManagement":13921,"Ġcircles":13922,"ĠJoan":13923,"Ġarrives":13924,"Ġimagined":13925,"Ġanticip":13926,"casting":13927,"IDE":13928,"ĠRobinson":13929,"Ġmultiply":13930,"ĠJulia":13931,"Ġcontributions":13932,"boys":13933,"ĠSquad":13934,"Ġrescued":13935,"Ġseverely":13936,"Ġguitarist":13937,"ĠRaja":13938,"Ġjewel":13939,"Ġobliged":13940,"Louis":13941,"ĠVivie":13942,"Ġfascinating":13943,"ĠMicrosoft":13944,"ĠFremantle":13945,"CR":13946,"Either":13947,"Laughs":13948,"October":13949,"PE":13950,"SN":13951,"corn":13952,"court":13953,"folk":13954,"fucker":13955,"hor":13956,"hog":13957,"iated":13958,"mag":13959,"yay":13960,"heard":13961,"Ġwilt":13962,"hak":13963,"Ġcodes":13964,"Ġdual":13965,"asper":13966,"usively":13967,"ayed":13968,"Ġwasted":13969,"stones":13970,"ĠAC":13971,"ĠCut":13972,"ĠMaid":13973,"ĠBureau":13974,"ĠTiger":13975,"ĠTroll":13976,"ĠWald":13977,"estone":13978,"ĠFM":13979,"ĠLar":13980,"emale":13981,"Ġexport":13982,"Ġtwins":13983,"onde":13984,"oger":13985,"Ġcompens":13986,"Ġcomposition":13987,"ovich":13988,".\"--_":13989,"Ġscales":13990,"Ġchannels":13991,"xton":13992,"Ġministers":13993,"Ġchew":13994,"plex":13995,"Ġinvitation":13996,"Ġcharts":13997,"Ġinstruction":13998,"oko":13999,"ierra":14000,"Ġsigning":14001,"Ġ85":14002,"Ġpays":14003,"Ġcurrency":14004,"Ġcorrupt":14005,"ĠTrade":14006,"Ġbargain":14007,"Ġdeparture":14008,"ĠCollins":14009,"Ġenerg":14010,"Ġcloses":14011,"Ġ1909":14012,"glass":14013,"Ġdefended":14014,"ĠReserve":14015,"Ġfirmly":14016,"Ġwitnesses":14017,"Applause":14018,"Ġexclusive":14019,"Ġfrost":14020,"Ġhonourable":14021,"Ġultimate":14022,"Ġfantasy":14023,"Ġincreasingly":14024,"ĠDetective":14025,"ĠPeninsula":14026,"omeday":14027,"Ġchristmas":14028,"Ġadjacent":14029,"Ġnarrative":14030,"Ġprivilege":14031,"Ġopponent":14032,"Ġsatellite":14033,"ĠExecutive":14034,"96":14035,"BER":14036,"Europe":14037,"Fr":14038,"Fer":14039,"Fight":14040,"Law":14041,"Rose":14042,"Sun":14043,"cup":14044,"liter":14045,"pill":14046,"powder":14047,"raine":14048,"tail":14049,"uum":14050,"uity":14051,"itical":14052,"Ġbio":14053,"Ġborough":14054,"anch":14055,"Ġtoxic":14056,"Ġpad":14057,"Ġpoured":14058,"Ġpadd":14059,"Ġpyram":14060,"Ġnails":14061,"Ġhaw":14062,"Ġhare":14063,"Ġhabits":14064,"imer":14065,"amil":14066,"ĠSlo":14067,"ĠSection":14068,"ĠSebastian":14069,"riger":14070,"Ġstalk":14071,"ĠAc":14072,"ĠCand":14073,"Ġumb":14074,"ĠHim":14075,"ĠBuff":14076,"ĠPuerto":14077,"Ġrack":14078,"Ġrational":14079,"ources":14080,"ĠGON":14081,"umi":14082,"ĠRangers":14083,"Ġ1916":14084,"ĠStorm":14085,"Ġamid":14086,"oval":14087,"âĢĿ.":14088,"nox":14089,"Ġsignature":14090,"Ġhumili":14091,"Ġreflected":14092,"ĠClay":14093,"Ġshortest":14094,"arrison":14095,"umbers":14096,"ĠLeft":14097,"Ġballet":14098,"Ġsupports":14099,"Ġstarving":14100,"ĠJackie":14101,"ĠEdith":14102,"attering":14103,"imentary":14104,"Ġcorners":14105,"Ġgraduation":14106,"Ġblocked":14107,"Ġsaddle":14108,"Ġcontracts":14109,"Ġexamined":14110,"minar":14111,"minster":14112,"ttes":14113,"Ġdefending":14114,"Ġscrewed":14115,"Ġqualities":14116,"Ġmotorcycle":14117,"Ġmagnetic":14118,"Ġmoist":14119,"Ġadvertis":14120,"Ġpuppy":14121,"Ġpronounced":14122,"oppy":14123,"Ġannouncement":14124,"UCKLES":14125,"Ġdismissed":14126,"Ġdisgrace":14127,"Ġvampire":14128,"Ġchimney":14129,"Ġsocieties":14130,"Ġtrousers":14131,"Beautiful":14132,"Cool":14133,"Drop":14134,"Gentlemen":14135,"Mine":14136,"Pri":14137,"Ya":14138,"aver":14139,"ipt":14140,"rams":14141,"inate":14142,"including":14143,"Ġcakes":14144,"Ġchampions":14145,"Ġfog":14146,"Ġfran":14147,"eda":14148,"othe":14149,"Ġhind":14150,"ĠSeveral":14151,"stri":14152,"rod":14153,"roph":14154,"adv":14155,"ĠChem":14156,"allie":14157,"Ġassembly":14158,"ĠTamp":14159,"ĠWard":14160,"ĠWick":14161,"ĠWals":14162,"Ġjet":14163,"umed":14164,"ĠRIGHT":14165,"essions":14166,"ĠFurther":14167,"ĠLt":14168,"ĠLiz":14169,"ĠLEO":14170,"rystal":14171,"mented":14172,"Ġaggressive":14173,"iaz":14174,"ĠHeart":14175,"Ġlean":14176,"onda":14177,"Ġbru":14178,"Ġunsuccess":14179,"Ġamend":14180,"Ġflames":14181,"Ġscrap":14182,"Ġcrick":14183,"Ġcrashed":14184,"restrial":14185,"Ġmarine":14186,"Ġpreserve":14187,"Ġglobe":14188,"Ġsubdiv":14189,"Ġprett":14190,"Ġcolored":14191,"Ġsentenced":14192,"ĠBlake":14193,"Ġsolved":14194,"coat":14195,"Ġzinc":14196,"ĠOrthodox":14197,"Ġmagazines":14198,"Ġdiaper":14199,"Ġcharacteristic":14200,"Ġfootballer":14201,"ĠRomanian":14202,"Ġcollections":14203,"Ġsticking":14204,"ĠGreeks":14205,"ĠPeters":14206,"Ġtemperatures":14207,"Ġurgent":14208,"written":14209,"Ġirre":14210,"ĠSalz":14211,"Ġmummy":14212,"ĠMatcham":14213,"itarian":14214,"ĠAdministration":14215,"Ġimprovement":14216,"Ġarrangements":14217,"Ġneighbourhood":14218,"Ġfolded":14219,"Ġconsequence":14220,"ĠVenice":14221,"Imagine":14222,"ĠANY":14223,"Ġdelayed":14224,"Ġventure":14225,"Ġatomic":14226,"ladimir":14227,"Ġprecisely":14228,"Ġlobby":14229,"ĠBirmingham":14230,"Ġabundant":14231,"Ġstyles":14232,"believable":14233,"900":14234,"BM":14235,"Hur":14236,"Les":14237,"Much":14238,"Pass":14239,"boo":14240,"jack":14241,"sat":14242,"sal":14243,"since":14244,"swer":14245,"tor":14246,"tri":14247,"tem":14248,"went":14249,"Ã¸":14250,"Ġsighed":14251,"Ġbrew":14252,"Ġbarr":14253,"Ġdio":14254,"Ġpione":14255,"asi":14256,"ĠId":14257,"icity":14258,"Ġhilda":14259,"etus":14260,"Ġhaste":14261,"uscript":14262,"Ġonwards":14263,"lder":14264,"amation":14265,"ĠSave":14266,"stro":14267,"riages":14268,"adt":14269,"Ġmelt":14270,"Ġank":14271,"ifting":14272,"ĠHorse":14273,"ulum":14274,"ĠDol":14275,"ĠDOWN":14276,"ĠGang":14277,"Ġalliance":14278,"Ġorn":14279,"Ġorche":14280,"ĠEP":14281,"inde":14282,"Ġ1910":14283,"ĠKha":14284,"ĠKra":14285,"arer":14286,"Ġclan":14287,"Ġoffence":14288,"ĠVic":14289,"ccane":14290,"Ġcounts":14291,"Ġattach":14292,"hames":14293,"ublin":14294,"iba":14295,"Ġrestore":14296,"Ġpretended":14297,"Thirty":14298,"Ġfiled":14299,"Ġ81":14300,"flies":14301,"Ġforehead":14302,"Ġexplaining":14303,"Ġrape":14304,"amboo":14305,"Ġviewers":14306,"Ġdefeating":14307,"Ġdamned":14308,"Ġlawn":14309,"Ġcathedral":14310,"Ġportrait":14311,"Ġtravels":14312,"Ġreducing":14313,"Quiet":14314,"Ġpetrol":14315,"Ġassociate":14316,"ĠDesign":14317,"ĠMilton":14318,"rendered":14319,"Ġconfession":14320,"Emily":14321,"Ġstabbed":14322,"Ġsubsequent":14323,"ĠOttoman":14324,"Ġcrawl":14325,"Following":14326,"Ġgrip":14327,"ĠHardy":14328,"urrently":14329,"Ġprofile":14330,"ĠThailand":14331,"mphony":14332,"Ġeternal":14333,"ĠGiralda":14334,"##":14335,"93":14336,"Aud":14337,"Ell":14338,"Eat":14339,"Fant":14340,"Light":14341,"Money":14342,"Pan":14343,"Tri":14344,"cH":14345,"dem":14346,"fol":14347,"mble":14348,"Ġwides":14349,"Ġsor":14350,"Ġoak":14351,"Ġchampionships":14352,"ingway":14353,"Ġdub":14354,"Ġlest":14355,"Ġlime":14356,"Ġgrapes":14357,"icial":14358,"Ġbean":14359,"ĠSout":14360,"seen":14361,"seven":14362,"ĠMall":14363,"ĠHIM":14364,"Ġlily":14365,"ĠPy":14366,"ĠPlymouth":14367,"olo":14368,"ested":14369,"estyle":14370,"ĠRud":14371,"ĠRena":14372,"ĠFinal":14373,"ĠLi":14374,"astics":14375,"ĠKir":14376,"ivan":14377,"Ġnowadays":14378,"Ġovernight":14379,"ountain":14380,"Ġpartial":14381,"ffff":14382,"angular":14383,"ĠYa":14384,"ĠYang":14385,"close":14386,"Ġresolved":14387,"Ġcrushed":14388,"Ġattribut":14389,"Ġearning":14390,"Ã©t":14391,"Ġentreprene":14392,"Ġpersonnel":14393,"Ġpassport":14394,"Ġreaders":14395,"inaudible":14396,"airo":14397,"Ġfootage":14398,"Ġtopics":14399,"Ġexperts":14400,"Ġprotocol":14401,"Ġhonored":14402,"Ġreporting":14403,"Ġbarrier":14404,"Ġadvise":14405,"aima":14406,"ĠAboriginal":14407,"ĠChase":14408,"ĠCapital":14409,"Ġmotive":14410,"sui":14411,"Ġterrific":14412,"Class":14413,"Ġmisery":14414,"Ġsharply":14415,"âĢİ?":14416,"Marie":14417,"Ġparks":14418,"Ġinfluences":14419,"black":14420,"blood":14421,"Ġpersist":14422,"Ġemployee":14423,"Ġcoastal":14424,"Ġsignificance":14425,"ĠChang":14426,"Ġphilosoph":14427,"Ġremarks":14428,"Ġcontributed":14429,"Ġcopyright":14430,"Ġscrub":14431,"Ġmanufactured":14432,"Ġbacon":14433,"Ġconsisting":14434,"Ġconcentrate":14435,"Ġphotographs":14436,"Ġwandering":14437,"Ġdemocratic":14438,"ĠAdmiralty":14439,"ĠRonald":14440,"Ġforbidden":14441,"dinand":14442,"Ġkidnapped":14443,"Ġpresumably":14444,"ĠLeban":14445,"Ġtobacco":14446,",.":14447,"Made":14448,"Matt":14449,"Rural":14450,"Sing":14451,"WOMAN":14452,"east":14453,"iology":14454,"pin":14455,"sim":14456,"school":14457,"talk":14458,"xy":14459,"Ġtails":14460,"inated":14461,"rea":14462,"Ġdug":14463,"Ġpp":14464,"Ġpulse":14465,"Ġyelling":14466,"Ġhither":14467,"Ġthither":14468,"Ġrevel":14469,"ĠSri":14470,"rock":14471,"Ġstout":14472,"Ġmead":14473,"Ġashes":14474,"ĠBour":14475,"ĠBesides":14476,"ĠDig":14477,"ĠDong":14478,"ĠDark":14479,"ĠFan":14480,"ĠFall":14481,"osom":14482,"ĠList":14483,"Ġcongreg":14484,
[...]
