#version: 0.2 - Trained by `huggingface/tokenizers`
Ġ t
Ġ a
i n
h e
Ġ s
r e
o n
e r
Ġt he
Ġ c
Ġ o
Ġ b
a n
Ġ m
a t
Ġ w
e s
Ġ p
i t
e n
Ġ f
o r
e d
a r
Ġ in
a l
in g
i s
Ġo f
Ġt o
Ġ d
r o
i on
Ġa n
i l
i c
a s
Ġ h
Ġ l
o u
o m
Ġan d
Ġt h
Ġ e
en t
Ġ re
s t
Ġ n
i d
e t
il l
Ġ g
e c
e l
u t
t he
Ġ 1
a y
Ġs t
Ġ u
Ġf or
a d
o l
a c
' s
l y
v e
u r
Ġc om
er s
Ġ it
l e
Ġ is
Ġth at
Ġ on
i r
i g
Ġb e
Ġ y
Ġp ro
at ion
o w
i m
s e
es t
Ġc on
v er
Ġs a
m ent
ill ion
t h
Ġ r
Ġa s
u c
re s
t er
Ġcom p
Ġ he
Ġw h
Ġe x
g e
t s
a m
Ġsa id
Ġs h
c e
e ar
Ġ j
Ġa t
q u
at e
it h
l d
o t
u n
Ġn e
o c
o s
Ġd e
Ġw ith
Ġa l
Ġt r
ro m
u l
a k
i es
Ġb y
Ġm illion
Ġf rom
Ġc h
a in
e re
Ġ v
u s
i f
Ġu n
Ġw as
o re
c h
a p
an d
Ġa re
es s
0 0
Ġin c
i al
i v
ec t
Ġ 2
ou ld
a re
Ġit s
Ġm ar
or t
Ġy ear
u st
an y
Ġo r
p p
u m
Ġh a
i ve
Ġh as
Ġw ill
Ġof f
ou n
Ġa c
' t
en d
Ġne w
e m
o st
a b
Ġ 3
el l
as t
k et
it y
Ġa b
the r
ig h
om e
al l
a g
ay s
Ġ1 9
Ġp r
is t
Ġha ve
Ġm r
oc k
Ġa d
Ġs p
o d
Ġp l
ic h
o p
ar t
Ġs e
ou t
u d
Ġ k
Ġl e
Ġmar ket
Ġa g
a ge
an t
Ġs u
ar d
on d
Ġcomp any
Ġex p
ic e
Ġin t
ou r
Ġin d
g h
Ġcon t
i e
Ġw e
u e
Ġst ock
t ion
Ġin v
an s
or s
i p
u re
or k
ol d
Ġg o
Ġwh ich
d uc
Ġ ro
Ġw ould
an c
b ut
ak e
Ġtr ad
Ġm on
b er
i re
Ġc l
an k
on g
m an
Ġc or
Ġ qu
Ġ 5
Ġre s
f f
Ġab out
in e
ro u
Ġe ar
Ġc o
Ġre p
at ed
ac k
Ġs ays
Ġthe y
Ġu p
m er
Ġn ot
Ġw ere
Ġth is
Ġm ore
Ġinv est
Ġ 4
ing s
un d
ation s
Ġf ir
Ġb u
ac t
Ġb illion
p er
s o
igh t
Ġcor p
Ġh ad
Ġre c
Ġwh o
Ġb o
Ġp res
Ġsh are
v en
Ġo ut
it ion
Ġh is
o k
Ġb ut
Ġd is
he r
uc h
r i
Ġb us
Ġthe ir
Ġw he
r y
ou s
Ġcom m
Ġs o
Ġf in
an ce
Ġth an
Ġb ank
ig n
\ /
Ġs al
Ġo ther
Ġon e
Ġal l
a u
d ay
Ġbe en
al ly
id ent
Ġp re
Ġd ec
Ġ19 8
Ġm an
i a
d er
i z
Ġs ec
p t
Ġa pp
f or
re e
Ġ im
re n
el y
Ġ 8
y st
a w
as e
e x
ow n
Ġ 7
b le
ent s
Ġs ome
ol l
Ġal so
Ġpro duc
Ġc an
Ġb r
b l
ar y
e k
Ġb ec
er al
at es
Ġ en
w o
Ġp art
Ġf r
it ies
a il
ab le
oun t
Ġn o
c t
in ess
Ġas s
m r
Ġd o
ic es
l i
Ġl o
e y
Ġcon s
l o
il e
c on
Ġo ver
im e
ar ter
w e
a res
an ge
Ġ 6
Ġa r
id e
Ġbus iness
f ter
re d
Ġmon th
a v
or d
ac h
Ġp er
on e
Ġbu y
ic al
er v
ou gh
au se
Ġpres ident
g r
m s
00 0
ro w
o in
Ġsh ares
Ġt wo
Ġl i
Ġyear s
Ġac c
o se
ation al
Ġm e
Ġu s
Ġim p
Ġfir st
os s
res s
Ġoff ic
as ed
Ġs c
Ġc ould
f it
is h
Ġtrad ing
ment s
Ġa m
it e
a ir
l ud
Ġa fter
ul t
a x
Ġl ast
Ġst r
v el
rou p
k e
ion s
Ġad d
Ġind ust
it t
Ġwe ek
Ġm ay
Ġg roup
Ġo per
at ing
ar g
u al
Ġ &
as s
ec ut
an g
Ġf e
Ġwhe n
ect ed
Ġw ork
e p
u res
en s
Ġan y
Ġbec ause
Ġb ond
Ġsal es
he d
Ġ1 0
ver n
Ġm o
ro p
w n
Ġis s
ur n
ere st
Ġ i
Ġf ed
Ġp ol
ver y
u g
Ġg en
Ġinc re
Ġgo vern
Ġy ork
Ġon ly
ac e
Ġun der
Ġin ter
Ġf und
Ġ 9
Ġc r
Ġint o
est er
Ġpl an
Ġsu b
Ġm a
Ġc ar
Ġfin anc
u bl
os ed
Ġd r
Ġre t
Ġinc lud
Ġint erest
Ġo wn
h n
Ġp e
Ġe l
Ġs ell
Ġm in
it al
Ġrep ort
is s
i el
Ġs uch
i ous
ic an
Ġc ap
Ġat t
et t
Ġqu arter
en c
is e
Ġun it
u es
Ġm ost
Ġd own
ow er
con om
Ġe conom
Ġ if
Ġ end
Ġl aw
Ġs ay
st r
Ġex ecut
Ġde p
Ġm ak
Ġ est
ere d
Ġex ch
Ġb ig
Ġin s
ad e
an ies
Ġgovern ment
Ġb ro
ur ing
i an
Ġa mer
Ġw or
al yst
ap an
Ġsec ur
l in
er t
Ġst ate
Ġde f
Ġcon c
Ġcomp anies
iel d
Ġt ime
gr am
Ġan n
Ġc ents
k s
Ġc ur
Ġh igh
rou gh
Ġear n
li er
op le
Ġn et
oin t
Ġc ost
en ce
Ġthe re
Ġpro gram
Ġpr ice
ic t
Ġs l
Ġd ire
or n
ir d
Ġexch ange
Ġp ay
o g
il d
Ġb et
Ġpro fit
Ġoff er
Ġa ir
Ġfed eral
j or
Ġac t
Ġb l
ie f
Ġ19 9
Ġma jor
Ġ1 5
i x
Ġm any
ou se
Ġj apan
Ġdis c
if ic
Ġoffic ial
ic k
f l
Ġh old
Ġe m
s on
Ġro se
as h
Ġpr ices
Ġo p
is ion
Ġn ow
et s
er n
Ġre g
ester day
Ġs erv
Ġthe m
Ġan alyst
Ġs m
Ġth ree
Ġj ust
in d
Ġs en
Ġtr ans
Ġrec ent
Ġt ake
Ġcont in
Ġb ack
Ġdire ct
Ġcur ren
Ġp ubl
Ġe ff
Ġpe ople
Ġt ax
at er
il ity
Ġ3 0
Ġf l
Ġpro v
am p
Ġcont r
Ġmonth s
Ġm uch
Ġag ain
or ts
Ġinvest ors
Ġin st
Ġsecur ities
w h
oun d
Ġde b
am e
Ġc our
Ġre m
in k
Ġl ong
Ġy ou
Ġsp ec
Ġbond s
f t
Ġde m
iv es
v ed
Ġe ven
Ġsu pp
is c
Ġh ow
Ġd es
Ġs he
Ġfinanc ial
f ore
i b
Ġl oss
tion s
Ġg r
on s
Ġcomp ut
Ġth ird
Ġg row
Ġd on
Ġth rough
or y
Ġch air
ur y
it s
ec ts
x t
Ġy esterday
Ġc all
Ġg u
Ġm ake
Ġbo ard
Ġearn ings
Ġf ore
Ġst e
yst em
t y
m in
Ġne xt
in ce
m e
Ġh ouse
Ġcap ital
Ġac qu
ro l
Ġc al
Ġinvest ment
Ġpro p
re at
Ġp ar
Ġv al
vel op
Ġb el
o ver
Ġmon ey
Ġchair man
g an
Ġs ystem
Ġwh at
i ble
Ġg ain
Ġhe l
Ġch ief
ic s
lo y
e e
Ġ1 2
Ġd id
Ġw ar
i ed
Ġs ur
al s
Ġindust ry
Ġa ut
uc t
are d
i o
al th
Ġn or
Ġexecut ive
em ber
Ġle ad
Ġstock s
Ġp ur
g ress
Ġd el
Ġear lier
Ġe qu
Ġd iv
o ther
Ġad v
Ġm er
is ts
Ġre l
t on
c ess
in es
Ġk n
Ġj o
y ear
Ġb id
Ġw ell
it ut
s h
Ġb ill
Ġ2 0
Ġc ount
i et
ist r
l ed
Ġde velop
Ġn ational
oll ar
Ġm ade
Ġamer ican
Ġr ate
if f
Ġp h
Ġgo od
Ġre al
il y
ver age
Ġf ar
Ġcurren t
o od
re ad
n er
Ġf our
Ġ1 1
Ġbe fore
Ġpro ble
Ġf ut
Ġexp ected
Ġc red
enc y
Ġconc ern
for m
Ġ ent
Ġwh ile
Ġc he
Ġsh ow
at ive
ert ain
Ġem p
p r
t r
Ġth ose
Ġc ol
c ed
Ġh ig
Ġhel p
Ġo ct
Ġd ays
Ġinter n
Ġpubl ic
5 0
l ine
ven ue
n t
Ġ ed
u ed
ion al
Ġst ill
Ġnew s
Ġofficial s
Ġwor ld
Ġy ield
ie w
Ġdo es
Ġagain st
ar ge
ap p
Ġfir m
Ġs ign
es e
Ġli ke
an ts
Ġman ag
Ġc ent
Ġinc ome
Ġj un
ver t
Ġr ates
Ġapp ro
we en
Ġhe r
Ġt el
in s
Ġcal if
Ġbet ween
Ġ1 3
Ġel ect
Ġd ollar
Ġle g
Ġf ell
e ver
Ġf il
i or
Ġs ince
n ing
Ġindust r
Ġt re
Ġg et
Ġind ex
Ġde al
Ġest im
l es
Ġproduc ts
Ġr a
Ġv ol
Ġdeb t
Ġse pt
iz ed
is ing
ol og
Ġsh ould
Ġpre v
Ġcour t
Ġsm all
ec hn
Ġcon f
Ġsp ok
Ġiss ue
Ġ5 0
Ġcred it
ur ance
Ġcon gress
Ġag o
Ġdep art
end ing
um p
h old
ul ar
Ġmarket s
Ġgen eral
Ġcomput er
u ally
as es
Ġh im
g ed
Ġl arg
Ġe u
Ġst re
th at
Ġre qu
Ġbu ild
Ġhig her
f ul
t o
w ard
re ed
Ġl ess
Ġe v
Ġfund s
Ġemp loy
ord ing
age ment
Ġreport ed
Ġl ower
c om
ire d
the y
ers on
ro und
oc i
he n
Ġne ed
Ġanalyst s
j ect
Ġn um
ri but
Ġspok es
Ġbe ing
u b
Ġa verage
Ġthe se
Ġf ive
Ġc le
Ġp ast
Ġinclud ing
t e
Ġintern ational
Ġc ut
Ġag ree
Ġre ce
Ġ1 4
id ay
pp ed
Ġann oun
a z
Ġrem ain
2 5
v ers
Ġt er
Ġs w
Ġbr it
Ġm ain
h ip
at t
Ġw ay
Ġd iff
Ġcomp l
Ġcont rol
Ġass oci
l and
Ġto t
Ġoper ations
Ġs old
Ġtrad e
Ġsal e
p l
Ġre duc
Ġ198 8
Ġp ut
l ing
se ar
h ing
ap er
Ġhe ad
v es
Ġres p
Ġs er
Ġfe w
Ġt urn
Ġp ost
Ġt echn
Ġfr anc
Ġfore ign
Ġs im
Ġsec ond
Ġpl ans
Ġcomm on
Ġjapan ese
Ġh al
Ġadd ition
Ġinst itut
Ġv ice
os ition
Ġcl osed
rop e
b ers
ic a
ver al
Ġeconom ic
Ġd ay
Ġh and
id er
Ġpur ch
7 5
g er
th is
Ġw ant
ce ed
Ġdec lin
at ors
Ġb en
Ġp a
Ġincre ase
Ġdepart ment
m ed
um e
Ġme et
Ġcontr act
Ġo ur
Ġbo th
Ġins urance
r a
Ġis n
Ġt ak
Ġo il
Ġeu rope
Ġ very
Ġn ear
oll ow
Ġgrow th
u p
Ġp ower
Ġd uring
qu arter
Ġdid n
r on
it ed
v ing
Ġre str
Ġre sear
Ġman agement
Ġtot al
at ely
Ġu se
Ġpol it
k er
Ġth ough
Ġcorp or
Ġwhe re
Ġen g
b y
w ay
Ġc ash
Ġmo ve
a im
ul l
Ġiss ues
el f
Ġk e
e es
Ġm ight
Ġd ue
n e
Ġs ix
is ed
Ġe ach
Ġa ff
Ġre v
Ġst and
Ġbank s
Ġ198 9
Ġfr iday
g in
i ent
Ġre f
Ġcomm un
Ġus ed
Ġret urn
Ġcost s
b s
Ġthe n
in c
Ġm em
Ġlo ok
Ġr un
wh ile
Ġf ollow
Ġ1 00
im es
iz e
Ġm ed
u f
Ġan other
Ġh ome
if e
Ġm od
Ġdirect or
Ġs ou
Ġpol ic
b e
Ġs uc
Ġf am
Ġd et
Ġcomp et
Ġm et
as ury
Ġse veral
Ġspec ial
g est
Ġhe alth
Ġad min
' re
Ġle vel
p ro
Ġo pp
Ġw r
Ġw on
Ġy en
Ġso v
m ost
Ġan t
Ġj ud
Ġbus h
l l
Ġs an
Ġoff ice
ag es
c es
p ar
Ġm at
Ġth ink
Ġre venue
Ġstr ong
g et
Ġear ly
y n
re t
Ġg re
ul ts
Ġd am
Ġe very
Ġg er
Ġch ang
ber t
Ġop en
Ġadmin istr
Ġp et
r at
y ing
read y
Ġrec ord
iss ion
m ar
Ġo ld
Ġf ac
Ġf act
uc tion
Ġsupp ort
Ġst art
Ġ2 5
ag o
Ġoffic er
Ġval ue
as ter
Ġ1 8
ect ion
itt le
Ġcomm itt
Ġbel ie
Ġb ar
Ġm c
Ġl ow
Ġa v
Ġto o
Ġle ast
s ome
Ġc ase
ent ial
st and
Ġass ets
Ġdoes n
Ġs ch
Ġsh ort
Ġag ency
orn ia
Ġt al
Ġp ort
Ġpro m
k ed
Ġw all
en se
as on
Ġl ate
Ġst ud
b o
i od
Ġc ity
t ing
Ġpart ic
Ġadd ed
Ġfut ures
Ġstre et
t il
at h
ate g
Ġ199 0
k y
Ġm ach
am es
igh ts
Ġfor mer
Ġtrad ers
Ġacc ording
s s
Ġcl ose
r ic
Ġm il
Ġv ot
Ġam ong
Ġtre asury
Ġnum ber
Ġspokes man
r u
Ġper iod
Ġprev ious
k ely
ust om
Ġb ased
Ġr is
al e
Ġres ult
uf act
Ġf ur
Ġal ready
Ġun ion
Ġgo ing
Ġend ed
Ġp oint
Ġst ake
Ġoper ating
Ġsub s
Ġl ittle
Ġserv ice
olog y
Ġc a
Ġp erson
Ġf all
ag ed
n ers
Ġsa me
Ġs ett
ic ed
th ing
ure d
Ġserv ices
Ġcalif ornia
Ġhal f
Ġ1 7
ter m
Ġne g
od y
m on
n ed
Ġc ertain
Ġp oss
Ġ1 6
Ġagree ment
Ġin fl
he s
Ġse e
r al
Ġcl aim
Ġear th
c y
Ġc ustom
iv ed
Ġw est
Ġpres s
Ġexp ect
Ġjun k
Ġbrit ish
b ased
Ġor d
a ff
Ġc re
Ġpl ay
the re
Ġag reed
Ġman ufact
Ġdr ug
Ġs et
Ġa ug
Ġimp ro
Ġjo hn
is ition
Ġpro t
Ġm ot
Ġh ard
Ġl im
iz ation
Ġprop os
Ġproble ms
m any
on es
Ġoffer ing
Ġg old
Ġacc ount
in t
Ġl ab
o ve
Ġp osition
Ġcall ed
Ġkn ow
ac tion
Ġcom mer
are nt
Ġpr iv
Ġmak er
Ġsept ember
ce pt
Ġresear ch
le y
Ġacqu isition
Ġb as
ic ations
Ġres ults
Ġ4 0
Ġreg ul
n ess
es p
Ġlo ans
i um
Ġ ir
Ġse em
Ġm ort
Ġindustr ial
p ort
im in
iv ely
Ġbuy ing
Ġcons um
Ġann ual
t en
Ġt e
at or
at her
Ġl t
Ġn on
ab ly
Ġc oll
Ġall ow
Ġ198 7
Ġdem and
isc o
Ġadministr ation
s p
Ġl at
em p
i er
Ġt ex
Ġproduc tion
Ġpolic y
Ġsov iet
Ġto p
Ġd ou
Ġl ine
Ġimp ort
Ġincre ased
Ġh op
ere n
us s
o ff
as ing
Ġl arge
Ġun til
Ġ2 00
w ork
Ġto day
Ġr ight
ure r
Ġeconom y
d e
Ġ 0
at a
Ġli kely
Ġcomp ared
Ġrep res
Ġeff ect
Ġa round
ial ly
ond ay
Ġshare hold
Ġloss es
Ġm ag
Ġf ail
Ġl ife
us ed
if t
oin ts
Ġstr ateg
am ed
Ġsell ing
Ġben e
Ġcorpor ate
Ġm id
Ġp aper
is m
Ġd ist
ic ally
Ġpl ant
Ġse ek
Ġar t
. '
id ed
Ġno v
Ġcount ry
l ess
Ġp oints
Ġre st
ur al
Ġfir ms
Ġcontin ue
in a
Ġm onday
en n
Ġnot es
Ġwhe ther
Ġcommitt ee
Ġsubs id
Ġearth qu
o ol
p ut
Ġl oc
ag u
Ġf ig
Ġf ound
iv ers
Ġm or
Ġmem bers
Ġm ust
Ġch arg
Ġb re
Ġp at
Ġg as
Ġwith out
Ġtr ust
ain s
f er
Ġh ur
ou p
end s
ond on
Ġcan ad
Ġcons ider
Ġgen er
os ite
Ġinv ol
Ġmort g
Ġex t
Ġcl os
Ġdem oc
isc al
Ġqu est
n o
it ing
end ed
Ġrecent ly
Ġhow ever
Ġste el
Ġpolit ical
Ġcomm ission
Ġfranc isco
a ve
p h
Ġfur ther
Ġu al
Ġpro per
iv id
Ġsu g
Ġexp ects
Ġ z
om et
Ġd om
ic ago
Ġn ation
Ġ5 00
Ġtake over
Ġcle ar
Ġlt d
Ġearthqu ake
f r
Ġb ud
Ġcom e
Ġcompl et
Ġaug ust
Ġt imes
Ġs ing
Ġs ol
Ġf iscal
ro ss
el s
Ġr ul
ip s
Ġl a
Ġl os
ess ion
Ġsl ow
Ġlarg est
Ġc amp
Ġm y
Ġd rop
Ġg e
Ġact iv
c ial
Ġin form
Ġch ange
Ġv iew
Ġfin d
Ġannoun ced
Ġmak ing
Ġsystem s
Ġdeclin ed
c o
ig ation
Ġpr iced
Ġlo an
Ġbro ad
Ġhe re
Ġind ic
Ġbusiness es
ough t
Ġproble m
b r
b ack
e v
Ġhe ld
Ġexp er
Ġproduc t
Ġweek s
Ġsou th
m ical
Ġcomp osite
Ġch icago
Ġ3 1
Ġsen ior
h or
Ġwh ite
Ġad vert
Ġret ail
Ġre fl
Ġhe av
Ġc oun
Ġre ad
id es
Ġst o
Ġke ep
stand ing
j ust
Ġcom ment
c ent
is hed
Ġd ro
il i
Ġh ar
Ġbe gin
Ġdevelop ment
n ow
c l
is l
Ġd ata
Ġexp l
Ġbec ome
Ġme as
Ġo b
Ġp ass
Ġn ine
Ġsh ar
Ġare a
Ġest ate
Ġser ies
ivid ual
y s
Ġ19 7
Ġj ones
Ġch ar
w hen
Ġm ass
Ġp ot
Ġg ive
Ġare n
Ġ2 1
ett ing
Ġdec line
e ed
i k
y p
Ġan g
Ġbuild ing
i am
it her
iv en
Ġdes ign
Ġemploy ees
Ġpa id
c he
Ġt est
Ġg reat
ot i
ain ed
if ied
Ġbene fit
t ed
Ġv ent
Ġor der
Ġvol ume
Ġassoci ation
Ġjud ge
Ġlat est
Ġp an
ir on
Ġwork ers
Ġtechn ology
c her
Ġf ood
Ġex amp
Ġlab or
v al
Ġ ill
Ġ2 4
Ġ2 6
Ġleg isl
Ġwe ak
Ġam ount
Ġfor m
Ġ2 2
Ġdemoc rat
b ed
u ly
Ġto ok
ac ific
Ġexamp le
r ies
Ġp o
Ġl ondon
Ġind ividual
Ġpart ners
Ġmeet ing
l er
p ly
iv ing
Ġhold ing
Ġs oc
il ities
Ġl ot
Ġprop osed
Ġc are
Ġc oup
oun ts
Ġbet ter
Ġpropos al
Ġcommer cial
Ġord ers
Ġg ot
uc k
Ġexecut ives
Ġnear ly
er ing
Ġf ree
Ġf ull
Ġoff ered
Ġbl ack
f ol
it or
ut ion
r is
Ġn at
Ġpro cess
Ġdam age
eren ce
Ġrepres ent
c hed
Ġv i
Ġrestr uct
Ġstand ard
h ow
re l
Ġl ater
Ġr ise
Ġinvest or
b it
em pt
Ġen v
Ġestim ated
Ġtex as
Ġs omet
Ġp ack
en ed
Ġe ast
ab ility
Ġsen ate
Ġpurch ase
Ġposs ible
Ġrece ived
Ġin it
Ġl et
Ġcon str
Ġun ivers
Ġsuc cess
ru pt
Ġd ow
om an
ap s
Ġbro ker
Ġaut hor
Ġdiv ision
Ġneg oti
he re
ip ment
Ġdec ision
Ġfut ure
Ġchang es
Ġbud get
r ing
Ġn amed
Ġinclud e
ues day
Ġy our
Ġcon d
Ġch arge
Ġ6 0
Ġlaw y
Ġpriv ate
Ġsubsid i
t ime
Ġpre d
Ġdef ense
Ġnet work
Ġpartic ular
Ġc ame
it ive
Ġfil ed
Ġinform ation
m ore
on y
Ġb est
ic ip
ac hed
Ġal most
pp ing
Ġsp ending
Ġbo ost
Ġaut o
Ġst ep
ac ts
Ġy et
Ġother s
Ġamer ica
Ġdiv id
c ast
Ġg l
Ġfor ce
Ġbe gan
Ġr ich
Ġwas hing
Ġhas n
Ġche mical
Ġmag az
u gh
w ith
w ays
al es
Ġh our
Ġso ft
Ġwashing ton
i ents
k ing
Ġp il
ent ion
Ġout standing
Ġen ough
Ġcr it
orn ey
Ġequ ity
Ġequ ipment
a fter
Ġt v
ear s
Ġ2 3
um b
Ġcustom ers
Ġmortg age
Ġpot ential
iron ment
s u
Ġt uesday
ic it
Ġst ates
am er
Ġj uly
Ġab le
Ġcons ult
Ġar g
Ġop tions
Ġgain s
g es
s c
er ve
Ġof ten
Ġre d
Ġon ce
Ġr ights
ear lier
Ġj oint
agu ar
Ġsug gest
g a
Ġto ld
Ġl ist
ul ation
Ġatt orney
Ġperson al
er g
an n
ur s
Ġcon v
Ġfinanc ing
ribut ed
Ġconsum er
Ġdro pped
e ad
Ġw a
Ġth r
ter n
Ġtr ying
Ġmak es
Ġtrans action
Ġprov ide
Ġindustr ies
' ve
1 6
Ġs ent
er y
is ions
le x
Ġcon n
us h
iv al
wh at
Ġdel i
sh are
Ġport fol
Ġsett le
g ing
i ence
u ge
Ġsu it
anc es
3 2
Ġd re
Ġpro ject
th ough
ir c
Ġpro f
Ġsch ool
Ġimport ant
at ch
il ar
Ġne ver
Ġsec ret
Ġcurrent ly
ne w
Ġfam ily
Ġinfl ation
Ġenv ironment
d r
o ber
Ġw in
Ġl and
est ic
Ġwith in
Ġro bert
Ġprogram s
Ġoct ober
Ġh ous
Ġe mer
Ġor gan
Ġpl ace
Ġqu ot
ester n
Ġaddition al
Ġclaim s
ro duc
Ġfin ance
Ġbank ing
Ġapp e
Ġbr and
Ġcomput ers
Ġeurope an
Ġris k
Ġloc al
c c
m ak
Ġa way
Ġs um
or row
Ġpro b
Ġde v
ort ion
Ġac cept
Ġle ft
Ġsub st
Ġunit s
Ġlead ers
Ġdollar s
w are
om m
Ġre ason
ot t
Ġso on
bl ed
Ġsign ific
al d
Ġsu per
Ġfour th
Ġcharg es
Ġp op
Ġwould n
lin es
Ġf lo
al ity
Ġth ings
Ġ2 8
Ġ3 5
Ġunit ed
b ac
Ġt rou
Ġl ost
Ġcon vert
Ġsa v
Ġqu ick
Ġsc hed
urer s
a i
Ġw id
ic ult
Ġh app
Ġexp ress
ix ed
Ġmanag er
Ġ ut
Ġs it
Ġc irc
Ġd av
ec h
Ġmar ch
Ġac tion
Ġmarket ing
Ġwho se
Ġbill s
Ġjun e
Ġav ail
Ġimpro ve
Ġte am
Ġquest ion
Ġsing le
Ġang el
Ġt yp
id ence
os p
Ġwas n
l ast
at ives
Ġf ace
Ġv ia
our ces
for d
Ġsl ight
Ġcontin ued
Ġleg al
Ġeng ine
Ġbelie ve
Ġsignific ant
Ġ er
Ġb ad
Ġg etting
ore d
ap h
Ġ2 7
ost on
Ġpr act
Ġad just
Ġcontr acts
Ġsharehold ers
Ġsto res
Ġsubsidi ary
u ation
Ġd en
und er
Ġnor th
Ġelect ron
Ġc anc
Ġb ase
Ġf re
or p
Ġbe h
Ġab ove
mar ket
Ġge or
c r
d s
w r
Ġfor d
ord in
Ġfollow ing
Ġa id
Ġp ain
or ies
Ġd istr
Ġj ump
Ġbel ow
o ts
Ġs k
Ġb oston
ar ily
is on
ic ans
Ġl ed
Ġwar ner
Ġcent er
Ġter ms
v est
Ġ ve
Ġo vers
an while
Ġmanag ers
Ġdiff icult
Ġrestruct uring
Ġunivers ity
p re
t ax
is es
Ġal le
Ġpl un
Ġra ise
Ġtak en
Ġadvert ising
Ġconstr uction
Ġm s
Ġm ich
Ġp arent
it ary
Ġst aff
our n
ep end
Ġinclud ed
Ġvol at
Ġrequ ire
Ġsim ilar
Ġto ky
ac y
Ġits elf
Ġpost ed
Ġcond ition
Ġangel es
o f
t ain
Ġj aguar
ere nt
Ġbo ok
Ġcar ri
Ġstate ment
Ġdisc l
Ġeff ort
Ġdet er
Ġbre ak
d en
Ġs at
Ġb ought
ist ic
Ġ8 0
Ġavail able
Ġa ust
he ad
Ġn ec
Ġres ign
ens ion
Ġincre asing
Ġsecur ity
h one
s ales
ic le
Ġhe ar
Ġj ames
Ġj ourn
Ġrep orts
Ġcould n
Ġdisc uss
Ġhold ers
mon th
Ġdom estic
r ill
s ide
w est
Ġs us
ar ant
Ġh it
Ġas ked
Ġv ar
Ġv et
Ġper cent
Ġwork ing
Ġvi ol
Ġ ide
Ġ esp
Ġb ur
ce ment
Ġnot ed
Ġtrans port
how ever
Ġportfol io
s he
Ġu r
Ġv is
Ġind epend
Ġcl ass
Ġ4 5
erv es
Ġair lines
ib ility
Ġappro ved
Ġger many
Ġfig ures
Ġh ist
ol e
Ġy oun
Ġcon st
Ġch ild
Ġbl ock
Ġcall s
Ġtel ep
g en
m itt
Ġb ay
Ġh um
Ġdef icit
Ġtoky o
a h
Ġw estern
Ġf av
ac ed
Ġcom b
ort un
Ġint roduc
Ġres erve
Ġ198 6
alth ough
Ġtel ev
Ġdiff erent
Ġmot or
Ġheav y
m ing
Ġe as
Ġst ri
Ġr u
ther n
Ġse ven
for man
Ġatt empt
Ġdes p
Ġreduc e
Ġjourn al
Ġm iss
Ġw ed
Ġre le
Ġj an
Ġpre m
Ġli qu
Ġcar s
Ġkn own
bit r
erg y
Ġprob ably
n es
s y
u ing
Ġe ither
Ġr ather
ect ing
ab l
Ġpart y
Ġpay ments
Ġeff orts
Ġvent ure
an ch
Ġf o
Ġatt r
Ġsay ing
Ġair line
Ġaut om
Ġc ases
is ter
Ġd oc
Ġpro j
Ġv ict
if y
Ġexp ens
Ġrep ubl
Ġbank rupt
Ġstr uct
Ġinstitut e
aster n
Ġtal ks
Ġsav ings
w ide
in o
Ġo cc
en ing
ic i
Ġst at
ac c
Ġsa f
Ġgroup s
Ġincre ases
Ġbig gest
att le
b all
Ġs qu
ic o
Ġre ached
ater ial
tr ad
Ġant i
Ġger man
forman ce
d own
e ven
Ġl yn
Ġcom ing
Ġj e
Ġal ong
pp er
Ġus ing
Ġown ers
Ġdirect ors
Ġgain ed
Ġappro val
Ġresp ons
ceed s
Ġsecret ary
Ġtelep hone
k ers
n ot
s elf
re p
ill s
un g
Ġinvest ments
Ġar r
Ġmak ers
med i
Ġstrateg y
Ġsched ul
8 0
d a
r ate
Ġp acific
the se
im um
Ġch ina
anc ed
Ġrep l
li ke
Ġcount ries
Ġhelp ed
Ġdeal ers
Ġdivid end
Ġslight ly
o b
t ies
Ġt ell
Ġto ward
Ġth reat
Ġre b
Ġn ame
Ġg iven
am a
Ġun c
Ġk id
Ġpre fer
Ġdesp ite
Ġb al
Ġf ri
Ġl ines
st ock
ect or
Ġk ey
Ġgu arant
Ġmach ines
Ġmil itary
Ġproper ty
Ġsubst ant
b ur
r ist
y ou
re venue
at ory
Ġf u
Ġe ver
Ġn av
Ġ7 5
av el
Ġper formance
ang ed
Ġinter v
a el
a ign
c all
s en
ap e
ren ch
rop ri
Ġi b
Ġinterest s
Ġbro ther
ict ed
Ġprofit s
Ġelect ric
Ġpo or
Ġsus p
b ec
Ġm aterial
st er
Ġexp and
Ġdep os
Ġacqu ired
Ġra ised
Ġcommun ications
Ġcamp aign
Ġtelev ision
6 0
9 0
m en
o id
Ġt end
Ġt arg
Ġa ud
Ġm en
Ġh ot
Ġ3 7
ist ing
art ers
Ġk ind
Ġremain s
Ġlook ing
Ġmed ical
3 0
at s
Ġw ent
it ors
Ġf oc
ec ially
Ġcl ients
Ġmin or
Ġsur pr
1 9
Ġb ure
il t
ish ing
Ġest abl
Ġadv is
Ġlevel s
Ġmanufact uring
Ġfail ed
Ġsomet hing
Ġaust ral
Ġbankrupt cy
j o
Ġa uction
in ed
er ate
Ġw ater
el ves
Ġpro s
Ġmar ks
Ġpr im
Ġse par
Ġcl im
Ġar bitr
Ġacqu ire
Ġcent ral
Ġprom ot
Ġprevious ly
Ġlim ited
Ġcanad a
Ġmeas ure
Ġparticular ly
Ġdav id
Ġpercent age
c k
n ey
an e
Ġh ong
Ġre ally
ill e
Ġv ir
Ġ3 00
Ġen ergy
Ġfe el
Ġvot e
Ġcomplet ed
Ġbroker age
umb ia
Ġlyn ch
2 0
b or
b ody
c ri
Ġh om
Ġh uge
Ġbuy ers
Ġinclud es
Ġ15 0
Ġjo b
Ġestim ates
Ġbas is
Ġlawy ers
Ġesp ecially
p art
Ġp oll
Ġk ong
Ġsu ff
Ġ7 0
Ġhold ings
Ġsupp ly
Ġestim ate
Ġpartic ip
Ġcanad ian
Ġindepend ent
' m
w ell
x el
Ġp ound
Ġf ield
Ġh ug
Ġex c
Ġ2 9
ant a
Ġbr ing
Ġfr ank
con t
Ġcurren cy
Ġlead er
Ġrel ations
Ġfar m
Ġmagaz ine
bac he
Ġib m
Ġth om
id ge
Ġr at
Ġsh o
Ġha ving
au gh
Ġass ist
Ġsur ve
Ġgood s
Ġnews p
Ġseek ing
u ments
Ġt reat
Ġw al
ar k
Ġal though
Ġro le
Ġapp ropri
Ġme ans
Ġattr act
m y
n a
v ille
Ġw ants
it z
it er
Ġl ack
Ġex tr
ain ing
ail y
Ġplan ts
Ġgrow ing
Ġtak ing
Ġinvol ved
Ġactiv ity
Ġschedul ed
1 0
b ond
Ġb an
at ively
ir ing
Ġj oin
Ġdo ing
Ġmajor ity
Ġlong er
Ġph il
Ġlegisl ation
Ġnat ural
Ġdistr ict
Ġtransport ation
b ank
k in
Ġb ell
om en
Ġe astern
Ġab ortion
Ġwere n
Ġ4 4
Ġdis app
Ġproduc ers
Ġimp act
Ġrel ated
Ġcol le
Ġev ent
Ġreduc ed
Ġdist ribut
d ing
t c
Ġc it
Ġl ight
Ġth ing
Ġg i
ac tions
Ġbe ar
ver aged
Ġtr y
iz ing
Ġim medi
wo od
Ġcons id
Ġown s
Ġwor th
ind ex
Ġconcern s
Ġstart ed
Ġliqu id
c our
g o
h am
st ill
Ġr ange
ag ing
Ġpr inc
Ġsp ace
ud e
Ġapp arent
Ġass et
Ġfav or
ak er
Ġch o
Ġwill iam
Ġse en
Ġout side
Ġacc ounts
Ġdisc ount
iet y
Ġlarg ely
Ġinstitut ions
Ġenvironment al
Ġproj ects
' ll
e gr
g ins
p e
u se
Ġc and
Ġd aily
Ġe ight
id el
un ch
enc ies
Ġlead ing
Ġed uc
Ġrul es
Ġsettle ment
mak ers
Ġdiscl osed
Ġa pr
re c
Ġthe ms
Ġp le
Ġf rench
Ġd one
ent ly
Ġde ath
Ġ3 3
Ġnot e
Ġpre p
Ġadd s
Ġiss ued
Ġunder wr
Ġsub ject
me anwhile
Ġpress ure
Ġprot ection
Ġsoc ial
Ġhour s
Ġhum an
Ġapr il
Ġthems elves
h is
s et
w here
an alyst
Ġf ast
Ġf air
Ġn ight
Ġst op
Ġal ways
Ġres erves
Ġcour se
Ġneed ed
Ġseem s
Ġquick ly
h aps
Ġt w
Ġa head
Ġs y
Ġare as
Ġcons erv
Ġmo v
Ġspec ific
Ġpar ts
Ġconf erence
Ġthough t
Ġsit uation
Ġinterv iew
e as
l aw
in vest
Ġf ixed
Ġst ren
am ong
op er
Ġro om
Ġbrit ain
Ġcommun ity
Ġyoun g
b an
c ol
on t
ar son
st on
con s
Ġser ious
Ġturn ed
Ġprof ess
Ġvet o
e g
Ġt ren
ar m
Ġsh ip
Ġun s
Ġsc ient
Ġcongress ional
Ġrece ive
Ġsim ply
Ġcompet ition
Ġvolat ility
nes day
Ġbrother s
f ed
Ġt emp
Ġs ide
ig in
Ġel se
rough t
Ġinst ead
Ġcol umbia
Ġhur t
Ġdre xel
Ġnec ess
Ġstren g
i ec
l et
Ġt ur
Ġc op
Ġp it
st ate
Ġg m
Ġr ad
Ġor igin
Ġpl c
Ġse ason
Ġtrad ed
Ġapp ear
Ġtax es
Ġent ertain
Ġfil ing
Ġrequ ired
com p
Ġopp ortun
Ġgre en
Ġstud y
analyst s
4 5
i res
Ġw ord
Ġp ers
or m
ie ga
Ġrec ession
Ġcr ash
Ġplan ned
Ġbro kers
Ġdet ail
Ġpil ots
Ġprem ium
Ġfoc us
4 0
h a
h ouse
y al
Ġb orrow
Ġin str
Ġd ig
ac ity
Ġpro sp
un t
Ġmar k
Ġ3 2
Ġsu re
Ġqu ake
Ġcomm od
Ġdef end
Ġsmall er
Ġpa ul
Ġchang ed
Ġca used
Ġmor gan
Ġbegin ning
Ġdemocrat ic
Ġpartners hip
Ġve h
Ġprinc ip
u x
w oman
he l
Ġc ell
Ġf ul
Ġv ers
Ġha ven
Ġpr ime
Ġco ver
Ġproduc e
Ġcar ry
Ġown ed
Ġearn ed
Ġact ive
Ġcredit ors
Ġrequ est
Ġrev iew
urs day
Ġsum mer
t im
Ġc iv
Ġh ol
Ġch rist
Ġun ch
our ce
Ġfe es
Ġret ire
Ġgu ber
ra ft
Ġreturn s
Ġgener ally
Ġbenefit s
Ġcanc er
Ġhist ory
Ġprefer red
Ġsurve y
i ation
r ican
Ġs em
er c
Ġm ax
Ġf ight
al y
Ġst ay
all en
Ġpart ner
row n
Ġany thing
ug g
Ġmer rill
Ġshow ed
Ġfranc s
Ġdou ble
Ġshar p
Ġsoft ware
Ġconvert ible
Ġjump ed
Ġpros ecut
c tion
Ġp ick
Ġth in
Ġst ar
Ġtr avel
Ġsm ith
Ġcontin uing
Ġnor iega
Ġadv anced
Ġconsid ered
a ud
g ers
Ġt ons
in ation
Ġb i
Ġe g
ag an
Ġnor m
Ġclos ing
Ġwed nesday
Ġarbitr age
s ince
Ġm om
Ġm ess
Ġw omen
ic ient
Ġth ursday
Ġg or
Ġg lo
th ird
ear n
Ġres ources
Ġdec ember
Ġbec ame
Ġannoun cement
Ġresp ond
Ġmed ia
bo th
Ġinit ial
Ġrich ard
Ġthr ift
n et
Ġa im
Ġa ri
Ġm ic
Ġr ap
Ġsp e
Ġtrad ition
Ġus ually
Ġ199 2
Ġfl at
Ġmer ger
Ġed itor
Ġpet ro
Ġcre ated
Ġdeli very
Ġhous ing
Ġflo or
Ġchild ren
acc ording
Ġtarg et
' d
7 0
w a
Ġm ut
Ġh on
ut es
Ġwh y
Ġ5 5
Ġres ol
Ġpres ent
Ġyield s
Ġspokes woman
pro duc
Ġentertain ment
m et
Ġs ize
as k
Ġl ang
Ġn ar
ill ing
ly ing
Ġch allen
ang es
Ġ9 0
Ġmin imum
Ġgr and
Ġhim self
Ġsharehold er
Ġbroad cast
Ġovers eas
f ir
Ġ ident
in st
Ġs we
Ġb attle
om ing
ut y
Ġr ally
Ġal tern
Ġtr ial
Ġ3 8
Ġse g
Ġ4 9
Ġme an
Ġmin ister
Ġcontin ues
Ġregul ators
Ġhop e
Ġshar ply
Ġemer g
Ġcondition s
f in
u ff
Ġb urn
ic ial
id ing
ill ed
the n
us ion
Ġ3 6
Ġ3 9
Ġle veraged
Ġexp ort
Ġ5 1
Ġno thing
Ġsc r
enc es
Ġter m
Ġwant ed
Ġhop es
rel ated
Ġextr a
a ult
b al
c are
w er
Ġa ge
er o
Ġc able
Ġb all
Ġg ame
ur ch
ect ive
Ġsp read
Ġk ore
Ġbu ilt
Ġent ire
mar k
Ġmanufact urers
Ġhug o
Ġunch anged
Ġc at
Ġc as
Ġm is
Ġm us
Ġm ult
Ġm ember
Ġfor ced
ber g
Ġfin al
Ġ198 0
own ed
Ġimp orts
orn ing
Ġjust ice
Ġprov ision
Ġshow s
Ġav oid
Ġmach ine
Ġlim it
Ġhur rican
cher s
Ġlet ter
Ġstri ke
8 5
j apan
Ġs ession
Ġs ector
or gan
ar ies
al so
Ġto m
Ġl in
Ġg round
le ar
Ġcomp ar
Ġ4 2
Ġ6 2
Ġquarter ly
Ġact ually
Ġ199 1
Ġsen se
Ġdirect ly
Ġfl ow
Ġmer ch
Ġassoci ates
Ġbeh ind
Ġmich ael
Ġciv il
Ġf ear
Ġn as
Ġr ub
Ġwh ole
Ġex erc
Ġj r
Ġpr ior
Ġrec omm
Ġdec l
Ġfr ance
Ġoper ation
Ġmin ist
Ġtrans actions
Ġconf ir
Ġcle an
Ġsuc ceed
Ġart icle
mitt ed
Ġtemp or
h man
u ary
Ġs un
on se
Ġo bs
Ġb lo
Ġd i
Ġh ost
Ġre ach
Ġre agan
Ġcom es
Ġr um
qu e
us es
Ġun d
Ġwill ing
Ġab ility
Ġsp orts
Ġag encies
Ġexp orts
Ġ4 8
Ġcomm it
Ġ198 5
Ġen cour
Ġmo ves
Ġcap acity
Ġact ual
Ġprev ent
Ġev idence
Ġant icip
Ġpet ers
Ġgeor ge
Ġconst itut
Ġgi ant
pe ople
3 5
o v
p oint
u ment
Ġt um
Ġb rought
Ġw ays
en e
ro ad
ic tions
el ed
Ġat l
ul ated
ak es
Ġbank ers
Ġapp l
Ġmain tain
Ġallow ed
Ġunc ertain
bache v
Ġs el
on a
Ġb er
Ġm ount
Ġp enn
Ġin j
ag on
Ġproduc ed
Ġresp onse
Ġfollow ed
Ġfac ilities
Ġbelie ves
Ġplun ge
Ġsepar ate
Ġnewsp aper
Ġhurrican e
b u
k en
Ġt or
Ġc ard
Ġm ex
Ġm ail
Ġp ul
Ġl ou
ut e
un icip
Ġsp ring
Ġsu pre
Ġcont ribut
Ġdec ided
Ġmod est
Ġeffect ive
Ġru le
Ġful ly
Ġgor bachev
Ġari z
Ġemerg ency
d le
g ia
Ġp ict
Ġe y
qu arters
Ġv o
Ġac ross
em s
Ġint ell
und red
Ġdis p
Ġdis put
Ġ6 5
Ġamer icans
Ġdel ay
Ġrun ning
ili ar
Ġdesign ed
Ġcrit ic
Ġdisapp oint
b ar
c oun
g l
Ġw at
Ġw oman
ic les
Ġh ut
ou th
om on
Ġfor ces
Ġoff ices
Ġsp ent
Ġint egr
Ġ4 6
Ġel imin
ove red
Ġclos ely
Ġpack age
Ġfri end
Ġapparent ly
Ġsupre me
d on
f ur
g m
m b
p an
Ġ ver
Ġs yn
re g
Ġm os
Ġm ix
Ġp sy
Ġl it
ent al
ad y
Ġde ad
Ġch ain
us ing
Ġun f
Ġab s
Ġ4 3
Ġ4 00
Ġpart ly
ens ive
Ġshe arson
Ġgre ater
back ed
Ġcoun ter
Ġpop ular
Ġide a
Ġexpens es
bec ause
8 75
y c
Ġ '
Ġc e
Ġm al
Ġp ension
Ġh osp
Ġre form
ol id
Ġsp end
ous and
Ġfr anch
Ġhead quarters
Ġhand s
Ġref in
Ġopen ed
Ġmach in
Ġinfl u
Ġvar ious
Ġjan uary
Ġnar row
c il
f e
f ield
p et
y esterday
Ġc bs
Ġc ross
Ġm orning
Ġf ire
Ġh undred
Ġg ave
Ġst an
Ġr ising
Ġoff set
Ġmr s
op h
Ġro ad
Ġdec ade
Ġmo ody
Ġhold s
Ġinst ance
Ġdeb ent
Ġsign ed
Ġfig ure
Ġquot ed
Ġvict im
coun ter
c ar
j ected
p ay
q int
Ġt im
Ġa fr
Ġw ind
Ġst ore
Ġ2 50
Ġad op
Ġle ave
Ġle hman
Ġro b
Ġqu ality
Ġpay ing
Ġpay ment
Ġjo bs
Ġent er
ful ly
Ġfam iliar
Ġtal k
Ġrul ing
more over
Ġrap id
Ġmut ual
fir st
Ġhosp ital
qint ex
l ett
m it
y le
Ġb it
Ġp al
Ġto get
Ġcon duc
Ġtr ack
Ġle av
Ġcont ributed
Ġtrad er
Ġeconom ist
Ġprov ides
Ġcount y
Ġneed s
Ġcut s
Ġtak es
Ġir s
Ġactiv ities
Ġkid der
augh t
Ġmom ent
Ġtoget her
6 5
c raft
g s
Ġs ection
Ġm ac
Ġm ur
is her
as ts
ur ity
Ġr ac
Ġde als
Ġtr ip
Ġcor n
Ġ5 2
Ġmo ved
iss an
Ġmanag ing
Ġdou b
Ġintroduc ed
Ġfo ot
y et
he st
Ġp ent
Ġp us
Ġp ip
et y
Ġg ar
Ġex isting
Ġ3 4
Ġres ident
Ġinvest ig
Ġacc ess
Ġwork s
Ġfund ing
Ġ9 9
Ġmat ter
Ġmot ors
Ġconsum ers
Ġquest ions
Ġproper ties
Ġcarri er
a ur
Ġc ause
Ġp en
Ġf el
Ġto wn
Ġsh i
ak ing
Ġsp l
Ġtrad es
Ġpre c
bl ing
Ġplan ning
Ġsub ordin
Ġhigh ly
Ġprov isions
Ġval ued
Ġwr ite
Ġcustom er
Ġcre ate
Ġcoun cil
Ġauthor ity
Ġelectron ic
Ġresign ed
Ġcand id
1 5
h ib
p acific
y ond
Ġs il
Ġc os
Ġw age
Ġf le
Ġh y
Ġth ousand
ce p
Ġmar gin
Ġdis aster
ex p
Ġper haps
itt en
Ġreg ard
Ġdevelop ed
Ġlarg er
Ġdeclin es
Ġdemocrat s
amer ican
Ġorgan ization
Ġwid ely
Ġalle ged
9 5
d ic
d esp
o o
w ar
Ġre organ
st e
Ġoff ers
Ġmon et
Ġpre tax
Ġapp oint
Ġfr aud
li ed
air s
Ġel ected
ious ly
Ġfore cast
Ġwar r
Ġfarm ers
fed eral
Ġdig ital
desp ite
5 00
u it
Ġs ound
Ġo bl
it ers
Ġto ugh
Ġd ate
ro om
il ing
ic ing
ac ter
Ġch ap
ain t
Ġmar gins
ond uct
Ġim age
lo ok
Ġfe et
Ġpol and
og n
Ġback ed
Ġpar k
Ġappro ach
Ġinstitut ional
Ġimpro ved
Ġpred ict
Ġappe al
Ġsubstant ial
Ġaustral ia
Ġconserv ative
Ġdebent ures
c ome
e qu
e ach
Ġs n
at ic
Ġd ink
ow s
se qu
Ġex ceed
Ġch ance
Ġinv ent
ans ion
Ġro ugh
Ġrep e
ri ed
Ġpre t
ress ed
Ġsc i
Ġadd ing
Ġcr imin
Ġdr aw
Ġair craft
Ġbl ue
ific ation
Ġop tion
Ġprov ided
Ġrel atively
Ġsw iss
Ġopp osition
Ġelectron ics
Ġclim bed
iec e
Ġlou is
1 25
4 8
m o
s outh
z en
Ġc ited
Ġo pt
Ġb ull
Ġm ill
Ġp ence
Ġf un
Ġl end
Ġn ic
Ġg ard
Ġst ory
Ġj ack
Ġal one
Ġun us
Ġsal omon
Ġapp ears
Ġfe at
Ġmo ving
Ġeconom ists
Ġexch anges
Ġste in
Ġpurch ases
Ġposition s
Ġhous es
Ġbrand s
call ed
Ġdink ins
. -
a id
g ains
i os
k o
o very
v ent
Ġs and
Ġo h
Ġb ott
Ġw it
is ers
Ġh am
Ġpro ceed
ap ers
op s
Ġinvest igation
Ġwork ed
Ġatt ack
Ġlaw su
Ġtotal ed
Ġpolic ies
Ġcompet itors
Ġpet er
Ġmil es
Ġaccount ing
Ġengine ering
Ġrepl ace
Ġnecess ary
Ġvers ion
Ġretire ment
Ġminist ry
Ġhut ton
Ġpent agon
r ust
t wo
z e
Ġs ony
Ġm unicip
it es
il ed
ic ts
Ġh o
Ġu l
Ġbe yond
Ġsa w
Ġr ating
Ġag gress
Ġgo es
Ġ4 7
Ġsc and
Ġinterest ed
Ġmin utes
Ġatt ributed
Ġlaw son
Ġintern al
hold ers
ra el
Ġjohn son
Ġmid dle
Ġindic ated
Ġnegoti ations
Ġappropri ations
Ġtren d
Ġcommod ity
c ow
h att
l ies
r or
r ay
v y
on ed
Ġp os
om b
Ġre jected
ig ence
Ġr i
Ġsh ut
if ts
Ġun less
Ġco oper
Ġrec ogn
Ġam ounts
ult ure
Ġfe b
iss ions
Ġdes cri
Ġcal c
Ġequ al
Ġmer c
Ġben ch
pro fit
Ġexper im
Ġmeas ures
Ġpass ed
Ġsaf ety
Ġvir t
hatt an
i ets
m ber
r acy
Ġ ign
Ġt it
Ġs ought
Ġb rown
an other
Ġto ur
ro vers
ol f
le um
Ġj ose
un ications
Ġtr uck
are n
Ġ19 6
Ġsp eed
od e
Ġcont rovers
Ġper form
Ġfl or
Ġspec ulation
Ġadv ant
Ġph arm
Ġsou thern
Ġdrug s
Ġcommer ce
Ġdom in
Ġconsult ant
Ġpract ice
Ġrelations hip
Ġstan ley
a f
b c
m p
z o
Ġa ward
in n
Ġb on
Ġb anc
Ġb aker
Ġw atch
Ġl ic
ut ical
ad ed
est ate
Ġcomp lex
Ġhe art
Ġj ury
Ġro ll
Ġman hattan
ren z
Ġsome one
bl es
gr aph
Ġam end
Ġdef in
Ġconc lud
Ġhig hest
Ġnum bers
Ġwr ong
Ġsov iets
Ġexpect ations
Ġacquisition s
Ġconsider ing
Ġrefl ecting
Ġheav ily
Ġindividual s
Ġstandard s
Ġlawy er
da q
Ġbure au
jo hn
cont rol
Ġmonet ary
d uring
i ans
on str
Ġc ast
or ate
Ġan s
Ġl ink
ou ts
ad a
Ġtr aff
ket s
Ġ4 1
Ġbr idge
ace utical
Ġmost ly
Ġreg ional
Ġdiv ers
Ġph one
Ġpublic ly
Ġfil m
Ġev ents
Ġremain ing
Ġopen ing
Ġrest aur
dr aw
Ġdeter min
Ġowners hip
Ġimmedi ately
Ġorigin al
inst ead
Ġmex ico
Ġreorgan ization
Ġchap ter
b us
m ond
Ġa er
Ġo un
Ġo tc
or ation
id a
Ġon es
ch ing
Ġad s
Ġlo se
Ġany one
Ġmin d
Ġreg ular
Ġtrans fer
app ed
ump tion
Ġrestr ictions
Ġbelie ved
Ġprom pt
Ġneg ative
Ġmagaz ines
Ġrepubl ican
Ġminor ity
Ġtreat ment
Ġcolle ge
idel ines
Ġbroadcast ing
Ġnas daq
b by
g u
s uch
Ġ ess
Ġs li
re m
Ġw ood
or ing
ar ing
as ons
Ġl ux
Ġg ets
Ġg iving
Ġthat cher
uc lear
Ġex cess
Ġne igh
os es
Ġdis m
Ġi i
Ġpol ice
Ġ199 4
loy d
Ġnor thern
Ġpur p
Ġra ising
Ġaff ili
Ġrev ised
Ġfact ors
Ġbar rel
Ġregul atory
emp loy
no on
Ġstreng th
Ġopportun ity
Ġpetro leum
Ġmos cow
Ġsubordin ated
Ġpharm aceutical
a e
b ber
n or
s el
er ous
Ġin f
Ġit ems
th ose
Ġwith draw
Ġv ac
ap se
um n
Ġk ing
Ġacc ord
Ġdr ive
Ġown er
Ġatt ention
Ġlaw s
ind eed
Ġ12 0
Ġemploy ee
Ġreduc tion
Ġtechn ical
Ġhot el
Ġhom es
Ġtradition al
Ġseg ment
4 2
e we
n el
r ated
y ield
re ct
er ation
Ġo ak
it a
Ġd ut
Ġd est
ro te
Ġh all
Ġl am
Ġe p
Ġn om
Ġg ives
ve mber
os ure
Ġpl ast
Ġ5 7
Ġhad n
Ġrec all
Ġout put
Ġpart ies
Ġno vember
Ġcons olid
Ġgen e
Ġins ist
Ġbid ding
Ġresear chers
Ġfac ility
Ġcoll apse
Ġmortg ages
Ġvent ures
Ġpan el
trad ing
ewe bber
a ment
c hes
Ġs ort
re st
Ġw ond
le ment
Ġexp ansion
Ġco ast
Ġproduc er
Ġover all
enc ed
Ġprofit able
Ġop in
Ġpubl isher
Ġbid s
Ġdevelop ing
Ġconcern ed
Ġpower ful
Ġmod ern
Ġmat urity
Ġris ks
Ġprot est
Ġexper ts
Ġgeor gia
Ġeas y
Ġeduc ation
Ġprep ared
Ġvictim s
Ġoh io
c ap
e au
k now
s erv
t v
Ġ es
Ġa part
Ġs ens
Ġc ities
Ġw rote
ot ive
Ġ5 4
Ġ5 8
Ġsc re
ang ing
Ġcr ime
ert ific
ib as
Ġcertain ly
Ġcomplet e
Ġweak ness
Ġwa iting
Ġimprove ment
Ġtyp ically
Ġrequire ments
ici ans
Ġstat ist
Ġbal ance
Ġmaterial s
Ġveh icles
Ġey e
Ġfranch ise
f und
s ec
Ġa ch
in y
Ġs anta
Ġb reed
Ġp ending
Ġf res
Ġh or
ac hes
se par
Ġsh ift
ank s
Ġqu ite
ren t
Ġar ch
Ġmonth ly
Ġli ber
Ġacc om
Ġbro ok
Ġinst all
Ġval ley
Ġsur v
Ġcent ers
Ġevery one
Ġrepres ents
Ġmor ris
Ġsoc iety
Ġcoup le
Ġtrou ble
Ġpain ewebber
Ġdepos it
Ġaim ed
Ġlit igation
Ġspl it
know led
Ġach ie
b ro
h i
v an
v ol
w ed
w ise
Ġ qintex
on ents
on to
Ġp ush
al f
il ty
ou ston
Ġtr ied
Ġch ips
Ġag ric
Ġ198 4
Ġass um
Ġ6 6
gr ade
Ġmay or
ash ion
Ġdon ald
Ġcol or
Ġke pt
Ġcompet itive
Ġgre w
Ġport ion
Ġla un
Ġexper ience
Ġcoup on
Ġsomet imes
Ġstep s
Ġchemical s
Ġlist ed
Ġautom otive
Ġnav y
Ġliquid ity
Ġdetail s
Ġnorm al
Ġglo bal
Ġtor onto
Ġintell igence
Ġmunicip al
5 5
b i
h ood
p ret
u el
x on
Ġw ide
Ġh ud
et h
ur red
Ġis rael
uc ks
all as
Ġ19 0
ud den
Ġco al
Ġrec overy
ous ly
Ġunder stand
Ġsell s
Ġend ing
Ġlaw makers
Ġdeb ate
Ġdiff erence
Ġaff ected
Ġevery thing
Ġinvol ving
Ġsug ar
br it
Ġconsult ing
Ġplun ged
Ġbure a
Ġmov ie
Ġtom orrow
Ġobs erv
Ġariz ona
Ġcrimin al
Ġul tim
1 1
c ing
k el
m ission
s m
t urn
Ġc ore
Ġm att
ic orp
Ġl ive
Ġn uclear
Ġg am
ol n
ve re
Ġr ail
Ġas se
Ġex am
un e
Ġsp ot
Ġco pper
Ġdis pl
Ġar m
Ġafter noon
Ġma e
Ġdem onstr
Ġgu ilty
Ġadv ance
Ġbuild ings
Ġcontrol s
Ġassoci ated
Ġhead ed
Ġrun s
Ġsett led
Ġplay ers
Ġ197 0
Ġdeli ver
Ġrele ase
Ġreb ound
bur gh
Ġprim arily
Ġthom as
Ġmus ic
Ġdoub t
ste in
Ġlux ury
3 75
a um
f ort
f ood
h our
t re
w ing
Ġs ources
Ġp ace
Ġd u
Ġd ed
Ġl ending
Ġl inc
Ġg ross
Ġpro ceeds
Ġhe n
Ġex cl
ore n
Ġmar t
Ġac knowled
ab les
ag ue
Ġro c
anc y
Ġcl ient
Ġres ist
Ġam id
Ġstr ugg
Ġins p
Ġconc ent
Ġeff ects
Ġpar is
ines e
Ġcent ury
com put
Ġpurch ased
Ġdam aged
Ġmc c
de al
Ġfail ure
Ġob ject
Ġob tain
Ġill eg
Ġinit i
Ġconv ent
Ġtrou bled
Ġfre qu
Ġincreasing ly
Ġrele ased
trad ers
Ġestabl ished
Ġevent ually
invest ors
Ġprofess ional
Ġdisput e
Ġrough ly
Ġadvant age
separ ately
Ġlinc oln
8 8
b es
p le
w ill
Ġ rom
Ġt ro
Ġs ource
Ġc d
Ġc am
Ġb at
Ġb ul
Ġb ail
is f
Ġd allas
ic ation
Ġe ag
Ġre in
Ġg ul
Ġst ation
Ġwh om
Ġtr ue
iv ity
Ġpl us
Ġpl aced
Ġind ian
Ġcont ain
Ġ7 2
Ġar my
itt ing
Ġfund ament
Ġval ues
Ġshow ing
Ġtel ec
Ġput ting
Ġfall ing
Ġsuccess ful
Ġpred icted
Ġexpens ive
Ġstruct ure
Ġsurpr ising
Ġprim ary
Ġword s
Ġuncertain ty
c an
i at
u age
w or
Ġa f
Ġs ear
Ġc reat
Ġm it
Ġm its
ar s
ic tion
ur a
Ġpro ced
os ing
Ġde ep
Ġtr illion
Ġac tions
Ġk renz
ant ic
man agement
Ġ5 3
Ġ5 9
act ed
iz es
Ġ8 5
Ġen s
ach s
Ġli ability
Ġconc ed
Ġsupp lies
Ġrel ief
Ġelect ions
Ġmain fr
Ġfac es
Ġpropos als
eren ces
Ġstrateg ic
Ġcharg ed
Ġpat ent
Ġlos ing
Ġslow down
Ġcomb ined
Ġestabl ish
Ġprincip al
Ġmix te
Ġpip el
Ġthousand s
Ġlaun ched
0 5
4 3
u a
y r
Ġs elf
Ġs udden
Ġc rop
Ġd ang
Ġh ouston
Ġre new
ill ips
Ġst em
ad es
Ġas k
ot a
Ġqu iet
Ġall i
Ġfr ont
Ġdo zen
Ġweek end
Ġgen et
Ġpubl ishing
Ġhouse hold
Ġpur s
Ġsign s
ins urance
Ġelect ion
Ġsw it
Ġcommun ist
Ġhealth y
Ġvot ers
Ġprot ect
Ġinvol ve
Ġclear ly
Ġrefl ects
Ġread y
Ġsubstant ially
Ġscient ists
Ġexerc ise
Ġpsy ch
Ġenter pr
Ġpen al
Ġunus ual
Ġamend ment
Ġtraff ic
1 2
5 3
a ut
o graph
s ch
Ġs achs
ar agu
Ġl ock
Ġe ase
Ġst er
ad ing
Ġch inese
ab out
Ġpr ud
Ġsp ir
anc ing
ok e
Ġlo bby
Ġbuy er
Ġus x
Ġus ual
ish i
ind ust
Ġshe l
Ġgu idelines
Ġsign al
Ġremain ed
Ġcontrol led
Ġcorpor ations
Ġmod el
Ġmet als
Ġla unch
Ġcamp eau
Ġpan ama
Ġdivid ends
Ġdev ices
Ġadjust ed
Ġbase ball
gen eral
Ġdoc uments
Ġnav igation
Ġtend er
Ġrat ings
Ġmic ro
Ġburn ham
Ġhundred s
Ġresident s
Ġpret ty
Ġscand al
Ġburea uc
1 8
6 25
b on
c orp
d o
d om
d em
k n
m c
p ack
r s
w el
Ġt ight
re w
Ġm ixed
at ure
Ġw is
Ġf al
Ġf em
Ġf ears
Ġl ear
Ġth us
Ġe c
Ġre asons
Ġn issan
id ers
Ġas p
Ġtr ig
Ġv ide
Ġinc ent
Ġab and
Ġle e
Ġco ff
Ġfin ally
Ġproduc ing
Ġdo or
lo se
Ġspec ul
Ġed ward
com m
Ġmain ly
Ġtechn olog
Ġdeclin ing
Ġref er
Ġstart ing
Ġut ilities
Ġsignificant ly
Ġrespons ible
Ġarr ange
Ġadvis er
Ġaustral ian
Ġdistribut ion
Ġtw ice
Ġdefend ants
Ġsyn dic
Ġvirt ually
Ġconvent ional
2 00
b ing
d ollar
e ing
g as
h ol
l ong
z z
Ġt on
he m
Ġc oc
Ġc ds
Ġb ol
Ġb arg
Ġm ere
Ġf ine
Ġd er
Ġst ations
ol ution
ers ey
Ġcon vers
Ġj ersey
and er
ab il
Ġcl ub
Ġfin ished
Ġdec ide
Ġbr ief
Ġass ess
Ġlo yal
Ġacc used
Ġcar ol
Ġbig ger
Ġann ually
Ġhigh way
Ġdire ction
Ġcontr ast
Ġsur ged
Ġmanag ed
Ġconf idence
Ġemploy ment
ub ishi
Ġresp ect
Ġfew er
Ġaff airs
Ġfam il
Ġtal king
ru ary
Ġplay ed
Ġgold man
Ġseem ed
off icial
Ġslow ing
Ġrefl ect
Ġdepos its
Ġassist ant
Ġrad io
Ġsem ic
Ġchallen ge
Ġfeb ruary
Ġbench mark
bus iness
Ġess ential
Ġneigh bor
Ġopin ion
ertific ates
Ġgul f
5 2
d y
e very
h as
k i
o h
r up
t a
t ings
on ly
Ġc row
Ġc ub
ill y
the by
ac es
Ġsa ve
Ġex cept
os a
Ġpr icing
Ġk ill
Ġmon itor
Ġ198 2
Ġapp le
Ġ8 7
Ġoper ate
Ġoper ates
Ġ10 1
Ġ9 8
Ġcr is
Ġdisc lose
Ġtax pay
Ġfl ight
ib ly
Ġfore st
Ġste ven
sh ip
Ġeu ro
pl us
pl ace
Ġaff ect
Ġmod els
Ġmet h
int erest
Ġext rem
Ġsol id
Ġsto pped
Ġrepresent atives
Ġleaders hip
Ġpract ices
Ġbook s
Ġur ban
Ġguarant ee
Ġadvis ers
Ġunderwr iters
Ġprosecut ors
Ġaltern ative
Ġkore a
Ġintegr ated
fur t
Ġafr ica
Ġleav ing
Ġnic aragu
Ġflor ida
Ġtelec omm
Ġsemic onduct
8 4
b ell
d i
d ed
h ost
h ard
i pp
l or
l arg
n am
Ġs ides
Ġw il
it ure
it ude
Ġto ol
Ġd il
Ġan im
Ġre vers
Ġn ames
Ġg al
ol es
ly wood
Ġbe at
Ġj ac
Ġgo al
Ġso ared
Ġdec isions
ren ce
Ġ8 00
Ġen for
Ġcons ist
Ġus es
arg o
Ġ9 5
Ġcr ude
Ġdep uty
Ġwor ry
Ġthrough out
Ġcol umn
Ġcompl ain
Ġadvert isers
Ġrefl ected
Ġchar les
Ġchar acter
Ġboost ed
Ġstep hen
Ġschool s
Ġappe als
Ġsuper v
Ġut ility
Ġsat isf
Ġfu el
Ġthin ks
Ġtempor ary
Ġinflu ence
Ġfel t
Ġlam bert
Ġfamil ies
Ġtelecomm unications
1 3
b ig
t ic
Ġt ask
Ġa lex
Ġs on
Ġc yc
Ġo d
Ġf reed
Ġf ashion
or ter
Ġn ations
Ġn bc
Ġg one
the ir
Ġst yle
Ġpro gress
Ġcomp rom
ect ors
Ġab road
Ġint ended
Ġ5 6
Ġco verage
Ġdis s
for ms
Ġ6 7
Ġweek ly
ecut ive
ett e
Ġins urers
Ġpar ibas
Ġcut ting
Ġ14 1
Ġput s
Ġfollow s
Ġopp osed
Ġant it
Ġvot ed
Ġgold en
Ġnegoti ating
Ġthr ifts
Ġdoc t
Ġfrank furt
Ġsho pping
itz er
Ġimmedi ate
Ġextra ordin
Ġhost ile
cep tion
Ġpos itive
Ġdetermin ed
Ġsli pped
Ġoak land
comput er
i que
m its
n y
p ol
p res
Ġb ow
Ġm ine
Ġw ife
or age
Ġe th
Ġre ject
Ġg all
ut s
Ġcom fort
Ġr uss
Ġex ist
Ġv an
Ġse vere
Ġrep ut
Ġbo om
Ġim m
Ġ6 3
lud ing
Ġmo ther
Ġgr ant
Ġsur ge
Ġter min
Ġeng land
Ġstrong er
Ġdam ages
Ġord ered
Ġpat ients
ival ent
Ġcirc um
osp ace
Ġhear ing
Ġrepubl icans
Ġguarant ees
cont in
Ġjoin ed
Ġgard en
aren ts
Ġoun ce
vol ume
kn own
official s
0 3
1 4
2 3
c ur
d ec
e ff
f ell
g ate
l ia
m ine
v ard
Ġt ic
Ġs ust
Ġc old
Ġw ild
Ġp iece
ing er
Ġd an
Ġh ill
Ġh amp
Ġl as
Ġl iving
Ġl loyd
Ġn ik
ad ium
ve red
Ġr and
Ġr iv
res p
Ġcomp ens
ge red
Ġsh own
are t
are ly
Ġman ville
Ġapp rec
Ġsc en
ep ing
Ġph ot
Ġche ck
echn ology
Ġsw ings
Ġsuc ceeds
Ġspecial ty
Ġmc don
Ġstud ies
Ġbas ket
Ġcoll aps
Ġcoun sel
Ġgl ass
Ġconsult ants
Ġaccept ed
Ġhapp en
Ġalle g
Ġvolat ile
Ġsaf e
Ġfair ly
Ġmov ies
Ġhol lywood
Ġdecl ared
Ġcommit ments
Ġmount ain
Ġvo ice
Ġcris is
Ġextrem ely
Ġantit rust
7 9
a ft
d ie
t ained
w lett
y l
he im
re y
on ce
er ts
Ġc ateg
Ġb ri
Ġw ake
Ġp ages
Ġl ay
el ess
Ġis land
Ġbe g
Ġpro ve
ter y
am s
Ġal an
us ive
um in
Ġro l
Ġcl o
ry s
Ġ8 9
li ance
Ġme ant
Ġ9 00
Ġdr ives
Ġins ured
Ġreg ion
Ġsen ators
ib m
Ġgr aph
Ġgu ard
Ġemp has
Ġannoun ce
Ġold er
Ġca ut
mon t
Ġregul ations
de velop
Ġrepresent ing
Ġsuggest s
Ġappe ared
Ġhapp ened
Ġaud ience
Ġassist ance
Ġphil ip
Ġinstr uments
japan ese
Ġcompar able
Ġblo od
Ġrum ors
Ġsil ver
Ġri ver
Ġaer ospace
Ġcoff ee
Ġmeth od
2 2
4 7
c al
f o
i j
Ġt ent
Ġt em
Ġt enn
in ter
Ġs ears
Ġin qu
as hed
Ġst ress
ac le
th us
Ġr ico
ess ions
Ġac ad
Ġqu e
ok ing
Ġbr az
Ġen jo
Ġ6 9
Ġinter state
Ġdisc overed
Ġserv ed
Ġcontin ental
Ġfl ag
Ġcour ts
iff s
Ġph illips
Ġagree ments
Ġser ve
Ġrecord s
Ġprom ise
Ġvot es
imin ary
che mical
Ġtest s
Ġnat ure
Ġarg ue
ann ie
Ġfu j
Ġsusp ended
Ġmerch and
Ġrecomm end
Ġconfir med
Ġmachin ists
Ġcandid ates
exp ected
Ġjose ph
Ġstatist ics
Ġpipel ine
itzer land
3 3
6 6
b el
c asts
l iminary
n ight
p son
r ich
u le
Ġo g
en g
Ġf ab
Ġf ile
Ġf ather
Ġe le
Ġn y
Ġg host
ur day
Ġr ival
Ġhe at
ts burgh
Ġtr ucks
Ġch anc
oun der
Ġro ber
man n
Ġres c
Ġout look
Ġpre liminary
iz ations
Ġcan not
Ġen h
Ġme anwhile
Ġimp l
ens us
Ġcar l
Ġmin ing
Ġdef ault
Ġ199 3
Ġprov iding
Ġrem o
Ġsupp osed
Ġrel uct
Ġph ys
Ġche ap
Ġ13 0
Ġmove ment
Ġlook s
Ġwr itten
Ġjud ges
Ġfall en
Ġmembers hip
Ġgener ation
Ġz ero
Ġfind ing
Ġblack s
Ġauthor ities
Ġcrit ical
Ġsuggest ed
atch i
Ġdiscuss ions
Ġhist or
Ġstruct ural
Ġsqu are
Ġsqu ee
Ġrespons ibility
Ġsuff ered
Ġprofess or
Ġprosp ect
Ġveh icle
urch ase
Ġpict ure
Ġaggress ive
Ġbarrel s
Ġwond er
Ġalli ance
indust ry
pack ard
2 9
3 8
c ut
f ree
i ers
j r
k es
m as
o en
Ġc el
Ġp act
Ġp arents
Ġf it
Ġd ie
Ġh art
Ġg ames
Ġsa m
Ġsa atchi
Ġas king
Ġch ann
Ġv a
Ġmar c
Ġexp ert
Ġint ends
Ġwe ap
Ġro th
Ġqu ant
Ġinvest ing
Ġrec over
ex t
li kely
Ġus air
Ġadd ress
Ġreport ers
Ġsl ump
Ġoffer ings
Ġgr ad
Ġwar s
Ġdeal er
Ġev al
Ġsw itzerland
Ġmeet ings
Ġreturn ed
Ġsett ing
Ġexper i
Ġretail ing
Ġexpl oration
Ġob v
Ġtyp e
Ġden ied
Ġcit iz
Ġcit icorp
Ġcho ice
Ġshi pping
Ġwarr ants
Ġlend ers
Ġtit le
Ġmatt ers
larg est
Ġextraordin ary
rys ler
c ard
l oss
n ell
o on
t el
w in
y ed
Ġc iting
Ġh an
Ġh ung
Ġh unt
Ġl uc
Ġre action
ut h
Ġfor t
ad el
se e
Ġr ated
Ġex act
Ġj ur
un k
Ġtr ump
Ġch ains
Ġwas te
Ġpr ison
Ġsp ons
Ġqu arters
Ġbo eing
Ġbr anc
Ġlo g
row ing
ress ion
Ġinter pret
Ġwor ried
Ġcost ly
rol l
Ġpur su
Ġhelp ing
Ġed ition
Ġconf ident
Ġref used
Ġspecial ists
Ġir an
sp ec
Ġview s
Ġindic ate
Ġkeep ing
Ġhar ris
Ġeas ily
Ġpit tsburgh
earn s
Ġeditor ial
produc ts
Ġlang uage
Ġconstitut ional
mb ly
Ġmill er
Ġcontrovers ial
Ġliber al
deal ers
Ġster ling
Ġtechnolog ies
Ġtaxpay ers
Ġsemiconduct or
Ġcomprom ise
lia ment
ij ing
Ġacad em
Ġbraz il
Ġrober ts
0 2
b and
g ood
l ondon
p ubl
t le
w ater
Ġm and
Ġm ention
Ġw ang
Ġp hel
Ġd ar
om s
Ġre n
st re
st ore
ad o
ol is
ac o
Ġit aly
Ġbe er
Ġbe ach
Ġne ither
Ġne ko
Ġtr aining
ap ore
em an
ag ues
Ġse es
Ġse ed
Ġk en
Ġag ent
Ġag ents
Ġro ss
Ġup on
Ġout l
Ġ198 3
ren e
Ġbr anch
Ġ6 8
Ġar ab
Ġmo b
ian ts
Ġwor se
Ġsl ide
Ġdisc ip
Ġpar liament
Ġent ered
Ġpurch asing
Ġcorpor ation
Ġeng l
Ġmet al
Ġgre ens
Ġ18 0
Ġlow ered
Ġstud ents
Ġperson nel
Ġext ended
Ġsing apore
Ġinit ially
Ġarg ued
Ġattorney s
Ġexpress ed
Ġaid s
Ġresign ation
sen ate
Ġprosp ects
Ġcell ular
Ġresol ution
Ġmult ip
Ġtempor arily
Ġpict ures
Ġpus hed
Ġrepe ated
Ġens ure
Ġpurs ue
Ġprud ential
Ġneko osa
a q
c ies
e w
j ud
l a
m a
r ation
v i
v in
y er
Ġc ath
Ġc ertificates
Ġp ill
it em
Ġf ounder
or der
Ġto y
Ġd ict
il vy
ic ated
Ġh us
Ġl ives
Ġl ift
ou l
Ġg iants
Ġst age
Ġst earns
Ġfor med
Ġcon fl
Ġr ace
am m
Ġch ip
if th
Ġun likely
ust er
ell or
ast rop
Ġle ague
Ġint ent
Ġro ut
Ġro ck
Ġco ol
Ġco vered
Ġso theby
Ġ7 7
Ġoper ator
Ġcr ack
Ġpe ace
ett ers
Ġwor st
Ġeff icient
Ġgr ain
Ġcall ing
Ġacqu iring
Ġwar ned
sh ire
tr ans
Ġtel erate
Ġtre m
hen s
Ġsim ple
be fore
Ġmet ric
Ġfact or
Ġstud io
ten ance
Ġcoll ection
Ġext ent
Ġretail ers
che ll
Ġprocess ing
Ġtrou bles
Ġcarri ers
Ġscient ific
orm ous
Ġtum bled
oph istic
Ġadop ted
Ġrapid ly
Ġcos met
Ġobl igation
Ġopt im
Ġlawsu its
Ġasse mbly
Ġenterpr ises
Ġbeg un
Ġgraph ics
Ġinqu ir
% -
2 6
4 6
d ow
f rom
f ect
t z
t od
t ech
u k
w an
Ġt ies
Ġs ir
Ġs ophistic
Ġc ulture
Ġo k
Ġb art
Ġb ik
Ġm gm
at o
Ġp ull
Ġf ly
Ġf red
Ġf aster
Ġf annie
Ġd ur
Ġd yn
il es
ic ks
Ġl ag
ent y
ig er
im ate
ter ms
Ġex xon
Ġmillion s
Ġch urch
if ying
ap olis
Ġnew ly
ab y
Ġsp in
Ġse x
Ġint r
Ġcont ends
Ġro und
Ġcor rect
Ġinvest ed
per form
Ġcomm issions
Ġen ormous
Ġcons p
con tr
Ġper man
Ġgen es
Ġgovern ments
Ġunder lying
Ġdr am
Ġmin im
Ġreport ing
Ġins ide
Ġcost a
Ġgrow n
Ġadv oc
olog ical
Ġpolit icians
inc ome
Ġmat ch
Ġsupport ed
Ġcommitt ed
Ġvot ing
Ġca ution
Ġmanufact urer
Ġstrateg ies
Ġpil ot
Ġcrit ics
Ġjoint ly
Ġsat urday
Ġhear ings
Ġvet er
bur g
Ġrat io
Ġchrist mas
Ġcat astrop
Ġproceed ings
Ġconclud ed
Ġrestaur ant
Ġdism iss
Ġfres h
Ġarch it
brit ish
Ġilleg al
Ġmits ubishi
pres ident
Ġengl ish
tod ay
3 6
4 9
c s
d ers
g n
i ro
k r
m ich
m ans
p ed
s ource
Ġt en
Ġt ap
Ġt ied
Ġa z
Ġb ir
Ġw el
Ġw ear
ar io
Ġan c
Ġan al
om es
ent er
Ġre nt
st ances
ol a
ac om
Ġbe e
Ġbe ijing
th ree
Ġr id
Ġas ia
uc e
Ġwh oles
Ġsh r
Ġtr im
Ġtr ail
ul ate
Ġch am
Ġun able
ch ange
Ġmar sh
Ġab c
ock ed
Ġse ats
Ġk r
ant ly
Ġexp osure
Ġind eed
Ġres ume
Ġpres ence
Ġdis k
Ġman age
Ġno vel
we ek
Ġus ers
oss ible
Ġ9 7
Ġem b
wh y
Ġreal ize
Ġaff ord
Ġadministr ative
Ġmc a
Ġsubs cri
Ġposs ibility
Ġlim its
Ġpriv ately
Ġbas ic
ph ia
Ġpass en
Ġfood s
Ġill ust
Ġcare er
su pp
Ġwa it
bac co
cr ip
Ġur ged
Ġvis it
Ġeas ier
sy l
Ġstat us
Ġroom s
Ġaltern atives
Ġdisappoint ing
gl as
Ġfriend ly
Ġce iling
Ġfoot ball
Ġbott om
Ġdescri bed
Ġlic ens
employ ment
Ġobserv ers
Ġultim ately
will iam
Ġgenet ic
Ġcircum stances
Ġcollaps ed
adel phia
Ġbranc hes
0 6
5 8
d ale
e al
i ke
s im
Ġ id
Ġa p
Ġa ware
Ġs und
Ġs ite
on om
Ġc ode
Ġm ist
Ġp un
Ġf ol
Ġd ump
Ġl etters
Ġre forms
Ġn erv
ec o
ec ker
Ġpro hib
uc tions
Ġhe ard
ate ver
ot e
Ġch ase
Ġun ve
Ġ3 50
Ġsu its
Ġexp ense
Ġbank er
ex change
Ġ7 50
Ġcons ecutive
Ġ6 00
Ġiss u
Ġret ain
Ġprofit ability
Ġfl ights
Ġfore casts
iet nam
Ġstre t
Ġpolit ics
Ġhard er
Ġknow s
Ġrul ed
ili pp
ys is
Ġcirc uit
Ġocc as
rep rene
Ġexpand ed
Ġpromot ion
Ġparticip ants
Ġcolle agues
Ġship ments
Ġpers u
Ġcell s
Ġnorm ally
Ġanticip ated
Ġatl anta
Ġatl antic
Ġcritic ism
Ġaward ed
Ġans wer
Ġbreed en
Ġbail out
Ġmerchand ise
Ġny se
0 4
0 9
4 4
d av
e u
n ard
r imin
t own
Ġt ar
Ġs ets
re duc
it an
it able
Ġf er
Ġf at
is k
Ġd ied
Ġh un
Ġh ired
Ġl uf
Ġn one
Ġg ap
ec ured
ut ed
the ast
Ġst ick
ol ine
ac her
Ġcon cept
Ġr all
un til
Ġch amp
us er
Ġun like
ch ip
Ġmar y
Ġor ange
ab ody
ast ers
Ġint el
ans as
Ġro yal
Ġrec ap
Ġbo x
ven ues
Ġdis e
Ġ198 1
der ick
Ġ7 6
Ġar rest
ke pt
Ġfe ed
Ġpe abody
Ġatt end
Ġair port
Ġbl oc
Ġtrans l
Ġfl a
ink ing
Ġhand le
Ġprom ised
bo ard
Ġresult ed
Ġposs ibly
Ġcre ating
Ġbre wing
Ġmass ive
Ġform al
Ġje ff
Ġsuff icient
Ġbring ing
Ġattract ive
Ġphil adelphia
go vern
Ġuns ecured
Ġelse where
Ġeg g
Ġcommit ment
Ġcontribut ions
van ia
Ġdispl ay
Ġmit chell
Ġtrig gered
Ġmere ly
Ġalleg ations
Ġchanc ellor
2 7
5 9
8 7
d ig
e b
m ay
r am
r un
Ġt ape
Ġs le
Ġs her
Ġc aught
at i
at eral
Ġw olf
Ġp u
Ġp ed
Ġp ow
Ġp ool
Ġf lex
Ġf illed
ing ton
Ġto bacco
Ġd at
om in
et her
Ġg on
ad or
ac ing
ow ed
im ately
Ġcon sequ
th y
th an
ear ly
Ġv ietnam
Ġmar ine
Ġha w
ive red
ell a
Ġpr int
Ġsp r
Ġsp an
Ġse at
Ġwe ight
Ġapp ly
Ġ7 1
Ġ7 3
Ġsome what
Ġbr ady
Ġbec oming
Ġass ume
Ġimp ossible
ult ural
Ġwork er
Ġcar ries
Ġpe ak
ital ization
Ġem bar
Ġcurren cies
Ġpubl ished
Ġgu y
Ġwar ning
Ġdel ays
Ġequ ivalent
Ġadv ice
Ġph ilipp
Ġent reprene
Ġstre am
com mer
com mitt
Ġ14 0
Ġ14 2
Ġter ror
Ġmain tenance
Ġreduc ing
Ġturn s
Ġturn ing
Ġrev olution
Ġmem ory
Ġfac ing
Ġbar ri
Ġformer ly
esp read
Ġallow ing
Ġ200 9
Ġpat tern
Ġdemoc racy
no v
iam i
Ġpo ison
Ġnetwork s
amer ica
Ġpop ulation
Ġwid espread
Ġtyp es
Ġcarri ed
Ġdeter ior
Ġautom ob
Ġeduc ational
Ġtur mo
third s
Ġspe ech
Ġkore an
Ġcas ual
Ġpul led
Ġmachin ery
Ġtrip le
Ġfle et
Ġappoint ed
Ġcooper ation
Ġaffili ate
Ġplast ic
Ġfrequ ently
Ġriv als
Ġcaut ious
Ġdyn am
mich ael
syl vania
Ġturmo il
0 1
b re
b aum
c a
g round
h us
l s
l li
t op
u ate
w art
Ġt able
in ist
Ġthe ory
Ġc y
Ġc ig
Ġc atch
Ġo ugh
Ġm es
Ġm as
Ġm aster
Ġm ills
Ġf ill
Ġf ifth
Ġin n
ro bert
ic ious
Ġre ass
Ġre de
Ġn am
Ġg ro
Ġst abil
Ġst adium
Ġcom ments
ig an
Ġr an
Ġr ig
Ġr us
ge or
am ount
Ġsh op
Ġsh ops
Ġch rysler
ch o
ab ilities
ell ing
Ġab ort
ist ered
ock s
Ġind ia
Ġcont end
ie g
Ġwe b
Ġcl ar
Ġqu al
per haps
ign ed
Ġpre f
av es
Ġstr a
ke i
Ġsub committ
Ġair ways
Ġbl ame
fore ign
Ġste ady
Ġwell s
Ġ11 0
Ġche c
Ġappro ve
Ġdeal ing
Ġrequ ires
Ġdiff erences
Ġsecond ary
Ġhal t
Ġmod erate
Ġspecial ist
Ġrecord ed
Ġstud ent
Ġca using
Ġclaim ed
Ġplay er
Ġir on
Ġtex t
Ġbene f
Ġseek s
Ġclos er
back s
sc ale
Ġdav is
Ġbad ly
cr s
Ġdeter mine
Ġsurpr ised
Ġthom pson
Ġopportun ities
Ġmax imum
ugg ish
Ġmerch ant
Ġconfir m
Ġencour age
Ġho ok
Ġrecall s
Ġmcc aw
Ġrom an
Ġbul k
hard t
Ġreput ation
Ġog ilvy
Ġhan over
Ġphel an
Ġgreens pan
Ġsophistic ated
dav id
Ġough t
4 00
8 2
b orn
f re
r ical
u i
w all
Ġ iv
Ġa mr
Ġs ac
Ġs kept
Ġc ab
Ġm ad
Ġp ont
en z
is er
Ġd ip
Ġd ub
Ġd ai
ro it
Ġst ol
Ġst orage
Ġbe gins
im ent
se veral
Ġcon ven
Ġr ain
Ġv s
Ġpl um
Ġcl in
Ġrep air
Ġbr on
Ġcons umption
Ġ6 1
vel and
ep s
Ġdown turn
Ġins urer
Ġstate ments
Ġdef ensive
Ġsur f
Ġdiv isions
pr ice
Ġfell ow
Ġhead s
Ġref und
Ġlook ed
Ġresult ing
Ġord in
Ġplay ing
Ġdemand s
Ġext end
Ġconn ection
Ġfre ight
ino is
ici ency
Ġthreat ened
Ġexpand ing
Ġnewsp apers
Ġsy mb
ha ul
Ġcover ing
tim ore
Ġident ified
Ġappl ications
Ġpenn sylvania
Ġpul p
Ġpus hing
Ġwarr ant
Ġcalc ul
Ġexperim ent
Ġdut ch
Ġresist ance
Ġrein for
Ġlear ned
Ġneighbor hood
Ġnicaragu a
Ġhamp shire
Ġnik kei
Ġhus band
3 7
6 2
d p
h and
s ized
t ers
u z
w s
Ġa th
in tern
re es
Ġthe ater
Ġb ern
an a
Ġm ir
Ġm iami
ar ks
Ġto wer
Ġd un
Ġd ial
et ts
el ken
Ġst ories
Ġr ay
Ġr ank
Ġr aw
Ġr jr
Ġhe d
Ġhe wlett
Ġsh ot
Ġde g
Ġal t
ak en
us etts
Ġun employment
od ak
Ġse a
ard s
Ġwe alth
ip e
Ġgo als
Ġrep ay
Ġim per
Ġbr ad
Ġ6 4
Ġar ms
ach usetts
Ġoffic ers
Ġam b
Ġstr ip
Ġoper ators
Ġsell ers
Ġpay able
Ġ199 9
Ġdes ire
Ġ12 5
sh ort
Ġdevelop er
Ġhand ling
ron t
Ġrestr ict
Ġtotal ing
Ġeng elken
Ġchang ing
Ġfac ed
bo ok
Ġaccount ed
Ġindustrial s
Ġdou bled
Ġread ing
Ġexpl ain
Ġ197 4
Ġweak er
ris k
Ġsuccess or
Ġwin ter
Ġorgan izations
ai wan
Ġbeh av
Ġvar iety
Ġcomb ination
Ġsurpr ise
Ġvir gin
Ġpoll ution
Ġfield s
Ġtren ds
Ġmax well
Ġfight ing
earn ings
Ġhon ecker
Ġswe et
Ġconstitut ion
Ġber lin
Ġdead line
Ġstein hardt
Ġwit ness
Ġlawsu it
Ġprompt ed
Ġbrook s
tre asury
Ġcompens ation
Ġchann el
Ġweap ons
Ġcitiz ens
Ġcosmet ics
Ġperman ent
Ġnerv ous
hus i
Ġsubcommitt ee
Ġplum met
Ġath let
8 6
h on
o vers
p a
r ights
y our
Ġ ica
he ld
Ġin fr
al ing
Ġl iter
Ġre y
Ġre insurance
Ġre venues
et na
Ġg op
ec ess
Ġfor ward
ad v
ur ies
im p
th ur
Ġr anging
qu ality
oc h
Ġpr in
Ġad equ
Ġsp ain
Ġk y
Ġind ict
Ġcor ry
Ġbillion s
Ġpre gn
Ġ7 00
Ġcons ensus
lo g
Ġfed er
Ġplan ners
Ġcar p
Ġem ot
ib ilities
Ġgu ide
Ġwar n
pr ices
Ġtre as
Ġcle veland
Ġsw ed
Ġcompl ained
Ġinstitut ion
Ġstand s
Ġdou glas
off s
Ġfound ation
Ġgas oline
Ġgener ate
Ġindic ates
Ġchar l
iven ess
Ġlegisl ative
Ġrepresent ed
Ġsubsidi aries
Ġportfol ios
mak ing
Ġdev ice
Ġreason able
Ġsched ule
Ġengine ers
Ġsk i
Ġbal timore
Ġtarg ets
Ġcarry ing
Ġbi ot
Ġelimin ate
Ġafr ican
Ġbanc o
Ġdest ro
Ġagric ulture
sch ild
Ġvide o
Ġaband oned
Ġsyndic ate
Ġcarol ina
Ġque bec
Ġroth schild
Ġwholes ale
Ġcham ber
reduc tion
Ġcig aret
Ġsymb ol
intern ational
Ġica hn
0 7
1 7
7 6
8 3
8 9
a verage
e br
h ome
j aguar
k ins
l ight
t ake
w is
z ale
Ġ x
Ġa k
in i
in son
Ġs end
er ies
Ġo l
Ġb ody
an ian
it ation
or ough
ing house
Ġd or
Ġan x
Ġl ie
Ġre ve
Ġg ill
Ġst able
ol itan
Ġr am
Ġsh all
Ġsh ips
Ġj en
Ġde an
Ġor te
ab orate
igh ter
Ġpl aint
Ġpl aces
ip ts
ire ct
Ġall en
Ġall oc
Ġapp lied
Ġbr ain
Ġbec omes
Ġlo ve
Ġsc ale
Ġmay be
Ġgovern or
Ġ9 3
Ġcr uc
Ġdep end
lin ed
Ġsl id
Ġsl uggish
ild ing
Ġreg ime
Ġdel ivered
Ġmer gers
Ġappro x
Ġturn er
Ġstand ing
inc inn
Ġcompet e
Ġstrong ly
Ġsee ing
Ġhop ed
Ġloc ation
Ġretail er
Ġread ers
Ġ197 9
Ġprof ession
Ġintroduc e
Ġje wel
Ġfri ends
stock s
Ġwal ter
Ġappropri ate
Ġeg gs
Ġmess age
Ġprior ity
Ġdelay ed
Ġconduc t
Ġconduc ted
Ġobl ig
Ġinvent ories
Ġwatch ing
Ġpurp ose
Ġpurp oses
serv ices
Ġsens itive
Ġachie ved
Ġfundament al
Ġmainfr ame
Ġincent ives
Ġarrange ment
Ġenfor cement
Ġfreed om
cur rent
Ġhung ary
Ġexact ly
Ġrecap italization
commer cial
lli um
Ġweb ster
zale z
incinn ati
7 7
9 9
c ost
c ong
c oup
l ife
m ember
n ever
r id
r ie
r ight
r ass
t ex
t aking
w ers
w estern
Ġt aiwan
he alth
re te
Ġb att
Ġw ave
Ġf a
ar ian
is se
Ġl eng
ent ed
id s
im ony
ell ed
ag n
ich i
op her
Ġk kr
Ġle x
Ġle ase
ant ed
Ġrec ru
Ġdis ag
Ġcomm and
Ġar k
Ġacc el
Ġsc ott
Ġ10 2
rop olitan
Ġplan es
Ġsub sequ
Ġdr ag
Ġdr iving
Ġel aborate
Ġlaw rence
Ġbro ke
Ġbro ken
ian z
Ġdes k
over ty
Ġsur round
Ġent husi
Ġshould n
Ġdepart ure
Ġnum erous
pl an
Ġmed ic
Ġcompet ing
Ġregul ation
emp tion
Ġconsider able
Ġnation wide
Ġview ers
Ġill inois
Ġarg ument
Ġorgan ized
Ġbeh alf
Ġviol ations
Ġocc ur
Ġocc urred
Ġguarant eed
Ġthom son
Ġbell south
col a
Ġcop y
Ġident ify
Ġmean ing
Ġpsy llium
Ġregard ing
Ġlic ense
Ġiniti ative
Ġeag er
Ġspir its
Ġbureauc rat
Ġcyc le
Ġcomfort able
Ġsust ained
Ġdan iel
fo ot
hens ive
Ġsund ay
Ġgon zalez
Ġembar rass
Ġorte ga
9 2
c ount
d ro
f red
f ees
h o
i est
i us
j ames
m uch
t es
u ous
y o
Ġc ow
Ġc art
Ġp in
Ġp apers
Ġf lying
or ous
al ed
ing ly
Ġto uch
Ġd uty
Ġan aly
Ġh yp
Ġe ld
Ġe ased
Ġg ather
the less
Ġon to
im ated
Ġr ide
Ġcomp ares
Ġwh ites
oc rat
os en
Ġv ast
ch ar
ect ions
Ġha hn
ast e
ist an
ich ol
op ol
ant ile
Ġint ens
old s
act ing
iz z
Ġsec ured
Ġ8 8
ail ed
Ġlo ad
lo an
ile o
Ġover haul
Ġsub ur
Ġret ired
ian i
ert o
Ġconc rete
og el
Ġop ec
Ġshe ll
ib a
Ġgr ay
Ġste ep
min ent
Ġdevelop ers
Ġche v
Ġtel egr
Ġfil ings
Ġemploy ers
Ġeng aged
ne g
Ġmed ium
Ġmet ropolitan
pro cess
Ġsupport ers
Ġca uses
Ġ17 0
Ġeffect ively
Ġmag n
Ġdist ributed
Ġz eal
br idge
Ġmass achusetts
Ġpil son
Ġcanc eled
Ġpain tings
Ġdistr icts
Ġsat ell
Ġattempt ing
Ġvict ory
Ġtreat y
Ġfavor able
Ġunderwr iter
comp any
Ġborrow ing
Ġinstr ument
Ġprincip le
Ġsucceed ed
Ġexperim ents
Ġlink ed
Ġrestaur ants
Ġconsolid ated
Ġgam ble
Ġexcl usive
Ġproced ures
Ġrenew ed
Ġloyal ty
Ġessential ly
Ġtent atively
oen ix
Ġcel ebr
Ġexperi enced
Ġarchit ect
Ġanal ysis
Ġmarsh all
may be
Ġmes a
Ġrede em
Ġbiot echnology
cong ress
0 8
5 6
6 1
6 8
f our
l om
n issan
v ine
y be
Ġt ab
Ġa ide
Ġa etna
in ing
in der
Ġs om
Ġc f
Ġc ia
Ġo w
Ġb le
Ġw ish
Ġp age
Ġp ink
Ġp ump
Ġp overty
Ġf ans
Ġto ll
il a
il ae
Ġh oll
Ġh ills
Ġl if
Ġre ward
Ġre na
st itut
id man
et er
Ġg ut
Ġg un
Ġg yr
ut ers
ut ions
Ġst uff
Ġpro te
im m
Ġsa ab
Ġr ape
uc cess
Ġj on
qu er
ot al
un ction
ul a
Ġun expected
pp ers
Ġac ts
Ġ19 60
Ġsp ur
Ġsp ect
Ġk le
Ġk ick
Ġmarket place
Ġcont est
Ġres ort
Ġco ordin
mer rill
Ġbu ff
Ġsal v
Ġpre par
aw are
own ers
Ġass ass
av ing
ach ing
Ġper fect
lud e
Ġatt itude
Ġdown ward
Ġeconom ics
Ġins ider
ert on
Ġdef e
og g
Ġhold er
Ġste ad
Ġsur plus
Ġdel ta
Ġcred ibility
Ġche aper
pr iced
Ġhelp s
Ġleg it
Ġrequ iring
Ġter r
Ġturn over
Ġhand ful
Ġfact ory
Ġris en
ned y
int el
Ġlat in
Ġsubsid ies
Ġcharg ing
Ġview ed
Ġindic ating
cl aim
Ġconv icted
Ġdre w
Ġproject ions
Ġve gas
Ġdifficult ies
ortun ately
Ġwal k
idel ity
invest ment
let ter
Ġmess rs
ask a
Ġscr am
Ġrecomm ended
Ġsci ences
Ġmerc antile
Ġdut ies
Ġplast ics
Ġmart in
Ġcam b
Ġcreat ive
rup tion
Ġapprec iation
erts ilae
Ġreluct ant
publ ic
Ġken nedy
Ġfred die
Ġluf kin
Ġpow ers
Ġabort ions
Ġcruc ial
coup on
Ġzeal and
Ġsatell ite
2 4
2 8
5 7
9 4
9 7
e ast
f el
f ire
g ets
i qu
k ey
m ail
n ational
n ival
p erson
z ed
Ġt ire
Ġs ons
er ry
Ġb and
Ġb uck
Ġm el
Ġm ul
Ġm use
at ically
Ġw crs
Ġp ays
Ġp iec
Ġf da
Ġf bi
Ġin nov
is hes
ro g
ion e
Ġl es
Ġl ies
Ġl ists
Ġl ung
om a
Ġg n
Ġst im
Ġst one
Ġst ood
Ġcomp re
oc al
Ġal umin
ul ous
Ġv ary
Ġun n
Ġun w
and hi
Ġsp ort
Ġpl at
Ġpl ays
Ġpl enty
Ġse idman
Ġk illed
Ġexp end
Ġexp ire
Ġwe ather
Ġmon t
Ġres erv
Ġco hen
Ġrec overed
Ġdis contin
Ġbus y
Ġother wise
Ġall ies
Ġdec re
Ġim ag
Ġ8 1
Ġno body
Ġass umption
Ġover night
Ġacc ident
Ġsc ience
ke fell
Ġmay nard
Ġmo on
Ġend s
ks amer
Ġbl ow
Ġbl amed
Ġ199 5
Ġdisc our
Ġdisc rimin
Ġback ing
Ġrem ic
Ġshe et
rol ler
Ġdel med
Ġdel eg
Ġdiv ided
Ġadv ers
Ġdevelop ments
Ġph oenix
Ġcred its
Ġdeal ings
Ġdepart ments
Ġassoci ate
Ġpost p
Ġfam ous
Ġjud g
Ġthink ing
Ġger mans
Ġfall s
Ġpress ures
Ġhard ly
Ġindic ation
Ġproduct ivity
Ġfree way
Ġnegoti ated
Ġteam s
Ġide as
Ġtell ing
Ġparticip ation
col m
cons um
Ġrespond ed
Ġspe ak
Ġball oon
Ġcompar ison
Ġsel ected
Ġcard s
Ġabs ol
Ġrefin ery
Ġtim ing
Ġleav es
Ġcandid ate
Ġwit ter
Ġaggress ively
Ġcalc ulated
Ġdonald son
Ġacknowled ged
ograph ic
Ġcrow d
Ġjac ob
Ġcomplain ts
Ġtic ket
Ġmarc os
Ġobv ious
Ġconfl ict
Ġoptim istic
Ġbik es
Ġdram atic
Ġautomob ile
ieg el
Ġvirgin ia
Ġapprox imately
kefell er
1 00
6 3
9 1
c as
h ar
o res
s ays
t ical
t roller
y ard
Ġ ice
Ġa w
in er
Ġs i
Ġo m
Ġo wed
Ġb ed
Ġb oren
Ġp ath
ed y
ar ound
Ġd od
Ġd iam
Ġl earn
Ġl illy
Ġth row
Ġre op
Ġn ick
Ġg andhi
ec onom
el ing
el ect
Ġfor ms
ur ities
Ġr on
Ġr are
Ġas h
Ġas ide
Ġcomp aq
Ġcomp troller
Ġsh ake
Ġsh ape
Ġj ol
os h
Ġal bert
ul ating
Ġ2 25
Ġmar ked
Ġpl ed
op e
Ġk odak
Ġco ors
Ġrec k
Ġbo y
Ġout come
Ġ8 6
Ġbr id
Ġfe e
Ġinter bank
Ġdr illing
Ġmin ne
iss ue
Ġcap ped
Ġbet h
Ġreg istered
Ġtake overs
Ġprov ed
Ġcontr as
Ġrem arks
Ġlead s
Ġrel ative
Ġkn ew
Ġfar mer
app ing
Ġcle ared
Ġsw ap
Ġmain e
Ġtot ally
Ġtechn ique
Ġrev ive
Ġopp ose
Ġwr iter
Ġbar ney
Ġshort ly
Ġprom ises
Ġmot ion
Ġpriv at
Ġlt v
Ġcoll ateral
Ġhop ing
Ġconsider ation
Ġactiv ists
Ġpack ages
Ġwa ertsilae
mak er
Ġhapp ens
Ġdiscuss ing
Ġyoun ger
Ġfo x
Ġocc up
Ġrepl aced
Ġaud it
Ġpromot e
Ġhom eless
Ġdeath s
Ġtur b
Ġorigin ally
Ġpremium s
Ġcommod ities
Ġcritic ized
Ġunf air
Ġabs or
Ġrac ket
Ġprec ious
oo th
war ner
Ġsear ch
Ġpenal ties
Ġrand om
Ġinquir y
Ġbart lett
Ġcasual ty
Ġdip lom
Ġdai wa
Ġbehav ior
Ġprin ting
Ġtelegr aph
Ġgyr ations
Ġminne apolis
9 6
\ *
c i
c ity
n ext
u ations
Ġt ed
Ġa venue
Ġs anc
on ent
Ġc um
Ġc incinnati
Ġo z
Ġo ust
Ġb arely
it u
Ġf urn
al og
is ys
Ġto x
ic on
Ġl y
Ġn ichol
et he
Ġst ated
Ġst ability
Ġst akes
le bor
le hem
ow a
Ġr ica
Ġwh it
Ġex hib
Ġsh ield
Ġj et
Ġj im
ot ton
ul ative
and a
ect ic
are l
Ġha z
ab or
ag ers
Ġad mitted
Ġsu ed
Ġbo b
Ġbo g
ri a
Ġdec ades
Ġper mission
Ġpresident ial
Ġimp osed
Ġsc he
Ġsc ot
Ġstr uck
Ġsub mitted
Ġfinanc ier
Ġmin es
Ġcur b
ash ing
Ġthem e
Ġsen ator
Ġrem ove
Ġgr ants
Ġgr amm
Ġbel ong
Ġmer ksamer
Ġ20 19
Ġcol on
Ġcol omb
Ġpublic ations
Ġed ge
Ġra ises
Ġturn around
Ġhand led
ient ed
Ġref uge
Ġdet roit
Ġwr iting
Ġwall s
Ġris ky
Ġneg l
Ġte acher
Ġallow s
Ġrest ore
Ġsteel makers
Ġbroad er
cl ass
Ġtest imony
Ġgreat est
Ġlegisl ators
Ġpack aging
with in
Ġpotential ly
Ġwin ning
Ġdifficult y
Ġmich igan
Ġdiscuss ed
Ġbur den
she arson
Ġconst itu
Ġmiss ing
Ġdoc ument
Ġproj ected
Ġsusp ension
Ġfeel ing
Ġsuff er
Ġparticip ate
Ġexc luding
Ġjoin ing
go ing
Ġple a
Ġdetail ed
Ġrequest ed
Ġhol iday
Ġpetro chemical
Ġresol ved
Ġpresent ed
oming dale
Ġencour aged
Ġinj uries
Ġbit ter
Ġexceed ed
Ġfeat ures
Ġcontrovers y
Ġdefin itive
control led
cap ital
Ġscre en
Ġassum ed
Ġrail road
Ġhen ry
can ada
Ġmainfr ames
Ġinvolve ment
Ġpenal ty
Ġfal se
Ġrefer ring
Ġod d
Ġcateg ory
Ġresc ue
cut ting
Ġoutl ets
Ġconsp ir
Ġveter an
Ġrall ied
Ġspan ish
Ġcy cl
Ġstra ight
Ġchec ks
Ġindict ment
Ġpink erton
lebor g
7 8
8 00
9 8
d el
d ist
d isc
g rowing
h al
h mer
h alf
k a
k ur
m ic
m ill
n ett
p ass
r um
r ance
r ick
s omet
t ok
Ġt ay
Ġt uc
Ġt one
Ġa wa
in ner
Ġs ong
Ġthe r
Ġc ro
Ġb oun
Ġm ale
it ures
Ġf i
Ġf et
al ian
Ġd imin
Ġan th
il s
ic op
Ġh ond
Ġl ire
Ġe at
et e
Ġg a
Ġg au
ac re
ir ation
Ġcon gl
th rough
ce an
ot ing
un ion
oc o
Ġtr ain
ul ner
Ġch arter
Ġv ulner
Ġun con
Ġun pre
ab ortion
ell ogg
ag s
Ġsp ill
od ed
ud man
Ġle verage
Ġle wis
Ġint ense
Ġrep urchase
Ġnot ing
so v
ok ed
Ġso ybe
Ġapp arel
Ġ8 4
aw a
Ġ7 9
Ġsome body
Ġpart ial
Ġfr ust
Ġfr ag
mr s
Ġcons ent
Ġbusiness men
Ġany body
Ġcr us
Ġcap t
Ġcap it
ert ed
og ether
Ġact ing
Ġtrans form
wh ite
Ġrem ark
Ġlong time
Ġfinancial ly
Ġboard s
Ġste pped
Ġwar ren
Ġmer ge
Ġbid ders
istr ation
Ġreal ized
Ġshow time
Ġelect rical
Ġemploy er
Ġcontrol ling
Ġcontract or
ne ither
Ġmem ories
ret te
Ġevery body
Ġcommitt ees
Ġsch ol
Ġstud ying
ath an
ator ies
Ġimport ed
de f
Ġstrateg ist
Ġmid west
Ġfound ed
Ġclear ing
Ġslow ed
co hol
Ġindic ators
Ġhar vard
Ġchar ities
Ġpan am
Ġgot ten
Ġauthor ized
Ġarg ues
Ġemer ging
Ġhapp y
Ġden y
Ġdiscl osure
Ġbreak ing
Ġtell s
Ġpound s
Ġuns uccess
Ġstreng the
comp anies
Ġpartnership s
Ġstar ts
Ġentire ly
Ġcas ino
Ġsucceed ing
Ġund ers
Ġanticip ation
Ġey es
Ġdisp os
Ġdisappoint ed
Ġelimin ated
Ġtransfer red
Ġnom ura
Ġes c
sec ond
sm all
Ġroc kefeller
Ġconcent rate
Ġdang erous
corp orate
Ġspecul ators
Ġbol ster
Ġbarg ain
Ġanim al
Ġgal ileo
Ġalex ander
Ġscen ario
Ġemphas is
rich ard
Ġsquee ze
Ġdiscip line
Ġdur able
perform ing
Ġdeg ree
Ġplummet ed
Ġjen rette
process ing
Ġpiec es
Ġgn p
Ġcompre hensive
Ġalumin um
Ġracket e
ethe less
Ġtay lor
Ġcongl om
3 9
7 2
b read
h y
i ere
l usion
m ade
p age
p ective
s a
u ard
u ition
Ġt ack
Ġt act
Ġt iger
in as
re al
Ġc ry
Ġb lin
Ġb read
Ġb aby
Ġm yst
Ġm ips
at z
Ġw ire
Ġp ione
it i
Ġf as
Ġf ost
Ġf idelity
Ġd al
ion ally
il ton
Ġh its
Ġl or
Ġn u
Ġu pper
Ġit alian
le ading
ig ible
Ġpro be
se y
Ġr ural
Ġne v
oc to
Ġv ig
Ġwas h
and y
Ġac res
all ed
ist on
Ġsp iel
ud er
Ġle ban
Ġexp iration
Ġgo v
Ġro w
Ġro y
Ġres et
Ġco vers
ack s
Ġ4 50
Ġout s
Ġdis ney
Ġdis asters
Ġman ip
Ġsec ure
Ġim f
Ġproduc es
Ġbr ight
Ġlo ts
Ġcons ort
Ġper mitted
Ġper mit
Ġimp lement
Ġsc ene
Ġpol ish
Ġatt ached
str ong
lin ing
Ġcur t
Ġsl ower
Ġsm ooth
Ġfl ed
amp ed
Ġrem ember
Ġspec ified
Ġgr ab
Ġdon ations
its u
Ġnor theast
Ġkn ight
pr int
Ġnews letter
ins ky
Ġstre ets
Ġev ans
Ġrece ipts
Ġmain tained
pro ceeds
Ġjud icial
Ġfact ories
sp ons
emp ts
Ġimport ance
enn is
Ġext ensive
fr iday
Ġcomplet ely
Ġsol ution
Ġcamp bell
Ġexpl os
Ġob tained
Ġ197 2
ik h
Ġgreat ly
Ġlabor atories
Ġdeli ber
Ġquot ations
Ġdev ast
Ġimprove ments
Ġadjust ments
Ġvis itors
Ġclass es
Ġreb els
Ġelectric ity
Ġattract ed
Ġphil os
Ġgi ul
Ġcho ose
oper ating
Ġcop ies
Ġpers pective
Ġborrow ed
Ġresol ve
Ġswe eping
bu ilding
Ġwat ched
Ġmal colm
Ġalleged ly
Ġpredict ing
Ġinvent ory
48 6
Ġii i
Ġwithdraw al
serv ice
Ġhor se
Ġachie ve
Ġassum ing
kel ey
Ġstrugg ling
bes ides
Ġswit ch
aut hor
Ġasp ects
Ġmonitor ing
Ġsteven s
Ġtool s
Ġdoct or
Ġdoct ors
Ġtenn es
Ġmob il
Ġsubscri bers
Ġdise ase
dig ital
Ġconsequ ences
Ġterror ism
Ġadequ ate
Ġak zo
current ly
never theless
Ġsurround ing
Ġkle in
ectic ut
Ġcapit ol
Ġconglom erate
octo ber
3 1
5 1
b est
b ors
d tv
g old
l leborg
m at
m ood
m osp
p at
p ower
r ating
s ector
t otal
v as
v iously
w hel
Ġt ank
Ġt ail
Ġt iny
in al
in ced
he t
Ġs ky
Ġs itting
re cent
Ġc ul
Ġc amer
Ġc attle
Ġb a
Ġb oss
Ġb orn
Ġb reat
Ġw ages
Ġf ired
Ġf iat
or ia
ar oid
Ġd ual
ic om
ic ian
st one
id av
ec k
ad d
ly n
Ġbe a
se m
Ġcomp ound
Ġwh atever
Ġsh ap
Ġsh ock
Ġat mosp
ak ed
Ġun ions
ch air
Ġinc ident
um ed
Ġhas tings
ag er
Ġsp ar
Ġle an
Ġle ap
Ġle asing
Ġag end
Ġexp ires
our i
Ġind ications
gh an
Ġnot ice
act ers
so ft
ex c
eral d
av or
Ġacc omm
Ġam ex
Ġstr ing
Ġany way
Ġcr a
Ġcr imes
Ġplan e
Ġdr aft
Ġatt empts
ett i
Ġdown town
Ġeconom ies
Ġdep ends
Ġprogram ming
Ġtax able
Ġfl aw
Ġdeb ts
ft y
Ġsupp lier
ib b
Ġgr ace
ty p
Ġdel aware
other s
Ġadv ised
Ġent it
Ġcol gate
Ġed el
Ġed ged
Ġmanag es
Ġappro ached
Ġtre lleborg
Ġreduc tions
Ġpost s
Ġaff idav
Ġopp onents
Ġwr ight
yn olds
Ġsupport ing
Ġav iation
Ġport ray
Ġmil k
Ġpoint ed
Ġmag net
Ġfail ures
Ġart icles
Ġconsider ably
Ġdro pping
Ġexpl an
Ġ197 3
Ġchar ity
Ġlegisl ature
Ġrestruct ure
Ġpack wood
Ġboost ing
Ġlist en
Ġsent iment
Ġsubst itut
ech an
Ġtyp ical
Ġer a
Ġadjust able
Ġviol ation
Ġur ging
Ġstruct ures
down s
Ġkid s
Ġsepar ately
bond s
cour t
Ġfavor ite
Ġdiscount ing
Ġple aded
Ġsocial ist
Ġseason ally
Ġpers ist
Ġvers ions
Ġpick ed
Ġground s
Ġblo omingdale
Ġrob ust
Ġhospital s
cep tions
Ġfun ction
Ġham m
Ġreplace ment
Ġtour ists
Ġaccom p
Ġaccom pl
Ġded uct
Ġsurprising ly
Ġincent ive
Ġconvers ion
Ġassess ment
Ġrespect ively
oh l
Ġdil uted
Ġconsist ently
Ġsuperv is
Ġmcdon ald
Ġfab ric
Ġacadem ic
Ġmention ed
Ġbir th
Ġentreprene ur
Ġdynam ics
Ġplaint iffs
Ġmuse um
Ġdiam ond
Ġbrid ges
Ġsche me
sov iet
Ġpanam anian
ikh ail
Ġgiul iani
Ġtennes see
mood y
Ġaccomm od
3 00
4 1
7 1
b urn
d ep
e z
e per
g ged
h ic
j ects
l ow
m or
m id
n on
o x
o il
o itt
r ates
r ative
s an
s un
s ystem
v a
v ogel
y ers
Ġa ides
in ct
Ġs ectors
on c
Ġb ases
Ġb acter
Ġm d
Ġm ission
Ġm echan
Ġm ikhail
Ġp as
Ġp our
Ġf ert
Ġf ault
al ready
ing e
Ġto ug
Ġan ton
Ġh ire
Ġh iring
Ġl bo
Ġe asing
st yle
et on
Ġg il
Ġg ir
the s
Ġst al
Ġfor g
Ġfor fe
est imated
Ġr ational
Ġr ush
Ġal cohol
Ġtr uth
Ġch osen
Ġv en
if ul
Ġmar ina
Ġnew port
em per
em pl
Ġk ent
Ġk enn
Ġag rees
Ġint ention
Ġco ke
Ġpre ced
for mer
Ġ7 4
Ġ7 8
Ġbr uss
Ġen able
Ġfr uit
li ers
ey well
Ġover whel
Ġar thur
Ġli abilities
Ġus a
ass y
Ġwork st
Ġi owa
Ġunder st
Ġ9 1
Ġplan ner
Ġma h
Ġinterest ing
iss ance
Ġatt ribut
Ġdep ressed
Ġpay roll
Ġ15 5
ix on
fl ot
Ġval u
Ġbel ief
Ġdel oitt
Ġreal ity
Ġ11 1
Ġent ry
Ġemp ire
Ġvol unt
Ġconf ront
Ġreported ly
az y
Ġcompl aint
land s
Ġforeign ers
Ġhal ted
ger y
Ġrestr icted
Ġuse ful
Ġant ar
Ġprot ected
Ġcoll ect
Ġfail ing
Ġcommission er
Ġbud gets
Ġsol utions
Ġfind s
Ġexpl ains
Ġmeas ured
Ġob st
Ġchar acters
Ġlabor atory
Ġrepresent ative
with out
Ġconv iction
Ġconv inced
Ġaccept ance
Ġflo ating
Ġconvert ed
Ġcirc ulation
Ġer r
Ġadjust ment
Ġide al
Ġindepend ence
Ġmiss ouri
Ġrepubl ic
Ġfu eled
Ġfoc used
Ġclim ate
Ġpoll s
Ġfrank lin
Ġple ased
Ġserious ly
Ġnecess arily
Ġrequest s
Ġsurvey ed
Ġprosecut or
Ġbi ke
Ġrespond ents
ero flot
Ġrum ored
Ġber keley
Ġinj ured
Ġintell ect
Ġver mont
pet er
Ġwind ow
Ġadop t
Ġappoint ment
Ġsand inist
Ġrecogn ition
Ġperform ed
Ġdomin ated
Ġrelationship s
Ġdefin ition
Ġdivers ified
Ġapart ment
Ġcolor ado
Ġcoal ition
Ġrebound ed
Ġstrugg le
Ġconced es
Ġbureauc racy
Ġod ds
Ġrol ling
develop ed
cal if
Ġenh ance
Ġwars aw
Ġmultip le
Ġtoy ota
Ġcatastrop hic
Ġunve iled
Ġstret ch
Ġpersu ade
govern ment
Ġpu erto
Ġflex ibility
Ġdat ap
Ġhook er
Ġimper ial
Ġcarp enter
Ġemot ional
Ġtreas urer
take over
Ġprofession als
Ġcow bo
fel d
Ġabsol ut
Ġjacob son
Ġconspir acy
Ġrackete ering
Ġspiel vogel
Ġbruss els
Ġdeloitt e
2 1
5 4
8 1
9 3
a ik
b b
c ter
c bs
f all
f man
f ortunately
h ous
l u
l im
l uster
m ons
m ath
n ame
p s
Ġt y
Ġa ver
Ġa ft
in ated
in te
he user
Ġs id
Ġs hed
re ll
er ly
Ġc ere
Ġc up
Ġc otton
Ġo cean
Ġb es
Ġb ic
Ġb ou
Ġb our
Ġm ent
Ġm ol
at he
Ġw pp
Ġw ach
Ġw ider
Ġp ig
Ġp ork
it ely
Ġf an
Ġf argo
or iented
ar ity
Ġin ner
Ġin eff
ro us
Ġh dtv
Ġl ar
Ġth anks
Ġre ly
Ġre ynolds
st ar
Ġn est
Ġn urs
et ed
Ġg olf
the id
ers h
ig el
im a
uc ky
Ġcomp onents
Ġhe s
Ġex che
Ġex ception
am ing
Ġsh ore
un like
Ġal i
Ġch art
Ġun p
Ġ2 000
em ex
Ġab use
ag ram
Ġk ab
Ġk illing
Ġk atz
Ġro ger
Ġro sen
Ġco op
Ġup ward
Ġup ham
Ġbo es
Ġdis rupt
ri k
Ġall ied
Ġall ianz
iz able
aw ay
lo v
lo ad
Ġus er
Ġafter math
Ġstr ict
Ġoper ational
Ġfed eration
Ġgen ev
Ġ9 6
Ġcr ay
Ġdr iven
Ġret ained
Ġown ing
Ġmin ute
iss ipp
Ġatt ended
Ġexecut ion
Ġwor ries
Ġ199 7
Ġback ground
Ġpubl ish
Ġeff iciency
wh o
Ġeven ing
Ġpar amount
Ġbel g
Ġmer ged
Ġche m
ced ented
Ġpublic ation
Ġaff ecting
Ġmat ure
Ġmat ching
ret t
Ġmc i
Ġlow est
Ġgener ated
ph il
fr ank
Ġsol e
Ġsol icit
Ġslow ly
Ġinform ed
Ġfind ings
Ġhar m
Ġhar vest
Ġmass age
Ġtest ing
Ġ24 0
Ġform ally
Ġvi acom
bit ious
Ġconstr uct
Ġgl as
Ġrich mond
Ġtv s
Ġarg uments
Ġred emption
Ġsuper ior
Ġhapp ening
Ġut ah
market s
Ġpain ting
Ġclass ic
Ġmiss issipp
Ġkind s
Ġban ned
Ġprep are
Ġfocus ing
Ġprosp ective
Ġchrist opher
Ġmic rop
Ġspe aker
Ġhon or
produc tion
Ġseg ments
fin ally
Ġcat alog
Ġnas a
Ġrub ber
Ġclean up
Ġreach ing
