{"<s>":0,"<pad>":1,"</s>":2,"<unk>":3,"<mask>":4,"$":5,"%":6,"&":7,"'":8,"*":9,",":10,"-":11,".":12,"/":13,"0":14,"1":15,"2":16,"3":17,"4":18,"5":19,"6":20,"7":21,"8":22,"9":23,":":24,"=":25,"@":26,"\\":27,"a":28,"b":29,"c":30,"d":31,"e":32,"f":33,"g":34,"h":35,"i":36,"j":37,"k":38,"l":39,"m":40,"n":41,"o":42,"p":43,"q":44,"r":45,"s":46,"t":47,"u":48,"v":49,"w":50,"x":51,"y":52,"z":53,"Ġ":54,"Ġt":55,"Ġa":56,"in":57,"he":58,"Ġs":59,"re":60,"on":61,"er":62,"Ġthe":63,"Ġc":64,"Ġo":65,"Ġb":66,"an":67,"Ġm":68,"at":69,"Ġw":70,"es":71,"Ġp":72,"it":73,"en":74,"Ġf":75,"or":76,"ed":77,"ar":78,"Ġin":79,"al":80,"ing":81,"is":82,"Ġof":83,"Ġto":84,"Ġd":85,"ro":86,"ion":87,"Ġan":88,"il":89,"ic":90,"as":91,"Ġh":92,"Ġl":93,"ou":94,"om":95,"Ġand":96,"Ġth":97,"Ġe":98,"ent":99,"Ġre":100,"st":101,"Ġn":102,"id":103,"et":104,"ill":105,"Ġg":106,"ec":107,"el":108,"ut":109,"the":110,"Ġ1":111,"ay":112,"Ġst":113,"Ġu":114,"Ġfor":115,"ad":116,"ol":117,"ac":118,"'s":119,"ly":120,"ve":121,"ur":122,"Ġcom":123,"ers":124,"Ġit":125,"le":126,"Ġis":127,"Ġthat":128,"Ġon":129,"ir":130,"ig":131,"Ġbe":132,"Ġy":133,"Ġpro":134,"ation":135,"ow":136,"im":137,"se":138,"est":139,"Ġcon":140,"ver":141,"Ġsa":142,"ment":143,"illion":144,"th":145,"Ġr":146,"Ġas":147,"uc":148,"res":149,"ter":150,"Ġcomp":151,"Ġhe":152,"Ġwh":153,"Ġex":154,"ge":155,"ts":156,"am":157,"Ġsaid":158,"Ġsh":159,"ce":160,"ear":161,"Ġj":162,"Ġat":163,"qu":164,"ate":165,"ith":166,"ld":167,"ot":168,"un":169,"Ġne":170,"oc":171,"os":172,"Ġde":173,"Ġwith":174,"Ġal":175,"Ġtr":176,"rom":177,"ul":178,"ak":179,"ies":180,"Ġby":181,"Ġmillion":182,"Ġfrom":183,"Ġch":184,"ain":185,"ere":186,"Ġv":187,"us":188,"if":189,"Ġun":190,"Ġwas":191,"ore":192,"ch":193,"ap":194,"and":195,"Ġare":196,"ess":197,"00":198,"Ġinc":199,"ial":200,"iv":201,"ect":202,"Ġ2":203,"ould":204,"are":205,"Ġits":206,"Ġmar":207,"ort":208,"Ġyear":209,"ust":210,"any":211,"Ġor":212,"pp":213,"um":214,"Ġha":215,"ive":216,"Ġhas":217,"Ġwill":218,"Ġoff":219,"oun":220,"Ġac":221,"'t":222,"end":223,"Ġnew":224,"em":225,"ost":226,"ab":227,"Ġ3":228,"ell":229,"ast":230,"ket":231,"ity":232,"Ġab":233,"ther":234,"igh":235,"ome":236,"all":237,"ag":238,"ays":239,"Ġ19":240,"Ġpr":241,"ist":242,"Ġhave":243,"Ġmr":244,"ock":245,"Ġad":246,"Ġsp":247,"od":248,"Ġpl":249,"ich":250,"op":251,"art":252,"Ġse":253,"out":254,"ud":255,"Ġk":256,"Ġle":257,"Ġmarket":258,"Ġag":259,"age":260,"ant":261,"Ġsu":262,"ard":263,"ond":264,"Ġcompany":265,"Ġexp":266,"ice":267,"Ġint":268,"our":269,"Ġind":270,"gh":271,"Ġcont":272,"ie":273,"Ġwe":274,"ue":275,"Ġstock":276,"tion":277,"Ġinv":278,"ans":279,"ors":280,"ip":281,"ure":282,"ork":283,"old":284,"Ġgo":285,"Ġwhich":286,"duc":287,"Ġro":288,"Ġwould":289,"anc":290,"but":291,"ake":292,"Ġtrad":293,"Ġmon":294,"ber":295,"ire":296,"Ġcl":297,"ank":298,"ong":299,"man":300,"Ġcor":301,"Ġqu":302,"Ġ5":303,"Ġres":304,"ff":305,"Ġabout":306,"ine":307,"rou":308,"Ġear":309,"Ġco":310,"Ġrep":311,"ated":312,"ack":313,"Ġsays":314,"Ġthey":315,"Ġup":316,"mer":317,"Ġnot":318,"Ġwere":319,"Ġthis":320,"Ġmore":321,"Ġinvest":322,"Ġ4":323,"ings":324,"und":325,"ations":326,"Ġfir":327,"Ġbu":328,"act":329,"Ġbillion":330,"per":331,"so":332,"ight":333,"Ġcorp":334,"Ġhad":335,"Ġrec":336,"Ġwho":337,"Ġbo":338,"Ġpres":339,"Ġshare":340,"ven":341,"Ġout":342,"ition":343,"Ġhis":344,"ok":345,"Ġbut":346,"Ġdis":347,"her":348,"uch":349,"ri":350,"Ġbus":351,"Ġtheir":352,"Ġwhe":353,"ry":354,"ous":355,"Ġcomm":356,"Ġso":357,"Ġfin":358,"ance":359,"Ġthan":360,"Ġbank":361,"ign":362,"\\/":363,"Ġsal":364,"Ġother":365,"Ġone":366,"Ġall":367,"au":368,"day":369,"Ġbeen":370,"ally":371,"ident":372,"Ġpre":373,"Ġdec":374,"Ġ198":375,"Ġman":376,"ia":377,"der":378,"iz":379,"Ġsec":380,"pt":381,"Ġapp":382,"for":383,"ree":384,"Ġim":385,"ren":386,"ely":387,"Ġ8":388,"yst":389,"aw":390,"ase":391,"ex":392,"own":393,"Ġ7":394,"ble":395,"ents":396,"Ġsome":397,"oll":398,"Ġalso":399,"Ġproduc":400,"Ġcan":401,"Ġbr":402,"bl":403,"ary":404,"ek":405,"Ġbec":406,"eral":407,"ates":408,"Ġen":409,"wo":410,"Ġpart":411,"Ġfr":412,"ities":413,"ail":414,"able":415,"ount":416,"Ġno":417,"ct":418,"iness":419,"Ġass":420,"mr":421,"Ġdo":422,"ices":423,"li":424,"Ġlo":425,"ey":426,"Ġcons":427,"lo":428,"ile":429,"con":430,"Ġover":431,"ime":432,"arter":433,"we":434,"ares":435,"ange":436,"Ġ6":437,"Ġar":438,"ide":439,"Ġbusiness":440,"fter":441,"red":442,"Ġmonth":443,"av":444,"ord":445,"ach":446,"Ġper":447,"one":448,"Ġbuy":449,"ical":450,"erv":451,"ough":452,"ause":453,"Ġpresident":454,"gr":455,"ms":456,"000":457,"row":458,"oin":459,"Ġshares":460,"Ġtwo":461,"Ġli":462,"Ġyears":463,"Ġacc":464,"ose":465,"ational":466,"Ġme":467,"Ġus":468,"Ġimp":469,"Ġfirst":470,"oss":471,"ress":472,"Ġoffic":473,"ased":474,"Ġsc":475,"Ġcould":476,"fit":477,"ish":478,"Ġtrading":479,"ments":480,"Ġam":481,"ite":482,"air":483,"lud":484,"Ġafter":485,"ult":486,"ax":487,"Ġlast":488,"Ġstr":489,"vel":490,"roup":491,"ke":492,"ions":493,"Ġadd":494,"Ġindust":495,"itt":496,"Ġweek":497,"Ġmay":498,"Ġgroup":499,"Ġoper":500,"ating":501,"arg":502,"ual":503,"Ġ&":504,"ass":505,"ecut":506,"ang":507,"Ġfe":508,"Ġwhen":509,"ected":510,"Ġwork":511,"ep":512,"ures":513,"ens":514,"Ġany":515,"Ġbecause":516,"Ġbond":517,"Ġsales":518,"hed":519,"Ġ10":520,"vern":521,"Ġmo":522,"rop":523,"wn":524,"Ġiss":525,"urn":526,"erest":527,"Ġi":528,"Ġfed":529,"Ġpol":530,"very":531,"ug":532,"Ġgen":533,"Ġincre":534,"Ġgovern":535,"Ġyork":536,"Ġonly":537,"ace":538,"Ġunder":539,"Ġinter":540,"Ġfund":541,"Ġ9":542,"Ġcr":543,"Ġinto":544,"ester":545,"Ġplan":546,"Ġsub":547,"Ġma":548,"Ġcar":549,"Ġfinanc":550,"ubl":551,"osed":552,"Ġdr":553,"Ġret":554,"Ġinclud":555,"Ġinterest":556,"Ġown":557,"hn":558,"Ġpe":559,"Ġel":560,"Ġsell":561,"Ġmin":562,"ital":563,"Ġreport":564,"iss":565,"iel":566,"Ġsuch":567,"ious":568,"ican":569,"Ġcap":570,"Ġatt":571,"ett":572,"Ġquarter":573,"enc":574,"ise":575,"Ġunit":576,"ues":577,"Ġmost":578,"Ġdown":579,"ower":580,"conom":581,"Ġeconom":582,"Ġif":583,"Ġend":584,"Ġlaw":585,"Ġsay":586,"str":587,"Ġexecut":588,"Ġdep":589,"Ġmak":590,"Ġest":591,"ered":592,"Ġexch":593,"Ġbig":594,"Ġins":595,"ade":596,"anies":597,"Ġgovernment":598,"Ġbro":599,"uring":600,"ian":601,"Ġamer":602,"Ġwor":603,"alyst":604,"apan":605,"Ġsecur":606,"lin":607,"ert":608,"Ġstate":609,"Ġdef":610,"Ġconc":611,"Ġcompanies":612,"ield":613,"Ġtime":614,"gram":615,"Ġann":616,"Ġcents":617,"ks":618,"Ġcur":619,"Ġhigh":620,"rough":621,"Ġearn":622,"lier":623,"ople":624,"Ġnet":625,"oint":626,"Ġcost":627,"ence":628,"Ġthere":629,"Ġprogram":630,"Ġprice":631,"ict":632,"Ġsl":633,"Ġdire":634,"orn":635,"ird":636,"Ġexchange":637,"Ġpay":638,"og":639,"ild":640,"Ġbet":641,"Ġprofit":642,"Ġoffer":643,"Ġair":644,"Ġfederal":645,"jor":646,"Ġact":647,"Ġbl":648,"ief":649,"Ġ199":650,"Ġmajor":651,"Ġ15":652,"ix":653,"Ġmany":654,"ouse":655,"Ġjapan":656,"Ġdisc":657,"ific":658,"Ġofficial":659,"ick":660,"fl":661,"Ġhold":662,"Ġem":663,"son":664,"Ġrose":665,"ash":666,"Ġprices":667,"Ġop":668,"ision":669,"Ġnow":670,"ets":671,"ern":672,"Ġreg":673,"esterday":674,"Ġserv":675,"Ġthem":676,"Ġanalyst":677,"Ġsm":678,"Ġthree":679,"Ġjust":680,"ind":681,"Ġsen":682,"Ġtrans":683,"Ġrecent":684,"Ġtake":685,"Ġcontin":686,"Ġback":687,"Ġdirect":688,"Ġcurren":689,"Ġpubl":690,"Ġeff":691,"Ġpeople":692,"Ġtax":693,"ater":694,"ility":695,"Ġ30":696,"Ġfl":697,"Ġprov":698,"amp":699,"Ġcontr":700,"Ġmonths":701,"Ġmuch":702,"Ġagain":703,"orts":704,"Ġinvestors":705,"Ġinst":706,"Ġsecurities":707,"wh":708,"ound":709,"Ġdeb":710,"ame":711,"Ġcour":712,"Ġrem":713,"ink":714,"Ġlong":715,"Ġyou":716,"Ġspec":717,"Ġbonds":718,"ft":719,"Ġdem":720,"ives":721,"ved":722,"Ġeven":723,"Ġsupp":724,"isc":725,"Ġhow":726,"Ġdes":727,"Ġshe":728,"Ġfinancial":729,"fore":730,"ib":731,"Ġloss":732,"tions":733,"Ġgr":734,"ons":735,"Ġcomput":736,"Ġthird":737,"Ġgrow":738,"Ġdon":739,"Ġthrough":740,"ory":741,"Ġchair":742,"ury":743,"its":744,"ects":745,"xt":746,"Ġyesterday":747,"Ġcall":748,"Ġgu":749,"Ġmake":750,"Ġboard":751,"Ġearnings":752,"Ġfore":753,"Ġste":754,"ystem":755,"ty":756,"min":757,"Ġnext":758,"ince":759,"me":760,"Ġhouse":761,"Ġcapital":762,"Ġacqu":763,"rol":764,"Ġcal":765,"Ġinvestment":766,"Ġprop":767,"reat":768,"Ġpar":769,"Ġval":770,"velop":771,"Ġbel":772,"over":773,"Ġmoney":774,"Ġchairman":775,"gan":776,"Ġsystem":777,"Ġwhat":778,"ible":779,"Ġgain":780,"Ġhel":781,"Ġchief":782,"ics":783,"loy":784,"ee":785,"Ġ12":786,"Ġdid":787,"Ġwar":788,"ied":789,"Ġsur":790,"als":791,"Ġindustry":792,"Ġaut":793,"uct":794,"ared":795,"io":796,"alth":797,"Ġnor":798,"Ġexecutive":799,"ember":800,"Ġlead":801,"Ġstocks":802,"Ġpur":803,"gress":804,"Ġdel":805,"Ġearlier":806,"Ġequ":807,"Ġdiv":808,"other":809,"Ġadv":810,"Ġmer":811,"ists":812,"Ġrel":813,"ton":814,"cess":815,"ines":816,"Ġkn":817,"Ġjo":818,"year":819,"Ġbid":820,"Ġwell":821,"itut":822,"sh":823,"Ġbill":824,"Ġ20":825,"Ġcount":826,"iet":827,"istr":828,"led":829,"Ġdevelop":830,"Ġnational":831,"ollar":832,"Ġmade":833,"Ġamerican":834,"Ġrate":835,"iff":836,"Ġph":837,"Ġgood":838,"Ġreal":839,"ily":840,"verage":841,"Ġfar":842,"Ġcurrent":843,"ood":844,"read":845,"ner":846,"Ġfour":847,"Ġ11":848,"Ġbefore":849,"Ġproble":850,"Ġfut":851,"Ġexpected":852,"Ġcred":853,"ency":854,"Ġconcern":855,"form":856,"Ġent":857,"Ġwhile":858,"Ġche":859,"Ġshow":860,"ative":861,"ertain":862,"Ġemp":863,"pr":864,"tr":865,"Ġthose":866,"Ġcol":867,"ced":868,"Ġhig":869,"Ġhelp":870,"Ġoct":871,"Ġdays":872,"Ġintern":873,"Ġpublic":874,"50":875,"line":876,"venue":877,"nt":878,"Ġed":879,"ued":880,"ional":881,"Ġstill":882,"Ġnews":883,"Ġofficials":884,"Ġworld":885,"Ġyield":886,"iew":887,"Ġdoes":888,"Ġagainst":889,"arge":890,"app":891,"Ġfirm":892,"Ġsign":893,"ese":894,"Ġlike":895,"ants":896,"Ġmanag":897,"Ġcent":898,"Ġincome":899,"Ġjun":900,"vert":901,"Ġrates":902,"Ġappro":903,"ween":904,"Ġher":905,"Ġtel":906,"ins":907,"Ġcalif":908,"Ġbetween":909,"Ġ13":910,"Ġelect":911,"Ġdollar":912,"Ġleg":913,"Ġfell":914,"ever":915,"Ġfil":916,"ior":917,"Ġsince":918,"ning":919,"Ġindustr":920,"Ġtre":921,"Ġget":922,"Ġindex":923,"Ġdeal":924,"Ġestim":925,"les":926,"Ġproducts":927,"Ġra":928,"Ġvol":929,"Ġdebt":930,"Ġsept":931,"ized":932,"ising":933,"olog":934,"Ġshould":935,"Ġprev":936,"Ġcourt":937,"Ġsmall":938,"echn":939,"Ġconf":940,"Ġspok":941,"Ġissue":942,"Ġ50":943,"Ġcredit":944,"urance":945,"Ġcongress":946,"Ġago":947,"Ġdepart":948,"ending":949,"ump":950,"hold":951,"ular":952,"Ġmarkets":953,"Ġgeneral":954,"Ġcomputer":955,"ually":956,"ases":957,"Ġhim":958,"ged":959,"Ġlarg":960,"Ġeu":961,"Ġstre":962,"that":963,"Ġrequ":964,"Ġbuild":965,"Ġhigher":966,"ful":967,"to":968,"ward":969,"reed":970,"Ġless":971,"Ġev":972,"Ġfunds":973,"Ġemploy":974,"ording":975,"agement":976,"Ġreported":977,"Ġlower":978,"com":979,"ired":980,"they":981,"erson":982,"round":983,"oci":984,"hen":985,"Ġneed":986,"Ġanalysts":987,"ject":988,"Ġnum":989,"ribut":990,"Ġspokes":991,"Ġbeing":992,"ub":993,"Ġaverage":994,"Ġthese":995,"Ġfive":996,"Ġcle":997,"Ġpast":998,"Ġincluding":999,"te":1000,"Ġinternational":1001,"Ġcut":1002,"Ġagree":1003,"Ġrece":1004,"Ġ14":1005,"iday":1006,"pped":1007,"Ġannoun":1008,"az":1009,"Ġremain":1010,"25":1011,"vers":1012,"Ġter":1013,"Ġsw":1014,"Ġbrit":1015,"Ġmain":1016,"hip":1017,"att":1018,"Ġway":1019,"Ġdiff":1020,"Ġcompl":1021,"Ġcontrol":1022,"Ġassoci":1023,"land":1024,"Ġtot":1025,"Ġoperations":1026,"Ġsold":1027,"Ġtrade":1028,"Ġsale":1029,"pl":1030,"Ġreduc":1031,"Ġ1988":1032,"Ġput":1033,"ling":1034,"sear":1035,"hing":1036,"aper":1037,"Ġhead":1038,"ves":1039,"Ġresp":1040,"Ġser":1041,"Ġfew":1042,"Ġturn":1043,"Ġpost":1044,"Ġtechn":1045,"Ġfranc":1046,"Ġforeign":1047,"Ġsim":1048,"Ġsecond":1049,"Ġplans":1050,"Ġcommon":1051,"Ġjapanese":1052,"Ġhal":1053,"Ġaddition":1054,"Ġinstitut":1055,"Ġvice":1056,"osition":1057,"Ġclosed":1058,"rope":1059,"bers":1060,"ica":1061,"veral":1062,"Ġeconomic":1063,"Ġday":1064,"Ġhand":1065,"ider":1066,"Ġpurch":1067,"75":1068,"ger":1069,"this":1070,"Ġwant":1071,"ceed":1072,"Ġdeclin":1073,"ators":1074,"Ġben":1075,"Ġpa":1076,"Ġincrease":1077,"Ġdepartment":1078,"med":1079,"ume":1080,"Ġmeet":1081,"Ġcontract":1082,"Ġour":1083,"Ġboth":1084,"Ġinsurance":1085,"ra":1086,"Ġisn":1087,"Ġtak":1088,"Ġoil":1089,"Ġeurope":1090,"Ġvery":1091,"Ġnear":1092,"ollow":1093,"Ġgrowth":1094,"up":1095,"Ġpower":1096,"Ġduring":1097,"quarter":1098,"Ġdidn":1099,"ron":1100,"ited":1101,"ving":1102,"Ġrestr":1103,"Ġresear":1104,"Ġmanagement":1105,"Ġtotal":1106,"ately":1107,"Ġuse":1108,"Ġpolit":1109,"ker":1110,"Ġthough":1111,"Ġcorpor":1112,"Ġwhere":1113,"Ġeng":1114,"by":1115,"way":1116,"Ġcash":1117,"Ġmove":1118,"aim":1119,"ull":1120,"Ġissues":1121,"elf":1122,"Ġke":1123,"ees":1124,"Ġmight":1125,"Ġdue":1126,"ne":1127,"Ġsix":1128,"ised":1129,"Ġeach":1130,"Ġaff":1131,"Ġrev":1132,"Ġstand":1133,"Ġbanks":1134,"Ġ1989":1135,"Ġfriday":1136,"gin":1137,"ient":1138,"Ġref":1139,"Ġcommun":1140,"Ġused":1141,"Ġreturn":1142,"Ġcosts":1143,"bs":1144,"Ġthen":1145,"inc":1146,"Ġmem":1147,"Ġlook":1148,"Ġrun":1149,"while":1150,"Ġfollow":1151,"Ġ100":1152,"imes":1153,"ize":1154,"Ġmed":1155,"uf":1156,"Ġanother":1157,"Ġhome":1158,"ife":1159,"Ġmod":1160,"Ġdirector":1161,"Ġsou":1162,"Ġpolic":1163,"be":1164,"Ġsuc":1165,"Ġfam":1166,"Ġdet":1167,"Ġcompet":1168,"Ġmet":1169,"asury":1170,"Ġseveral":1171,"Ġspecial":1172,"gest":1173,"Ġhealth":1174,"Ġadmin":1175,"'re":1176,"Ġlevel":1177,"pro":1178,"Ġopp":1179,"Ġwr":1180,"Ġwon":1181,"Ġyen":1182,"Ġsov":1183,"most":1184,"Ġant":1185,"Ġjud":1186,"Ġbush":1187,"ll":1188,"Ġsan":1189,"Ġoffice":1190,"ages":1191,"ces":1192,"par":1193,"Ġmat":1194,"Ġthink":1195,"Ġrevenue":1196,"Ġstrong":1197,"get":1198,"Ġearly":1199,"yn":1200,"ret":1201,"Ġgre":1202,"ults":1203,"Ġdam":1204,"Ġevery":1205,"Ġger":1206,"Ġchang":1207,"bert":1208,"Ġopen":1209,"Ġadministr":1210,"Ġpet":1211,"rat":1212,"ying":1213,"ready":1214,"Ġrecord":1215,"ission":1216,"mar":1217,"Ġold":1218,"Ġfac":1219,"Ġfact":1220,"uction":1221,"Ġsupport":1222,"Ġstart":1223,"Ġ25":1224,"ago":1225,"Ġofficer":1226,"Ġvalue":1227,"aster":1228,"Ġ18":1229,"ection":1230,"ittle":1231,"Ġcommitt":1232,"Ġbelie":1233,"Ġbar":1234,"Ġmc":1235,"Ġlow":1236,"Ġav":1237,"Ġtoo":1238,"Ġleast":1239,"some":1240,"Ġcase":1241,"ential":1242,"stand":1243,"Ġassets":1244,"Ġdoesn":1245,"Ġsch":1246,"Ġshort":1247,"Ġagency":1248,"ornia":1249,"Ġtal":1250,"Ġport":1251,"Ġprom":1252,"ked":1253,"Ġwall":1254,"ense":1255,"ason":1256,"Ġlate":1257,"Ġstud":1258,"bo":1259,"iod":1260,"Ġcity":1261,"ting":1262,"Ġpartic":1263,"Ġadded":1264,"Ġfutures":1265,"Ġstreet":1266,"til":1267,"ath":1268,"ateg":1269,"Ġ1990":1270,"ky":1271,"Ġmach":1272,"ames":1273,"ights":1274,"Ġformer":1275,"Ġtraders":1276,"Ġaccording":1277,"ss":1278,"Ġclose":1279,"ric":1280,"Ġmil":1281,"Ġvot":1282,"Ġamong":1283,"Ġtreasury":1284,"Ġnumber":1285,"Ġspokesman":1286,"ru":1287,"Ġperiod":1288,"Ġprevious":1289,"kely":1290,"ustom":1291,"Ġbased":1292,"Ġris":1293,"ale":1294,"Ġresult":1295,"ufact":1296,"Ġfur":1297,"Ġalready":1298,"Ġunion":1299,"Ġgoing":1300,"Ġended":1301,"Ġpoint":1302,"Ġstake":1303,"Ġoperating":1304,"Ġsubs":1305,"Ġlittle":1306,"Ġservice":1307,"ology":1308,"Ġca":1309,"Ġperson":1310,"Ġfall":1311,"aged":1312,"ners":1313,"Ġsame":1314,"Ġsett":1315,"iced":1316,"thing":1317,"ured":1318,"Ġservices":1319,"Ġcalifornia":1320,"Ġhalf":1321,"Ġ17":1322,"term":1323,"Ġneg":1324,"ody":1325,"mon":1326,"ned":1327,"Ġcertain":1328,"Ġposs":1329,"Ġ16":1330,"Ġagreement":1331,"Ġinfl":1332,"hes":1333,"Ġsee":1334,"ral":1335,"Ġclaim":1336,"Ġearth":1337,"cy":1338,"Ġcustom":1339,"ived":1340,"Ġwest":1341,"Ġpress":1342,"Ġexpect":1343,"Ġjunk":1344,"Ġbritish":1345,"based":1346,"Ġord":1347,"aff":1348,"Ġcre":1349,"Ġplay":1350,"there":1351,"Ġagreed":1352,"Ġmanufact":1353,"Ġdrug":1354,"Ġset":1355,"Ġaug":1356,"Ġimpro":1357,"Ġjohn":1358,"isition":1359,"Ġprot":1360,"Ġmot":1361,"Ġhard":1362,"Ġlim":1363,"ization":1364,"Ġpropos":1365,"Ġproblems":1366,"many":1367,"ones":1368,"Ġoffering":1369,"Ġgold":1370,"Ġaccount":1371,"int":1372,"Ġlab":1373,"ove":1374,"Ġposition":1375,"Ġcalled":1376,"Ġknow":1377,"action":1378,"Ġcommer":1379,"arent":1380,"Ġpriv":1381,"Ġmaker":1382,"Ġseptember":1383,"cept":1384,"Ġresearch":1385,"ley":1386,"Ġacquisition":1387,"Ġbas":1388,"ications":1389,"Ġresults":1390,"Ġ40":1391,"Ġregul":1392,"ness":1393,"esp":1394,"Ġloans":1395,"ium":1396,"Ġir":1397,"Ġseem":1398,"Ġmort":1399,"Ġindustrial":1400,"port":1401,"imin":1402,"ively":1403,"Ġbuying":1404,"Ġconsum":1405,"Ġannual":1406,"ten":1407,"Ġte":1408,"ator":1409,"ather":1410,"Ġlt":1411,"Ġnon":1412,"ably":1413,"Ġcoll":1414,"Ġallow":1415,"Ġ1987":1416,"Ġdemand":1417,"isco":1418,"Ġadministration":1419,"sp":1420,"Ġlat":1421,"emp":1422,"ier":1423,"Ġtex":1424,"Ġproduction":1425,"Ġpolicy":1426,"Ġsoviet":1427,"Ġtop":1428,"Ġdou":1429,"Ġline":1430,"Ġimport":1431,"Ġincreased":1432,"Ġhop":1433,"eren":1434,"uss":1435,"off":1436,"asing":1437,"Ġlarge":1438,"Ġuntil":1439,"Ġ200":1440,"work":1441,"Ġtoday":1442,"Ġright":1443,"urer":1444,"Ġeconomy":1445,"de":1446,"Ġ0":1447,"ata":1448,"Ġlikely":1449,"Ġcompared":1450,"Ġrepres":1451,"Ġeffect":1452,"Ġaround":1453,"ially":1454,"onday":1455,"Ġsharehold":1456,"Ġlosses":1457,"Ġmag":1458,"Ġfail":1459,"Ġlife":1460,"used":1461,"ift":1462,"oints":1463,"Ġstrateg":1464,"amed":1465,"Ġselling":1466,"Ġbene":1467,"Ġcorporate":1468,"Ġmid":1469,"Ġpaper":1470,"ism":1471,"Ġdist":1472,"ically":1473,"Ġplant":1474,"Ġseek":1475,"Ġart":1476,".'":1477,"ided":1478,"Ġnov":1479,"Ġcountry":1480,"less":1481,"Ġpoints":1482,"Ġrest":1483,"ural":1484,"Ġfirms":1485,"Ġcontinue":1486,"ina":1487,"Ġmonday":1488,"enn":1489,"Ġnotes":1490,"Ġwhether":1491,"Ġcommittee":1492,"Ġsubsid":1493,"Ġearthqu":1494,"ool":1495,"put":1496,"Ġloc":1497,"agu":1498,"Ġfig":1499,"Ġfound":1500,"ivers":1501,"Ġmor":1502,"Ġmembers":1503,"Ġmust":1504,"Ġcharg":1505,"Ġbre":1506,"Ġpat":1507,"Ġgas":1508,"Ġwithout":1509,"Ġtrust":1510,"ains":1511,"fer":1512,"Ġhur":1513,"oup":1514,"ends":1515,"ondon":1516,"Ġcanad":1517,"Ġconsider":1518,"Ġgener":1519,"osite":1520,"Ġinvol":1521,"Ġmortg":1522,"Ġext":1523,"Ġclos":1524,"Ġdemoc":1525,"iscal":1526,"Ġquest":1527,"no":1528,"iting":1529,"ended":1530,"Ġrecently":1531,"Ġhowever":1532,"Ġsteel":1533,"Ġpolitical":1534,"Ġcommission":1535,"Ġfrancisco":1536,"ave":1537,"ph":1538,"Ġfurther":1539,"Ġual":1540,"Ġproper":1541,"ivid":1542,"Ġsug":1543,"Ġexpects":1544,"Ġz":1545,"omet":1546,"Ġdom":1547,"icago":1548,"Ġnation":1549,"Ġ500":1550,"Ġtakeover":1551,"Ġclear":1552,"Ġltd":1553,"Ġearthquake":1554,"fr":1555,"Ġbud":1556,"Ġcome":1557,"Ġcomplet":1558,"Ġaugust":1559,"Ġtimes":1560,"Ġsing":1561,"Ġsol":1562,"Ġfiscal":1563,"ross":1564,"els":1565,"Ġrul":1566,"ips":1567,"Ġla":1568,"Ġlos":1569,"ession":1570,"Ġslow":1571,"Ġlargest":1572,"Ġcamp":1573,"Ġmy":1574,"Ġdrop":1575,"Ġge":1576,"Ġactiv":1577,"cial":1578,"Ġinform":1579,"Ġchange":1580,"Ġview":1581,"Ġfind":1582,"Ġannounced":1583,"Ġmaking":1584,"Ġsystems":1585,"Ġdeclined":1586,"co":1587,"igation":1588,"Ġpriced":1589,"Ġloan":1590,"Ġbroad":1591,"Ġhere":1592,"Ġindic":1593,"Ġbusinesses":1594,"ought":1595,"Ġproblem":1596,"br":1597,"back":1598,"ev":1599,"Ġheld":1600,"Ġexper":1601,"Ġproduct":1602,"Ġweeks":1603,"Ġsouth":1604,"mical":1605,"Ġcomposite":1606,"Ġchicago":1607,"Ġ31":1608,"Ġsenior":1609,"hor":1610,"Ġwhite":1611,"Ġadvert":1612,"Ġretail":1613,"Ġrefl":1614,"Ġheav":1615,"Ġcoun":1616,"Ġread":1617,"ides":1618,"Ġsto":1619,"Ġkeep":1620,"standing":1621,"just":1622,"Ġcomment":1623,"cent":1624,"ished":1625,"Ġdro":1626,"ili":1627,"Ġhar":1628,"Ġbegin":1629,"Ġdevelopment":1630,"now":1631,"cl":1632,"isl":1633,"Ġdata":1634,"Ġexpl":1635,"Ġbecome":1636,"Ġmeas":1637,"Ġob":1638,"Ġpass":1639,"Ġnine":1640,"Ġshar":1641,"Ġarea":1642,"Ġestate":1643,"Ġseries":1644,"ividual":1645,"ys":1646,"Ġ197":1647,"Ġjones":1648,"Ġchar":1649,"when":1650,"Ġmass":1651,"Ġpot":1652,"Ġgive":1653,"Ġaren":1654,"Ġ21":1655,"etting":1656,"Ġdecline":1657,"eed":1658,"ik":1659,"yp":1660,"Ġang":1661,"Ġbuilding":1662,"iam":1663,"ither":1664,"iven":1665,"Ġdesign":1666,"Ġemployees":1667,"Ġpaid":1668,"che":1669,"Ġtest":1670,"Ġgreat":1671,"oti":1672,"ained":1673,"ified":1674,"Ġbenefit":1675,"ted":1676,"Ġvent":1677,"Ġorder":1678,"Ġvolume":1679,"Ġassociation":1680,"Ġjudge":1681,"Ġlatest":1682,"Ġpan":1683,"iron":1684,"Ġworkers":1685,"Ġtechnology":1686,"cher":1687,"Ġfood":1688,"Ġexamp":1689,"Ġlabor":1690,"val":1691,"Ġill":1692,"Ġ24":1693,"Ġ26":1694,"Ġlegisl":1695,"Ġweak":1696,"Ġamount":1697,"Ġform":1698,"Ġ22":1699,"Ġdemocrat":1700,"bed":1701,"uly":1702,"Ġtook":1703,"acific":1704,"Ġexample":1705,"ries":1706,"Ġpo":1707,"Ġlondon":1708,"Ġindividual":1709,"Ġpartners":1710,"Ġmeeting":1711,"ler":1712,"ply":1713,"iving":1714,"Ġholding":1715,"Ġsoc":1716,"ilities":1717,"Ġlot":1718,"Ġproposed":1719,"Ġcare":1720,"Ġcoup":1721,"ounts":1722,"Ġbetter":1723,"Ġproposal":1724,"Ġcommercial":1725,"Ġorders":1726,"Ġgot":1727,"uck":1728,"Ġexecutives":1729,"Ġnearly":1730,"ering":1731,"Ġfree":1732,"Ġfull":1733,"Ġoffered":1734,"Ġblack":1735,"fol":1736,"itor":1737,"ution":1738,"ris":1739,"Ġnat":1740,"Ġprocess":1741,"Ġdamage":1742,"erence":1743,"Ġrepresent":1744,"ched":1745,"Ġvi":1746,"Ġrestruct":1747,"Ġstandard":1748,"how":1749,"rel":1750,"Ġlater":1751,"Ġrise":1752,"Ġinvestor":1753,"bit":1754,"empt":1755,"Ġenv":1756,"Ġestimated":1757,"Ġtexas":1758,"Ġsomet":1759,"Ġpack":1760,"ened":1761,"Ġeast":1762,"ability":1763,"Ġsenate":1764,"Ġpurchase":1765,"Ġpossible":1766,"Ġreceived":1767,"Ġinit":1768,"Ġlet":1769,"Ġconstr":1770,"Ġunivers":1771,"Ġsuccess":1772,"rupt":1773,"Ġdow":1774,"oman":1775,"aps":1776,"Ġbroker":1777,"Ġauthor":1778,"Ġdivision":1779,"Ġnegoti":1780,"here":1781,"ipment":1782,"Ġdecision":1783,"Ġfuture":1784,"Ġchanges":1785,"Ġbudget":1786,"ring":1787,"Ġnamed":1788,"Ġinclude":1789,"uesday":1790,"Ġyour":1791,"Ġcond":1792,"Ġcharge":1793,"Ġ60":1794,"Ġlawy":1795,"Ġprivate":1796,"Ġsubsidi":1797,"time":1798,"Ġpred":1799,"Ġdefense":1800,"Ġnetwork":1801,"Ġparticular":1802,"Ġcame":1803,"itive":1804,"Ġfiled":1805,"Ġinformation":1806,"more":1807,"ony":1808,"Ġbest":1809,"icip":1810,"ached":1811,"Ġalmost":1812,"pping":1813,"Ġspending":1814,"Ġboost":1815,"Ġauto":1816,"Ġstep":1817,"acts":1818,"Ġyet":1819,"Ġothers":1820,"Ġamerica":1821,"Ġdivid":1822,"cast":1823,"Ġgl":1824,"Ġforce":1825,"Ġbegan":1826,"Ġrich":1827,"Ġwashing":1828,"Ġhasn":1829,"Ġchemical":1830,"Ġmagaz":1831,"ugh":1832,"with":1833,"ways":1834,"ales":1835,"Ġhour":1836,"Ġsoft":1837,"Ġwashington":1838,"ients":1839,"king":1840,"Ġpil":1841,"ention":1842,"Ġoutstanding":1843,"Ġenough":1844,"Ġcrit":1845,"orney":1846,"Ġequity":1847,"Ġequipment":1848,"after":1849,"Ġtv":1850,"ears":1851,"Ġ23":1852,"umb":1853,"Ġcustomers":1854,"Ġmortgage":1855,"Ġpotential":1856,"ironment":1857,"su":1858,"Ġtuesday":1859,"icit":1860,"Ġstates":1861,"amer":1862,"Ġjuly":1863,"Ġable":1864,"Ġconsult":1865,"Ġarg":1866,"Ġoptions":1867,"Ġgains":1868,"ges":1869,"sc":1870,"erve":1871,"Ġoften":1872,"Ġred":1873,"Ġonce":1874,"Ġrights":1875,"earlier":1876,"Ġjoint":1877,"aguar":1878,"Ġsuggest":1879,"ga":1880,"Ġtold":1881,"Ġlist":1882,"ulation":1883,"Ġattorney":1884,"Ġpersonal":1885,"erg":1886,"ann":1887,"urs":1888,"Ġconv":1889,"Ġfinancing":1890,"ributed":1891,"Ġconsumer":1892,"Ġdropped":1893,"ead":1894,"Ġwa":1895,"Ġthr":1896,"tern":1897,"Ġtrying":1898,"Ġmakes":1899,"Ġtransaction":1900,"Ġprovide":1901,"Ġindustries":1902,"'ve":1903,"16":1904,"Ġsent":1905,"ery":1906,"isions":1907,"lex":1908,"Ġconn":1909,"ush":1910,"ival":1911,"what":1912,"Ġdeli":1913,"share":1914,"Ġportfol":1915,"Ġsettle":1916,"ging":1917,"ience":1918,"uge":1919,"Ġsuit":1920,"ances":1921,"32":1922,"Ġdre":1923,"Ġproject":1924,"though":1925,"irc":1926,"Ġprof":1927,"Ġschool":1928,"Ġimportant":1929,"atch":1930,"ilar":1931,"Ġnever":1932,"Ġsecret":1933,"Ġcurrently":1934,"new":1935,"Ġfamily":1936,"Ġinflation":1937,"Ġenvironment":1938,"dr":1939,"ober":1940,"Ġwin":1941,"Ġland":1942,"estic":1943,"Ġwithin":1944,"Ġrobert":1945,"Ġprograms":1946,"Ġoctober":1947,"Ġhous":1948,"Ġemer":1949,"Ġorgan":1950,"Ġplace":1951,"Ġquot":1952,"estern":1953,"Ġadditional":1954,"Ġclaims":1955,"roduc":1956,"Ġfinance":1957,"Ġbanking":1958,"Ġappe":1959,"Ġbrand":1960,"Ġcomputers":1961,"Ġeuropean":1962,"Ġrisk":1963,"Ġlocal":1964,"cc":1965,"mak":1966,"Ġaway":1967,"Ġsum":1968,"orrow":1969,"Ġprob":1970,"Ġdev":1971,"ortion":1972,"Ġaccept":1973,"Ġleft":1974,"Ġsubst":1975,"Ġunits":1976,"Ġleaders":1977,"Ġdollars":1978,"ware":1979,"omm":1980,"Ġreason":1981,"ott":1982,"Ġsoon":1983,"bled":1984,"Ġsignific":1985,"ald":1986,"Ġsuper":1987,"Ġfourth":1988,"Ġcharges":1989,"Ġpop":1990,"Ġwouldn":1991,"lines":1992,"Ġflo":1993,"ality":1994,"Ġthings":1995,"Ġ28":1996,"Ġ35":1997,"Ġunited":1998,"bac":1999,"Ġtrou":2000,"Ġlost":2001,"Ġconvert":2002,"Ġsav":2003,"Ġquick":2004,"Ġsched":2005,"urers":2006,"ai":2007,"Ġwid":2008,"icult":2009,"Ġhapp":2010,"Ġexpress":2011,"ixed":2012,"Ġmanager":2013,"Ġut":2014,"Ġsit":2015,"Ġcirc":2016,"Ġdav":2017,"ech":2018,"Ġmarch":2019,"Ġaction":2020,"Ġmarketing":2021,"Ġwhose":2022,"Ġbills":2023,"Ġjune":2024,"Ġavail":2025,"Ġimprove":2026,"Ġteam":2027,"Ġquestion":2028,"Ġsingle":2029,"Ġangel":2030,"Ġtyp":2031,"idence":2032,"osp":2033,"Ġwasn":2034,"last":2035,"atives":2036,"Ġface":2037,"Ġvia":2038,"ources":2039,"ford":2040,"Ġslight":2041,"Ġcontinued":2042,"Ġlegal":2043,"Ġengine":2044,"Ġbelieve":2045,"Ġsignificant":2046,"Ġer":2047,"Ġbad":2048,"Ġgetting":2049,"ored":2050,"aph":2051,"Ġ27":2052,"oston":2053,"Ġpract":2054,"Ġadjust":2055,"Ġcontracts":2056,"Ġshareholders":2057,"Ġstores":2058,"Ġsubsidiary":2059,"uation":2060,"Ġden":2061,"under":2062,"Ġnorth":2063,"Ġelectron":2064,"Ġcanc":2065,"Ġbase":2066,"Ġfre":2067,"orp":2068,"Ġbeh":2069,"Ġabove":2070,"market":2071,"Ġgeor":2072,"cr":2073,"ds":2074,"wr":2075,"Ġford":2076,"ordin":2077,"Ġfollowing":2078,"Ġaid":2079,"Ġpain":2080,"ories":2081,"Ġdistr":2082,"Ġjump":2083,"Ġbelow":2084,"ots":2085,"Ġsk":2086,"Ġboston":2087,"arily":2088,"ison":2089,"icans":2090,"Ġled":2091,"Ġwarner":2092,"Ġcenter":2093,"Ġterms":2094,"vest":2095,"Ġve":2096,"Ġovers":2097,"anwhile":2098,"Ġmanagers":2099,"Ġdifficult":2100,"Ġrestructuring":2101,"Ġuniversity":2102,"pre":2103,"tax":2104,"ises":2105,"Ġalle":2106,"Ġplun":2107,"Ġraise":2108,"Ġtaken":2109,"Ġadvertising":2110,"Ġconstruction":2111,"Ġms":2112,"Ġmich":2113,"Ġparent":2114,"itary":2115,"Ġstaff":2116,"ourn":2117,"epend":2118,"Ġincluded":2119,"Ġvolat":2120,"Ġrequire":2121,"Ġsimilar":2122,"Ġtoky":2123,"acy":2124,"Ġitself":2125,"Ġposted":2126,"Ġcondition":2127,"Ġangeles":2128,"of":2129,"tain":2130,"Ġjaguar":2131,"erent":2132,"Ġbook":2133,"Ġcarri":2134,"Ġstatement":2135,"Ġdiscl":2136,"Ġeffort":2137,"Ġdeter":2138,"Ġbreak":2139,"den":2140,"Ġsat":2141,"Ġbought":2142,"istic":2143,"Ġ80":2144,"Ġavailable":2145,"Ġaust":2146,"head":2147,"Ġnec":2148,"Ġresign":2149,"ension":2150,"Ġincreasing":2151,"Ġsecurity":2152,"hone":2153,"sales":2154,"icle":2155,"Ġhear":2156,"Ġjames":2157,"Ġjourn":2158,"Ġreports":2159,"Ġcouldn":2160,"Ġdiscuss":2161,"Ġholders":2162,"month":2163,"Ġdomestic":2164,"rill":2165,"side":2166,"west":2167,"Ġsus":2168,"arant":2169,"Ġhit":2170,"Ġasked":2171,"Ġvar":2172,"Ġvet":2173,"Ġpercent":2174,"Ġworking":2175,"Ġviol":2176,"Ġide":2177,"Ġesp":2178,"Ġbur":2179,"cement":2180,"Ġnoted":2181,"Ġtransport":2182,"however":2183,"Ġportfolio":2184,"she":2185,"Ġur":2186,"Ġvis":2187,"Ġindepend":2188,"Ġclass":2189,"Ġ45":2190,"erves":2191,"Ġairlines":2192,"ibility":2193,"Ġapproved":2194,"Ġgermany":2195,"Ġfigures":2196,"Ġhist":2197,"ole":2198,"Ġyoun":2199,"Ġconst":2200,"Ġchild":2201,"Ġblock":2202,"Ġcalls":2203,"Ġtelep":2204,"gen":2205,"mitt":2206,"Ġbay":2207,"Ġhum":2208,"Ġdeficit":2209,"Ġtokyo":2210,"ah":2211,"Ġwestern":2212,"Ġfav":2213,"aced":2214,"Ġcomb":2215,"ortun":2216,"Ġintroduc":2217,"Ġreserve":2218,"Ġ1986":2219,"although":2220,"Ġtelev":2221,"Ġdifferent":2222,"Ġmotor":2223,"Ġheavy":2224,"ming":2225,"Ġeas":2226,"Ġstri":2227,"Ġru":2228,"thern":2229,"Ġseven":2230,"forman":2231,"Ġattempt":2232,"Ġdesp":2233,"Ġreduce":2234,"Ġjournal":2235,"Ġmiss":2236,"Ġwed":2237,"Ġrele":2238,"Ġjan":2239,"Ġprem":2240,"Ġliqu":2241,"Ġcars":2242,"Ġknown":2243,"bitr":2244,"ergy":2245,"Ġprobably":2246,"nes":2247,"sy":2248,"uing":2249,"Ġeither":2250,"Ġrather":2251,"ecting":2252,"abl":2253,"Ġparty":2254,"Ġpayments":2255,"Ġefforts":2256,"Ġventure":2257,"anch":2258,"Ġfo":2259,"Ġattr":2260,"Ġsaying":2261,"Ġairline":2262,"Ġautom":2263,"Ġcases":2264,"ister":2265,"Ġdoc":2266,"Ġproj":2267,"Ġvict":2268,"ify":2269,"Ġexpens":2270,"Ġrepubl":2271,"Ġbankrupt":2272,"Ġstruct":2273,"Ġinstitute":2274,"astern":2275,"Ġtalks":2276,"Ġsavings":2277,"wide":2278,"ino":2279,"Ġocc":2280,"ening":2281,"ici":2282,"Ġstat":2283,"acc":2284,"Ġsaf":2285,"Ġgroups":2286,"Ġincreases":2287,"Ġbiggest":2288,"attle":2289,"ball":2290,"Ġsqu":2291,"ico":2292,"Ġreached":2293,"aterial":2294,"trad":2295,"Ġanti":2296,"Ġgerman":2297,"formance":2298,"down":2299,"even":2300,"Ġlyn":2301,"Ġcoming":2302,"Ġje":2303,"Ġalong":2304,"pper":2305,"Ġusing":2306,"Ġowners":2307,"Ġdirectors":2308,"Ġgained":2309,"Ġapproval":2310,"Ġrespons":2311,"ceeds":2312,"Ġsecretary":2313,"Ġtelephone":2314,"kers":2315,"not":2316,"self":2317,"rep":2318,"ills":2319,"ung":2320,"Ġinvestments":2321,"Ġarr":2322,"Ġmakers":2323,"medi":2324,"Ġstrategy":2325,"Ġschedul":2326,"80":2327,"da":2328,"rate":2329,"Ġpacific":2330,"these":2331,"imum":2332,"Ġchina":2333,"anced":2334,"Ġrepl":2335,"like":2336,"Ġcountries":2337,"Ġhelped":2338,"Ġdealers":2339,"Ġdividend":2340,"Ġslightly":2341,"ob":2342,"ties":2343,"Ġtell":2344,"Ġtoward":2345,"Ġthreat":2346,"Ġreb":2347,"Ġname":2348,"Ġgiven":2349,"ama":2350,"Ġunc":2351,"Ġkid":2352,"Ġprefer":2353,"Ġdespite":2354,"Ġbal":2355,"Ġfri":2356,"Ġlines":2357,"stock":2358,"ector":2359,"Ġkey":2360,"Ġguarant":2361,"Ġmachines":2362,"Ġmilitary":2363,"Ġproperty":2364,"Ġsubstant":2365,"bur":2366,"rist":2367,"you":2368,"revenue":2369,"atory":2370,"Ġfu":2371,"Ġever":2372,"Ġnav":2373,"Ġ75":2374,"avel":2375,"Ġperformance":2376,"anged":2377,"Ġinterv":2378,"ael":2379,"aign":2380,"call":2381,"sen":2382,"ape":2383,"rench":2384,"ropri":2385,"Ġib":2386,"Ġinterests":2387,"Ġbrother":2388,"icted":2389,"Ġprofits":2390,"Ġelectric":2391,"Ġpoor":2392,"Ġsusp":2393,"bec":2394,"Ġmaterial":2395,"ster":2396,"Ġexpand":2397,"Ġdepos":2398,"Ġacquired":2399,"Ġraised":2400,"Ġcommunications":2401,"Ġcampaign":2402,"Ġtelevision":2403,"60":2404,"90":2405,"men":2406,"oid":2407,"Ġtend":2408,"Ġtarg":2409,"Ġaud":2410,"Ġmen":2411,"Ġhot":2412,"Ġ37":2413,"isting":2414,"arters":2415,"Ġkind":2416,"Ġremains":2417,"Ġlooking":2418,"Ġmedical":2419,"30":2420,"ats":2421,"Ġwent":2422,"itors":2423,"Ġfoc":2424,"ecially":2425,"Ġclients":2426,"Ġminor":2427,"Ġsurpr":2428,"19":2429,"Ġbure":2430,"ilt":2431,"ishing":2432,"Ġestabl":2433,"Ġadvis":2434,"Ġlevels":2435,"Ġmanufacturing":2436,"Ġfailed":2437,"Ġsomething":2438,"Ġaustral":2439,"Ġbankruptcy":2440,"jo":2441,"Ġauction":2442,"ined":2443,"erate":2444,"Ġwater":2445,"elves":2446,"Ġpros":2447,"Ġmarks":2448,"Ġprim":2449,"Ġsepar":2450,"Ġclim":2451,"Ġarbitr":2452,"Ġacquire":2453,"Ġcentral":2454,"Ġpromot":2455,"Ġpreviously":2456,"Ġlimited":2457,"Ġcanada":2458,"Ġmeasure":2459,"Ġparticularly":2460,"Ġdavid":2461,"Ġpercentage":2462,"ck":2463,"ney":2464,"ane":2465,"Ġhong":2466,"Ġreally":2467,"ille":2468,"Ġvir":2469,"Ġ300":2470,"Ġenergy":2471,"Ġfeel":2472,"Ġvote":2473,"Ġcompleted":2474,"Ġbrokerage":2475,"umbia":2476,"Ġlynch":2477,"20":2478,"bor":2479,"body":2480,"cri":2481,"Ġhom":2482,"Ġhuge":2483,"Ġbuyers":2484,"Ġincludes":2485,"Ġ150":2486,"Ġjob":2487,"Ġestimates":2488,"Ġbasis":2489,"Ġlawyers":2490,"Ġespecially":2491,"part":2492,"Ġpoll":2493,"Ġkong":2494,"Ġsuff":2495,"Ġ70":2496,"Ġholdings":2497,"Ġsupply":2498,"Ġestimate":2499,"Ġparticip":2500,"Ġcanadian":2501,"Ġindependent":2502,"'m":2503,"well":2504,"xel":2505,"Ġpound":2506,"Ġfield":2507,"Ġhug":2508,"Ġexc":2509,"Ġ29":2510,"anta":2511,"Ġbring":2512,"Ġfrank":2513,"cont":2514,"Ġcurrency":2515,"Ġleader":2516,"Ġrelations":2517,"Ġfarm":2518,"Ġmagazine":2519,"bache":2520,"Ġibm":2521,"Ġthom":2522,"idge":2523,"Ġrat":2524,"Ġsho":2525,"Ġhaving":2526,"augh":2527,"Ġassist":2528,"Ġsurve":2529,"Ġgoods":2530,"Ġnewsp":2531,"Ġseeking":2532,"uments":2533,"Ġtreat":2534,"Ġwal":2535,"ark":2536,"Ġalthough":2537,"Ġrole":2538,"Ġappropri":2539,"Ġmeans":2540,"Ġattract":2541,"my":2542,"na":2543,"ville":2544,"Ġwants":2545,"itz":2546,"iter":2547,"Ġlack":2548,"Ġextr":2549,"aining":2550,"aily":2551,"Ġplants":2552,"Ġgrowing":2553,"Ġtaking":2554,"Ġinvolved":2555,"Ġactivity":2556,"Ġscheduled":2557,"10":2558,"bond":2559,"Ġban":2560,"atively":2561,"iring":2562,"Ġjoin":2563,"Ġdoing":2564,"Ġmajority":2565,"Ġlonger":2566,"Ġphil":2567,"Ġlegislation":2568,"Ġnatural":2569,"Ġdistrict":2570,"Ġtransportation":2571,"bank":2572,"kin":2573,"Ġbell":2574,"omen":2575,"Ġeastern":2576,"Ġabortion":2577,"Ġweren":2578,"Ġ44":2579,"Ġdisapp":2580,"Ġproducers":2581,"Ġimpact":2582,"Ġrelated":2583,"Ġcolle":2584,"Ġevent":2585,"Ġreduced":2586,"Ġdistribut":2587,"ding":2588,"tc":2589,"Ġcit":2590,"Ġlight":2591,"Ġthing":2592,"Ġgi":2593,"actions":2594,"Ġbear":2595,"veraged":2596,"Ġtry":2597,"izing":2598,"Ġimmedi":2599,"wood":2600,"Ġconsid":2601,"Ġowns":2602,"Ġworth":2603,"index":2604,"Ġconcerns":2605,"Ġstarted":2606,"Ġliquid":2607,"cour":2608,"go":2609,"ham":2610,"still":2611,"Ġrange":2612,"aging":2613,"Ġprinc":2614,"Ġspace":2615,"ude":2616,"Ġapparent":2617,"Ġasset":2618,"Ġfavor":2619,"aker":2620,"Ġcho":2621,"Ġwilliam":2622,"Ġseen":2623,"Ġoutside":2624,"Ġaccounts":2625,"Ġdiscount":2626,"iety":2627,"Ġlargely":2628,"Ġinstitutions":2629,"Ġenvironmental":2630,"Ġprojects":2631,"'ll":2632,"egr":2633,"gins":2634,"pe":2635,"use":2636,"Ġcand":2637,"Ġdaily":2638,"Ġeight":2639,"idel":2640,"unch":2641,"encies":2642,"Ġleading":2643,"Ġeduc":2644,"Ġrules":2645,"Ġsettlement":2646,"makers":2647,"Ġdisclosed":2648,"Ġapr":2649,"rec":2650,"Ġthems":2651,"Ġple":2652,"Ġfrench":2653,"Ġdone":2654,"ently":2655,"Ġdeath":2656,"Ġ33":2657,"Ġnote":2658,"Ġprep":2659,"Ġadds":2660,"Ġissued":2661,"Ġunderwr":2662,"Ġsubject":2663,"meanwhile":2664,"Ġpressure":2665,"Ġprotection":2666,"Ġsocial":2667,"Ġhours":2668,"Ġhuman":2669,"Ġapril":2670,"Ġthemselves":2671,"his":2672,"set":2673,"where":2674,"analyst":2675,"Ġfast":2676,"Ġfair":2677,"Ġnight":2678,"Ġstop":2679,"Ġalways":2680,"Ġreserves":2681,"Ġcourse":2682,"Ġneeded":2683,"Ġseems":2684,"Ġquickly":2685,"haps":2686,"Ġtw":2687,"Ġahead":2688,"Ġsy":2689,"Ġareas":2690,"Ġconserv":2691,"Ġmov":2692,"Ġspecific":2693,"Ġparts":2694,"Ġconference":2695,"Ġthought":2696,"Ġsituation":2697,"Ġinterview":2698,"eas":2699,"law":2700,"invest":2701,"Ġfixed":2702,"Ġstren":2703,"among":2704,"oper":2705,"Ġroom":2706,"Ġbritain":2707,"Ġcommunity":2708,"Ġyoung":2709,"ban":2710,"col":2711,"ont":2712,"arson":2713,"ston":2714,"cons":2715,"Ġserious":2716,"Ġturned":2717,"Ġprofess":2718,"Ġveto":2719,"eg":2720,"Ġtren":2721,"arm":2722,"Ġship":2723,"Ġuns":2724,"Ġscient":2725,"Ġcongressional":2726,"Ġreceive":2727,"Ġsimply":2728,"Ġcompetition":2729,"Ġvolatility":2730,"nesday":2731,"Ġbrothers":2732,"fed":2733,"Ġtemp":2734,"Ġside":2735,"igin":2736,"Ġelse":2737,"rought":2738,"Ġinstead":2739,"Ġcolumbia":2740,"Ġhurt":2741,"Ġdrexel":2742,"Ġnecess":2743,"Ġstreng":2744,"iec":2745,"let":2746,"Ġtur":2747,"Ġcop":2748,"Ġpit":2749,"state":2750,"Ġgm":2751,"Ġrad":2752,"Ġorigin":2753,"Ġplc":2754,"Ġseason":2755,"Ġtraded":2756,"Ġappear":2757,"Ġtaxes":2758,"Ġentertain":2759,"Ġfiling":2760,"Ġrequired":2761,"comp":2762,"Ġopportun":2763,"Ġgreen":2764,"Ġstudy":2765,"analysts":2766,"45":2767,"ires":2768,"Ġword":2769,"Ġpers":2770,"orm":2771,"iega":2772,"Ġrecession":2773,"Ġcrash":2774,"Ġplanned":2775,"Ġbrokers":2776,"Ġdetail":2777,"Ġpilots":2778,"Ġpremium":2779,"Ġfocus":2780,"40":2781,"ha":2782,"house":2783,"yal":2784,"Ġborrow":2785,"Ġinstr":2786,"Ġdig":2787,"acity":2788,"Ġprosp":2789,"unt":2790,"Ġmark":2791,"Ġ32":2792,"Ġsure":2793,"Ġquake":2794,"Ġcommod":2795,"Ġdefend":2796,"Ġsmaller":2797,"Ġpaul":2798,"Ġchanged":2799,"Ġcaused":2800,"Ġmorgan":2801,"Ġbeginning":2802,"Ġdemocratic":2803,"Ġpartnership":2804,"Ġveh":2805,"Ġprincip":2806,"ux":2807,"woman":2808,"hel":2809,"Ġcell":2810,"Ġful":2811,"Ġvers":2812,"Ġhaven":2813,"Ġprime":2814,"Ġcover":2815,"Ġproduce":2816,"Ġcarry":2817,"Ġowned":2818,"Ġearned":2819,"Ġactive":2820,"Ġcreditors":2821,"Ġrequest":2822,"Ġreview":2823,"ursday":2824,"Ġsummer":2825,"tim":2826,"Ġciv":2827,"Ġhol":2828,"Ġchrist":2829,"Ġunch":2830,"ource":2831,"Ġfees":2832,"Ġretire":2833,"Ġguber":2834,"raft":2835,"Ġreturns":2836,"Ġgenerally":2837,"Ġbenefits":2838,"Ġcancer":2839,"Ġhistory":2840,"Ġpreferred":2841,"Ġsurvey":2842,"iation":2843,"rican":2844,"Ġsem":2845,"erc":2846,"Ġmax":2847,"Ġfight":2848,"aly":2849,"Ġstay":2850,"allen":2851,"Ġpartner":2852,"rown":2853,"Ġanything":2854,"ugg":2855,"Ġmerrill":2856,"Ġshowed":2857,"Ġfrancs":2858,"Ġdouble":2859,"Ġsharp":2860,"Ġsoftware":2861,"Ġconvertible":2862,"Ġjumped":2863,"Ġprosecut":2864,"ction":2865,"Ġpick":2866,"Ġthin":2867,"Ġstar":2868,"Ġtravel":2869,"Ġsmith":2870,"Ġcontinuing":2871,"Ġnoriega":2872,"Ġadvanced":2873,"Ġconsidered":2874,"aud":2875,"gers":2876,"Ġtons":2877,"ination":2878,"Ġbi":2879,"Ġeg":2880,"agan":2881,"Ġnorm":2882,"Ġclosing":2883,"Ġwednesday":2884,"Ġarbitrage":2885,"since":2886,"Ġmom":2887,"Ġmess":2888,"Ġwomen":2889,"icient":2890,"Ġthursday":2891,"Ġgor":2892,"Ġglo":2893,"third":2894,"earn":2895,"Ġresources":2896,"Ġdecember":2897,"Ġbecame":2898,"Ġannouncement":2899,"Ġrespond":2900,"Ġmedia":2901,"both":2902,"Ġinitial":2903,"Ġrichard":2904,"Ġthrift":2905,"net":2906,"Ġaim":2907,"Ġari":2908,"Ġmic":2909,"Ġrap":2910,"Ġspe":2911,"Ġtradition":2912,"Ġusually":2913,"Ġ1992":2914,"Ġflat":2915,"Ġmerger":2916,"Ġeditor":2917,"Ġpetro":2918,"Ġcreated":2919,"Ġdelivery":2920,"Ġhousing":2921,"Ġfloor":2922,"Ġchildren":2923,"according":2924,"Ġtarget":2925,"'d":2926,"70":2927,"wa":2928,"Ġmut":2929,"Ġhon":2930,"utes":2931,"Ġwhy":2932,"Ġ55":2933,"Ġresol":2934,"Ġpresent":2935,"Ġyields":2936,"Ġspokeswoman":2937,"produc":2938,"Ġentertainment":2939,"met":2940,"Ġsize":2941,"ask":2942,"Ġlang":2943,"Ġnar":2944,"illing":2945,"lying":2946,"Ġchallen":2947,"anges":2948,"Ġ90":2949,"Ġminimum":2950,"Ġgrand":2951,"Ġhimself":2952,"Ġshareholder":2953,"Ġbroadcast":2954,"Ġoverseas":2955,"fir":2956,"Ġident":2957,"inst":2958,"Ġswe":2959,"Ġbattle":2960,"oming":2961,"uty":2962,"Ġrally":2963,"Ġaltern":2964,"Ġtrial":2965,"Ġ38":2966,"Ġseg":2967,"Ġ49":2968,"Ġmean":2969,"Ġminister":2970,"Ġcontinues":2971,"Ġregulators":2972,"Ġhope":2973,"Ġsharply":2974,"Ġemerg":2975,"Ġconditions":2976,"fin":2977,"uff":2978,"Ġburn":2979,"icial":2980,"iding":2981,"illed":2982,"then":2983,"usion":2984,"Ġ36":2985,"Ġ39":2986,"Ġleveraged":2987,"Ġexport":2988,"Ġ51":2989,"Ġnothing":2990,"Ġscr":2991,"ences":2992,"Ġterm":2993,"Ġwanted":2994,"Ġhopes":2995,"related":2996,"Ġextra":2997,"ault":2998,"bal":2999,"care":3000,"wer":3001,"Ġage":3002,"ero":3003,"Ġcable":3004,"Ġball":3005,"Ġgame":3006,"urch":3007,"ective":3008,"Ġspread":3009,"Ġkore":3010,"Ġbuilt":3011,"Ġentire":3012,"mark":3013,"Ġmanufacturers":3014,"Ġhugo":3015,"Ġunchanged":3016,"Ġcat":3017,"Ġcas":3018,"Ġmis":3019,"Ġmus":3020,"Ġmult":3021,"Ġmember":3022,"Ġforced":3023,"berg":3024,"Ġfinal":3025,"Ġ1980":3026,"owned":3027,"Ġimports":3028,"orning":3029,"Ġjustice":3030,"Ġprovision":3031,"Ġshows":3032,"Ġavoid":3033,"Ġmachine":3034,"Ġlimit":3035,"Ġhurrican":3036,"chers":3037,"Ġletter":3038,"Ġstrike":3039,"85":3040,"japan":3041,"Ġsession":3042,"Ġsector":3043,"organ":3044,"aries":3045,"also":3046,"Ġtom":3047,"Ġlin":3048,"Ġground":3049,"lear":3050,"Ġcompar":3051,"Ġ42":3052,"Ġ62":3053,"Ġquarterly":3054,"Ġactually":3055,"Ġ1991":3056,"Ġsense":3057,"Ġdirectly":3058,"Ġflow":3059,"Ġmerch":3060,"Ġassociates":3061,"Ġbehind":3062,"Ġmichael":3063,"Ġcivil":3064,"Ġfear":3065,"Ġnas":3066,"Ġrub":3067,"Ġwhole":3068,"Ġexerc":3069,"Ġjr":3070,"Ġprior":3071,"Ġrecomm":3072,"Ġdecl":3073,"Ġfrance":3074,"Ġoperation":3075,"Ġminist":3076,"Ġtransactions":3077,"Ġconfir":3078,"Ġclean":3079,"Ġsucceed":3080,"Ġarticle":3081,"mitted":3082,"Ġtempor":3083,"hman":3084,"uary":3085,"Ġsun":3086,"onse":3087,"Ġobs":3088,"Ġblo":3089,"Ġdi":3090,"Ġhost":3091,"Ġreach":3092,"Ġreagan":3093,"Ġcomes":3094,"Ġrum":3095,"que":3096,"uses":3097,"Ġund":3098,"Ġwilling":3099,"Ġability":3100,"Ġsports":3101,"Ġagencies":3102,"Ġexports":3103,"Ġ48":3104,"Ġcommit":3105,"Ġ1985":3106,"Ġencour":3107,"Ġmoves":3108,"Ġcapacity":3109,"Ġactual":3110,"Ġprevent":3111,"Ġevidence":3112,"Ġanticip":3113,"Ġpeters":3114,"Ġgeorge":3115,"Ġconstitut":3116,"Ġgiant":3117,"people":3118,"35":3119,"ov":3120,"point":3121,"ument":3122,"Ġtum":3123,"Ġbrought":3124,"Ġways":3125,"ene":3126,"road":3127,"ictions":3128,"eled":3129,"Ġatl":3130,"ulated":3131,"akes":3132,"Ġbankers":3133,"Ġappl":3134,"Ġmaintain":3135,"Ġallowed":3136,"Ġuncertain":3137,"bachev":3138,"Ġsel":3139,"ona":3140,"Ġber":3141,"Ġmount":3142,"Ġpenn":3143,"Ġinj":3144,"agon":3145,"Ġproduced":3146,"Ġresponse":3147,"Ġfollowed":3148,"Ġfacilities":3149,"Ġbelieves":3150,"Ġplunge":3151,"Ġseparate":3152,"Ġnewspaper":3153,"Ġhurricane":3154,"bu":3155,"ken":3156,"Ġtor":3157,"Ġcard":3158,"Ġmex":3159,"Ġmail":3160,"Ġpul":3161,"Ġlou":3162,"ute":3163,"unicip":3164,"Ġspring":3165,"Ġsupre":3166,"Ġcontribut":3167,"Ġdecided":3168,"Ġmodest":3169,"Ġeffective":3170,"Ġrule":3171,"Ġfully":3172,"Ġgorbachev":3173,"Ġariz":3174,"Ġemergency":3175,"dle":3176,"gia":3177,"Ġpict":3178,"Ġey":3179,"quarters":3180,"Ġvo":3181,"Ġacross":3182,"ems":3183,"Ġintell":3184,"undred":3185,"Ġdisp":3186,"Ġdisput":3187,"Ġ65":3188,"Ġamericans":3189,"Ġdelay":3190,"Ġrunning":3191,"iliar":3192,"Ġdesigned":3193,"Ġcritic":3194,"Ġdisappoint":3195,"bar":3196,"coun":3197,"gl":3198,"Ġwat":3199,"Ġwoman":3200,"icles":3201,"Ġhut":3202,"outh":3203,"omon":3204,"Ġforces":3205,"Ġoffices":3206,"Ġspent":3207,"Ġintegr":3208,"Ġ46":3209,"Ġelimin":3210,"overed":3211,"Ġclosely":3212,"Ġpackage":3213,"Ġfriend":3214,"Ġapparently":3215,"Ġsupreme":3216,"don":3217,"fur":3218,"gm":3219,"mb":3220,"pan":3221,"Ġver":3222,"Ġsyn":3223,"reg":3224,"Ġmos":3225,"Ġmix":3226,"Ġpsy":3227,"Ġlit":3228,"ental":3229,"ady":3230,"Ġdead":3231,"Ġchain":3232,"using":3233,"Ġunf":3234,"Ġabs":3235,"Ġ43":3236,"Ġ400":3237,"Ġpartly":3238,"ensive":3239,"Ġshearson":3240,"Ġgreater":3241,"backed":3242,"Ġcounter":3243,"Ġpopular":3244,"Ġidea":3245,"Ġexpenses":3246,"because":3247,"875":3248,"yc":3249,"Ġ'":3250,"Ġce":3251,"Ġmal":3252,"Ġpension":3253,"Ġhosp":3254,"Ġreform":3255,"olid":3256,"Ġspend":3257,"ousand":3258,"Ġfranch":3259,"Ġheadquarters":3260,"Ġhands":3261,"Ġrefin":3262,"Ġopened":3263,"Ġmachin":3264,"Ġinflu":3265,"Ġvarious":3266,"Ġjanuary":3267,"Ġnarrow":3268,"cil":3269,"fe":3270,"field":3271,"pet":3272,"yesterday":3273,"Ġcbs":3274,"Ġcross":3275,"Ġmorning":3276,"Ġfire":3277,"Ġhundred":3278,"Ġgave":3279,"Ġstan":3280,"Ġrising":3281,"Ġoffset":3282,"Ġmrs":3283,"oph":3284,"Ġroad":3285,"Ġdecade":3286,"Ġmoody":3287,"Ġholds":3288,"Ġinstance":3289,"Ġdebent":3290,"Ġsigned":3291,"Ġfigure":3292,"Ġquoted":3293,"Ġvictim":3294,"counter":3295,"car":3296,"jected":3297,"pay":3298,"qint":3299,"Ġtim":3300,"Ġafr":3301,"Ġwind":3302,"Ġstore":3303,"Ġ250":3304,"Ġadop":3305,"Ġleave":3306,"Ġlehman":3307,"Ġrob":3308,"Ġquality":3309,"Ġpaying":3310,"Ġpayment":3311,"Ġjobs":3312,"Ġenter":3313,"fully":3314,"Ġfamiliar":3315,"Ġtalk":3316,"Ġruling":3317,"moreover":3318,"Ġrapid":3319,"Ġmutual":3320,"first":3321,"Ġhospital":3322,"qintex":3323,"lett":3324,"mit":3325,"yle":3326,"Ġbit":3327,"Ġpal":3328,"Ġtoget":3329,"Ġconduc":3330,"Ġtrack":3331,"Ġleav":3332,"Ġcontributed":3333,"Ġtrader":3334,"Ġeconomist":3335,"Ġprovides":3336,"Ġcounty":3337,"Ġneeds":3338,"Ġcuts":3339,"Ġtakes":3340,"Ġirs":3341,"Ġactivities":3342,"Ġkidder":3343,"aught":3344,"Ġmoment":3345,"Ġtogether":3346,"65":3347,"craft":3348,"gs":3349,"Ġsection":3350,"Ġmac":3351,"Ġmur":3352,"isher":3353,"asts":3354,"urity":3355,"Ġrac":3356,"Ġdeals":3357,"Ġtrip":3358,"Ġcorn":3359,"Ġ52":3360,"Ġmoved":3361,"issan":3362,"Ġmanaging":3363,"Ġdoub":3364,"Ġintroduced":3365,"Ġfoot":3366,"yet":3367,"hest":3368,"Ġpent":3369,"Ġpus":3370,"Ġpip":3371,"ety":3372,"Ġgar":3373,"Ġexisting":3374,"Ġ34":3375,"Ġresident":3376,"Ġinvestig":3377,"Ġaccess":3378,"Ġworks":3379,"Ġfunding":3380,"Ġ99":3381,"Ġmatter":3382,"Ġmotors":3383,"Ġconsumers":3384,"Ġquestions":3385,"Ġproperties":3386,"Ġcarrier":3387,"aur":3388,"Ġcause":3389,"Ġpen":3390,"Ġfel":3391,"Ġtown":3392,"Ġshi":3393,"aking":3394,"Ġspl":3395,"Ġtrades":3396,"Ġprec":3397,"bling":3398,"Ġplanning":3399,"Ġsubordin":3400,"Ġhighly":3401,"Ġprovisions":3402,"Ġvalued":3403,"Ġwrite":3404,"Ġcustomer":3405,"Ġcreate":3406,"Ġcouncil":3407,"Ġauthority":3408,"Ġelectronic":3409,"Ġresigned":3410,"Ġcandid":3411,"15":3412,"hib":3413,"pacific":3414,"yond":3415,"Ġsil":3416,"Ġcos":3417,"Ġwage":3418,"Ġfle":3419,"Ġhy":3420,"Ġthousand":3421,"cep":3422,"Ġmargin":3423,"Ġdisaster":3424,"exp":3425,"Ġperhaps":3426,"itten":3427,"Ġregard":3428,"Ġdeveloped":3429,"Ġlarger":3430,"Ġdeclines":3431,"Ġdemocrats":3432,"american":3433,"Ġorganization":3434,"Ġwidely":3435,"Ġalleged":3436,"95":3437,"dic":3438,"desp":3439,"oo":3440,"war":3441,"Ġreorgan":3442,"ste":3443,"Ġoffers":3444,"Ġmonet":3445,"Ġpretax":3446,"Ġappoint":3447,"Ġfraud":3448,"lied":3449,"airs":3450,"Ġelected":3451,"iously":3452,"Ġforecast":3453,"Ġwarr":3454,"Ġfarmers":3455,"federal":3456,"Ġdigital":3457,"despite":3458,"500":3459,"uit":3460,"Ġsound":3461,"Ġobl":3462,"iters":3463,"Ġtough":3464,"Ġdate":3465,"room":3466,"iling":3467,"icing":3468,"acter":3469,"Ġchap":3470,"aint":3471,"Ġmargins":3472,"onduct":3473,"Ġimage":3474,"look":3475,"Ġfeet":3476,"Ġpoland":3477,"ogn":3478,"Ġbacked":3479,"Ġpark":3480,"Ġapproach":3481,"Ġinstitutional":3482,"Ġimproved":3483,"Ġpredict":3484,"Ġappeal":3485,"Ġsubstantial":3486,"Ġaustralia":3487,"Ġconservative":3488,"Ġdebentures":3489,"come":3490,"equ":3491,"each":3492,"Ġsn":3493,"atic":3494,"Ġdink":3495,"ows":3496,"sequ":3497,"Ġexceed":3498,"Ġchance":3499,"Ġinvent":3500,"ansion":3501,"Ġrough":3502,"Ġrepe":3503,"ried":3504,"Ġpret":3505,"ressed":3506,"Ġsci":3507,"Ġadding":3508,"Ġcrimin":3509,"Ġdraw":3510,"Ġaircraft":3511,"Ġblue":3512,"ification":3513,"Ġoption":3514,"Ġprovided":3515,"Ġrelatively":3516,"Ġswiss":3517,"Ġopposition":3518,"Ġelectronics":3519,"Ġclimbed":3520,"iece":3521,"Ġlouis":3522,"125":3523,"48":3524,"mo":3525,"south":3526,"zen":3527,"Ġcited":3528,"Ġopt":3529,"Ġbull":3530,"Ġmill":3531,"Ġpence":3532,"Ġfun":3533,"Ġlend":3534,"Ġnic":3535,"Ġgard":3536,"Ġstory":3537,"Ġjack":3538,"Ġalone":3539,"Ġunus":3540,"Ġsalomon":3541,"Ġappears":3542,"Ġfeat":3543,"Ġmoving":3544,"Ġeconomists":3545,"Ġexchanges":3546,"Ġstein":3547,"Ġpurchases":3548,"Ġpositions":3549,"Ġhouses":3550,"Ġbrands":3551,"called":3552,"Ġdinkins":3553,".-":3554,"aid":3555,"gains":3556,"ios":3557,"ko":3558,"overy":3559,"vent":3560,"Ġsand":3561,"Ġoh":3562,"Ġbott":3563,"Ġwit":3564,"isers":3565,"Ġham":3566,"Ġproceed":3567,"apers":3568,"ops":3569,"Ġinvestigation":3570,"Ġworked":3571,"Ġattack":3572,"Ġlawsu":3573,"Ġtotaled":3574,"Ġpolicies":3575,"Ġcompetitors":3576,"Ġpeter":3577,"Ġmiles":3578,"Ġaccounting":3579,"Ġengineering":3580,"Ġreplace":3581,"Ġnecessary":3582,"Ġversion":3583,"Ġretirement":3584,"Ġministry":3585,"Ġhutton":3586,"Ġpentagon":3587,"rust":3588,"two":3589,"ze":3590,"Ġsony":3591,"Ġmunicip":3592,"ites":3593,"iled":3594,"icts":3595,"Ġho":3596,"Ġul":3597,"Ġbeyond":3598,"Ġsaw":3599,"Ġrating":3600,"Ġaggress":3601,"Ġgoes":3602,"Ġ47":3603,"Ġscand":3604,"Ġinterested":3605,"Ġminutes":3606,"Ġattributed":3607,"Ġlawson":3608,"Ġinternal":3609,"holders":3610,"rael":3611,"Ġjohnson":3612,"Ġmiddle":3613,"Ġindicated":3614,"Ġnegotiations":3615,"Ġappropriations":3616,"Ġtrend":3617,"Ġcommodity":3618,"cow":3619,"hatt":3620,"lies":3621,"ror":3622,"ray":3623,"vy":3624,"oned":3625,"Ġpos":3626,"omb":3627,"Ġrejected":3628,"igence":3629,"Ġri":3630,"Ġshut":3631,"ifts":3632,"Ġunless":3633,"Ġcooper":3634,"Ġrecogn":3635,"Ġamounts":3636,"ulture":3637,"Ġfeb":3638,"issions":3639,"Ġdescri":3640,"Ġcalc":3641,"Ġequal":3642,"Ġmerc":3643,"Ġbench":3644,"profit":3645,"Ġexperim":3646,"Ġmeasures":3647,"Ġpassed":3648,"Ġsafety":3649,"Ġvirt":3650,"hattan":3651,"iets":3652,"mber":3653,"racy":3654,"Ġign":3655,"Ġtit":3656,"Ġsought":3657,"Ġbrown":3658,"another":3659,"Ġtour":3660,"rovers":3661,"olf":3662,"leum":3663,"Ġjose":3664,"unications":3665,"Ġtruck":3666,"aren":3667,"Ġ196":3668,"Ġspeed":3669,"ode":3670,"Ġcontrovers":3671,"Ġperform":3672,"Ġflor":3673,"Ġspeculation":3674,"Ġadvant":3675,"Ġpharm":3676,"Ġsouthern":3677,"Ġdrugs":3678,"Ġcommerce":3679,"Ġdomin":3680,"Ġconsultant":3681,"Ġpractice":3682,"Ġrelationship":3683,"Ġstanley":3684,"af":3685,"bc":3686,"mp":3687,"zo":3688,"Ġaward":3689,"inn":3690,"Ġbon":3691,"Ġbanc":3692,"Ġbaker":3693,"Ġwatch":3694,"Ġlic":3695,"utical":3696,"aded":3697,"estate":3698,"Ġcomplex":3699,"Ġheart":3700,"Ġjury":3701,"Ġroll":3702,"Ġmanhattan":3703,"renz":3704,"Ġsomeone":3705,"bles":3706,"graph":3707,"Ġamend":3708,"Ġdefin":3709,"Ġconclud":3710,"Ġhighest":3711,"Ġnumbers":3712,"Ġwrong":3713,"Ġsoviets":3714,"Ġexpectations":3715,"Ġacquisitions":3716,"Ġconsidering":3717,"Ġreflecting":3718,"Ġheavily":3719,"Ġindividuals":3720,"Ġstandards":3721,"Ġlawyer":3722,"daq":3723,"Ġbureau":3724,"john":3725,"control":3726,"Ġmonetary":3727,"during":3728,"ians":3729,"onstr":3730,"Ġcast":3731,"orate":3732,"Ġans":3733,"Ġlink":3734,"outs":3735,"ada":3736,"Ġtraff":3737,"kets":3738,"Ġ41":3739,"Ġbridge":3740,"aceutical":3741,"Ġmostly":3742,"Ġregional":3743,"Ġdivers":3744,"Ġphone":3745,"Ġpublicly":3746,"Ġfilm":3747,"Ġevents":3748,"Ġremaining":3749,"Ġopening":3750,"Ġrestaur":3751,"draw":3752,"Ġdetermin":3753,"Ġownership":3754,"Ġimmediately":3755,"Ġoriginal":3756,"instead":3757,"Ġmexico":3758,"Ġreorganization":3759,"Ġchapter":3760,"bus":3761,"mond":3762,"Ġaer":3763,"Ġoun":3764,"Ġotc":3765,"oration":3766,"ida":3767,"Ġones":3768,"ching":3769,"Ġads":3770,"Ġlose":3771,"Ġanyone":3772,"Ġmind":3773,"Ġregular":3774,"Ġtransfer":3775,"apped":3776,"umption":3777,"Ġrestrictions":3778,"Ġbelieved":3779,"Ġprompt":3780,"Ġnegative":3781,"Ġmagazines":3782,"Ġrepublican":3783,"Ġminority":3784,"Ġtreatment":3785,"Ġcollege":3786,"idelines":3787,"Ġbroadcasting":3788,"Ġnasdaq":3789,"bby":3790,"gu":3791,"such":3792,"Ġess":3793,"Ġsli":3794,"rem":3795,"Ġwood":3796,"oring":3797,"aring":3798,"asons":3799,"Ġlux":3800,"Ġgets":3801,"Ġgiving":3802,"Ġthatcher":3803,"uclear":3804,"Ġexcess":3805,"Ġneigh":3806,"oses":3807,"Ġdism":3808,"Ġii":3809,"Ġpolice":3810,"Ġ1994":3811,"loyd":3812,"Ġnorthern":3813,"Ġpurp":3814,"Ġraising":3815,"Ġaffili":3816,"Ġrevised":3817,"Ġfactors":3818,"Ġbarrel":3819,"Ġregulatory":3820,"employ":3821,"noon":3822,"Ġstrength":3823,"Ġopportunity":3824,"Ġpetroleum":3825,"Ġmoscow":3826,"Ġsubordinated":3827,"Ġpharmaceutical":3828,"ae":3829,"bber":3830,"nor":3831,"sel":3832,"erous":3833,"Ġinf":3834,"Ġitems":3835,"those":3836,"Ġwithdraw":3837,"Ġvac":3838,"apse":3839,"umn":3840,"Ġking":3841,"Ġaccord":3842,"Ġdrive":3843,"Ġowner":3844,"Ġattention":3845,"Ġlaws":3846,"indeed":3847,"Ġ120":3848,"Ġemployee":3849,"Ġreduction":3850,"Ġtechnical":3851,"Ġhotel":3852,"Ġhomes":3853,"Ġtraditional":3854,"Ġsegment":3855,"42":3856,"ewe":3857,"nel":3858,"rated":3859,"yield":3860,"rect":3861,"eration":3862,"Ġoak":3863,"ita":3864,"Ġdut":3865,"Ġdest":3866,"rote":3867,"Ġhall":3868,"Ġlam":3869,"Ġep":3870,"Ġnom":3871,"Ġgives":3872,"vember":3873,"osure":3874,"Ġplast":3875,"Ġ57":3876,"Ġhadn":3877,"Ġrecall":3878,"Ġoutput":3879,"Ġparties":3880,"Ġnovember":3881,"Ġconsolid":3882,"Ġgene":3883,"Ġinsist":3884,"Ġbidding":3885,"Ġresearchers":3886,"Ġfacility":3887,"Ġcollapse":3888,"Ġmortgages":3889,"Ġventures":3890,"Ġpanel":3891,"trading":3892,"ewebber":3893,"ament":3894,"ches":3895,"Ġsort":3896,"rest":3897,"Ġwond":3898,"lement":3899,"Ġexpansion":3900,"Ġcoast":3901,"Ġproducer":3902,"Ġoverall":3903,"enced":3904,"Ġprofitable":3905,"Ġopin":3906,"Ġpublisher":3907,"Ġbids":3908,"Ġdeveloping":3909,"Ġconcerned":3910,"Ġpowerful":3911,"Ġmodern":3912,"Ġmaturity":3913,"Ġrisks":3914,"Ġprotest":3915,"Ġexperts":3916,"Ġgeorgia":3917,"Ġeasy":3918,"Ġeducation":3919,"Ġprepared":3920,"Ġvictims":3921,"Ġohio":3922,"cap":3923,"eau":3924,"know":3925,"serv":3926,"tv":3927,"Ġes":3928,"Ġapart":3929,"Ġsens":3930,"Ġcities":3931,"Ġwrote":3932,"otive":3933,"Ġ54":3934,"Ġ58":3935,"Ġscre":3936,"anging":3937,"Ġcrime":3938,"ertific":3939,"ibas":3940,"Ġcertainly":3941,"Ġcomplete":3942,"Ġweakness":3943,"Ġwaiting":3944,"Ġimprovement":3945,"Ġtypically":3946,"Ġrequirements":3947,"icians":3948,"Ġstatist":3949,"Ġbalance":3950,"Ġmaterials":3951,"Ġvehicles":3952,"Ġeye":3953,"Ġfranchise":3954,"fund":3955,"sec":3956,"Ġach":3957,"iny":3958,"Ġsanta":3959,"Ġbreed":3960,"Ġpending":3961,"Ġfres":3962,"Ġhor":3963,"aches":3964,"separ":3965,"Ġshift":3966,"anks":3967,"Ġquite":3968,"rent":3969,"Ġarch":3970,"Ġmonthly":3971,"Ġliber":3972,"Ġaccom":3973,"Ġbrook":3974,"Ġinstall":3975,"Ġvalley":3976,"Ġsurv":3977,"Ġcenters":3978,"Ġeveryone":3979,"Ġrepresents":3980,"Ġmorris":3981,"Ġsociety":3982,"Ġcouple":3983,"Ġtrouble":3984,"Ġpainewebber":3985,"Ġdeposit":3986,"Ġaimed":3987,"Ġlitigation":3988,"Ġsplit":3989,"knowled":3990,"Ġachie":3991,"bro":3992,"hi":3993,"van":3994,"vol":3995,"wed":3996,"wise":3997,"Ġqintex":3998,"onents":3999,"onto":4000,"Ġpush":4001,"alf":4002,"ilty":4003,"ouston":4004,"Ġtried":4005,"Ġchips":4006,"Ġagric":4007,"Ġ1984":4008,"Ġassum":4009,"Ġ66":4010,"grade":4011,"Ġmayor":4012,"ashion":4013,"Ġdonald":4014,"Ġcolor":4015,"Ġkept":4016,"Ġcompetitive":4017,"Ġgrew":4018,"Ġportion":4019,"Ġlaun":4020,"Ġexperience":4021,"Ġcoupon":4022,"Ġsometimes":4023,"Ġsteps":4024,"Ġchemicals":4025,"Ġlisted":4026,"Ġautomotive":4027,"Ġnavy":4028,"Ġliquidity":4029,"Ġdetails":4030,"Ġnormal":4031,"Ġglobal":4032,"Ġtoronto":4033,"Ġintelligence":4034,"Ġmunicipal":4035,"55":4036,"bi":4037,"hood":4038,"pret":4039,"uel":4040,"xon":4041,"Ġwide":4042,"Ġhud":4043,"eth":4044,"urred":4045,"Ġisrael":4046,"ucks":4047,"allas":4048,"Ġ190":4049,"udden":4050,"Ġcoal":4051,"Ġrecovery":4052,"ously":4053,"Ġunderstand":4054,"Ġsells":4055,"Ġending":4056,"Ġlawmakers":4057,"Ġdebate":4058,"Ġdifference":4059,"Ġaffected":4060,"Ġeverything":4061,"Ġinvolving":4062,"Ġsugar":4063,"brit":4064,"Ġconsulting":4065,"Ġplunged":4066,"Ġburea":4067,"Ġmovie":4068,"Ġtomorrow":4069,"Ġobserv":4070,"Ġarizona":4071,"Ġcriminal":4072,"Ġultim":4073,"11":4074,"cing":4075,"kel":4076,"mission":4077,"sm":4078,"turn":4079,"Ġcore":4080,"Ġmatt":4081,"icorp":4082,"Ġlive":4083,"Ġnuclear":4084,"Ġgam":4085,"oln":4086,"vere":4087,"Ġrail":4088,"Ġasse":4089,"Ġexam":4090,"une":4091,"Ġspot":4092,"Ġcopper":4093,"Ġdispl":4094,"Ġarm":4095,"Ġafternoon":4096,"Ġmae":4097,"Ġdemonstr":4098,"Ġguilty":4099,"Ġadvance":4100,"Ġbuildings":4101,"Ġcontrols":4102,"Ġassociated":4103,"Ġheaded":4104,"Ġruns":4105,"Ġsettled":4106,"Ġplayers":4107,"Ġ1970":4108,"Ġdeliver":4109,"Ġrelease":4110,"Ġrebound":4111,"burgh":4112,"Ġprimarily":4113,"Ġthomas":4114,"Ġmusic":4115,"Ġdoubt":4116,"stein":4117,"Ġluxury":4118,"375":4119,"aum":4120,"fort":4121,"food":4122,"hour":4123,"tre":4124,"wing":4125,"Ġsources":4126,"Ġpace":4127,"Ġdu":4128,"Ġded":4129,"Ġlending":4130,"Ġlinc":4131,"Ġgross":4132,"Ġproceeds":4133,"Ġhen":4134,"Ġexcl":4135,"oren":4136,"Ġmart":4137,"Ġacknowled":4138,"ables":4139,"ague":4140,"Ġroc":4141,"ancy":4142,"Ġclient":4143,"Ġresist":4144,"Ġamid":4145,"Ġstrugg":4146,"Ġinsp":4147,"Ġconcent":4148,"Ġeffects":4149,"Ġparis":4150,"inese":4151,"Ġcentury":4152,"comput":4153,"Ġpurchased":4154,"Ġdamaged":4155,"Ġmcc":4156,"deal":4157,"Ġfailure":4158,"Ġobject":4159,"Ġobtain":4160,"Ġilleg":4161,"Ġiniti":4162,"Ġconvent":4163,"Ġtroubled":4164,"Ġfrequ":4165,"Ġincreasingly":4166,"Ġreleased":4167,"traders":4168,"Ġestablished":4169,"Ġeventually":4170,"investors":4171,"Ġprofessional":4172,"Ġdispute":4173,"Ġroughly":4174,"Ġadvantage":4175,"separately":4176,"Ġlincoln":4177,"88":4178,"bes":4179,"ple":4180,"will":4181,"Ġrom":4182,"Ġtro":4183,"Ġsource":4184,"Ġcd":4185,"Ġcam":4186,"Ġbat":4187,"Ġbul":4188,"Ġbail":4189,"isf":4190,"Ġdallas":4191,"ication":4192,"Ġeag":4193,"Ġrein":4194,"Ġgul":4195,"Ġstation":4196,"Ġwhom":4197,"Ġtrue":4198,"ivity":4199,"Ġplus":4200,"Ġplaced":4201,"Ġindian":4202,"Ġcontain":4203,"Ġ72":4204,"Ġarmy":4205,"itting":4206,"Ġfundament":4207,"Ġvalues":4208,"Ġshowing":4209,"Ġtelec":4210,"Ġputting":4211,"Ġfalling":4212,"Ġsuccessful":4213,"Ġpredicted":4214,"Ġexpensive":4215,"Ġstructure":4216,"Ġsurprising":4217,"Ġprimary":4218,"Ġwords":4219,"Ġuncertainty":4220,"can":4221,"iat":4222,"uage":4223,"wor":4224,"Ġaf":4225,"Ġsear":4226,"Ġcreat":4227,"Ġmit":4228,"Ġmits":4229,"ars":4230,"iction":4231,"ura":4232,"Ġproced":4233,"osing":4234,"Ġdeep":4235,"Ġtrillion":4236,"Ġactions":4237,"Ġkrenz":4238,"antic":4239,"management":4240,"Ġ53":4241,"Ġ59":4242,"acted":4243,"izes":4244,"Ġ85":4245,"Ġens":4246,"achs":4247,"Ġliability":4248,"Ġconced":4249,"Ġsupplies":4250,"Ġrelief":4251,"Ġelections":4252,"Ġmainfr":4253,"Ġfaces":4254,"Ġproposals":4255,"erences":4256,"Ġstrategic":4257,"Ġcharged":4258,"Ġpatent":4259,"Ġlosing":4260,"Ġslowdown":4261,"Ġcombined":4262,"Ġestablish":4263,"Ġprincipal":4264,"Ġmixte":4265,"Ġpipel":4266,"Ġthousands":4267,"Ġlaunched":4268,"05":4269,"43":4270,"ua":4271,"yr":4272,"Ġself":4273,"Ġsudden":4274,"Ġcrop":4275,"Ġdang":4276,"Ġhouston":4277,"Ġrenew":4278,"illips":4279,"Ġstem":4280,"ades":4281,"Ġask":4282,"ota":4283,"Ġquiet":4284,"Ġalli":4285,"Ġfront":4286,"Ġdozen":4287,"Ġweekend":4288,"Ġgenet":4289,"Ġpublishing":4290,"Ġhousehold":4291,"Ġpurs":4292,"Ġsigns":4293,"insurance":4294,"Ġelection":4295,"Ġswit":4296,"Ġcommunist":4297,"Ġhealthy":4298,"Ġvoters":4299,"Ġprotect":4300,"Ġinvolve":4301,"Ġclearly":4302,"Ġreflects":4303,"Ġready":4304,"Ġsubstantially":4305,"Ġscientists":4306,"Ġexercise":4307,"Ġpsych":4308,"Ġenterpr":4309,"Ġpenal":4310,"Ġunusual":4311,"Ġamendment":4312,"Ġtraffic":4313,"12":4314,"53":4315,"aut":4316,"ograph":4317,"sch":4318,"Ġsachs":4319,"aragu":4320,"Ġlock":4321,"Ġease":4322,"Ġster":4323,"ading":4324,"Ġchinese":4325,"about":4326,"Ġprud":4327,"Ġspir":4328,"ancing":4329,"oke":4330,"Ġlobby":4331,"Ġbuyer":4332,"Ġusx":4333,"Ġusual":4334,"ishi":4335,"indust":4336,"Ġshel":4337,"Ġguidelines":4338,"Ġsignal":4339,"Ġremained":4340,"Ġcontrolled":4341,"Ġcorporations":4342,"Ġmodel":4343,"Ġmetals":4344,"Ġlaunch":4345,"Ġcampeau":4346,"Ġpanama":4347,"Ġdividends":4348,"Ġdevices":4349,"Ġadjusted":4350,"Ġbaseball":4351,"general":4352,"Ġdocuments":4353,"Ġnavigation":4354,"Ġtender":4355,"Ġratings":4356,"Ġmicro":4357,"Ġburnham":4358,"Ġhundreds":4359,"Ġresidents":4360,"Ġpretty":4361,"Ġscandal":4362,"Ġbureauc":4363,"18":4364,"625":4365,"bon":4366,"corp":4367,"do":4368,"dom":4369,"dem":4370,"kn":4371,"mc":4372,"pack":4373,"rs":4374,"wel":4375,"Ġtight":4376,"rew":4377,"Ġmixed":4378,"ature":4379,"Ġwis":4380,"Ġfal":4381,"Ġfem":4382,"Ġfears":4383,"Ġlear":4384,"Ġthus":4385,"Ġec":4386,"Ġreasons":4387,"Ġnissan":4388,"iders":4389,"Ġasp":4390,"Ġtrig":4391,"Ġvide":4392,"Ġincent":4393,"Ġaband":4394,"Ġlee":4395,"Ġcoff":4396,"Ġfinally":4397,"Ġproducing":4398,"Ġdoor":4399,"lose":4400,"Ġspecul":4401,"Ġedward":4402,"comm":4403,"Ġmainly":4404,"Ġtechnolog":4405,"Ġdeclining":4406,"Ġrefer":4407,"Ġstarting":4408,"Ġutilities":4409,"Ġsignificantly":4410,"Ġresponsible":4411,"Ġarrange":4412,"Ġadviser":4413,"Ġaustralian":4414,"Ġdistribution":4415,"Ġtwice":4416,"Ġdefendants":4417,"Ġsyndic":4418,"Ġvirtually":4419,"Ġconventional":4420,"200":4421,"bing":4422,"dollar":4423,"eing":4424,"gas":4425,"hol":4426,"long":4427,"zz":4428,"Ġton":4429,"hem":4430,"Ġcoc":4431,"Ġcds":4432,"Ġbol":4433,"Ġbarg":4434,"Ġmere":4435,"Ġfine":4436,"Ġder":4437,"Ġstations":4438,"olution":4439,"ersey":4440,"Ġconvers":4441,"Ġjersey":4442,"ander":4443,"abil":4444,"Ġclub":4445,"Ġfinished":4446,"Ġdecide":4447,"Ġbrief":4448,"Ġassess":4449,"Ġloyal":4450,"Ġaccused":4451,"Ġcarol":4452,"Ġbigger":4453,"Ġannually":4454,"Ġhighway":4455,"Ġdirection":4456,"Ġcontrast":4457,"Ġsurged":4458,"Ġmanaged":4459,"Ġconfidence":4460,"Ġemployment":4461,"ubishi":4462,"Ġrespect":4463,"Ġfewer":4464,"Ġaffairs":4465,"Ġfamil":4466,"Ġtalking":4467,"ruary":4468,"Ġplayed":4469,"Ġgoldman":4470,"Ġseemed":4471,"official":4472,"Ġslowing":4473,"Ġreflect":4474,"Ġdeposits":4475,"Ġassistant":4476,"Ġradio":4477,"Ġsemic":4478,"Ġchallenge":4479,"Ġfebruary":4480,"Ġbenchmark":4481,"business":4482,"Ġessential":4483,"Ġneighbor":4484,"Ġopinion":4485,"ertificates":4486,"Ġgulf":4487,"52":4488,"dy":4489,"every":4490,"has":4491,"ki":4492,"oh":4493,"rup":4494,"ta":4495,"tings":4496,"only":4497,"Ġcrow":4498,"Ġcub":4499,"illy":4500,"theby":4501,"aces":4502,"Ġsave":4503,"Ġexcept":4504,"osa":4505,"Ġpricing":4506,"Ġkill":4507,"Ġmonitor":4508,"Ġ1982":4509,"Ġapple":4510,"Ġ87":4511,"Ġoperate":4512,"Ġoperates":4513,"Ġ101":4514,"Ġ98":4515,"Ġcris":4516,"Ġdisclose":4517,"Ġtaxpay":4518,"Ġflight":4519,"ibly":4520,"Ġforest":4521,"Ġsteven":4522,"ship":4523,"Ġeuro":4524,"plus":4525,"place":4526,"Ġaffect":4527,"Ġmodels":4528,"Ġmeth":4529,"interest":4530,"Ġextrem":4531,"Ġsolid":4532,"Ġstopped":4533,"Ġrepresentatives":4534,"Ġleadership":4535,"Ġpractices":4536,"Ġbooks":4537,"Ġurban":4538,"Ġguarantee":4539,"Ġadvisers":4540,"Ġunderwriters":4541,"Ġprosecutors":4542,"Ġalternative":4543,"Ġkorea":4544,"Ġintegrated":4545,"furt":4546,"Ġafrica":4547,"Ġleaving":4548,"Ġnicaragu":4549,"Ġflorida":4550,"Ġtelecomm":4551,"Ġsemiconduct":4552,"84":4553,"bell":4554,"di":4555,"ded":4556,"host":4557,"hard":4558,"ipp":4559,"lor":4560,"larg":4561,"nam":4562,"Ġsides":4563,"Ġwil":4564,"iture":4565,"itude":4566,"Ġtool":4567,"Ġdil":4568,"Ġanim":4569,"Ġrevers":4570,"Ġnames":4571,"Ġgal":4572,"oles":4573,"lywood":4574,"Ġbeat":4575,"Ġjac":4576,"Ġgoal":4577,"Ġsoared":4578,"Ġdecisions":4579,"rence":4580,"Ġ800":4581,"Ġenfor":4582,"Ġconsist":4583,"Ġuses":4584,"argo":4585,"Ġ95":4586,"Ġcrude":4587,"Ġdeputy":4588,"Ġworry":4589,"Ġthroughout":4590,"Ġcolumn":4591,"Ġcomplain":4592,"Ġadvertisers":4593,"Ġreflected":4594,"Ġcharles":4595,"Ġcharacter":4596,"Ġboosted":4597,"Ġstephen":4598,"Ġschools":4599,"Ġappeals":4600,"Ġsuperv":4601,"Ġutility":4602,"Ġsatisf":4603,"Ġfuel":4604,"Ġthinks":4605,"Ġtemporary":4606,"Ġinfluence":4607,"Ġfelt":4608,"Ġlambert":4609,"Ġfamilies":4610,"Ġtelecommunications":4611,"13":4612,"big":4613,"tic":4614,"Ġtask":4615,"Ġalex":4616,"Ġson":4617,"Ġcyc":4618,"Ġod":4619,"Ġfreed":4620,"Ġfashion":4621,"orter":4622,"Ġnations":4623,"Ġnbc":4624,"Ġgone":4625,"their":4626,"Ġstyle":4627,"Ġprogress":4628,"Ġcomprom":4629,"ectors":4630,"Ġabroad":4631,"Ġintended":4632,"Ġ56":4633,"Ġcoverage":4634,"Ġdiss":4635,"forms":4636,"Ġ67":4637,"Ġweekly":4638,"ecutive":4639,"ette":4640,"Ġinsurers":4641,"Ġparibas":4642,"Ġcutting":4643,"Ġ141":4644,"Ġputs":4645,"Ġfollows":4646,"Ġopposed":4647,"Ġantit":4648,"Ġvoted":4649,"Ġgolden":4650,"Ġnegotiating":4651,"Ġthrifts":4652,"Ġdoct":4653,"Ġfrankfurt":4654,"Ġshopping":4655,"itzer":4656,"Ġimmediate":4657,"Ġextraordin":4658,"Ġhostile":4659,"ception":4660,"Ġpositive":4661,"Ġdetermined":4662,"Ġslipped":4663,"Ġoakland":4664,"computer":4665,"ique":4666,"mits":4667,"ny":4668,"pol":4669,"pres":4670,"Ġbow":4671,"Ġmine":4672,"Ġwife":4673,"orage":4674,"Ġeth":4675,"Ġreject":4676,"Ġgall":4677,"uts":4678,"Ġcomfort":4679,"Ġruss":4680,"Ġexist":4681,"Ġvan":4682,"Ġsevere":4683,"Ġreput":4684,"Ġboom":4685,"Ġimm":4686,"Ġ63":4687,"luding":4688,"Ġmother":4689,"Ġgrant":4690,"Ġsurge":4691,"Ġtermin":4692,"Ġengland":4693,"Ġstronger":4694,"Ġdamages":4695,"Ġordered":4696,"Ġpatients":4697,"ivalent":4698,"Ġcircum":4699,"ospace":4700,"Ġhearing":4701,"Ġrepublicans":4702,"Ġguarantees":4703,"contin":4704,"Ġjoined":4705,"Ġgarden":4706,"arents":4707,"Ġounce":4708,"volume":4709,"known":4710,"officials":4711,"03":4712,"14":4713,"23":4714,"cur":4715,"dec":4716,"eff":4717,"fell":4718,"gate":4719,"lia":4720,"mine":4721,"vard":4722,"Ġtic":4723,"Ġsust":4724,"Ġcold":4725,"Ġwild":4726,"Ġpiece":4727,"inger":4728,"Ġdan":4729,"Ġhill":4730,"Ġhamp":4731,"Ġlas":4732,"Ġliving":4733,"Ġlloyd":4734,"Ġnik":4735,"adium":4736,"vered":4737,"Ġrand":4738,"Ġriv":4739,"resp":4740,"Ġcompens":4741,"gered":4742,"Ġshown":4743,"aret":4744,"arely":4745,"Ġmanville":4746,"Ġapprec":4747,"Ġscen":4748,"eping":4749,"Ġphot":4750,"Ġcheck":4751,"echnology":4752,"Ġswings":4753,"Ġsucceeds":4754,"Ġspecialty":4755,"Ġmcdon":4756,"Ġstudies":4757,"Ġbasket":4758,"Ġcollaps":4759,"Ġcounsel":4760,"Ġglass":4761,"Ġconsultants":4762,"Ġaccepted":4763,"Ġhappen":4764,"Ġalleg":4765,"Ġvolatile":4766,"Ġsafe":4767,"Ġfairly":4768,"Ġmovies":4769,"Ġhollywood":4770,"Ġdeclared":4771,"Ġcommitments":4772,"Ġmountain":4773,"Ġvoice":4774,"Ġcrisis":4775,"Ġextremely":4776,"Ġantitrust":4777,"79":4778,"aft":4779,"die":4780,"tained":4781,"wlett":4782,"yl":4783,"heim":4784,"rey":4785,"once":4786,"erts":4787,"Ġcateg":4788,"Ġbri":4789,"Ġwake":4790,"Ġpages":4791,"Ġlay":4792,"eless":4793,"Ġisland":4794,"Ġbeg":4795,"Ġprove":4796,"tery":4797,"ams":4798,"Ġalan":4799,"usive":4800,"umin":4801,"Ġrol":4802,"Ġclo":4803,"rys":4804,"Ġ89":4805,"liance":4806,"Ġmeant":4807,"Ġ900":4808,"Ġdrives":4809,"Ġinsured":4810,"Ġregion":4811,"Ġsenators":4812,"ibm":4813,"Ġgraph":4814,"Ġguard":4815,"Ġemphas":4816,"Ġannounce":4817,"Ġolder":4818,"Ġcaut":4819,"mont":4820,"Ġregulations":4821,"develop":4822,"Ġrepresenting":4823,"Ġsuggests":4824,"Ġappeared":4825,"Ġhappened":4826,"Ġaudience":4827,"Ġassistance":4828,"Ġphilip":4829,"Ġinstruments":4830,"japanese":4831,"Ġcomparable":4832,"Ġblood":4833,"Ġrumors":4834,"Ġsilver":4835,"Ġriver":4836,"Ġaerospace":4837,"Ġcoffee":4838,"Ġmethod":4839,"22":4840,"47":4841,"cal":4842,"fo":4843,"ij":4844,"Ġtent":4845,"Ġtem":4846,"Ġtenn":4847,"inter":4848,"Ġsears":4849,"Ġinqu":4850,"ashed":4851,"Ġstress":4852,"acle":4853,"thus":4854,"Ġrico":4855,"essions":4856,"Ġacad":4857,"Ġque":4858,"oking":4859,"Ġbraz":4860,"Ġenjo":4861,"Ġ69":4862,"Ġinterstate":4863,"Ġdiscovered":4864,"Ġserved":4865,"Ġcontinental":4866,"Ġflag":4867,"Ġcourts":4868,"iffs":4869,"Ġphillips":4870,"Ġagreements":4871,"Ġserve":4872,"Ġrecords":4873,"Ġpromise":4874,"Ġvotes":4875,"iminary":4876,"chemical":4877,"Ġtests":4878,"Ġnature":4879,"Ġargue":4880,"annie":4881,"Ġfuj":4882,"Ġsuspended":4883,"Ġmerchand":4884,"Ġrecommend":4885,"Ġconfirmed":4886,"Ġmachinists":4887,"Ġcandidates":4888,"expected":4889,"Ġjoseph":4890,"Ġstatistics":4891,"Ġpipeline":4892,"itzerland":4893,"33":4894,"66":4895,"bel":4896,"casts":4897,"liminary":4898,"night":4899,"pson":4900,"rich":4901,"ule":4902,"Ġog":4903,"eng":4904,"Ġfab":4905,"Ġfile":4906,"Ġfather":4907,"Ġele":4908,"Ġny":4909,"Ġghost":4910,"urday":4911,"Ġrival":4912,"Ġheat":4913,"tsburgh":4914,"Ġtrucks":4915,"Ġchanc":4916,"ounder":4917,"Ġrober":4918,"mann":4919,"Ġresc":4920,"Ġoutlook":4921,"Ġpreliminary":4922,"izations":4923,"Ġcannot":4924,"Ġenh":4925,"Ġmeanwhile":4926,"Ġimpl":4927,"ensus":4928,"Ġcarl":4929,"Ġmining":4930,"Ġdefault":4931,"Ġ1993":4932,"Ġproviding":4933,"Ġremo":4934,"Ġsupposed":4935,"Ġreluct":4936,"Ġphys":4937,"Ġcheap":4938,"Ġ130":4939,"Ġmovement":4940,"Ġlooks":4941,"Ġwritten":4942,"Ġjudges":4943,"Ġfallen":4944,"Ġmembership":4945,"Ġgeneration":4946,"Ġzero":4947,"Ġfinding":4948,"Ġblacks":4949,"Ġauthorities":4950,"Ġcritical":4951,"Ġsuggested":4952,"atchi":4953,"Ġdiscussions":4954,"Ġhistor":4955,"Ġstructural":4956,"Ġsquare":4957,"Ġsquee":4958,"Ġresponsibility":4959,"Ġsuffered":4960,"Ġprofessor":4961,"Ġprospect":4962,"Ġvehicle":4963,"urchase":4964,"Ġpicture":4965,"Ġaggressive":4966,"Ġbarrels":4967,"Ġwonder":4968,"Ġalliance":4969,"industry":4970,"packard":4971,"29":4972,"38":4973,"cut":4974,"free":4975,"iers":4976,"jr":4977,"kes":4978,"mas":4979,"oen":4980,"Ġcel":4981,"Ġpact":4982,"Ġparents":4983,"Ġfit":4984,"Ġdie":4985,"Ġhart":4986,"Ġgames":4987,"Ġsam":4988,"Ġsaatchi":4989,"Ġasking":4990,"Ġchann":4991,"Ġva":4992,"Ġmarc":4993,"Ġexpert":4994,"Ġintends":4995,"Ġweap":4996,"Ġroth":4997,"Ġquant":4998,"Ġinvesting":4999,"Ġrecover":5000,"ext":5001,"likely":5002,"Ġusair":5003,"Ġaddress":5004,"Ġreporters":5005,"Ġslump":5006,"Ġofferings":5007,"Ġgrad":5008,"Ġwars":5009,"Ġdealer":5010,"Ġeval":5011,"Ġswitzerland":5012,"Ġmeetings":5013,"Ġreturned":5014,"Ġsetting":5015,"Ġexperi":5016,"Ġretailing":5017,"Ġexploration":5018,"Ġobv":5019,"Ġtype":5020,"Ġdenied":5021,"Ġcitiz":5022,"Ġciticorp":5023,"Ġchoice":5024,"Ġshipping":5025,"Ġwarrants":5026,"Ġlenders":5027,"Ġtitle":5028,"Ġmatters":5029,"largest":5030,"Ġextraordinary":5031,"rysler":5032,"card":5033,"loss":5034,"nell":5035,"oon":5036,"tel":5037,"win":5038,"yed":5039,"Ġciting":5040,"Ġhan":5041,"Ġhung":5042,"Ġhunt":5043,"Ġluc":5044,"Ġreaction":5045,"uth":5046,"Ġfort":5047,"adel":5048,"see":5049,"Ġrated":5050,"Ġexact":5051,"Ġjur":5052,"unk":5053,"Ġtrump":5054,"Ġchains":5055,"Ġwaste":5056,"Ġprison":5057,"Ġspons":5058,"Ġquarters":5059,"Ġboeing":5060,"Ġbranc":5061,"Ġlog":5062,"rowing":5063,"ression":5064,"Ġinterpret":5065,"Ġworried":5066,"Ġcostly":5067,"roll":5068,"Ġpursu":5069,"Ġhelping":5070,"Ġedition":5071,"Ġconfident":5072,"Ġrefused":5073,"Ġspecialists":5074,"Ġiran":5075,"spec":5076,"Ġviews":5077,"Ġindicate":5078,"Ġkeeping":5079,"Ġharris":5080,"Ġeasily":5081,"Ġpittsburgh":5082,"earns":5083,"Ġeditorial":5084,"products":5085,"Ġlanguage":5086,"Ġconstitutional":5087,"mbly":5088,"Ġmiller":5089,"Ġcontroversial":5090,"Ġliberal":5091,"dealers":5092,"Ġsterling":5093,"Ġtechnologies":5094,"Ġtaxpayers":5095,"Ġsemiconductor":5096,"Ġcompromise":5097,"liament":5098,"ijing":5099,"Ġacadem":5100,"Ġbrazil":5101,"Ġroberts":5102,"02":5103,"band":5104,"good":5105,"london":5106,"publ":5107,"tle":5108,"water":5109,"Ġmand":5110,"Ġmention":5111,"Ġwang":5112,"Ġphel":5113,"Ġdar":5114,"oms":5115,"Ġren":5116,"stre":5117,"store":5118,"ado":5119,"olis":5120,"aco":5121,"Ġitaly":5122,"Ġbeer":5123,"Ġbeach":5124,"Ġneither":5125,"Ġneko":5126,"Ġtraining":5127,"apore":5128,"eman":5129,"agues":5130,"Ġsees":5131,"Ġseed":5132,"Ġken":5133,"Ġagent":5134,"Ġagents":5135,"Ġross":5136,"Ġupon":5137,"Ġoutl":5138,"Ġ1983":5139,"rene":5140,"Ġbranch":5141,"Ġ68":5142,"Ġarab":5143,"Ġmob":5144,"iants":5145,"Ġworse":5146,"Ġslide":5147,"Ġdiscip":5148,"Ġparliament":5149,"Ġentered":5150,"Ġpurchasing":5151,"Ġcorporation":5152,"Ġengl":5153,"Ġmetal":5154,"Ġgreens":5155,"Ġ180":5156,"Ġlowered":5157,"Ġstudents":5158,"Ġpersonnel":5159,"Ġextended":5160,"Ġsingapore":5161,"Ġinitially":5162,"Ġargued":5163,"Ġattorneys":5164,"Ġexpressed":5165,"Ġaids":5166,"Ġresignation":5167,"senate":5168,"Ġprospects":5169,"Ġcellular":5170,"Ġresolution":5171,"Ġmultip":5172,"Ġtemporarily":5173,"Ġpictures":5174,"Ġpushed":5175,"Ġrepeated":5176,"Ġensure":5177,"Ġpursue":5178,"Ġprudential":5179,"Ġnekoosa":5180,"aq":5181,"cies":5182,"ew":5183,"jud":5184,"la":5185,"ma":5186,"ration":5187,"vi":5188,"vin":5189,"yer":5190,"Ġcath":5191,"Ġcertificates":5192,"Ġpill":5193,"item":5194,"Ġfounder":5195,"order":5196,"Ġtoy":5197,"Ġdict":5198,"ilvy":5199,"icated":5200,"Ġhus":5201,"Ġlives":5202,"Ġlift":5203,"oul":5204,"Ġgiants":5205,"Ġstage":5206,"Ġstearns":5207,"Ġformed":5208,"Ġconfl":5209,"Ġrace":5210,"amm":5211,"Ġchip":5212,"ifth":5213,"Ġunlikely":5214,"uster":5215,"ellor":5216,"astrop":5217,"Ġleague":5218,"Ġintent":5219,"Ġrout":5220,"Ġrock":5221,"Ġcool":5222,"Ġcovered":5223,"Ġsotheby":5224,"Ġ77":5225,"Ġoperator":5226,"Ġcrack":5227,"Ġpeace":5228,"etters":5229,"Ġworst":5230,"Ġefficient":5231,"Ġgrain":5232,"Ġcalling":5233,"Ġacquiring":5234,"Ġwarned":5235,"shire":5236,"trans":5237,"Ġtelerate":5238,"Ġtrem":5239,"hens":5240,"Ġsimple":5241,"before":5242,"Ġmetric":5243,"Ġfactor":5244,"Ġstudio":5245,"tenance":5246,"Ġcollection":5247,"Ġextent":5248,"Ġretailers":5249,"chell":5250,"Ġprocessing":5251,"Ġtroubles":5252,"Ġcarriers":5253,"Ġscientific":5254,"ormous":5255,"Ġtumbled":5256,"ophistic":5257,"Ġadopted":5258,"Ġrapidly":5259,"Ġcosmet":5260,"Ġobligation":5261,"Ġoptim":5262,"Ġlawsuits":5263,"Ġassembly":5264,"Ġenterprises":5265,"Ġbegun":5266,"Ġgraphics":5267,"Ġinquir":5268,"%-":5269,"26":5270,"46":5271,"dow":5272,"from":5273,"fect":5274,"tz":5275,"tod":5276,"tech":5277,"uk":5278,"wan":5279,"Ġties":5280,"Ġsir":5281,"Ġsophistic":5282,"Ġculture":5283,"Ġok":5284,"Ġbart":5285,"Ġbik":5286,"Ġmgm":5287,"ato":5288,"Ġpull":5289,"Ġfly":5290,"Ġfred":5291,"Ġfaster":5292,"Ġfannie":5293,"Ġdur":5294,"Ġdyn":5295,"iles":5296,"icks":5297,"Ġlag":5298,"enty":5299,"iger":5300,"imate":5301,"terms":5302,"Ġexxon":5303,"Ġmillions":5304,"Ġchurch":5305,"ifying":5306,"apolis":5307,"Ġnewly":5308,"aby":5309,"Ġspin":5310,"Ġsex":5311,"Ġintr":5312,"Ġcontends":5313,"Ġround":5314,"Ġcorrect":5315,"Ġinvested":5316,"perform":5317,"Ġcommissions":5318,"Ġenormous":5319,"Ġconsp":5320,"contr":5321,"Ġperman":5322,"Ġgenes":5323,"Ġgovernments":5324,"Ġunderlying":5325,"Ġdram":5326,"Ġminim":5327,"Ġreporting":5328,"Ġinside":5329,"Ġcosta":5330,"Ġgrown":5331,"Ġadvoc":5332,"ological":5333,"Ġpoliticians":5334,"income":5335,"Ġmatch":5336,"Ġsupported":5337,"Ġcommitted":5338,"Ġvoting":5339,"Ġcaution":5340,"Ġmanufacturer":5341,"Ġstrategies":5342,"Ġpilot":5343,"Ġcritics":5344,"Ġjointly":5345,"Ġsaturday":5346,"Ġhearings":5347,"Ġveter":5348,"burg":5349,"Ġratio":5350,"Ġchristmas":5351,"Ġcatastrop":5352,"Ġproceedings":5353,"Ġconcluded":5354,"Ġrestaurant":5355,"Ġdismiss":5356,"Ġfresh":5357,"Ġarchit":5358,"british":5359,"Ġillegal":5360,"Ġmitsubishi":5361,"president":5362,"Ġenglish":5363,"today":5364,"36":5365,"49":5366,"cs":5367,"ders":5368,"gn":5369,"iro":5370,"kr":5371,"mich":5372,"mans":5373,"ped":5374,"source":5375,"Ġten":5376,"Ġtap":5377,"Ġtied":5378,"Ġaz":5379,"Ġbir":5380,"Ġwel":5381,"Ġwear":5382,"ario":5383,"Ġanc":5384,"Ġanal":5385,"omes":5386,"enter":5387,"Ġrent":5388,"stances":5389,"ola":5390,"acom":5391,"Ġbee":5392,"Ġbeijing":5393,"three":5394,"Ġrid":5395,"Ġasia":5396,"uce":5397,"Ġwholes":5398,"Ġshr":5399,"Ġtrim":5400,"Ġtrail":5401,"ulate":5402,"Ġcham":5403,"Ġunable":5404,"change":5405,"Ġmarsh":5406,"Ġabc":5407,"ocked":5408,"Ġseats":5409,"Ġkr":5410,"antly":5411,"Ġexposure":5412,"Ġindeed":5413,"Ġresume":5414,"Ġpresence":5415,"Ġdisk":5416,"Ġmanage":5417,"Ġnovel":5418,"week":5419,"Ġusers":5420,"ossible":5421,"Ġ97":5422,"Ġemb":5423,"why":5424,"Ġrealize":5425,"Ġafford":5426,"Ġadministrative":5427,"Ġmca":5428,"Ġsubscri":5429,"Ġpossibility":5430,"Ġlimits":5431,"Ġprivately":5432,"Ġbasic":5433,"phia":5434,"Ġpassen":5435,"Ġfoods":5436,"Ġillust":5437,"Ġcareer":5438,"supp":5439,"Ġwait":5440,"bacco":5441,"crip":5442,"Ġurged":5443,"Ġvisit":5444,"Ġeasier":5445,"syl":5446,"Ġstatus":5447,"Ġrooms":5448,"Ġalternatives":5449,"Ġdisappointing":5450,"glas":5451,"Ġfriendly":5452,"Ġceiling":5453,"Ġfootball":5454,"Ġbottom":5455,"Ġdescribed":5456,"Ġlicens":5457,"employment":5458,"Ġobservers":5459,"Ġultimately":5460,"william":5461,"Ġgenetic":5462,"Ġcircumstances":5463,"Ġcollapsed":5464,"adelphia":5465,"Ġbranches":5466,"06":5467,"58":5468,"dale":5469,"eal":5470,"ike":5471,"sim":5472,"Ġid":5473,"Ġap":5474,"Ġaware":5475,"Ġsund":5476,"Ġsite":5477,"onom":5478,"Ġcode":5479,"Ġmist":5480,"Ġpun":5481,"Ġfol":5482,"Ġdump":5483,"Ġletters":5484,"Ġreforms":5485,"Ġnerv":5486,"eco":5487,"ecker":5488,"Ġprohib":5489,"uctions":5490,"Ġheard":5491,"atever":5492,"ote":5493,"Ġchase":5494,"Ġunve":5495,"Ġ350":5496,"Ġsuits":5497,"Ġexpense":5498,"Ġbanker":5499,"exchange":5500,"Ġ750":5501,"Ġconsecutive":5502,"Ġ600":5503,"Ġissu":5504,"Ġretain":5505,"Ġprofitability":5506,"Ġflights":5507,"Ġforecasts":5508,"ietnam":5509,"Ġstret":5510,"Ġpolitics":5511,"Ġharder":5512,"Ġknows":5513,"Ġruled":5514,"ilipp":5515,"ysis":5516,"Ġcircuit":5517,"Ġoccas":5518,"reprene":5519,"Ġexpanded":5520,"Ġpromotion":5521,"Ġparticipants":5522,"Ġcolleagues":5523,"Ġshipments":5524,"Ġpersu":5525,"Ġcells":5526,"Ġnormally":5527,"Ġanticipated":5528,"Ġatlanta":5529,"Ġatlantic":5530,"Ġcriticism":5531,"Ġawarded":5532,"Ġanswer":5533,"Ġbreeden":5534,"Ġbailout":5535,"Ġmerchandise":5536,"Ġnyse":5537,"04":5538,"09":5539,"44":5540,"dav":5541,"eu":5542,"nard":5543,"rimin":5544,"town":5545,"Ġtar":5546,"Ġsets":5547,"reduc":5548,"itan":5549,"itable":5550,"Ġfer":5551,"Ġfat":5552,"isk":5553,"Ġdied":5554,"Ġhun":5555,"Ġhired":5556,"Ġluf":5557,"Ġnone":5558,"Ġgap":5559,"ecured":5560,"uted":5561,"theast":5562,"Ġstick":5563,"oline":5564,"acher":5565,"Ġconcept":5566,"Ġrall":5567,"until":5568,"Ġchamp":5569,"user":5570,"Ġunlike":5571,"chip":5572,"Ġmary":5573,"Ġorange":5574,"abody":5575,"asters":5576,"Ġintel":5577,"ansas":5578,"Ġroyal":5579,"Ġrecap":5580,"Ġbox":5581,"venues":5582,"Ġdise":5583,"Ġ1981":5584,"derick":5585,"Ġ76":5586,"Ġarrest":5587,"kept":5588,"Ġfeed":5589,"Ġpeabody":5590,"Ġattend":5591,"Ġairport":5592,"Ġbloc":5593,"Ġtransl":5594,"Ġfla":5595,"inking":5596,"Ġhandle":5597,"Ġpromised":5598,"board":5599,"Ġresulted":5600,"Ġpossibly":5601,"Ġcreating":5602,"Ġbrewing":5603,"Ġmassive":5604,"Ġformal":5605,"Ġjeff":5606,"Ġsufficient":5607,"Ġbringing":5608,"Ġattractive":5609,"Ġphiladelphia":5610,"govern":5611,"Ġunsecured":5612,"Ġelsewhere":5613,"Ġegg":5614,"Ġcommitment":5615,"Ġcontributions":5616,"vania":5617,"Ġdisplay":5618,"Ġmitchell":5619,"Ġtriggered":5620,"Ġmerely":5621,"Ġallegations":5622,"Ġchancellor":5623,"27":5624,"59":5625,"87":5626,"dig":5627,"eb":5628,"may":5629,"ram":5630,"run":5631,"Ġtape":5632,"Ġsle":5633,"Ġsher":5634,"Ġcaught":5635,"ati":5636,"ateral":5637,"Ġwolf":5638,"Ġpu":5639,"Ġped":5640,"Ġpow":5641,"Ġpool":5642,"Ġflex":5643,"Ġfilled":5644,"ington":5645,"Ġtobacco":5646,"Ġdat":5647,"omin":5648,"ether":5649,"Ġgon":5650,"ador":5651,"acing":5652,"owed":5653,"imately":5654,"Ġconsequ":5655,"thy":5656,"than":5657,"early":5658,"Ġvietnam":5659,"Ġmarine":5660,"Ġhaw":5661,"ivered":5662,"ella":5663,"Ġprint":5664,"Ġspr":5665,"Ġspan":5666,"Ġseat":5667,"Ġweight":5668,"Ġapply":5669,"Ġ71":5670,"Ġ73":5671,"Ġsomewhat":5672,"Ġbrady":5673,"Ġbecoming":5674,"Ġassume":5675,"Ġimpossible":5676,"ultural":5677,"Ġworker":5678,"Ġcarries":5679,"Ġpeak":5680,"italization":5681,"Ġembar":5682,"Ġcurrencies":5683,"Ġpublished":5684,"Ġguy":5685,"Ġwarning":5686,"Ġdelays":5687,"Ġequivalent":5688,"Ġadvice":5689,"Ġphilipp":5690,"Ġentreprene":5691,"Ġstream":5692,"commer":5693,"committ":5694,"Ġ140":5695,"Ġ142":5696,"Ġterror":5697,"Ġmaintenance":5698,"Ġreducing":5699,"Ġturns":5700,"Ġturning":5701,"Ġrevolution":5702,"Ġmemory":5703,"Ġfacing":5704,"Ġbarri":5705,"Ġformerly":5706,"espread":5707,"Ġallowing":5708,"Ġ2009":5709,"Ġpattern":5710,"Ġdemocracy":5711,"nov":5712,"iami":5713,"Ġpoison":5714,"Ġnetworks":5715,"america":5716,"Ġpopulation":5717,"Ġwidespread":5718,"Ġtypes":5719,"Ġcarried":5720,"Ġdeterior":5721,"Ġautomob":5722,"Ġeducational":5723,"Ġturmo":5724,"thirds":5725,"Ġspeech":5726,"Ġkorean":5727,"Ġcasual":5728,"Ġpulled":5729,"Ġmachinery":5730,"Ġtriple":5731,"Ġfleet":5732,"Ġappointed":5733,"Ġcooperation":5734,"Ġaffiliate":5735,"Ġplastic":5736,"Ġfrequently":5737,"Ġrivals":5738,"Ġcautious":5739,"Ġdynam":5740,"michael":5741,"sylvania":5742,"Ġturmoil":5743,"01":5744,"bre":5745,"baum":5746,"ca":5747,"ground":5748,"hus":5749,"ls":5750,"lli":5751,"top":5752,"uate":5753,"wart":5754,"Ġtable":5755,"inist":5756,"Ġtheory":5757,"Ġcy":5758,"Ġcig":5759,"Ġcatch":5760,"Ġough":5761,"Ġmes":5762,"Ġmas":5763,"Ġmaster":5764,"Ġmills":5765,"Ġfill":5766,"Ġfifth":5767,"Ġinn":5768,"robert":5769,"icious":5770,"Ġreass":5771,"Ġrede":5772,"Ġnam":5773,"Ġgro":5774,"Ġstabil":5775,"Ġstadium":5776,"Ġcomments":5777,"igan":5778,"Ġran":5779,"Ġrig":5780,"Ġrus":5781,"geor":5782,"amount":5783,"Ġshop":5784,"Ġshops":5785,"Ġchrysler":5786,"cho":5787,"abilities":5788,"elling":5789,"Ġabort":5790,"istered":5791,"ocks":5792,"Ġindia":5793,"Ġcontend":5794,"ieg":5795,"Ġweb":5796,"Ġclar":5797,"Ġqual":5798,"perhaps":5799,"igned":5800,"Ġpref":5801,"aves":5802,"Ġstra":5803,"kei":5804,"Ġsubcommitt":5805,"Ġairways":5806,"Ġblame":5807,"foreign":5808,"Ġsteady":5809,"Ġwells":5810,"Ġ110":5811,"Ġchec":5812,"Ġapprove":5813,"Ġdealing":5814,"Ġrequires":5815,"Ġdifferences":5816,"Ġsecondary":5817,"Ġhalt":5818,"Ġmoderate":5819,"Ġspecialist":5820,"Ġrecorded":5821,"Ġstudent":5822,"Ġcausing":5823,"Ġclaimed":5824,"Ġplayer":5825,"Ġiron":5826,"Ġtext":5827,"Ġbenef":5828,"Ġseeks":5829,"Ġcloser":5830,"backs":5831,"scale":5832,"Ġdavis":5833,"Ġbadly":5834,"crs":5835,"Ġdetermine":5836,"Ġsurprised":5837,"Ġthompson":5838,"Ġopportunities":5839,"Ġmaximum":5840,"uggish":5841,"Ġmerchant":5842,"Ġconfirm":5843,"Ġencourage":5844,"Ġhook":5845,"Ġrecalls":5846,"Ġmccaw":5847,"Ġroman":5848,"Ġbulk":5849,"hardt":5850,"Ġreputation":5851,"Ġogilvy":5852,"Ġhanover":5853,"Ġphelan":5854,"Ġgreenspan":5855,"Ġsophisticated":5856,"david":5857,"Ġought":5858,"400":5859,"82":5860,"born":5861,"fre":5862,"rical":5863,"ui":5864,"wall":5865,"Ġiv":5866,"Ġamr":5867,"Ġsac":5868,"Ġskept":5869,"Ġcab":5870,"Ġmad":5871,"Ġpont":5872,"enz":5873,"iser":5874,"Ġdip":5875,"Ġdub":5876,"Ġdai":5877,"roit":5878,"Ġstol":5879,"Ġstorage":5880,"Ġbegins":5881,"iment":5882,"several":5883,"Ġconven":5884,"Ġrain":5885,"Ġvs":5886,"Ġplum":5887,"Ġclin":5888,"Ġrepair":5889,"Ġbron":5890,"Ġconsumption":5891,"Ġ61":5892,"veland":5893,"eps":5894,"Ġdownturn":5895,"Ġinsurer":5896,"Ġstatements":5897,"Ġdefensive":5898,"Ġsurf":5899,"Ġdivisions":5900,"price":5901,"Ġfellow":5902,"Ġheads":5903,"Ġrefund":5904,"Ġlooked":5905,"Ġresulting":5906,"Ġordin":5907,"Ġplaying":5908,"Ġdemands":5909,"Ġextend":5910,"Ġconnection":5911,"Ġfreight":5912,"inois":5913,"iciency":5914,"Ġthreatened":5915,"Ġexpanding":5916,"Ġnewspapers":5917,"Ġsymb":5918,"haul":5919,"Ġcovering":5920,"timore":5921,"Ġidentified":5922,"Ġapplications":5923,"Ġpennsylvania":5924,"Ġpulp":5925,"Ġpushing":5926,"Ġwarrant":5927,"Ġcalcul":5928,"Ġexperiment":5929,"Ġdutch":5930,"Ġresistance":5931,"Ġreinfor":5932,"Ġlearned":5933,"Ġneighborhood":5934,"Ġnicaragua":5935,"Ġhampshire":5936,"Ġnikkei":5937,"Ġhusband":5938,"37":5939,"62":5940,"dp":5941,"hand":5942,"sized":5943,"ters":5944,"uz":5945,"ws":5946,"Ġath":5947,"intern":5948,"rees":5949,"Ġtheater":5950,"Ġbern":5951,"ana":5952,"Ġmir":5953,"Ġmiami":5954,"arks":5955,"Ġtower":5956,"Ġdun":5957,"Ġdial":5958,"etts":5959,"elken":5960,"Ġstories":5961,"Ġray":5962,"Ġrank":5963,"Ġraw":5964,"Ġrjr":5965,"Ġhed":5966,"Ġhewlett":5967,"Ġshot":5968,"Ġdeg":5969,"Ġalt":5970,"aken":5971,"usetts":5972,"Ġunemployment":5973,"odak":5974,"Ġsea":5975,"ards":5976,"Ġwealth":5977,"ipe":5978,"Ġgoals":5979,"Ġrepay":5980,"Ġimper":5981,"Ġbrad":5982,"Ġ64":5983,"Ġarms":5984,"achusetts":5985,"Ġofficers":5986,"Ġamb":5987,"Ġstrip":5988,"Ġoperators":5989,"Ġsellers":5990,"Ġpayable":5991,"Ġ1999":5992,"Ġdesire":5993,"Ġ125":5994,"short":5995,"Ġdeveloper":5996,"Ġhandling":5997,"ront":5998,"Ġrestrict":5999,"Ġtotaling":6000,"Ġengelken":6001,"Ġchanging":6002,"Ġfaced":6003,"book":6004,"Ġaccounted":6005,"Ġindustrials":6006,"Ġdoubled":6007,"Ġreading":6008,"Ġexplain":6009,"Ġ1974":6010,"Ġweaker":6011,"risk":6012,"Ġsuccessor":6013,"Ġwinter":6014,"Ġorganizations":6015,"aiwan":6016,"Ġbehav":6017,"Ġvariety":6018,"Ġcombination":6019,"Ġsurprise":6020,"Ġvirgin":6021,"Ġpollution":6022,"Ġfields":6023,"Ġtrends":6024,"Ġmaxwell":6025,"Ġfighting":6026,"earnings":6027,"Ġhonecker":6028,"Ġsweet":6029,"Ġconstitution":6030,"Ġberlin":6031,"Ġdeadline":6032,"Ġsteinhardt":6033,"Ġwitness":6034,"Ġlawsuit":6035,"Ġprompted":6036,"Ġbrooks":6037,"treasury":6038,"Ġcompensation":6039,"Ġchannel":6040,"Ġweapons":6041,"Ġcitizens":6042,"Ġcosmetics":6043,"Ġpermanent":6044,"Ġnervous":6045,"husi":6046,"Ġsubcommittee":6047,"Ġplummet":6048,"Ġathlet":6049,"86":6050,"hon":6051,"overs":6052,"pa":6053,"rights":6054,"your":6055,"Ġica":6056,"held":6057,"Ġinfr":6058,"aling":6059,"Ġliter":6060,"Ġrey":6061,"Ġreinsurance":6062,"Ġrevenues":6063,"etna":6064,"Ġgop":6065,"ecess":6066,"Ġforward":6067,"adv":6068,"uries":6069,"imp":6070,"thur":6071,"Ġranging":6072,"quality":6073,"och":6074,"Ġprin":6075,"Ġadequ":6076,"Ġspain":6077,"Ġky":6078,"Ġindict":6079,"Ġcorry":6080,"Ġbillions":6081,"Ġpregn":6082,"Ġ700":6083,"Ġconsensus":6084,"log":6085,"Ġfeder":6086,"Ġplanners":6087,"Ġcarp":6088,"Ġemot":6089,"ibilities":6090,"Ġguide":6091,"Ġwarn":6092,"prices":6093,"Ġtreas":6094,"Ġcleveland":6095,"Ġswed":6096,"Ġcomplained":6097,"Ġinstitution":6098,"Ġstands":6099,"Ġdouglas":6100,"offs":6101,"Ġfoundation":6102,"Ġgasoline":6103,"Ġgenerate":6104,"Ġindicates":6105,"Ġcharl":6106,"iveness":6107,"Ġlegislative":6108,"Ġrepresented":6109,"Ġsubsidiaries":6110,"Ġportfolios":6111,"making":6112,"Ġdevice":6113,"Ġreasonable":6114,"Ġschedule":6115,"Ġengineers":6116,"Ġski":6117,"Ġbaltimore":6118,"Ġtargets":6119,"Ġcarrying":6120,"Ġbiot":6121,"Ġeliminate":6122,"Ġafrican":6123,"Ġbanco":6124,"Ġdestro":6125,"Ġagriculture":6126,"schild":6127,"Ġvideo":6128,"Ġabandoned":6129,"Ġsyndicate":6130,"Ġcarolina":6131,"Ġquebec":6132,"Ġrothschild":6133,"Ġwholesale":6134,"Ġchamber":6135,"reduction":6136,"Ġcigaret":6137,"Ġsymbol":6138,"international":6139,"Ġicahn":6140,"07":6141,"17":6142,"76":6143,"83":6144,"89":6145,"average":6146,"ebr":6147,"home":6148,"jaguar":6149,"kins":6150,"light":6151,"take":6152,"wis":6153,"zale":6154,"Ġx":6155,"Ġak":6156,"ini":6157,"inson":6158,"Ġsend":6159,"eries":6160,"Ġol":6161,"Ġbody":6162,"anian":6163,"itation":6164,"orough":6165,"inghouse":6166,"Ġdor":6167,"Ġanx":6168,"Ġlie":6169,"Ġreve":6170,"Ġgill":6171,"Ġstable":6172,"olitan":6173,"Ġram":6174,"Ġshall":6175,"Ġships":6176,"Ġjen":6177,"Ġdean":6178,"Ġorte":6179,"aborate":6180,"ighter":6181,"Ġplaint":6182,"Ġplaces":6183,"ipts":6184,"irect":6185,"Ġallen":6186,"Ġalloc":6187,"Ġapplied":6188,"Ġbrain":6189,"Ġbecomes":6190,"Ġlove":6191,"Ġscale":6192,"Ġmaybe":6193,"Ġgovernor":6194,"Ġ93":6195,"Ġcruc":6196,"Ġdepend":6197,"lined":6198,"Ġslid":6199,"Ġsluggish":6200,"ilding":6201,"Ġregime":6202,"Ġdelivered":6203,"Ġmergers":6204,"Ġapprox":6205,"Ġturner":6206,"Ġstanding":6207,"incinn":6208,"Ġcompete":6209,"Ġstrongly":6210,"Ġseeing":6211,"Ġhoped":6212,"Ġlocation":6213,"Ġretailer":6214,"Ġreaders":6215,"Ġ1979":6216,"Ġprofession":6217,"Ġintroduce":6218,"Ġjewel":6219,"Ġfriends":6220,"stocks":6221,"Ġwalter":6222,"Ġappropriate":6223,"Ġeggs":6224,"Ġmessage":6225,"Ġpriority":6226,"Ġdelayed":6227,"Ġconduct":6228,"Ġconducted":6229,"Ġoblig":6230,"Ġinventories":6231,"Ġwatching":6232,"Ġpurpose":6233,"Ġpurposes":6234,"services":6235,"Ġsensitive":6236,"Ġachieved":6237,"Ġfundamental":6238,"Ġmainframe":6239,"Ġincentives":6240,"Ġarrangement":6241,"Ġenforcement":6242,"Ġfreedom":6243,"current":6244,"Ġhungary":6245,"Ġexactly":6246,"Ġrecapitalization":6247,"commercial":6248,"llium":6249,"Ġwebster":6250,"zalez":6251,"incinnati":6252,"77":6253,"99":6254,"cost":6255,"cong":6256,"coup":6257,"life":6258,"member":6259,"never":6260,"rid":6261,"rie":6262,"right":6263,"rass":6264,"tex":6265,"taking":6266,"wers":6267,"western":6268,"Ġtaiwan":6269,"health":6270,"rete":6271,"Ġbatt":6272,"Ġwave":6273,"Ġfa":6274,"arian":6275,"isse":6276,"Ġleng":6277,"ented":6278,"ids":6279,"imony":6280,"elled":6281,"agn":6282,"ichi":6283,"opher":6284,"Ġkkr":6285,"Ġlex":6286,"Ġlease":6287,"anted":6288,"Ġrecru":6289,"Ġdisag":6290,"Ġcommand":6291,"Ġark":6292,"Ġaccel":6293,"Ġscott":6294,"Ġ102":6295,"ropolitan":6296,"Ġplanes":6297,"Ġsubsequ":6298,"Ġdrag":6299,"Ġdriving":6300,"Ġelaborate":6301,"Ġlawrence":6302,"Ġbroke":6303,"Ġbroken":6304,"ianz":6305,"Ġdesk":6306,"overty":6307,"Ġsurround":6308,"Ġenthusi":6309,"Ġshouldn":6310,"Ġdeparture":6311,"Ġnumerous":6312,"plan":6313,"Ġmedic":6314,"Ġcompeting":6315,"Ġregulation":6316,"emption":6317,"Ġconsiderable":6318,"Ġnationwide":6319,"Ġviewers":6320,"Ġillinois":6321,"Ġargument":6322,"Ġorganized":6323,"Ġbehalf":6324,"Ġviolations":6325,"Ġoccur":6326,"Ġoccurred":6327,"Ġguaranteed":6328,"Ġthomson":6329,"Ġbellsouth":6330,"cola":6331,"Ġcopy":6332,"Ġidentify":6333,"Ġmeaning":6334,"Ġpsyllium":6335,"Ġregarding":6336,"Ġlicense":6337,"Ġinitiative":6338,"Ġeager":6339,"Ġspirits":6340,"Ġbureaucrat":6341,"Ġcycle":6342,"Ġcomfortable":6343,"Ġsustained":6344,"Ġdaniel":6345,"foot":6346,"hensive":6347,"Ġsunday":6348,"Ġgonzalez":6349,"Ġembarrass":6350,"Ġortega":6351,"92":6352,"count":6353,"dro":6354,"fred":6355,"fees":6356,"ho":6357,"iest":6358,"ius":6359,"james":6360,"much":6361,"tes":6362,"uous":6363,"yo":6364,"Ġcow":6365,"Ġcart":6366,"Ġpin":6367,"Ġpapers":6368,"Ġflying":6369,"orous":6370,"aled":6371,"ingly":6372,"Ġtouch":6373,"Ġduty":6374,"Ġanaly":6375,"Ġhyp":6376,"Ġeld":6377,"Ġeased":6378,"Ġgather":6379,"theless":6380,"Ġonto":6381,"imated":6382,"Ġride":6383,"Ġcompares":6384,"Ġwhites":6385,"ocrat":6386,"osen":6387,"Ġvast":6388,"char":6389,"ections":6390,"Ġhahn":6391,"aste":6392,"istan":6393,"ichol":6394,"opol":6395,"antile":6396,"Ġintens":6397,"olds":6398,"acting":6399,"izz":6400,"Ġsecured":6401,"Ġ88":6402,"ailed":6403,"Ġload":6404,"loan":6405,"ileo":6406,"Ġoverhaul":6407,"Ġsubur":6408,"Ġretired":6409,"iani":6410,"erto":6411,"Ġconcrete":6412,"ogel":6413,"Ġopec":6414,"Ġshell":6415,"iba":6416,"Ġgray":6417,"Ġsteep":6418,"minent":6419,"Ġdevelopers":6420,"Ġchev":6421,"Ġtelegr":6422,"Ġfilings":6423,"Ġemployers":6424,"Ġengaged":6425,"neg":6426,"Ġmedium":6427,"Ġmetropolitan":6428,"process":6429,"Ġsupporters":6430,"Ġcauses":6431,"Ġ170":6432,"Ġeffectively":6433,"Ġmagn":6434,"Ġdistributed":6435,"Ġzeal":6436,"bridge":6437,"Ġmassachusetts":6438,"Ġpilson":6439,"Ġcanceled":6440,"Ġpaintings":6441,"Ġdistricts":6442,"Ġsatell":6443,"Ġattempting":6444,"Ġvictory":6445,"Ġtreaty":6446,"Ġfavorable":6447,"Ġunderwriter":6448,"company":6449,"Ġborrowing":6450,"Ġinstrument":6451,"Ġprinciple":6452,"Ġsucceeded":6453,"Ġexperiments":6454,"Ġlinked":6455,"Ġrestaurants":6456,"Ġconsolidated":6457,"Ġgamble":6458,"Ġexclusive":6459,"Ġprocedures":6460,"Ġrenewed":6461,"Ġloyalty":6462,"Ġessentially":6463,"Ġtentatively":6464,"oenix":6465,"Ġcelebr":6466,"Ġexperienced":6467,"Ġarchitect":6468,"Ġanalysis":6469,"Ġmarshall":6470,"maybe":6471,"Ġmesa":6472,"Ġredeem":6473,"Ġbiotechnology":6474,"congress":6475,"08":6476,"56":6477,"61":6478,"68":6479,"four":6480,"lom":6481,"nissan":6482,"vine":6483,"ybe":6484,"Ġtab":6485,"Ġaide":6486,"Ġaetna":6487,"ining":6488,"inder":6489,"Ġsom":6490,"Ġcf":6491,"Ġcia":6492,"Ġow":6493,"Ġble":6494,"Ġwish":6495,"Ġpage":6496,"Ġpink":6497,"Ġpump":6498,"Ġpoverty":6499,"Ġfans":6500,"Ġtoll":6501,"ila":6502,"ilae":6503,"Ġholl":6504,"Ġhills":6505,"Ġlif":6506,"Ġreward":6507,"Ġrena":6508,"stitut":6509,"idman":6510,"eter":6511,"Ġgut":6512,"Ġgun":6513,"Ġgyr":6514,"uters":6515,"utions":6516,"Ġstuff":6517,"Ġprote":6518,"imm":6519,"Ġsaab":6520,"Ġrape":6521,"uccess":6522,"Ġjon":6523,"quer":6524,"otal":6525,"unction":6526,"ula":6527,"Ġunexpected":6528,"ppers":6529,"Ġacts":6530,"Ġ1960":6531,"Ġspur":6532,"Ġspect":6533,"Ġkle":6534,"Ġkick":6535,"Ġmarketplace":6536,"Ġcontest":6537,"Ġresort":6538,"Ġcoordin":6539,"merrill":6540,"Ġbuff":6541,"Ġsalv":6542,"Ġprepar":6543,"aware":6544,"owners":6545,"Ġassass":6546,"aving":6547,"aching":6548,"Ġperfect":6549,"lude":6550,"Ġattitude":6551,"Ġdownward":6552,"Ġeconomics":6553,"Ġinsider":6554,"erton":6555,"Ġdefe":6556,"ogg":6557,"Ġholder":6558,"Ġstead":6559,"Ġsurplus":6560,"Ġdelta":6561,"Ġcredibility":6562,"Ġcheaper":6563,"priced":6564,"Ġhelps":6565,"Ġlegit":6566,"Ġrequiring":6567,"Ġterr":6568,"Ġturnover":6569,"Ġhandful":6570,"Ġfactory":6571,"Ġrisen":6572,"nedy":6573,"intel":6574,"Ġlatin":6575,"Ġsubsidies":6576,"Ġcharging":6577,"Ġviewed":6578,"Ġindicating":6579,"claim":6580,"Ġconvicted":6581,"Ġdrew":6582,"Ġprojections":6583,"Ġvegas":6584,"Ġdifficulties":6585,"ortunately":6586,"Ġwalk":6587,"idelity":6588,"investment":6589,"letter":6590,"Ġmessrs":6591,"aska":6592,"Ġscram":6593,"Ġrecommended":6594,"Ġsciences":6595,"Ġmercantile":6596,"Ġduties":6597,"Ġplastics":6598,"Ġmartin":6599,"Ġcamb":6600,"Ġcreative":6601,"ruption":6602,"Ġappreciation":6603,"ertsilae":6604,"Ġreluctant":6605,"public":6606,"Ġkennedy":6607,"Ġfreddie":6608,"Ġlufkin":6609,"Ġpowers":6610,"Ġabortions":6611,"Ġcrucial":6612,"coupon":6613,"Ġzealand":6614,"Ġsatellite":6615,"24":6616,"28":6617,"57":6618,"94":6619,"97":6620,"east":6621,"fel":6622,"fire":6623,"gets":6624,"iqu":6625,"key":6626,"mail":6627,"national":6628,"nival":6629,"person":6630,"zed":6631,"Ġtire":6632,"Ġsons":6633,"erry":6634,"Ġband":6635,"Ġbuck":6636,"Ġmel":6637,"Ġmul":6638,"Ġmuse":6639,"atically":6640,"Ġwcrs":6641,"Ġpays":6642,"Ġpiec":6643,"Ġfda":6644,"Ġfbi":6645,"Ġinnov":6646,"ishes":6647,"rog":6648,"ione":6649,"Ġles":6650,"Ġlies":6651,"Ġlists":6652,"Ġlung":6653,"oma":6654,"Ġgn":6655,"Ġstim":6656,"Ġstone":6657,"Ġstood":6658,"Ġcompre":6659,"ocal":6660,"Ġalumin":6661,"ulous":6662,"Ġvary":6663,"Ġunn":6664,"Ġunw":6665,"andhi":6666,"Ġsport":6667,"Ġplat":6668,"Ġplays":6669,"Ġplenty":6670,"Ġseidman":6671,"Ġkilled":6672,"Ġexpend":6673,"Ġexpire":6674,"Ġweather":6675,"Ġmont":6676,"Ġreserv":6677,"Ġcohen":6678,"Ġrecovered":6679,"Ġdiscontin":6680,"Ġbusy":6681,"Ġotherwise":6682,"Ġallies":6683,"Ġdecre":6684,"Ġimag":6685,"Ġ81":6686,"Ġnobody":6687,"Ġassumption":6688,"Ġovernight":6689,"Ġaccident":6690,"Ġscience":6691,"kefell":6692,"Ġmaynard":6693,"Ġmoon":6694,"Ġends":6695,"ksamer":6696,"Ġblow":6697,"Ġblamed":6698,"Ġ1995":6699,"Ġdiscour":6700,"Ġdiscrimin":6701,"Ġbacking":6702,"Ġremic":6703,"Ġsheet":6704,"roller":6705,"Ġdelmed":6706,"Ġdeleg":6707,"Ġdivided":6708,"Ġadvers":6709,"Ġdevelopments":6710,"Ġphoenix":6711,"Ġcredits":6712,"Ġdealings":6713,"Ġdepartments":6714,"Ġassociate":6715,"Ġpostp":6716,"Ġfamous":6717,"Ġjudg":6718,"Ġthinking":6719,"Ġgermans":6720,"Ġfalls":6721,"Ġpressures":6722,"Ġhardly":6723,"Ġindication":6724,"Ġproductivity":6725,"Ġfreeway":6726,"Ġnegotiated":6727,"Ġteams":6728,"Ġideas":6729,"Ġtelling":6730,"Ġparticipation":6731,"colm":6732,"consum":6733,"Ġresponded":6734,"Ġspeak":6735,"Ġballoon":6736,"Ġcomparison":6737,"Ġselected":6738,"Ġcards":6739,"Ġabsol":6740,"Ġrefinery":6741,"Ġtiming":6742,"Ġleaves":6743,"Ġcandidate":6744,"Ġwitter":6745,"Ġaggressively":6746,"Ġcalculated":6747,"Ġdonaldson":6748,"Ġacknowledged":6749,"ographic":6750,"Ġcrowd":6751,"Ġjacob":6752,"Ġcomplaints":6753,"Ġticket":6754,"Ġmarcos":6755,"Ġobvious":6756,"Ġconflict":6757,"Ġoptimistic":6758,"Ġbikes":6759,"Ġdramatic":6760,"Ġautomobile":6761,"iegel":6762,"Ġvirginia":6763,"Ġapproximately":6764,"kefeller":6765,"100":6766,"63":6767,"91":6768,"cas":6769,"har":6770,"ores":6771,"says":6772,"tical":6773,"troller":6774,"yard":6775,"Ġice":6776,"Ġaw":6777,"iner":6778,"Ġsi":6779,"Ġom":6780,"Ġowed":6781,"Ġbed":6782,"Ġboren":6783,"Ġpath":6784,"edy":6785,"around":6786,"Ġdod":6787,"Ġdiam":6788,"Ġlearn":6789,"Ġlilly":6790,"Ġthrow":6791,"Ġreop":6792,"Ġnick":6793,"Ġgandhi":6794,"econom":6795,"eling":6796,"elect":6797,"Ġforms":6798,"urities":6799,"Ġron":6800,"Ġrare":6801,"Ġash":6802,"Ġaside":6803,"Ġcompaq":6804,"Ġcomptroller":6805,"Ġshake":6806,"Ġshape":6807,"Ġjol":6808,"osh":6809,"Ġalbert":6810,"ulating":6811,"Ġ225":6812,"Ġmarked":6813,"Ġpled":6814,"ope":6815,"Ġkodak":6816,"Ġcoors":6817,"Ġreck":6818,"Ġboy":6819,"Ġoutcome":6820,"Ġ86":6821,"Ġbrid":6822,"Ġfee":6823,"Ġinterbank":6824,"Ġdrilling":6825,"Ġminne":6826,"issue":6827,"Ġcapped":6828,"Ġbeth":6829,"Ġregistered":6830,"Ġtakeovers":6831,"Ġproved":6832,"Ġcontras":6833,"Ġremarks":6834,"Ġleads":6835,"Ġrelative":6836,"Ġknew":6837,"Ġfarmer":6838,"apping":6839,"Ġcleared":6840,"Ġswap":6841,"Ġmaine":6842,"Ġtotally":6843,"Ġtechnique":6844,"Ġrevive":6845,"Ġoppose":6846,"Ġwriter":6847,"Ġbarney":6848,"Ġshortly":6849,"Ġpromises":6850,"Ġmotion":6851,"Ġprivat":6852,"Ġltv":6853,"Ġcollateral":6854,"Ġhoping":6855,"Ġconsideration":6856,"Ġactivists":6857,"Ġpackages":6858,"Ġwaertsilae":6859,"maker":6860,"Ġhappens":6861,"Ġdiscussing":6862,"Ġyounger":6863,"Ġfox":6864,"Ġoccup":6865,"Ġreplaced":6866,"Ġaudit":6867,"Ġpromote":6868,"Ġhomeless":6869,"Ġdeaths":6870,"Ġturb":6871,"Ġoriginally":6872,"Ġpremiums":6873,"Ġcommodities":6874,"Ġcriticized":6875,"Ġunfair":6876,"Ġabsor":6877,"Ġracket":6878,"Ġprecious":6879,"ooth":6880,"warner":6881,"Ġsearch":6882,"Ġpenalties":6883,"Ġrandom":6884,"Ġinquiry":6885,"Ġbartlett":6886,"Ġcasualty":6887,"Ġdiplom":6888,"Ġdaiwa":6889,"Ġbehavior":6890,"Ġprinting":6891,"Ġtelegraph":6892,"Ġgyrations":6893,"Ġminneapolis":6894,"96":6895,"\\*":6896,"ci":6897,"city":6898,"next":6899,"uations":6900,"Ġted":6901,"Ġavenue":6902,"Ġsanc":6903,"onent":6904,"Ġcum":6905,"Ġcincinnati":6906,"Ġoz":6907,"Ġoust":6908,"Ġbarely":6909,"itu":6910,"Ġfurn":6911,"alog":6912,"isys":6913,"Ġtox":6914,"icon":6915,"Ġly":6916,"Ġnichol":6917,"ethe":6918,"Ġstated":6919,"Ġstability":6920,"Ġstakes":6921,"lebor":6922,"lehem":6923,"owa":6924,"Ġrica":6925,"Ġwhit":6926,"Ġexhib":6927,"Ġshield":6928,"Ġjet":6929,"Ġjim":6930,"otton":6931,"ulative":6932,"anda":6933,"ectic":6934,"arel":6935,"Ġhaz":6936,"abor":6937,"agers":6938,"Ġadmitted":6939,"Ġsued":6940,"Ġbob":6941,"Ġbog":6942,"ria":6943,"Ġdecades":6944,"Ġpermission":6945,"Ġpresidential":6946,"Ġimposed":6947,"Ġsche":6948,"Ġscot":6949,"Ġstruck":6950,"Ġsubmitted":6951,"Ġfinancier":6952,"Ġmines":6953,"Ġcurb":6954,"ashing":6955,"Ġtheme":6956,"Ġsenator":6957,"Ġremove":6958,"Ġgrants":6959,"Ġgramm":6960,"Ġbelong":6961,"Ġmerksamer":6962,"Ġ2019":6963,"Ġcolon":6964,"Ġcolomb":6965,"Ġpublications":6966,"Ġedge":6967,"Ġraises":6968,"Ġturnaround":6969,"Ġhandled":6970,"iented":6971,"Ġrefuge":6972,"Ġdetroit":6973,"Ġwriting":6974,"Ġwalls":6975,"Ġrisky":6976,"Ġnegl":6977,"Ġteacher":6978,"Ġallows":6979,"Ġrestore":6980,"Ġsteelmakers":6981,"Ġbroader":6982,"class":6983,"Ġtestimony":6984,"Ġgreatest":6985,"Ġlegislators":6986,"Ġpackaging":6987,"within":6988,"Ġpotentially":6989,"Ġwinning":6990,"Ġdifficulty":6991,"Ġmichigan":6992,"Ġdiscussed":6993,"Ġburden":6994,"shearson":6995,"Ġconstitu":6996,"Ġmissing":6997,"Ġdocument":6998,"Ġprojected":6999,"Ġsuspension":7000,"Ġfeeling":7001,"Ġsuffer":7002,"Ġparticipate":7003,"Ġexcluding":7004,"Ġjoining":7005,"going":7006,"Ġplea":7007,"Ġdetailed":7008,"Ġrequested":7009,"Ġholiday":7010,"Ġpetrochemical":7011,"Ġresolved":7012,"Ġpresented":7013,"omingdale":7014,"Ġencouraged":7015,"Ġinjuries":7016,"Ġbitter":7017,"Ġexceeded":7018,"Ġfeatures":7019,"Ġcontroversy":7020,"Ġdefinitive":7021,"controlled":7022,"capital":7023,"Ġscreen":7024,"Ġassumed":7025,"Ġrailroad":7026,"Ġhenry":7027,"canada":7028,"Ġmainframes":7029,"Ġinvolvement":7030,"Ġpenalty":7031,"Ġfalse":7032,"Ġreferring":7033,"Ġodd":7034,"Ġcategory":7035,"Ġrescue":7036,"cutting":7037,"Ġoutlets":7038,"Ġconspir":7039,"Ġveteran":7040,"Ġrallied":7041,"Ġspanish":7042,"Ġcycl":7043,"Ġstraight":7044,"Ġchecks":7045,"Ġindictment":7046,"Ġpinkerton":7047,"leborg":7048,"78":7049,"800":7050,"98":7051,"del":7052,"dist":7053,"disc":7054,"growing":7055,"hal":7056,"hmer":7057,"half":7058,"ka":7059,"kur":7060,"mic":7061,"mill":7062,"nett":7063,"pass":7064,"rum":7065,"rance":7066,"rick":7067,"somet":7068,"tok":7069,"Ġtay":7070,"Ġtuc":7071,"Ġtone":7072,"Ġawa":7073,"inner":7074,"Ġsong":7075,"Ġther":7076,"Ġcro":7077,"Ġboun":7078,"Ġmale":7079,"itures":7080,"Ġfi":7081,"Ġfet":7082,"alian":7083,"Ġdimin":7084,"Ġanth":7085,"ils":7086,"icop":7087,"Ġhond":7088,"Ġlire":7089,"Ġeat":7090,"ete":7091,"Ġga":7092,"Ġgau":7093,"acre":7094,"iration":7095,"Ġcongl":7096,"through":7097,"cean":7098,"oting":7099,"union":7100,"oco":7101,"Ġtrain":7102,"ulner":7103,"Ġcharter":7104,"Ġvulner":7105,"Ġuncon":7106,"Ġunpre":7107,"abortion":7108,"ellogg":7109,"ags":7110,"Ġspill":7111,"oded":7112,"udman":7113,"Ġleverage":7114,"Ġlewis":7115,"Ġintense":7116,"Ġrepurchase":7117,"Ġnoting":7118,"sov":7119,"oked":7120,"Ġsoybe":7121,"Ġapparel":7122,"Ġ84":7123,"awa":7124,"Ġ79":7125,"Ġsomebody":7126,"Ġpartial":7127,"Ġfrust":7128,"Ġfrag":7129,"mrs":7130,"Ġconsent":7131,"Ġbusinessmen":7132,"Ġanybody":7133,"Ġcrus":7134,"Ġcapt":7135,"Ġcapit":7136,"erted":7137,"ogether":7138,"Ġacting":7139,"Ġtransform":7140,"white":7141,"Ġremark":7142,"Ġlongtime":7143,"Ġfinancially":7144,"Ġboards":7145,"Ġstepped":7146,"Ġwarren":7147,"Ġmerge":7148,"Ġbidders":7149,"istration":7150,"Ġrealized":7151,"Ġshowtime":7152,"Ġelectrical":7153,"Ġemployer":7154,"Ġcontrolling":7155,"Ġcontractor":7156,"neither":7157,"Ġmemories":7158,"rette":7159,"Ġeverybody":7160,"Ġcommittees":7161,"Ġschol":7162,"Ġstudying":7163,"athan":7164,"atories":7165,"Ġimported":7166,"def":7167,"Ġstrategist":7168,"Ġmidwest":7169,"Ġfounded":7170,"Ġclearing":7171,"Ġslowed":7172,"cohol":7173,"Ġindicators":7174,"Ġharvard":7175,"Ġcharities":7176,"Ġpanam":7177,"Ġgotten":7178,"Ġauthorized":7179,"Ġargues":7180,"Ġemerging":7181,"Ġhappy":7182,"Ġdeny":7183,"Ġdisclosure":7184,"Ġbreaking":7185,"Ġtells":7186,"Ġpounds":7187,"Ġunsuccess":7188,"Ġstrengthe":7189,"companies":7190,"Ġpartnerships":7191,"Ġstarts":7192,"Ġentirely":7193,"Ġcasino":7194,"Ġsucceeding":7195,"Ġunders":7196,"Ġanticipation":7197,"Ġeyes":7198,"Ġdispos":7199,"Ġdisappointed":7200,"Ġeliminated":7201,"Ġtransferred":7202,"Ġnomura":7203,"Ġesc":7204,"second":7205,"small":7206,"Ġrockefeller":7207,"Ġconcentrate":7208,"Ġdangerous":7209,"corporate":7210,"Ġspeculators":7211,"Ġbolster":7212,"Ġbargain":7213,"Ġanimal":7214,"Ġgalileo":7215,"Ġalexander":7216,"Ġscenario":7217,"Ġemphasis":7218,"richard":7219,"Ġsqueeze":7220,"Ġdiscipline":7221,"Ġdurable":7222,"performing":7223,"Ġdegree":7224,"Ġplummeted":7225,"Ġjenrette":7226,"processing":7227,"Ġpieces":7228,"Ġgnp":7229,"Ġcomprehensive":7230,"Ġaluminum":7231,"Ġrackete":7232,"etheless":7233,"Ġtaylor":7234,"Ġconglom":7235,"39":7236,"72":7237,"bread":7238,"hy":7239,"iere":7240,"lusion":7241,"made":7242,"page":7243,"pective":7244,"sa":7245,"uard":7246,"uition":7247,"Ġtack":7248,"Ġtact":7249,"Ġtiger":7250,"inas":7251,"real":7252,"Ġcry":7253,"Ġblin":7254,"Ġbread":7255,"Ġbaby":7256,"Ġmyst":7257,"Ġmips":7258,"atz":7259,"Ġwire":7260,"Ġpione":7261,"iti":7262,"Ġfas":7263,"Ġfost":7264,"Ġfidelity":7265,"Ġdal":7266,"ionally":7267,"ilton":7268,"Ġhits":7269,"Ġlor":7270,"Ġnu":7271,"Ġupper":7272,"Ġitalian":7273,"leading":7274,"igible":7275,"Ġprobe":7276,"sey":7277,"Ġrural":7278,"Ġnev":7279,"octo":7280,"Ġvig":7281,"Ġwash":7282,"andy":7283,"Ġacres":7284,"alled":7285,"iston":7286,"Ġspiel":7287,"uder":7288,"Ġleban":7289,"Ġexpiration":7290,"Ġgov":7291,"Ġrow":7292,"Ġroy":7293,"Ġreset":7294,"Ġcovers":7295,"acks":7296,"Ġ450":7297,"Ġouts":7298,"Ġdisney":7299,"Ġdisasters":7300,"Ġmanip":7301,"Ġsecure":7302,"Ġimf":7303,"Ġproduces":7304,"Ġbright":7305,"Ġlots":7306,"Ġconsort":7307,"Ġpermitted":7308,"Ġpermit":7309,"Ġimplement":7310,"Ġscene":7311,"Ġpolish":7312,"Ġattached":7313,"strong":7314,"lining":7315,"Ġcurt":7316,"Ġslower":7317,"Ġsmooth":7318,"Ġfled":7319,"amped":7320,"Ġremember":7321,"Ġspecified":7322,"Ġgrab":7323,"Ġdonations":7324,"itsu":7325,"Ġnortheast":7326,"Ġknight":7327,"print":7328,"Ġnewsletter":7329,"insky":7330,"Ġstreets":7331,"Ġevans":7332,"Ġreceipts":7333,"Ġmaintained":7334,"proceeds":7335,"Ġjudicial":7336,"Ġfactories":7337,"spons":7338,"empts":7339,"Ġimportance":7340,"ennis":7341,"Ġextensive":7342,"friday":7343,"Ġcompletely":7344,"Ġsolution":7345,"Ġcampbell":7346,"Ġexplos":7347,"Ġobtained":7348,"Ġ1972":7349,"ikh":7350,"Ġgreatly":7351,"Ġlaboratories":7352,"Ġdeliber":7353,"Ġquotations":7354,"Ġdevast":7355,"Ġimprovements":7356,"Ġadjustments":7357,"Ġvisitors":7358,"Ġclasses":7359,"Ġrebels":7360,"Ġelectricity":7361,"Ġattracted":7362,"Ġphilos":7363,"Ġgiul":7364,"Ġchoose":7365,"operating":7366,"Ġcopies":7367,"Ġperspective":7368,"Ġborrowed":7369,"Ġresolve":7370,"Ġsweeping":7371,"building":7372,"Ġwatched":7373,"Ġmalcolm":7374,"Ġallegedly":7375,"Ġpredicting":7376,"Ġinventory":7377,"486":7378,"Ġiii":7379,"Ġwithdrawal":7380,"service":7381,"Ġhorse":7382,"Ġachieve":7383,"Ġassuming":7384,"keley":7385,"Ġstruggling":7386,"besides":7387,"Ġswitch":7388,"author":7389,"Ġaspects":7390,"Ġmonitoring":7391,"Ġstevens":7392,"Ġtools":7393,"Ġdoctor":7394,"Ġdoctors":7395,"Ġtennes":7396,"Ġmobil":7397,"Ġsubscribers":7398,"Ġdisease":7399,"digital":7400,"Ġconsequences":7401,"Ġterrorism":7402,"Ġadequate":7403,"Ġakzo":7404,"currently":7405,"nevertheless":7406,"Ġsurrounding":7407,"Ġklein":7408,"ecticut":7409,"Ġcapitol":7410,"Ġconglomerate":7411,"october":7412,"31":7413,"51":7414,"best":7415,"bors":7416,"dtv":7417,"gold":7418,"lleborg":7419,"mat":7420,"mood":7421,"mosp":7422,"pat":7423,"power":7424,"rating":7425,"sector":7426,"total":7427,"vas":7428,"viously":7429,"whel":7430,"Ġtank":7431,"Ġtail":7432,"Ġtiny":7433,"inal":7434,"inced":7435,"het":7436,"Ġsky":7437,"Ġsitting":7438,"recent":7439,"Ġcul":7440,"Ġcamer":7441,"Ġcattle":7442,"Ġba":7443,"Ġboss":7444,"Ġborn":7445,"Ġbreat":7446,"Ġwages":7447,"Ġfired":7448,"Ġfiat":7449,"oria":7450,"aroid":7451,"Ġdual":7452,"icom":7453,"ician":7454,"stone":7455,"idav":7456,"eck":7457,"add":7458,"lyn":7459,"Ġbea":7460,"sem":7461,"Ġcompound":7462,"Ġwhatever":7463,"Ġshap":7464,"Ġshock":7465,"Ġatmosp":7466,"aked":7467,"Ġunions":7468,"chair":7469,"Ġincident":7470,"umed":7471,"Ġhastings":7472,"ager":7473,"Ġspar":7474,"Ġlean":7475,"Ġleap":7476,"Ġleasing":7477,"Ġagend":7478,"Ġexpires":7479,"ouri":7480,"Ġindications":7481,"ghan":7482,"Ġnotice":7483,"acters":7484,"soft":7485,"exc":7486,"erald":7487,"avor":7488,"Ġaccomm":7489,"Ġamex":7490,"Ġstring":7491,"Ġanyway":7492,"Ġcra":7493,"Ġcrimes":7494,"Ġplane":7495,"Ġdraft":7496,"Ġattempts":7497,"etti":7498,"Ġdowntown":7499,"Ġeconomies":7500,"Ġdepends":7501,"Ġprogramming":7502,"Ġtaxable":7503,"Ġflaw":7504,"Ġdebts":7505,"fty":7506,"Ġsupplier":7507,"ibb":7508,"Ġgrace":7509,"typ":7510,"Ġdelaware":7511,"others":7512,"Ġadvised":7513,"Ġentit":7514,"Ġcolgate":7515,"Ġedel":7516,"Ġedged":7517,"Ġmanages":7518,"Ġapproached":7519,"Ġtrelleborg":7520,"Ġreductions":7521,"Ġposts":7522,"Ġaffidav":7523,"Ġopponents":7524,"Ġwright":7525,"ynolds":7526,"Ġsupporting":7527,"Ġaviation":7528,"Ġportray":7529,"Ġmilk":7530,"Ġpointed":7531,"Ġmagnet":7532,"Ġfailures":7533,"Ġarticles":7534,"Ġconsiderably":7535,"Ġdropping":7536,"Ġexplan":7537,"Ġ1973":7538,"Ġcharity":7539,"Ġlegislature":7540,"Ġrestructure":7541,"Ġpackwood":7542,"Ġboosting":7543,"Ġlisten":7544,"Ġsentiment":7545,"Ġsubstitut":7546,"echan":7547,"Ġtypical":7548,"Ġera":7549,"Ġadjustable":7550,"Ġviolation":7551,"Ġurging":7552,"Ġstructures":7553,"downs":7554,"Ġkids":7555,"Ġseparately":7556,"bonds":7557,"court":7558,"Ġfavorite":7559,"Ġdiscounting":7560,"Ġpleaded":7561,"Ġsocialist":7562,"Ġseasonally":7563,"Ġpersist":7564,"Ġversions":7565,"Ġpicked":7566,"Ġgrounds":7567,"Ġbloomingdale":7568,"Ġrobust":7569,"Ġhospitals":7570,"ceptions":7571,"Ġfunction":7572,"Ġhamm":7573,"Ġreplacement":7574,"Ġtourists":7575,"Ġaccomp":7576,"Ġaccompl":7577,"Ġdeduct":7578,"Ġsurprisingly":7579,"Ġincentive":7580,"Ġconversion":7581,"Ġassessment":7582,"Ġrespectively":7583,"ohl":7584,"Ġdiluted":7585,"Ġconsistently":7586,"Ġsupervis":7587,"Ġmcdonald":7588,"Ġfabric":7589,"Ġacademic":7590,"Ġmentioned":7591,"Ġbirth":7592,"Ġentrepreneur":7593,"Ġdynamics":7594,"Ġplaintiffs":7595,"Ġmuseum":7596,"Ġdiamond":7597,"Ġbridges":7598,"Ġscheme":7599,"soviet":7600,"Ġpanamanian":7601,"ikhail":7602,"Ġgiuliani":7603,"Ġtennessee":7604,"moody":7605,"Ġaccommod":7606,"300":7607,"41":7608,"71":7609,"burn":7610,"dep":7611,"ez":7612,"eper":7613,"gged":7614,"hic":7615,"jects":7616,"low":7617,"mor":7618,"mid":7619,"non":7620,"ox":7621,"oil":7622,"oitt":7623,"rates":7624,"rative":7625,"san":7626,"sun":7627,"system":7628,"va":7629,"vogel":7630,"yers":7631,"Ġaides":7632,"inct":7633,"Ġsectors":7634,"onc":7635,"Ġbases":7636,"Ġbacter":7637,"Ġmd":7638,"Ġmission":7639,"Ġmechan":7640,"Ġmikhail":7641,"Ġpas":7642,"Ġpour":7643,"Ġfert":7644,"Ġfault":7645,"already":7646,"inge":7647,"Ġtoug":7648,"Ġanton":7649,"Ġhire":7650,"Ġhiring":7651,"Ġlbo":7652,"Ġeasing":7653,"style":7654,"eton":7655,"Ġgil":7656,"Ġgir":7657,"thes":7658,"Ġstal":7659,"Ġforg":7660,"Ġforfe":7661,"estimated":7662,"Ġrational":7663,"Ġrush":7664,"Ġalcohol":7665,"Ġtruth":7666,"Ġchosen":7667,"Ġven":7668,"iful":7669,"Ġmarina":7670,"Ġnewport":7671,"emper":7672,"empl":7673,"Ġkent":7674,"Ġkenn":7675,"Ġagrees":7676,"Ġintention":7677,"Ġcoke":7678,"Ġpreced":7679,"former":7680,"Ġ74":7681,"Ġ78":7682,"Ġbruss":7683,"Ġenable":7684,"Ġfruit":7685,"liers":7686,"eywell":7687,"Ġoverwhel":7688,"Ġarthur":7689,"Ġliabilities":7690,"Ġusa":7691,"assy":7692,"Ġworkst":7693,"Ġiowa":7694,"Ġunderst":7695,"Ġ91":7696,"Ġplanner":7697,"Ġmah":7698,"Ġinteresting":7699,"issance":7700,"Ġattribut":7701,"Ġdepressed":7702,"Ġpayroll":7703,"Ġ155":7704,"ixon":7705,"flot":7706,"Ġvalu":7707,"Ġbelief":7708,"Ġdeloitt":7709,"Ġreality":7710,"Ġ111":7711,"Ġentry":7712,"Ġempire":7713,"Ġvolunt":7714,"Ġconfront":7715,"Ġreportedly":7716,"azy":7717,"Ġcomplaint":7718,"lands":7719,"Ġforeigners":7720,"Ġhalted":7721,"gery":7722,"Ġrestricted":7723,"Ġuseful":7724,"Ġantar":7725,"Ġprotected":7726,"Ġcollect":7727,"Ġfailing":7728,"Ġcommissioner":7729,"Ġbudgets":7730,"Ġsolutions":7731,"Ġfinds":7732,"Ġexplains":7733,"Ġmeasured":7734,"Ġobst":7735,"Ġcharacters":7736,"Ġlaboratory":7737,"Ġrepresentative":7738,"without":7739,"Ġconviction":7740,"Ġconvinced":7741,"Ġacceptance":7742,"Ġfloating":7743,"Ġconverted":7744,"Ġcirculation":7745,"Ġerr":7746,"Ġadjustment":7747,"Ġideal":7748,"Ġindependence":7749,"Ġmissouri":7750,"Ġrepublic":7751,"Ġfueled":7752,"Ġfocused":7753,"Ġclimate":7754,"Ġpolls":7755,"Ġfranklin":7756,"Ġpleased":7757,"Ġseriously":7758,"Ġnecessarily":7759,"Ġrequests":7760,"Ġsurveyed":7761,"Ġprosecutor":7762,"Ġbike":7763,"Ġrespondents":7764,"eroflot":7765,"Ġrumored":7766,"Ġberkeley":7767,"Ġinjured":7768,"Ġintellect":7769,"Ġvermont":7770,"peter":7771,"Ġwindow":7772,"Ġadopt":7773,"Ġappointment":7774,"Ġsandinist":7775,"Ġrecognition":7776,"Ġperformed":7777,"Ġdominated":7778,"Ġrelationships":7779,"Ġdefinition":7780,"Ġdiversified":7781,"Ġapartment":7782,"Ġcolorado":7783,"Ġcoalition":7784,"Ġrebounded":7785,"Ġstruggle":7786,"Ġconcedes":7787,"Ġbureaucracy":7788,"Ġodds":7789,"Ġrolling":7790,"developed":7791,"calif":7792,"Ġenhance":7793,"Ġwarsaw":7794,"Ġmultiple":7795,"Ġtoyota":7796,"Ġcatastrophic":7797,"Ġunveiled":7798,"Ġstretch":7799,"Ġpersuade":7800,"government":7801,"Ġpuerto":7802,"Ġflexibility":7803,"Ġdatap":7804,"Ġhooker":7805,"Ġimperial":7806,"Ġcarpenter":7807,"Ġemotional":7808,"Ġtreasurer":7809,"takeover":7810,"Ġprofessionals":7811,"Ġcowbo":7812,"feld":7813,"Ġabsolut":7814,"Ġjacobson":7815,"Ġconspiracy":7816,"Ġracketeering":7817,"Ġspielvogel":7818,"Ġbrussels":7819,"Ġdeloitte":7820,"21":7821,"54":7822,"81":7823,"93":7824,"aik":7825,"bb":7826,"cter":7827,"cbs":7828,"fall":7829,"fman":7830,"fortunately":7831,"hous":7832,"lu":7833,"lim":7834,"luster":7835,"mons":7836,"math":7837,"name":7838,"ps":7839,"Ġty":7840,"Ġaver":7841,"Ġaft":7842,"inated":7843,"inte":7844,"heuser":7845,"Ġsid":7846,"Ġshed":7847,"rell":7848,"erly":7849,"Ġcere":7850,"Ġcup":7851,"Ġcotton":7852,"Ġocean":7853,"Ġbes":7854,"Ġbic":7855,"Ġbou":7856,"Ġbour":7857,"Ġment":7858,"Ġmol":7859,"athe":7860,"Ġwpp":7861,"Ġwach":7862,"Ġwider":7863,"Ġpig":7864,"Ġpork":7865,"itely":7866,"Ġfan":7867,"Ġfargo":7868,"oriented":7869,"arity":7870,"Ġinner":7871,"Ġineff":7872,"rous":7873,"Ġhdtv":7874,"Ġlar":7875,"Ġthanks":7876,"Ġrely":7877,"Ġreynolds":7878,"star":7879,"Ġnest":7880,"Ġnurs":7881,"eted":7882,"Ġgolf":7883,"theid":7884,"ersh":7885,"igel":7886,"ima":7887,"ucky":7888,"Ġcomponents":7889,"Ġhes":7890,"Ġexche":7891,"Ġexception":7892,"aming":7893,"Ġshore":7894,"unlike":7895,"Ġali":7896,"Ġchart":7897,"Ġunp":7898,"Ġ2000":7899,"emex":7900,"Ġabuse":7901,"agram":7902,"Ġkab":7903,"Ġkilling":7904,"Ġkatz":7905,"Ġroger":7906,"Ġrosen":7907,"Ġcoop":7908,"Ġupward":7909,"Ġupham":7910,"Ġboes":7911,"Ġdisrupt":7912,"rik":7913,"Ġallied":7914,"Ġallianz":7915,"izable":7916,"away":7917,"lov":7918,"load":7919,"Ġuser":7920,"Ġaftermath":7921,"Ġstrict":7922,"Ġoperational":7923,"Ġfederation":7924,"Ġgenev":7925,"Ġ96":7926,"Ġcray":7927,"Ġdriven":7928,"Ġretained":7929,"Ġowning":7930,"Ġminute":7931,"issipp":7932,"Ġattended":7933,"Ġexecution":7934,"Ġworries":7935,"Ġ1997":7936,"Ġbackground":7937,"Ġpublish":7938,"Ġefficiency":7939,"who":7940,"Ġevening":7941,"Ġparamount":7942,"Ġbelg":7943,"Ġmerged":7944,"Ġchem":7945,"cedented":7946,"Ġpublication":7947,"Ġaffecting":7948,"Ġmature":7949,"Ġmatching":7950,"rett":7951,"Ġmci":7952,"Ġlowest":7953,"Ġgenerated":7954,"phil":7955,"frank":7956,"Ġsole":7957,"Ġsolicit":7958,"Ġslowly":7959,"Ġinformed":7960,"Ġfindings":7961,"Ġharm":7962,"Ġharvest":7963,"Ġmassage":7964,"Ġtesting":7965,"Ġ240":7966,"Ġformally":7967,"Ġviacom":7968,"bitious":7969,"Ġconstruct":7970,"Ġglas":7971,"Ġrichmond":7972,"Ġtvs":7973,"Ġarguments":7974,"Ġredemption":7975,"Ġsuperior":7976,"Ġhappening":7977,"Ġutah":7978,"markets":7979,"Ġpainting":7980,"Ġclassic":7981,"Ġmississipp":7982,"Ġkinds":7983,"Ġbanned":7984,"Ġprepare":7985,"Ġfocusing":7986,"Ġprospective":7987,"Ġchristopher":7988,"Ġmicrop":7989,"Ġspeaker":7990,"Ġhonor":7991,"production":7992,"Ġsegments":7993,"finally":7994,"Ġcatalog":7995,"Ġnasa":7996,"Ġrubber":7997,"Ġcleanup":7998,"Ġreaching":7999}